#version: 0.2
n i
Ġ p
Ġ w
i e
o w
Å Ĥ
s t
Ġ z
z e
n a
c h
Ä ħ
Ġ o
Ã ³
ni e
r a
Ġ d
Ä Ļ
Ġ s
c z
n e
Å ¼
r o
n y
Å Ľ
ni a
Ġp o
a r
Ġ i
Ġ k
g o
Ġ t
r ze
Ġ u
Ġ na
Ġ m
l i
z y
j e
r e
i a
Ã³ w
Ġz a
ow a
Ġd o
d z
st a
l e
k a
c i
Ġ 1
Ġw y
o r
d a
ÅĤ a
w a
m i
Ġp rze
n o
k o
Ġ b
Ġ 2
c y
k u
c e
c j
Ġ P
k i
Ä ĩ
l a
e r
s z
t y
c ze
i ÄĻ
j Äħ
ny ch
Ġ a
Ġ S
Ġ je
ÅĽ ci
t a
Ġ W
ow y
Ġ (
r zy
Ġ nie
Ġ ro
ow e
Å¼ e
Ġo d
z a
r y
w o
â Ģ
m a
o n
l u
t u
t e
Å Ħ
Ġs p
k ie
e n
w ie
d y
Ġ r
cj i
Ġ2 0
j a
ÅĤ o
Ġ g
w i
cz y
ne go
Ġ K
Ġs iÄĻ
t Ã³
o d
c a
Ġ N
Ġ M
ne j
Ġk tÃ³
o s
r u
i s
Ġ Z
ÅĤ u
g a
c ie
dz ie
Ġ R
Ġp ra
Ġi n
Ġpo d
Ġp rzy
Ġ B
Ġ f
l o
Å¼ y
Ġ A
. .
Ġ st
o b
w y
Ġje st
Ġ lu
ÅĤ y
ar t
Ġ C
d u
Ġ D
Ġ O
Ġ âĢ
o m
ow i
Ġt e
Ġo b
k t
s p
ni u
Ġ I
Ġprze z
cz a
e m
Ġ U
ra z
k re
Ġlu b
s ze
w ia
m ie
Ġt y
Ġ T
Ġm a
no ÅĽci
Ġt o
Ġ ja
Ġm o
p a
ny m
Ġ re
dz i
Ġp ro
Ġ 3
Ã³ ÅĤ
Ġ1 9
Ġ20 1
ÅĽ Äĩ
ow ie
r z
u n
d ze
k Ã³w
b y
Ġ sta
Ġd z
s ki
Ġ ÅĽ
Ġ G
0 0
g i
Ġ e
Ġb y
owy ch
st ÄĻ
Ġro z
s kie
stÄĻ p
Ġu sta
Ġk o
s zy
a n
Ġ J
o sta
ow o
s i
cj a
Ġs z
p is
p o
e z
Ġ art
m u
Ġ Å¼e
da t
s a
owe j
n Äħ
Ġo raz
jÄħ cy
t o
Ġ L
e k
Ġ -
Ġ li
Ġm ie
Ġt a
owa nia
p ie
m o
owe go
cy j
ĠktÃ³ ry
s ka
Ġprze d
i n
p e
s ie
ĠP o
Ġ n
Ġd nia
c ia
r owa
d ni
jÄħ ce
Ġo s
Ġro ku
Ġ F
f i
c o
Ġpo z
Ġ 4
k ÅĤa
nie j
ĠâĢ ĵ
Ġ cz
t er
dz ia
ko na
Ġk on
Ġp a
Å º
Ġz osta
Ġ E
g u
Ġu st
st y
m en
s u
g ra
u d
m y
ni ka
Ġje d
z Äħ
ie r
Ġ20 0
Ġo kre
ĠktÃ³ re
a l
Ġs Äħ
b i
Ġsp ra
Ġ 5
Ġd la
r Ã³
z na
s y
cz o
cze nia
Ġk a
nie m
ty cz
Ġz e
i l
p ra
z u
ro d
t Ã³w
Ġ ce
ÅĤ Äħ
b li
ĠZ a
âĢ Ŀ
j ÄĻ
Ġ ni
ĠN a
p i
Ġd a
Ġ ch
n u
owi Äħ
Ġ H
Ġw ie
e j
Ġ ra
Ġdz ia
d nie
2 0
ĠâĢ ŀ
Ġ h
f or
sz a
Ġpo dat
Ġ czy
Ġusta wy
Ã³ l
o na
wia d
Ġ 6
p u
wi Äħ
Ġ go
s ÅĤu
dz a
w e
) .
Ġz na
Ġja ko
ÄĻ d
u r
cze g
Ġf i
ĠW y
u m
k ar
Ġty m
pa d
d e
st o
w ar
ra n
dze nia
Ġdzia ÅĤa
o ne
owy m
m ia
Ġp ow
j s
Ġs a
b o
) ,
Ġos ob
ch od
ÅĤ e
ni os
st wa
ni k
.. ..
o l
m Ã³w
k owa
Ġd e
Ġs y
k tu
Ġpod sta
er y
Ġpra w
r ga
b a
jÄħ c
t or
cz nych
mi o
Ġ la
Ġ 7
Ġsz czeg
c je
Ġw ÅĤa
Ã³ b
b ie
I E
kie m
Ġmo Å¼e
Ġokre ÅĽ
Ġsta n
a li
Ġna j
st ra
da w
n t
Ġ 8
s iÄĻ
Ġ co
Ġdz ie
owa nie
skie go
n s
Ġja k
no ÅĽÄĩ
p ÅĤa
Ġb ez
Ġ Å
Ġo rga
cze nie
Ġ le
r i
Ġr Ã³w
for ma
w Ã³
jÄħcy ch
or zy
Ġo f
o ÅĽci
Å¼ a
ĠJ e
skie j
20 1
j u
d o
Ġw sp
j i
s o
u bli
cj ÄĻ
p owie
e t
Ġprze pis
Ġza kre
Ġta k
Äħ ce
ĠI n
Ġu m
Ġ 9
ch o
Ġz wiÄħ
Ġ V
Ġg ru
Äħ cy
te m
Ġna le
p or
r ÄĻ
Ġcz ÄĻ
cz nej
cza s
Ġn r
o ny
Ġprzy pad
Ġ .
ni ÄĻ
e ÅĤ
Ġwy kona
dzie j
ĠP a
Ġm i
c t
Ġp kt
Ġmie js
g l
cz ne
Ġw o
Ġz go
ÅĤ Ã³w
ĠR a
ĠN r
ar dziej
Ġk om
Äħ d
l noÅĽci
Ġ1 0
n ÄĻ
Ġw z
Ġw e
Ġspra wie
p rze
k ty
Ġs kÅĤa
Ġw i
Ġpra c
wie r
ĠÅĽ rod
Ġ1 8
Ġp ubli
Ġd y
t ar
p rowa
da nia
n d
Ġz d
e l
Ġb ud
u je
cze ÅĦ
nie Å¼
Ġje go
Ġu sÅĤu
ez pie
c Ã³w
Ġp rowa
ĠM a
wa nia
ĠM i
t rzy
Ġsp o
od ar
mÃ³w ie
Ġp ier
Ġ19 9
d en
Ġm u
ny mi
Ġmo Å¼
ow Äħ
k Äħ
ÅĤÄħ cz
Ġby Äĩ
b ezpie
ĠR e
Ġte go
Ġob owiÄħ
g ro
ĠrÃ³w nieÅ¼
Ġw ar
Ġst os
Ġod powie
na ns
ku men
Ġjed no
. ,
ĠktÃ³ry ch
Ġi ch
za cji
Ġby ÅĤ
ÄĻ dzie
N I
Ġst ro
Ġ rze
ski m
b u
ki ch
Ġprzypad ku
Ġm ia
Ġpodsta wie
c u
pra w
Ġin forma
Ġw iÄĻ
Ġpo stÄĻp
Ġszczeg Ã³ÅĤ
Ġw nios
Ġs wo
sz ka
ĠK o
Ġu Å¼y
O W
er mi
cz nego
p re
ni stra
1 9
u ro
t owa
Ġa l
ni i
un k
ĠR o
Ġm e
ĠÅĽ wiad
jÄħce go
.. .
Ġb a
dze nie
Ġs ie
Ġz ar
i i
nie nia
Ġwy da
Ġo g
Ġ 0
Ġpo t
Ġz mia
w ca
a k
sp odar
ÅĽ li
Ġpra wa
Ġof er
Ġm owa
Ġ lo
l nego
te go
dz o
ĠC h
Ġ Ċ
n g
Ġ1 5
Ġ Â
Ġzakre sie
t ro
bi or
ski ch
ĠokreÅĽ lo
ĠP rze
ï ¿
ï¿ ½
ow ar
ia da
Ġza mÃ³wie
I I
d zy
Ġdo kumen
szy st
e c
Ġdo tycz
ĠK a
Ġf or
Ġ1 2
t i
Ġa d
Ġp la
ĠPo l
Ġpier w
Ġ ca
ĠS ta
Ġsz ko
ni kÃ³w
ci Äħ
Ġko sz
Ġre ali
Ġt ermi
Ġum owy
st em
Ġg dy
ma wia
Ġos Ã³b
Ġpra cy
d i
Ġw ska
cz Äħ
h e
Ġni Å¼
Ġmo g
l ar
Ġz ÅĤo
ĠszczegÃ³ÅĤ owo
Ã³ r
Ġ1 4
ow is
Ġza sa
p ÅĤy
Ġ1 1
Ġ cze
k ÄĻ
Å ģ
l ko
dzia ÅĤ
Ġ Å¼y
le ga
Ġp i
le j
ĠB ardziej
si Äħ
ma ga
Ġz w
ne k
ĠS p
Ġtak Å¼e
Ġb ÄĻdzie
z owa
ÅĤ on
d nia
Ã³ d
Ġna stÄĻp
l nych
ĠP ra
ĠN ie
ĠP ro
Ġnale Å¼y
ĠktÃ³ry m
ĠD o
ta ch
t k
re s
Ġw szyst
Ġ ry
ch a
le nia
kÅĤa d
h a
Ġp owie
Ġpodat ku
Ġgo spodar
Ġzosta ÅĤ
Ġwar un
st Äħ
A T
Ġsp os
s e
Ġm ar
ÅĽ wiad
Ġw a
t ra
ch ro
D z
Ġ ar
Ġwy k
Ġwy so
ĠD z
Ġa by
Ġpro du
li wo
Ġm iÄĻ
l ne
ÅĽ cie
t ni
te k
ty ch
.... ....
Ġro dzi
Ġje j
Ġorga ni
Ġst y
pis a
ie l
Ġ1 3
Ġpro je
z ku
st ru
fi ka
Ġsp Ã³ÅĤ
ĠczÄĻ ÅĽci
ka ch
Ġa le
Ġk ra
wie t
g e
Ġin ter
trzy ma
ĠwÅĤa ÅĽci
Ġ ,
Z E
Ġe le
sze j
re m
S T
Ġ1 6
st wo
p y
Ġw art
m e
rz ÄĻ
c Äħ
zy ska
Ġpo s
Ġg ra
Ġz ÅĤ
Ġsp rze
st w
ĠW ar
le nie
ko ny
ĠJ a
b ra
p ro
Ġ1 7
ĠÅ ļ
ĠusÅĤu g
ĠÂ §
Ġz m
Ġce lu
n ta
mi nistra
1 0
Ġczy n
o nych
ma ch
Å¼e li
i st
Ġzgo dnie
cz nie
Ġd ru
ne r
cze j
orzy sta
ki m
t rz
Ġpo mo
or y
mi s
st rze
ĠktÃ³re j
por zÄħ
Ġb i
Ġfi nans
ĠdziaÅĤa lnoÅĽci
Ġte j
Ġprzed mio
Ġpod mio
Ã³ Å¼
ĠA r
ra k
Äħcy ch
ch ni
Ġma jÄħ
sta n
cy z
ch om
Ġk wo
l nej
ka za
Ġmie szka
Ġd ro
owa Äĩ
ch wa
Ġla t
ĠzamÃ³wie nia
kie go
Ġ cza
r Ã³w
Ã³ Åº
ĠzwiÄħ za
Ġs k
Ã ĵ
Ġ X
ta ÅĤ
Ġin nych
ĠktÃ³ ra
Ġa u
Ġg mi
pe ÅĤ
ĠS z
Ġpro ce
Ġo ko
Ġsy stem
gra ni
f e
1 2
Ġwy maga
ob ie
Ġf a
Ġcz ÅĤon
na k
owa ne
Ġzna j
Ġty ch
Ġda nych
ru chom
Ġu dzie
ĠK on
no si
C H
Å¼e nia
l ni
ĠWy kona
Ġty tu
d no
2 00
Ġu wa
Ġk ar
re dni
sty tu
ÅĤu Å¼
t ÄĻ
Ġpodat k
Ġu zyska
Ġprac ow
ĠmiÄĻ dzy
szy m
owa niu
kie j
Ġp owi
sz Äħ
Ġka Å¼
Ġpa ÅĦ
t war
Ġt owar
Ġna z
Ġspo ÅĤe
ci u
ko daw
Ġ cy
Ġmog Äħ
n ku
sze go
cz ÄĻ
u l
t ru
R A
t h
or u
Ġwyso ko
c ÄĻ
in g
ta cji
ĠE uro
or zÄħ
ĠSp Ã³ÅĤ
Ġ3 0
Ġo p
m ery
Ġza wie
owa ny
re n
1 1
Ġcze r
s ÅĤa
sz cza
Ġo chro
Ġz ob
sta wi
cj Äħ
Ġty lko
lo gi
Ġg a
l ny
Ġza wo
Ġ201 5
00 0
Ġna d
Ġb ÄĻd
Ġo ce
sze nia
cyj nych
st e
o ÅĽÄĩ
w u
i m
owiÄħ za
Ġp re
ĠO d
Ġs u
k cji
Ġlo ka
Ġwy nika
Å¼e j
Ġza war
Ġ no
ĠwÅĤa s
Ġu bezpie
Ġst o
Ġp eÅĤ
Ġnie z
Ġ201 4
le m
cz ny
Ġszczeg Ã³l
Ġr Ã³Å¼
ĠM ar
cz nia
mu je
c k
a d
Ġspos Ã³b
w en
Ġjedno st
Ġk ie
g ÅĤo
w iÄĻ
r za
kt Ã³w
Ġwska za
sp o
szy ch
ka ÅĦ
nie sie
Ġde cyz
Ġ "
mie ni
A R
ĠL e
Ġf unk
Ġb u
pa da
st os
Ġna u
Ġsa mo
Ġbud ow
kt o
t owej
na ch
Ġ c
Ġnie ruchom
owa ÅĤ
Ġp ie
rz Äħ
Ġdo chod
b ud
Ġt en
nie nie
ar ze
Ġsprze da
ĠG mi
Ġp Ã³Åº
ĠP od
er s
jÄħce j
Ġ19 8
s k
Ġpra wo
p nia
Å¼ Äħ
cyj nego
wa ne
Ġprzed siÄĻ
Ġzosta ÅĤa
ter ia
Ġ [
w z
n Ã³w
Ġu zna
dat k
Ġra mach
Ġpos iada
Ġ201 3
Ġspra w
ĠL i
Z a
ĠpostÄĻp owania
g ie
ĠzwiÄħ zku
du je
Ġprzepis Ã³w
Ġsa m
ĠZa mawia
Ġosob y
r Äħ
rÃ³ d
ro ni
ni ct
i o
ĠRa dy
le Å¼
ĠW nios
czo nych
u ch
Ġwy kony
pe j
A N
Ġgru dnia
Ġzawie ra
ĠRo z
Ġ2 4
Ġ2 2
pe ra
Ġpro gra
Ġsty cznia
ÅĤ em
s ko
ÅĽ nia
N a
ow ia
Ġs ku
Ġpo li
Ġroz porzÄħ
Ġpo prze
wa Å¼
st er
Ġt re
1 5
cze ÅĽ
ÅĽ cia
an d
k sz
Å¼ o
Ġt ran
Ġele kt
sz u
d ÅĤu
Ġpodsta w
ĠmoÅ¼ na
ĠW o
âĢ ĵ
ko ÅĦ
ĠWar sza
Ġmiejs ce
Ġs er
R O
k ow
gl ÄĻ
Ġ2 5
Ġk wiet
ja z
Ġprze ci
r wa
Ġo zna
Ġd niu
ĠM o
Ġkon tro
âĢĿ .
liwo ÅĽci
da ÅĦ
pe w
Ġwsp Ã³l
Ġk la
sz ko
dzia ÅĤu
Ġli p
Ġmar ca
Åº dzie
f a
Ġg ÅĤÃ³w
ty w
l noÅĽÄĩ
ĠU S
ÅĤy ch
Ġw rze
czy ch
ĠI I
ow od
- -
Ġt rze
a m
Ġal bo
kt or
Ġu l
gu la
Ġwsp Ã³ÅĤ
Ġs ier
Ġsta nie
sta w
Ġpoz osta
sze nie
Ġp is
Ġu praw
Ġza mie
Ġinforma cji
Ġzar zÄħ
wÃ³ dz
Ġczer wca
cz na
wa nie
e ne
Ġswo je
Ġzd r
Ġad ministra
pis y
Ġ201 2
P o
Ġch o
Ġwy ro
ar y
Ġroz po
Ġsp eÅĤ
Ġpow od
Ġsp e
wa li
Ġstan owi
Ġwart oÅĽci
cze go
te j
Ġwy na
ka mi
Ġkwiet nia
je wÃ³dz
NI A
Ġrze cz
Ġw prowa
cz nym
h i
Ġby ÅĤa
Ġjed nak
Ġs ze
tu a
Ġt ra
Ġp ÅĤa
Ġ2 3
jÄħcy m
ce j
Ġje Å¼eli
Ġdotycz Äħce
Ġro dza
ĠB a
l nym
t ku
un du
mie niu
ĠÅĽrod kÃ³w
Ġs e
Ġ2 1
Åºdzie r
Ġwysoko ÅĽci
Ġp owy
Ġ201 6
Ġb ra
Ġlip ca
ĠD a
Ġ2 9
ĠP O
da nie
cyj ne
t nie
Ġzob owiÄħza
N E
Ġob ej
Ġ19 7
ĠWnios kodaw
Ġpa Åºdzier
cze niu
n owa
na d
ĠV AT
. [
Ġpo l
Ġpod czas
mery kaÅĦ
Ġnieruchom oÅĽci
p os
l nie
Ġfi r
Ġdo kona
M I
Ġw pÅĤy
1 8
Ġo pÅĤa
S K
C Z
Ġli sto
Ġ201 1
Ġd u
Ġli cz
czo ne
ĠprzedsiÄĻ bior
Ġo sta
Ġza ch
on Äħ
Ä Ħ
Ġo trzyma
ni ku
k tÃ³
1 3
ne m
cz noÅĽci
w em
Ġsier pnia
Ġpot rze
Ġ2 7
Ġi m
czy Äĩ
Ġsy tua
s ku
ĠT e
1 4
Ġokre s
Ġte le
Ġu chwa
O R
stÄħ pi
st u
nÄĻ trz
Ġ ju
Ġwrze ÅĽnia
Ġla tach
ĠsÄħ d
ÅĽ redni
A D
Ġch a
zu je
e w
Ġw raz
Ġreali zacji
g en
Ġza pew
Ġczyn noÅĽci
Ġp Ã³ÅĤ
Ġfi zy
na li
Ġna by
dÅĤu g
Ġby ÅĤo
o k
Ġs kar
Ġd ni
d ÅĤ
ar zÄħ
Ġ201 0
Ġsie dzi
Ġko lej
Ġpowi n
Ġo po
st wie
ry wa
Ġb ie
ĠF i
ch i
ĠC o
p l
t om
Å ļ
w cy
an k
Ġzosta ÅĤy
jÄħ ca
je dno
ĠD e
n ow
Ġf il
ĠpaÅºdzier nika
. )
Ġorgani za
Ġa k
pre ze
t w
Ġdo stÄĻp
Ġ2 6
Ġzawo d
Ġma ja
m niej
Ġza stos
Ġni niej
Ġin we
no c
ra b
Ġo k
ĠEuro pej
Ġpod lega
Ġpot wier
Ġprze prowa
ÅĤo Å¼
Ġo rze
Ġbudow la
W A
Ġp owo
Ġtytu ÅĤu
ob y
Ġlisto pada
Ġbu dy
je m
ĠS a
cze st
ta mi
ĠT o
Ġd ÅĤu
te n
Ġi Å¼
Ġpo da
go dnie
st ar
Ġst wier
ĠktÃ³re go
Ġstan owis
ĠT a
Ġpow sta
ar d
i um
N IE
Ġby ÅĤy
ni cy
ĠbÄĻd Äħ
Ġwnios ku
Ġprzeci w
G O
Ġk re
Ġo pie
cz nÄħ
Ġb o
Ġo grani
Ġe k
Ġte Å¼
Ġ19 6
ĠÅ ģ
Ġ czas
Ġog Ã³l
v e
N Y
la nd
ĠO b
ÅĤo ÅĽci
cj ona
owa nych
cyj nej
ĠS Äħd
Ġpo nie
Å¼e nie
Ġprzed stawi
za sa
u s
âĢ ¦
mie nia
la n
un ku
twar za
Ġte re
Ġk il
Ġt u
Ġko nie
âĢĿ ,
wa Äĩ
k ro
Ġstro ny
Ġ2 8
w nÄĻtrz
Ġ raz
s er
Ġodpowie dzia
ĠB o
h o
1 6
cyj ny
Ġ /
Ġ ciÄħ
Ġw w
ĠS t
t p
Ġprze wi
wy Å¼
Ġ201 7
Ġwy stÄĻp
mis ji
Ġob ec
mi ÄĻ
ĠA d
d ia
ĠGmi ny
z ie
ĠskÅĤa da
Ġma teria
ÅĤe go
mi n
i om
ĠS Äħ
g ÄĻ
t owych
1 7
owo ÅĽci
Ġob ro
Ġofer t
on u
ĠU ni
Ġa merykaÅĦ
Ġin ne
Ġz wo
Ġprowa dz
l na
Ġzmia ny
ĠJe st
kty w
Ġb ar
jÄħc Äħ
Ġtowar Ã³w
Ġ cie
Ġi st
Ġkosz tÃ³w
Ġlu tego
wiÄħ za
Ġs i
dzi Äĩ
W y
kto ra
Ġin dy
Ġo ÅĽwiad
Ġoko ÅĤo
Ġgo dzi
Ġpo mi
jÄĻ cia
s ÅĤ
Ãĵ W
Ġroz u
Ġstan owiÄħ
Ġk ry
wa ny
Ġwy b
Ġwyna gro
ĠPa ÅĦ
ery tor
ce nia
n tÃ³w
Ġ ci
Ġusta w
ĠM e
Ġz wy
b e
ĠD y
ÅĤÄħcz nik
Ġre je
ĠR ze
ĠM ie
dzi ÅĤ
Ġob sz
mi na
tu ra
ch y
C J
ze k
pra c
od ek
Ġwszyst kich
ĠK ra
w er
Ġza s
Ġwie ku
u t
Ġs ÅĤuÅ¼
Ġ200 9
l ie
Ġdy re
Ġ19 4
p od
cz ni
ĠZ jedno
Ġdecyz ji
t ne
Ġob ie
Ġw ol
r t
Ġcy wi
........ ........
ĠskÅĤa d
owy mi
Ġ ÅĤa
P rzy
Ġdo b
Ġte chni
Ġk orzysta
ÅĤÄħcz nie
ÅĤu dni
tu ry
ĠnastÄĻp u
ca ch
Ġinter ne
sze ch
N A
c ka
ĠW e
Ġog ÅĤo
pi ta
ĠrozporzÄħ dzenia
g niÄĻ
Ġbud Å¼e
Ġmiejs c
pu bli
Ġtermi nie
p er
t ki
O D
sz cze
i r
da ch
to ra
ĠP re
d ÄĻ
Å¼ li
Ġpoz iom
i ch
le p
ze m
Ġpo stan
c ki
Ġodpowie dni
ÅĤ ÄĻ
ĠusÅĤu gi
Ġnale Å¼
wo ÅĤa
Ġro k
b ÄĻd
t nych
lu b
p ow
rze nia
ĠszczegÃ³l noÅĽci
mo c
owa na
ĠA l
Ġmu si
Ġspe cja
Ġokre sie
Ġprzy chod
Ġin te
Ġju Å¼
Ġu wz
ko m
Ġ200 8
Ġinwe sty
ĠMi ni
Ġkra j
b er
ĠobowiÄħ z
ĠNa j
Ġna ru
czo ny
k owi
Ġst ud
Ġza tru
wÃ³ j
Ġ3 1
Ġpomo cy
z o
Ġra ch
Ġ200 4
ra kt
Ġko ÅĦ
Ġ( ...
Ġochro ny
Ġk rÃ³
ĠokreÅĽ la
s cy
ĠwiÄĻ cej
wo z
s Ã³w
Ġwarun kÃ³w
wi du
men t
I A
ĠP rzy
Ġwy nosi
jÄĻ zy
ob ec
Ġwykona nia
5 0
ni o
Ã³ j
Ġtre ÅĽci
Ġar ty
ĠW a
ma n
ÅĦ ski
b le
Ġnie ktÃ³
ko nu
ĠC z
Ġprzy zna
Ġwy dat
3 0
ĠÅĽrod owis
czeÅĽ niej
ĠspÃ³ÅĤ ki
Ġkon ku
Ġpubli cznych
sp or
v er
ĠÅĽ wia
cz u
n ki
bie ra
ni ki
mie r
Ġce l
ma t
ĠZ A
Ġk u
Ġkre dy
Ġ200 7
k le
po li
ĠpostÄĻp owaniu
ĠpaÅĦ stwa
Ġmi ni
Ġ |
ÄĻ Å¼
p li
Ġznaj duje
widu al
ĠAr t
Ġ Y
fi kowa
Ġo n
ĠPra wo
Ġ200 6
Ġre preze
cho dzi
Ġoko li
Ġdo ty
fika cji
ĠL a
Ġpoprze z
Ġwy ra
z ji
m owa
ni Äħ
ĠM ia
wi dÅĤ
Ġod by
Ġozna cza
b Äħ
d om
Ġmie siÄĻ
Ġp ar
ĠÅĽwiad czenia
Ġsta nu
wo dni
Ġpo jaz
Ġu rzÄħ
Ġ 000
l Äħ
Ġ em
Ġje ÅĽli
ra ch
ĠokreÅĽlo nych
ĠS kar
ch Ã³d
Ġdzie ci
gl ÄĻd
sÅĤu gu
ĠS e
Ġje dy
a mi
J e
Ġwo j
l ÄĻ
2 2
ĠB y
Ġu dziaÅĤ
p le
Ġprzez na
ĠA u
cho dz
ry bu
Ġu zasa
Ġpo sta
Ġwy mieni
Ġsprzeda Å¼y
Ġpowie rz
b ÄĻ
Ġproje ktu
Ġu czest
Ġpostan owie
Ġrze czy
Ä ĺ
ĠZamawia jÄħcy
mo Å¼li
Ġh ist
ĠC a
E R
ar u
Ġ ne
v i
k ry
t wa
Å¼ u
Ġn um
Ġo siÄħ
y ta
la cji
t Äħ
Ġindy widual
ktu ry
Ġ201 8
Ġe g
L I
t wo
ĠB i
ĠW ie
Ġt erytor
Â ³
rzÄĻ du
g h
za cja
st i
Ġ jÄĻzy
k ra
d Ã³w
Ġsytua cji
Ġe ner
ĠZ arzÄħ
Ġf ak
Ġinter pre
gi i
Ġpo nad
Ġpi ÅĤ
Ġpowy Å¼
Ġofer ty
t noÅĽci
ÅĤy m
Ġpoz wa
ĠS o
om en
ti on
dza nia
czy cie
Ġs o
ĠuÅ¼y tk
Ġbez pie
Ġstro nie
Ġprzepis y
Ġg dzie
st rzy
cze ni
s ce
k owych
Äħce go
sz taÅĤ
Ġu do
st ro
te ra
Ġ19 5
ni kiem
Ġcza su
st rz
Ġwnios ek
ĠI II
Ġbez po
Ġbar dzo
Ġnie za
2 3
ĠSÄħ du
Å¼y Äĩ
ĠdziaÅĤa nia
Ġcha rakt
P O
Ġna da
ĠpÃ³Åº niej
t owego
ĠPrze d
lo g
ĠU sta
Ġ Åº
k owej
Ġp un
Ġdo datk
ĠZjedno czonych
ĠP ar
Ġnaj mniej
wi den
Ġpo czÄħ
wie nia
a t
Ġta kie
Ġt rwa
ĠspeÅĤ nia
Ġwz glÄĻ
Ġpubli cznego
k s
Ġw od
ĠP R
Ġm niej
sÅĤu gi
Ġ5 0
Ġ Å¼a
Ġzgo d
C Y
Ġob jÄĻ
ĠC en
ĠwiÄĻ c
ĠF ran
nict wa
ĠczÄĻ ÅĽÄĩ
Ġ l
Ġda ne
Ġpo za
Ġkom u
ni Äĩ
Ġdo pu
Ġst ra
Ġp r
ĠpÃ³ÅĤ noc
Ġm y
Ġu dziaÅĤu
na mi
Ġr zÄħ
ce n
dze ÅĦ
D Z
Ġrodzi ny
rÄĻ b
Ġk m
Ġo pera
Ġt rzy
g n
ĠT he
ÄĻd zy
Ã ©
Ġd wÃ³
Ġle kar
z i
ĠI z
Ġw czeÅĽniej
Ġp iÄĻ
Ġa ktu
Ġprzy czy
Ġroz wiÄħza
ĠSpÃ³ÅĤ ki
ia ÅĤ
Ġt he
Ġta kich
Ġzasa dy
wa ÅĤ
ĠZ e
ĠS y
rz Äħd
Ġelekt roni
pÅĤa ty
zy j
Ġu ro
ĠS I
L A
wa ran
o gra
Ġ(... )
cze s
ĠktÃ³ rzy
t on
cze niem
Ġist nie
liwo ÅĽÄĩ
ier ow
zy den
Ġg ÅĤo
Ġza le
ĠWykona wca
Ġ200 5
Ġza koÅĦ
li cza
o nie
2 4
Å »
Ġi sto
dze niu
ia st
Ġwo jewÃ³dz
Ġcza sie
Ġwszyst kie
d er
Ġo ÅĽ
Ġdo sta
s s
czy ÅĤ
Ġsam orzÄħ
Ġtermi nu
Ġkontro li
f ia
ĠdziaÅĤa lnoÅĽÄĩ
Ġu pÅĤy
Ġprze twarza
k Ã³ÅĤ
Ġpo zy
Ġspra wy
Ġop ar
Ġre gi
te l
ÅĽ nie
ĠdwÃ³ ch
Ġkon su
P rze
sz czenia
ĠK odek
na rod
ĠobowiÄħ zu
Ġprzy go
t owy
sp Ã³ÅĤ
wo ju
Ġs ez
ĠW i
d Åº
di um
c kiego
Ġ1 00
Ġze spo
or Ã³w
czeÅĦ stwa
Ġmia sta
sp ra
tycz ne
Ġt j
c om
wer sy
t ka
Ġre gula
Ġwe dÅĤug
Ġni ch
Ġpraw nych
czo nego
Ġpod ej
Ġca ÅĤ
u sz
ÅĤ owie
s kÄħ
Ġmieszka ÅĦ
Ġ19 3
ĠJ o
Ã³w no
Ġsa my
tycz nych
S Z
dat kowa
K A
li i
ĠwzglÄĻ du
Ġpracow nikÃ³w
Ġs ÅĤu
Ġp ÅĤy
dnie nia
2 5
Ġi lo
W Z
ry ch
Ġli t
Ġponie waÅ¼
Ġk wali
Ġniez bÄĻd
ĠF undu
jÄĻ cie
l nÄħ
p ar
gro ma
Ġza ku
Ġn or
ĠL o
Ġz ie
Ġpo lega
Ġdoty czy
Ġb rz
Ġd wa
ĠUS D
wersy te
wÃ³ r
ta cja
ĠpÃ³Åº n
ĠÅ¼y cie
Ġkwo ty
tom iast
Przy pisy
owa Å¼
Ġsta w
ĠzwiÄħza ne
0 1
2 7
Ġga tu
Ġa ni
ĠP i
s h
Ġzasa d
Ġsystem u
Ġkla sy
Ġs za
Ġprze kaza
Ġdotycz Äħcych
Ġkie dy
da mi
Ġinforma cje
k la
k owe
d em
Ġstos unku
owar zy
ri i
t owe
Ġwykona w
Ġp yta
we go
ka z
Ġzw ro
ĠdÅĤu go
ĠkaÅ¼ dy
Ġkra ju
stÄħ pie
Ġem ery
0 9
t rze
Ġfor mie
0 7
ĠPol sce
Ġin stytu
Ġdokumen tÃ³w
ĠO r
Ġdru gie
Ġgra ni
ce p
Ġza w
l y
a ch
Ġz ez
Ġm od
Ġs zy
ĠmoÅ¼ liwoÅĽci
no mi
ĠN i
f er
we t
Ġpierw szy
n kÃ³w
wa na
L E
ene ra
Ġu mie
0 5
ch e
ÄĻ g
pow iada
0 8
T A
ĠL u
Ġgospodar czej
Ġosob owych
fi ni
go d
Ġproje kt
2 1
ĠÅ »
t nego
0 6
Ġro bo
Ġzakre su
ĠW Y
Ġoce ny
ĠWarsza wa
ĠczÄĻ sto
n owie
Ġh and
Å Ŀ
Ġh rab
ĠIn ter
Ġwyk orzysta
ĠDy re
Ġwyk orzy
A rt
Ġzosta ÅĤo
Ġpoli ty
gra m
Ġza m
ĠH o
Ġh a
Ġ200 3
Ġsp orzÄħ
Ġwa Å¼
v a
ka cji
si ÅĤ
ĠS P
Ġpowod u
wa nych
ĠIn forma
Ġwy bra
co daw
Ġudo stÄĻp
cz ki
ĠT y
2 6
Ġzosta nie
j skiej
K O
Ġa kt
Ġprze strze
Ġ20 00
Ġad res
Ġod niesie
ĠC zy
rÃ³ Å¼
u ra
Ġ )
Ġwy ÅĤÄħcznie
Ġza bezpie
ĠG a
R E
0 3
âĢ¦ âĢ¦
Ġm et
Ġuzyska nia
men tÃ³w
ro zu
0 4
n nego
ty m
Ġtere nie
Ġkosz ty
Ġb ank
Ã ª
Ġk siÄĻ
Ġh i
Ġw obec
Ġce nt
Ġjed en
Ġek sp
ĠskÅĤa dania
czeg Ã³l
f ek
k e
kÅĤa du
Ġprac ÄĻ
Ġ :
o no
ĠS po
le g
Ġzdr owo
ne s
cja ch
niÄĻ Å¼
men tu
Ġo pi
pis u
Ġdzia ÅĤ
ĠZ osta
Ġpo ÅĤudni
pos poli
ĠpaÅĦ stw
Ġpo Å¼y
b Ã³
cj on
Ġpa ra
ĠS u
st Ã³w
D o
ÅĦ skiego
Ġgmi ny
ĠSz ko
Ġz gÅĤo
Ġsp or
Ġkie ru
mi nu
ĠnastÄĻp nie
Â Ń
cza j
nie n
Ġme dy
N ie
Ġza daÅĦ
Ġdo m
Ġza dania
s em
Ġopo datkowa
ĠU nii
Ġu p
ĠzwiÄħza nych
ĠSI WZ
Ġznaj du
OW E
Ġla ta
Ġr uch
ĠN A
Ġprowa dzenia
n nych
ĠH a
Ġ Å¼Äħ
Ġmu zy
Ġna dz
ĠNa rod
ĠPo li
ĠczÅĤon kow
Ġre gu
2 8
Ġpow ia
Ġudzie la
W E
Åģ A
Ġubezpie czenia
Ġzar Ã³wno
Ġw s
Ġorga n
re k
ĠB e
ĠMi nistra
tor y
ĠwÅĤaÅĽci cie
Ġdro g
Ġpotrze b
Ġwart oÅĽÄĩ
Ġwy niku
Ġpod ob
li czenia
âĢ ŀ
Ġk ierow
rÄĻ g
t nej
Ġk obie
Ġm Ã³w
Ġza j
ĠAd ministra
Ġwie lu
Ġk ul
m owy
wa ch
Ġz wie
Ġwarun ki
Ġw ia
iÄĻ k
za cjÄĻ
sz cz
Ġdzie ÅĦ
-- --
ĠI N
Ġze wnÄĻtrz
Ġsamy m
m on
j skich
Ġsie ci
P a
Ġt ry
Ġprzy sÅĤugu
t s
Ġosta tni
n ty
rz u
Ġpodatk owego
Ġ jÄħ
Ġrozu mieniu
cyj na
ko l
ÅĤ owa
Ġwie le
Ġbezpo ÅĽredni
cyj nym
Z P
ĠwÅĤaÅĽci wy
Ġprzychod Ã³w
Ġa nali
Ġwy zna
ĠJe ÅĽli
Ġda lej
ni j
ĠÅ¼a d
Ġza ÅĤo
Ġk sztaÅĤ
Ġfizy cznych
_ _
C I
owie m
Ġd owod
sta wia
z m
Ġwykony wania
ĠDz ie
Ġzmia n
ĠKra j
ĠwiÄĻ ksz
sz czegÃ³l
B i
ni one
Ġmie siÄħ
ry ty
dz ony
n ne
Ġprze ka
r ia
Ġ Ð
Ġ Å¼
Ġna wet
t wie
ĠD O
or z
q u
sze l
ow ÄĻ
Ġprzedmio tu
fi nans
ĠKo misji
d owa
Ġwy Å¼
ĠX X
Ġcho ro
Ġudzie lenie
Ġgru py
ce nie
Ġd wu
Ġo twar
t ry
4 5
Ġo prac
Ġrodza j
ĠniektÃ³ rych
Ġpo ÅĤoÅ¼
Ġuwz glÄĻ
ĠÅ¼y cia
ĠN R
Ġkil ka
Ġosob a
2 9
C ZE
Ġmiejs ca
ĠÅĽwiad czeÅĦ
ĠmiesiÄĻ cy
os en
Ġspra woz
Ġwy ja
Ġ200 2
ĠW iel
Ġp art
Ġs ko
Ġza tem
Ġk we
ĠpiÅĤ kar
wodni cz
ĠB u
Ġpra widÅĤ
sz czenie
bÃ³ t
mi i
Ġjednost ki
ĠĊ ĠĊ
Ġau to
wiÄĻ k
Ġczy m
Ġsiedzi bÄħ
d ra
Ġwynagro dzenia
Ġdo star
ST A
ĠPo z
ĠMia sta
ĠPol skiej
cho dy
Ġro bÃ³t
Ġtran spor
Ġpow szech
ka li
Ġg waran
Ġmia ÅĤ
sp e
czeÅĽ nie
Ġm ÅĤo
Ġuwa Å¼a
in te
logi i
Ġpo ÅĤÄħ
Ġkwo tÄĻ
Ġ199 7
o nego
Ġz by
j ski
d r
Ġodpowiedzia lnoÅĽci
Ġpotwier dza
ra cji
czy m
0 2
C E
Ġpomi ÄĻdzy
ĠEuropej skiej
Ġpubli cznej
Ġpra codaw
rze nie
Ġu moÅ¼li
Ġk ur
Ġbra ku
ĠWo jewÃ³dz
Ġpo ÅĽredni
Ġob y
S A
II I
Ġe widen
Ġg ro
t to
Ġza strze
wie k
Ġdo da
rÃ³ ci
na j
Ġu tw
ĠkaÅ¼ de
kÅĤa da
e s
Ġzd oby
Ġma ÅĤ
ĠWarsza wie
le s
Ġjedy nie
M A
ce nt
Ġnie go
ĠmÃ³w i
b ardziej
k owego
ĠR O
Ġmiejs cu
ĠM u
Ġnum er
ĠW al
Ġwy pad
ter y
Ġjed nym
ct wa
kre ÅĽ
OW Y
Ġp rÃ³
po l
19 9
kol wiek
k wi
4 0
Ġfor ma
Ġrodza ju
Ġ200 1
Ġpie niÄĻÅ¼
ksz taÅĤ
je kt
ja w
Ġod powiada
Ġprzy jÄĻ
Ġodniesie niu
ie ra
ĠciÄħ gu
Ġsp ad
Ġpowierz chni
ĠokreÅĽlo ne
sa ch
Ġpo pu
Ġspos ob
fe ren
Ġo pisa
d ro
ar z
ob a
czo na
Ġwz ro
ĠJe d
Ġp ew
ĠMini ster
Ġprowa dzo
Ġza ÅĤÄħcz
ĠÅĽ redni
no sz
n tu
Ġzosta Äĩ
Ġw Äħ
bie ga
E K
cz noÅĽÄĩ
ĠmoÅ¼ liwoÅĽÄĩ
t kÃ³w
dy na
g na
Ġza p
spra w
k sy
Ġpodmio tÃ³w
Ġproce du
Ġo trzy
S P
Ġod rÄĻb
ĠUni wersyte
ĠrÃ³Å¼ nych
Ġk an
Ġd owo
Ġm Ã³
ĠÅº rÃ³d
Ġfak tycz
ĠRe gula
f o
s ek
Ġwy jÄħ
ÅĽcia ch
ĠG o
Ġzamie szka
ĠWykona wcy
Ġsta tu
t r
K I
ĠZamawia jÄħcego
Ġdro dze
c kim
t owi
ni m
y a
I T
ĠF a
E N
Ġm omen
Ġod woÅĤa
ĠA n
zu peÅĤ
e go
Ġ201 9
201 5
gi na
Ġdochod owym
Ġpomo c
Ġprze stÄĻp
pospoli tej
u nek
Ġn p
Ġpo ja
ĠÅĽ mier
Ġg e
P ro
Ġuchwa ÅĤy
Ġcharakt er
Ġp sy
Ġsamo chod
li m
g Ã³w
Ġwy kaza
or d
ĠSkar b
Ġsp owod
wen cji
Ġpowo ÅĤa
Ġu su
Ġb ardziej
cie m
Ġe ko
p en
dz one
Ġkon ta
ĠRze czy
Ġsu b
R e
Â ¹
Ġpo now
gl Äħ
ĠwiÄĻ k
Ġodpowiedni o
Ġp rywa
Ġzdr owia
ĠwÅĤas noÅĽci
Ġstanowis ko
R o
ĠâĢ Ķ
ĠmieszkaÅĦ cÃ³w
m ar
Ġau tor
Ġk siÄħ
ĠH i
Ġb owiem
Ġte mat
Ġorgani zacji
Ġobej mu
niesie nia
ona l
Ġz le
Ġpro ble
Ġin stru
Ġobej muje
Ġhand l
Ġwy d
Ġs obie
Äħ c
Ġstos uje
Ġry zy
Ġza pa
4 3
Ġsz tu
no moc
w ÅĤa
or ga
Äħcy m
Ġobec nie
Ġpo ni
Ġhist or
ĠO s
z wa
Ġprzy j
Ġwie lo
dze niem
201 3
ĠW il
ÅĽ my
Ġ6 0
li Äĩ
Ġz wa
Ġmo cy
Ġz bior
Ġtermi n
Ġa ng
Å¼ one
Ġm or
Ġusta la
Ġw al
da niem
Ġpraw nej
201 4
Ġt w
Ġprze j
mi ar
Ġusta wie
Ġmi li
t ow
ĠS er
T Y
Ġrozpo czÄĻ
Ġmie Äĩ
Ġfir my
Ġjed nego
o nej
t kiem
M a
Ġwyro ku
la ch
ia ÅĤa
ĠSpÃ³ÅĤ ka
Å¼e ÅĦ
ĠÅĽ wie
m er
Ġposta ci
ĠmiÄĻdzy narod
ĠG ra
Ġprogra mu
Ġry nku
ze r
al l
po zy
ĠJe Å¼eli
w ÄĻ
ÅĽ rÃ³d
n owi
Ġk lu
Äħce j
chod niej
Ġja kie
owo ÅĽÄĩ
ĠP e
ĠobowiÄħ zek
ĠcaÅĤ kowi
Ġkonku r
Ġbudy nku
strz o
Ġza mawia
Ġna stÄħpi
li zacji
Ġpla nu
ĠmoÅ¼ li
ĠK ar
Ġarty ku
Ġa ktyw
Ġu trzyma
ĠPaÅĦ stwa
Ġnau czycie
Ġswo ich
Ġpowi nien
Ġwy pÅĤa
ty fika
Ġtele wi
ra ca
t owania
ce s
Ġ4 0
ĠU bezpie
ni ony
Å¼y ÅĤ
lo ny
je st
ĠWnioskodaw cy
ta j
Ġwie rzy
Ġt ÄĻ
OW A
Ġwy ÅĤÄħ
Ġuwa gÄĻ
ĠRzeczy pospolitej
Ġm in
Ġf undu
Ġdo kony
dzia ÅĤa
na r
I n
Ġpre ze
Ġpod pisa
datk owania
t wier
Ġo fi
cja mi
Ġni m
Ġk li
Ġo ne
Ġinterpre tacji
ka zu
cz no
ĠwspÃ³ÅĤ pra
Ġpo szczegÃ³l
ĠFi nans
dze ni
ĠA ng
Ġpra kty
ĠU rzÄĻdu
ma ty
Ġorga nu
Ġsto p
ĠPol ski
Ġt wo
Ġszko ÅĤy
p h
ĠSpo ÅĤe
Ġte ch
Ġprze sÅĤa
Ġu zupeÅĤ
Ġzapew nia
Ġnaj lep
lo ne
ĠP owia
ĠKon stytu
Ġpr owi
N O
Ġniniej szej
Ġprzewi dzia
Ġdzie dzi
ĠF or
c kiej
w Äħ
ĠczÅĤon kÃ³w
ĠO rga
m et
Ġwie ÅĽ
Ġje szcze
Ġdo ÅĽwiad
pi taÅĤ
Ġst ru
ÅĤ ow
Ġterytor ium
Ġch wi
Ġnie u
wa niu
Ġte k
n nej
Ġza leÅ¼
ĠR E
Ġpa cje
rz ÄĻd
le r
Ġinterne towej
ĠZosta ÅĤ
l no
mi te
Ġprzy sz
Ġzwo l
Ġzd ol
li a
Z Y
owa niem
Ġoby wa
Ġpis em
p on
b ur
d li
Ġwe wnÄĻtrz
SK IE
âĢ ĭ
nie si
Ġprzy kÅĤad
Ġba dania
Ġokoli cznoÅĽci
ĠdziaÅĤa ÅĦ
t ny
Ġwo js
ĠobowiÄħ zku
mia ny
ĠWykona w
wy czaj
Ġkil ku
ĠH e
Ġw szel
Ġswoje j
. ),
ce r
Ġdo staw
Ġprzepis ami
Ġu mÃ³w
Ġrozpo zna
Ġpomo cÄħ
ĠZ godnie
ĠS A
s on
ĠK O
Ġreali zowa
f ra
ĠC i
Ġe ta
Ġk lie
ĠG e
Ġprzeciw ko
ra d
Ġwykorzy sty
Ġe uro
Ġfa ktu
jÄħcy mi
go spodar
Ġopo datkowania
Ġszy b
b um
Ġdo mu
mu lar
ĠR y
Ġa nd
daw ca
Å¼e niem
s et
ĠI V
Ġu dzia
Ġza stÄĻp
Ġ Ã
ro bi
Ġna tomiast
Ġza kÅĤad
P od
ĠÅĽrod ki
Ġzakre s
te rze
ĠA le
Ġ3 6
c kie
Ġnaj bardziej
ĠâĢ ĭ
O d
cia Å¼
C zy
b r
Ġnie peÅĤ
k owy
mie nie
) ;
Ġpierw szej
Ġty pu
Ġ4 5
CJ A
Ġt rak
Ġja ki
ĠâĢĭ âĢĭ
ĠFundu szu
Ġpracow nika
Z A
ni zowa
Ġopie ki
Ġnieza leÅ¼
Ġin sta
Ġzw iÄĻk
J a
Ġzna ny
. :
Ġprowa dzi
Ġk r
Ġn owe
Ġkom pu
no spraw
Ġfil m
nict wo
ĠS i
Ġbezpie czeÅĦstwa
Ġlo tni
cy ch
g no
wie nie
ĠC e
Ġ3 5
Ġusta lenia
Ġin nymi
ĠkrÃ³ t
z ja
ĠU chwa
stan cji
ĠWnioskodaw ca
ÅĦ skiej
Ġcel Ã³w
Ġrzeczy wi
un da
sÅĤa w
Ġtran sa
ku ra
Ġo pis
Ġdokumen ty
sp Ã³l
om o
Ġpowy Å¼ej
Ġd niem
Ġzmia nie
Ġca ÅĤoÅĽci
Ġp e
rybu na
ĠNaj wyÅ¼
czy ÅĤa
li n
Ġwo dy
Ġ cia
W I
Ġt ru
Äħd Åº
an g
z w
on Ã³w
ĠK u
Ġzd arze
Ġb rak
Ġdopu szcza
Ġelekt ry
3 5
d ow
Ġdru Å¼y
Ġodpowie dzi
ĠT wo
Ġpra wie
Ġko le
Ġwyk lu
Ð °
Ġang iel
men ty
Ġw ej
ra mi
Ġwy ch
Ġczy li
ĠP la
niÄĻ cia
Ġs il
Ġwydat kÃ³w
czy na
u jÄħ
Ġnie mie
ci ÄĻ
g ÅĤ
ĠKo mis
ro s
ze nia
Ġlu dzi
Ġzar zu
. ).
Ġwykona nie
ĠSta nach
Ġw ers
Å¼ ony
Ġza gro
ĠktÃ³ rÄħ
Ġdokumen tu
ĠN or
Ġz re
ry gina
sp ek
gl Äħd
Ġsze ro
ĠkaÅ¼de go
I P
z ÄĻ
o te
Ġfir m
Ġza u
Ġu chy
ĠbudÅ¼e tu
ow nie
ni ÅĤ
Ġka tego
Â §
Ġf ran
Ġwy konu
ĠmajÄħ tk
4 8
ĠO k
o t
Ġpa pie
Ġroz strzy
st ry
ĠUS A
l d
Ġu koÅĦ
Ġroz woju
Ġza k
Ġpowin ny
Ġjednost ek
Ġ Q
ĠCh i
Ġa kcji
Ġpo cz
Ġnaz wi
ĠPre ze
Ġprogra m
Ġ j
sp on
Ġzastos owanie
Ġdru gi
ĠnastÄĻpu jÄħce
d ar
Ġta m
Ġzamieszka nia
pad Ã³w
Ġz y
Ġz mieni
Ġod bior
T U
cyj nÄħ
Ġe du
c ÅĤa
ÄĦ D
e li
ĠJe go
Ġ ÅĤÄħ
lim pi
Ġr ÄĻ
Ġwie lko
ni ca
dzie l
j skim
ĠJ u
Ġprzedmio tem
g er
Ġ v
Ġin nego
Ġm il
Ġz mienia
bud owa
d niej
K U
Ġro ÅĽli
Ġzm niej
k owania
le Å¼y
ĠA nd
Ġz de
pos a
ĠbezpoÅĽredni o
ĠopÅĤa ty
p ia
ro k
t owym
cie l
Ġtrze ch
Ġod da
ĠsÄħ du
os p
ĠS tro
ĠJo h
Ġraz ie
ĠIz by
Ġproce s
tycz nej
publi kowa
ĠzarzÄħ dza
3 3
Ã ¡
inte res
le ÅĦ
ĠN e
Ġjed nÄħ
Ġpo r
ĠPR ZE
Ġkwe st
Ġr u
Ġup owaÅ¼
Ġobsz ar
Ġna pisa
Ġpla n
g ar
c kich
zy wa
Ġwia dom
ĠS pe
Ġo pa
Ġd al
d Äħ
ZE NIE
Ġwoj ny
Ġzwy kle
gniÄĻ cia
ogra fia
I N
ĠwpÅĤy w
Ġzespo ÅĤu
Ġsku te
w ej
Ġuwa gi
Ġreje stru
ĠskÅĤa dni
tu r
Ġfunk cjon
ĠuÅ¼ytk ow
Ġd ÅĤuÅ¼
ĠZ groma
Ġst ar
Ġwz glÄĻd
Ġpi osen
do pod
Ġb ÄħdÅº
ĠG ru
ĠB ar
ĠK om
U S
re w
g rzy
Ġok rÄĻ
kra cza
ÅĦ ska
owa ÅĤa
t na
ri u
Ġza pro
osp odar
Ġin for
s or
201 6
Ð ¾
Ġgru p
ro n
Ġs ka
ĠS an
ĠP ier
ta n
le t
Ġpodat nika
Ġprze ch
i Ã³w
ĠU E
k cja
j skiego
Ġlicz by
tu al
i on
/ /
Ġswo jÄħ
ĠupÅĤy wem
nÄħ Äĩ
Ġo rygina
201 2
Ġdyre kty
Ġn owo
Ġhrab stwie
Ġsp rzÄĻ
k owie
AD Y
Ġw ez
ĠÅĽ re
ĠpeÅĤ nomoc
Ġpotrze by
Ġg enera
Ġroz pa
4 6
Ġod ci
ĠT rybuna
Ġpoz wo
ĠN ew
Ġprodu ktÃ³w
Ġnaj wiÄĻk
owa nego
Ġp er
Ġi le
ĠZa mÃ³wie
ĠniepeÅĤ nospraw
cze k
por t
ĠÅĽ wiet
Ġener gii
nÄħ ÅĤ
pra wy
Ġta ki
Ġu czni
tych czas
Ġu biega
Ġkon tra
fra stru
Ġjed nej
Ġkom Ã³r
Ġspra wach
ĠCh o
ĠB ry
ÅĦ skim
ĠzÅĤo Å¼enia
Ġruch u
w w
Ġinwesty cji
ĠrzÄħ d
Å¼o nego
ĠP ubli
ĠEuropej skiego
e mi
il l
ru m
3 6
O S
Ġt ÅĤu
Ġu r
Ġza gospodar
Ġkon sek
Ġprowi n
ĠP L
Ġprze tar
Ġar chi
ÄĻÅ¼ czy
ĠJed nak
le n
mia st
Ġpow Ã³d
ĠP an
Ġd wie
de ra
z p
Ġloka lu
Ġochro nie
Ġbie g
3 1
f f
ĠR os
b ro
Ġg Ã³r
l l
201 8
ĠD la
Ġstos owania
Ġb an
Ġp an
Ġkr wi
wy ch
ĠprzysÅĤugu je
Ġka pita
t tp
k cie
Ġte m
7 0
Ġdz i
Ġdro gi
ĠwÅĤaÅĽci wego
ĠP Ã³ÅĤ
glÄĻd nia
Ġcha rak
Ġ3 9
Ġk wa
ĠÅĽrodowis ka
Ġwsp ar
Ġsystem ie
Ġw ÅĤo
Ġza po
Ġs ek
Ġna g
Ġprze wo
Ġ ÅĤÄħcz
Ġ cu
Ġp u
ĠudostÄĻp nia
Ġza jÄĻ
stÄħpie nia
ĠurzÄħ dzeÅĦ
Ġdotycz Äħ
Ġzna le
Ġtry bie
nie ÅĦ
Ġli nii
Ġrozu mie
ĠumoÅ¼li wia
Ġokre su
iÄĻ ki
U N
Ġka pitaÅĤ
Ġnie o
ek la
ĠoÅĽwiad czenia
rÃ³w na
Ġzasa dach
Ġi den
czy n
Ġww w
t wÃ³r
Ġstro n
Ġpowin na
Ġre kla
ĠF o
Ġpo chod
Ġaktu al
Ð ¸
Ã³ dz
go dni
Ġka na
Ġ ÅĽci
Ġswo im
Ġ3 8
Ġwyda nie
Ġbudowla ne
ca mi
Ġspecja li
ow Ã³d
Ġsp is
men ta
Ġu z
i na
Ġo czy
Ġjako ÅĽci
Ġpro fe
ĠpÅĤa tnoÅĽci
Ġpierw sze
Ġpierw szym
t t
: //
un kÃ³w
Ġu li
Ġwy stawi
Ġk orzy
ĠG ospodar
ĠP RO
par ta
ĠJ ak
Ġgodzi n
Ġod padÃ³w
Ġwszyst kim
................ ................
Ġza li
wy kona
o logi
CH WA
Ġza ÅĽ
Ġwi Äħ
7 5
Ġkomu nika
ĠogÅĤo szenia
ĠKodek su
sz pa
ĠprzedsiÄĻbior stwa
Ġpraw em
Ġilo ÅĽci
ct wem
Ġo na
ob nie
Ġsy gn
le nd
tru m
Ġcharak terze
Ġkan dy
z n
Ġob li
Ġprodu kcji
U E
ĠN o
le gÅĤo
Ġosta te
dnie go
ĠNa dz
Ġb ryty
ĠPo nad
ĠPra cy
om ie
ĠS ej
Ġzgo dy
Ġprzypad kach
4 9
Ġreali zacjÄĻ
Ġfinans owych
ĠR ob
Ġswoje go
n nym
ĠobowiÄħz kÃ³w
ĠK rÃ³
Bi bli
Ġgmi na
ĠR u
Ġod dzia
Ġmia sto
Ġpozwa la
Ġba daÅĦ
Ġpodmio t
Ġ9 0
3 8
Ġmieszka ni
ĠF e
ĠzamÃ³wie ÅĦ
ĠzobowiÄħza ny
ĠÅļ rod
land ii
cha ni
Ġkonku ren
Ġob ni
jÄħ ÅĤ
Ġwprowa dza
ĠS T
tycz nego
Ġtrak cie
re a
t kowa
3 9
C A
Ġusta wa
my sÅĤ
Ġpo m
li ÅĤ
Ġal bum
Ġum owa
Ġpo dzie
Ġi mieniu
Ġzez wo
Ġprzed stawia
Ġpraw ne
Ġu tra
ĠpoczÄħ tku
sto ÅĽci
Ġwysoko ÅĽÄĩ
Ġta kiej
201 1
sz czÄĻ
ĠÅĽwiad czenie
ĠS tra
Z ÄĦD
ĠgÅĤÃ³w nie
ĠPo zna
le y
Ġsa me
ĠopÅĤa t
Ġko ÅĽci
ÅĽ ni
Ġde fini
czo nej
ĠÅĽwie cie
la cja
Ġopar ciu
ĠmoÅ¼e sz
Ġd s
ĠposzczegÃ³l nych
Ġz mie
Ġ8 0
d noÅĽci
201 7
da Äĩ
Ġpodmio tu
Ġpro to
Ġwy stÄħpi
Ġeko nomi
ry sty
C o
re gu
Ġci ÄĻÅ¼
Ġkon kre
Ġda w
i t
Ġpo biera
Ġo r
ty sty
Ġser ia
Ġbudowla nych
Ġgmi nie
Ġa b
ro cÅĤa
Ġdo tychczas
Ġpostanowie nia
ĠC om
Ġod szko
Z godnie
kre s
cz ka
ĠP or
Ġroz li
Ġwy dania
ĠB ra
Ġskar b
ĠS te
ĠBy ÅĤ
Ġb ru
Ġn owych
Ġmu szÄħ
ĠK rzy
Ġfran cu
Ġzar e
st r
lo na
ser wa
tar ia
ÅĽcia mi
Ġwy mo
n ny
Ġza twier
Ġsposob u
Ġadministra cji
Ġzastos owania
Ġin nym
K a
g Äħ
Ġpla cÃ³w
3 7
p rzy
ĠX I
ko ÅĽci
ĠS h
dzo nych
ĠoÅĽwiad czenie
Ġzas ob
Ġna rod
Ġzwro tu
W O
Ġmy ÅĽ
Ġpowie cie
na wia
Ġuczest ni
Ġwykona wcy
Bibli ografia
Ġtech no
s ia
ĠzÅĤo tych
Ã³ sÅĤ
Ġ199 8
dnie nie
Ġd ia
sy ÅĤa
Å ĥ
6 0
n p
j ska
tar z
ko n
ĠA mery
ĠnastÄĻp uje
ÅĽ rod
p lo
Ġo j
ty ka
Ġwy peÅĤ
Åļ CI
la z
ku je
Ġu nie
pra wie
dzie Äĩ
en s
ty ki
ĠR P
ĠogÃ³l ne
Ġ 00
ĠWe dÅĤug
Ġa m
i d
Ġuzasa dni
ĠRoz dziaÅĤ
4 7
ĠCz ÄĻ
Ġnaz wa
MI N
Ã³w czas
Ġpo k
ÅĤa sza
Ġza grani
ti onal
Ġwa dium
Ġkom ple
c ko
ĠB ur
Ġuwz glÄĻdnia
Â ł
ta li
NY CH
ĠzewnÄĻtrz ne
Ġ18 9
Ġupraw nienia
ĠC ar
Ġtrze ci
Ġmia ÅĤa
owa nej
Ġ199 1
Ġ %
Ġdzie cka
rzy w
Ġ Ġ
ĠCen trum
Ġm ÄĻÅ¼czy
ow ski
Ġwarun kach
I S
Ġwydat ki
Ġce ny
ta l
CHWA ÅģA
da e
Ġdokumen tacji
le niu
Ġrepreze nta
Ġos kar
Ġli kwi
ĠmajÄħ tku
Ġza interes
cie la
ĠB ank
g Ã³l
Ġpier wo
lu m
Ġwy posa
tor Ã³w
ĠPonad to
Ġdzie n
ĠR ADY
Ġnada l
Ġterytor ia
Ġjedno li
Ġ199 9
ĠÅĽ cie
Ġrepreze nt
Ġprzepis ach
or ia
Ġtelewi zyj
ten cja
Ġwyro k
ce m
Ġdosta wy
Ġopi nii
l ta
Ġz u
Ġ =
Ġli cen
ni c
Ġu rzÄĻdu
ka de
ÅĤo ÅĽÄĩ
Ġza pÅĤa
Ġwy powie
Ġwyda ny
ksy ma
Ġfi na
nia ch
ĠK lie
AN IE
Ġod no
Ġloka li
ĠB ud
gra mu
Ġewiden cji
G U
ĠC on
ĠPÃ³ÅĤ noc
ĠFinans Ã³w
ĠP RA
Ġzatru dnienia
b Ã³w
Ġsp ÅĤa
Ġreje stra
sa mi
ni ch
Ġdo konu
sta wa
Ġfunk cji
ĠX V
Ġm nie
to li
Ġza pÅĤaty
towa ny
Ġbud owy
bud owy
K o
Ġ199 0
Ġlicz ba
Ġkonie c
D a
Ġpo rozu
Ġs kie
Ġzawar cia
fi i
d ej
ce na
Ġniniej szego
ĠG ÅĤÃ³w
ĠspoÅĤe cznej
to rem
Ġdrugie j
8 0
Ġkorzysta nia
ĠD u
sza ÅĤ
on ta
s hi
Ġnie j
jest rowa
ÅĤ owy
Ġuzyska Äĩ
Ġroz wi
3 2
c ar
] .
Ġpre zyden
Ġponi Å¼ej
7 9
Ġcent ra
Ġprzepis u
bi li
st rÃ³w
m owania
ĠO chro
czo nym
Ġbie Å¼
z mu
ĠR OD
pe la
ĠPra w
ĠW spÃ³l
gu e
ÅĽwiad czenie
Ġopodatkowa niu
P P
ch u
L NE
Ġprzech owy
Ġdyrekty wy
i Äħ
Ġosob ÄĻ
ko ÅĽÄĩ
J ak
L i
o nym
ĠNa u
ĠD i
ĠG u
Ġob sÅĤugi
ĠG re
ĠwpÅĤy wu
cjona riu
ĠPol ska
ĠOk rÄĻg
Ġ en
ga ch
ĠPa ni
Ġhist ory
Ġpoda tek
stw em
F OR
Ġta kiego
Ġja kim
OW IE
Ġprzetwarza nia
Ġstud en
or k
ĠgÅĤo s
Ġkon ty
Ġprze kracza
sz czy
CJ I
ha m
3 4
ĠczÄĻÅĽci Äħ
Ġwyb oru
Ġdo ÅĤÄħ
wen tual
ĠPo ÅĤudni
le w
Ġna li
Ġmateria ÅĤÃ³w
ĠZarzÄħ du
pro du
Ġe fek
Ð µ
i u
5 5
Ġpraw nego
p iÄĻ
sz czeÅĦ
ro m
ĠnaleÅ¼ noÅĽci
Ġin nej
) :
za leÅ¼
' s
Ġspe cy
ĠsamorzÄħ du
ÄĻ dzi
Ġfor m
ĠpoÅĽredni ctwem
Ġzwol nienia
sty ch
cz nymi
Å¼y ser
wodnicz Äħcy
U ro
ĠKodek s
Ġpo bli
Ġwykona wca
Ġspo tka
gie m
ĠP art
Ġp owiÄħza
Ġch ce
ĠJe dno
ku p
Ġza ÅĤÄħcznik
Ġnie do
ĠwyjÄħ tkiem
L in
Ġmini ma
Ġ y
ĠÅĽmier ci
ĠmÃ³ gÅĤ
Ġ7 0
Ġ Å¼o
Ġk to
Ġcz ÅĤowie
Ġz robi
Ġwnios kÃ³w
pi i
ro z
Ġfor mular
il le
ĠP zp
ĠSta nÃ³w
ĠS tu
Ġin ny
ĠZa ÅĤÄħcznik
chodz Äħ
Ġpodat kiem
ĠuÅ¼y wa
ĠzaleÅ¼ noÅĽci
un ki
ÅĤ ej
ĠBry ta
] [
Ġsk rzy
Ġza o
ĠB er
r ow
ĠC y
Ġ3 2
ĠwspÃ³ÅĤpra cy
ĠPaÅĦ stw
t owÄħ
noÅĽci Äħ
Ġorga nÃ³w
ga nia
wz iÄĻ
ĠU Å¼y
te d
le tni
ia n
dzia le
ĠksiÄħ Å¼
Ġsamo dzie
4 4
towa Äĩ
Ġpo kry
dz Äħ
li ÅĽmy
Ġ199 4
ÅĤa ch
Ġzam k
* *
Ġzosta nÄħ
Ġpojaz du
Ġwy Å¼ej
Ġusta wo
Ċ Ċ
ni Ã³sÅĤ
ĠurzÄħ dzenia
ĠH ar
Ġsz cze
w nÄħ
cza nia
i ÅĤ
d liwoÅĽci
Ġb li
ĠK ali
Ġko l
Ġme chani
Å¼o nej
Ġdo finans
Ġpraw dopod
ni tor
ĠpostÄĻp owanie
Ġprodu k
Ġs ÅĤo
iÄĻ ksz
Ġf e
ĠczÅĤon kiem
Ġsie bie
rÃ³ g
S N
Ġo pro
ĠIn stytu
ĠT en
Ġeg za
Ġpodsta wy
ĠR ej
ĠwiÄĻksz oÅĽÄĩ
ĠW rocÅĤa
Ġwy mi
ci Äĩ
ĠZ ie
rÃ³ t
Ġch i
Ġkosz t
Ġnor ma
ĠwzglÄĻd em
Ġro lni
Ġtran s
Ġprowin cji
M o
ĠNie m
P ra
Ġna tura
Ġcz te
g ia
owa nym
Ġu pad
7 8
Ġw Ã³wczas
Ġser ii
Ġk os
Za ÅĤÄħcznik
Ġt ro
Ġst re
Ġo publikowa
an ce
towa ne
k owym
Ġhistor ii
dzo no
Ġgatu nek
Ġob ciÄħ
Ġda nego
wa Å¼a
Ġkredy tu
Ġp li
Ã³ ry
ĠokreÅĽlo nym
Ġs wÃ³j
ĠT u
Ġpoz ba
ĠkaÅ¼dy m
Ġzaw sze
Ġpoziom ie
Ġte ren
Ġ +
Ġ20 20
ĠpeÅĤ ni
n ka
ska ch
201 9
ĠB an
Ġdokumen t
ĠAu stra
Ġprze ksztaÅĤ
" ,
ĠobowiÄħ za
Ġta kim
ÅĽ mie
ob i
Ġra d
ĠA gen
rzÄħ t
r is
Ġtem pera
Ġstanowis ka
Ġdochod Ã³w
Ġobro tu
T E
sz ty
Ġle k
Ġko re
ne ra
Ġwnios kodaw
Ġst r
Ġlikwi da
ĠLe a
t nym
zy wania
sz ÄĻ
ÅĤo by
Ġ4 6
Ġd ar
ĠsÅĤuÅ¼ by
Ġpo rzÄħd
ĠC ol
ĠSkarb owej
ĠmoÅ¼li we
ĠwÄħ tp
Ġk i
pu szcza
Ġtytu ÅĤ
da ta
Ġgdy Å¼
ĠRe publi
g nie
Ġt zw
ne t
lo nych
b or
Ġnie wy
Ġw stÄĻp
8 5
Ġt wier
ĠPar la
Ġzap obie
ze ku
tycz ny
Ġwy star
Ġnaru szenia
j ona
ja ch
Ġpo tencja
Ġubezpie czeni
Ġce n
szu ki
osta nowie
dnie niem
Ġtra dy
ĠprÃ³ b
Ġwie l
on g
Ġba da
âĢĿ )
Ġce lem
ĠRe gi
Ġzaku p
Ġponow nie
201 0
Ġdo lar
Ġkobie t
Å¼e niu
Ġa ktor
wo d
v en
f ry
7 6
Ġ4 3
Ġpodatk owych
ĠKa na
Ġproce su
Ġle cz
Ġpo ko
my ÅĽ
ĠSy stem
ĠU mowy
Ġstan d
Ġkompu ter
ĠNa zwa
ĠdotyczÄħce j
> <
st rza
Ġdu Å¼y
ĠIn dia
Ġopie ku
Ġinstytu cji
jÄħ Äĩ
Ġoce nie
Ġuczni Ã³w
Ġzna czenie
ĠRoz porzÄħ
ĠJ an
Ġz orga
Ġ x
5 9
s ji
wi Äĩ
Ġw in
Ġum owÄĻ
b lem
nik owi
Ġwsp iera
Ġszko le
ĠS ie
Ġwol noÅĽci
Ġcze go
" .
Ð ½
Ġproce nt
Ġod pÅĤa
Ġe wentual
ĠUsta wy
t owanie
ĠzarzÄħ dzania
ÅĤ Ã³
ta cjÄĻ
nie niu
sy w
dz na
ĠzwiÄħ z
ĠOrga ni
Ġu prze
Ġtrze cie
co ne
ĠprzedsiÄĻ wziÄĻ
Ġrach unk
y ba
Ġze spÃ³ÅĤ
ĠPier w
ĠM an
Ġpierw szego
ĠzobowiÄħza nia
Ġobsz arze
Ġg ry
Ġkry ter
by wa
ĠRoz woju
Ġprzed szko
ni onych
Lin ki
Ġpowin no
Ġskie rowa
Ġpodmio ty
Ġwyja ÅĽ
Ġkon stru
Ġ &
u e
âĢ Ķ
Ġzare jestrowa
Ġkatego rii
Ġsprzeda Å¼
Ġwyb or
ga n
Ġzas kar
men tar
d owania
Ġtransa kcji
Ġprowa dzenie
ĠÅļ wia
bi u
Ġ4 9
ĠRej on
k orzy
Ġzwie rzÄħt
ver si
Ġchwi li
Ġprzyczy n
Ġza ÅĤoÅ¼
âĢ Ļ
ie dy
Ġcywi lnego
owa no
g dy
Ro z
ĠR i
Ġty s
di o
ĠamerykaÅĦ ski
4 2
sze niu
Ġ3 3
ĠW ÅĤo
ktu ra
Ġrobo ty
ĠMo Å¼e
E W
dy n
ĠWiel kiej
5 8
Ġpojaz dÃ³w
Ġce r
Ġsz kÃ³ÅĤ
Ġnaby cia
tu je
âĢ¦âĢ¦ âĢ¦âĢ¦
ĠsÅĤuÅ¼ b
ĠE l
Ġspo Å¼y
ĠUsta wa
j nych
z j
Å ĵ
Ġpo rÃ³wna
Ġce le
ma il
Ġeg zeku
r ie
Ġtere nu
oba cz
ĠDyre ktor
Ġme to
Ġwy gra
Ġ4 8
ĠkaÅ¼ dej
da l
Ġnie od
Ġponie si
ĠDz iaÅĤa
ÅĤ nie
Ġprzychod u
Ġw pisa
ĠPod staw
mia na
Ġwy ka
ĠwystÄĻp uje
Ġedu ka
Ġre k
4 1
G A
Ġpo ÅĽ
spo zy
Ġp unk
Ġtele f
owa ÅĦ
S O
ĠwiÄĻksz oÅĽci
Ġznajdu jÄħ
Ġzatru dni
Ġdolar Ã³w
Ġin frastru
C h
Ġza nie
Ġwo je
Ġtranspor tu
Ñ Ģ
Ġzagospodar owania
5 6
Ġpa miÄĻ
M i
for m
Ġudzia ÅĤÃ³w
Ġ199 6
Å¼ onych
ĠokreÅĽlo nej
te lnoÅĽci
Ġte mu
czÄħ ÅĤ
niej sze
Ġstand ard
R U
Ġzabezpie czenia
---- ----
Ġwy bo
Ġja z
Ġi miÄĻ
Ġsp a
Ġwy wo
Ġgospodar czÄħ
T he
Ġelektroni cznej
Ġzw rÃ³ci
b ia
ali zowa
Ġotrzy muje
siÄĻ bior
Ġorze czenia
Ġob u
Ġodby wa
ĠI grzy
ĠW in
Ġwymieni onych
Ġal ko
Ġnie wie
iel ÄĻg
tk ow
Ġma ksyma
Ġd ekla
Ġod nosi
Ġ Äĩ
Ġda ty
te dy
Ġw niesienia
Ġod set
ĠV i
Ä Ĩ
Ġobywa te
Ġi tp
Ġin stancji
Ġz g
regu l
ĠrozwiÄħza nia
O b
por tu
Ġk od
Uro dzeni
niesie nie
Ġwymaga nia
Ġosob i
Ġso cja
re su
rÃ³ j
Ġstaw ki
Ġa n
Ġ3 7
l n
T o
Ġistnie je
Ġjedno czeÅĽnie
un d
ĠO G
ĠrÃ³Å¼ ne
os e
m bo
Ġpopu lar
ga zy
Ġt ur
200 9
niÄĻ cie
f t
Ġty p
Ġsam ej
5 4
6 8
Ġeuro pej
ce go
Ġgo dz
Ġwypad ku
dz ona
de ÅĤ
Ġdzie lni
Ġdz iÄĻki
ĠoÅĽ wia
czo no
l nia
Ġzamie sz
Ġwyda je
M O
Ġch yba
ĠPro gramu
ĠokreÅĽlo ny
ÅĤa szcza
pra widÅĤ
Ġby li
Ġcharakt ery
Ġz groma
Ġa Å¼
b ry
ĠA k
ĠA by
Ġfor my
Ġnaj wyÅ¼
ĠkoÅĦ ca
Ġ >
limpi jskich
ĠÅĽwia ta
GU LA
Ġsz pita
ĠKomis ja
Ġilo ÅĽÄĩ
Ġpun ktÃ³w
Ãĵ Åģ
Ġpo le
Ġorga ny
Ġcent rum
ĠFran cji
Ġwiadom oÅĽci
Ġh ttp
Ã Ń
cie li
Ġzna cznie
Ġsto pnia
Ġfa kt
ĠZ dr
Ġpobli Å¼u
ĠwojewÃ³dz twa
Ġzez na
b el
pis Ã³w
Ġd rze
8 9
S I
Ġsiedzi bÄĻ
Ġ ;
li ng
Ġzw ÅĤaszcza
ĠM or
Ġbudy nkÃ³w
Ġpo sie
Ġuzna Äĩ
ĠK rak
tycz nie
Ġpo mie
ĠOr dyna
Ġs ob
iÄĻ dzy
um er
Ġpo praw
Ġkomu na
o u
py ta
si Äħce
SKIE J
W i
Ġfunk cjÄĻ
ÅĽcie j
z d
ĠdÅĤugo ÅĽci
Ġdo tacji
sa dy
wnÄħ trz
art oÅĽÄĩ
7 2
Ġroz g
kto rem
Ġfinans owe
D A
Ġa gen
Ġ ÅĤÄħcznie
ĠR ol
Ġpod jÄĻ
Ġkwo ta
Ġmomen cie
Ġd em
Ġmi strzo
Ġd ie
tu rze
7 1
Ġo gro
Ġw ÄĻ
Ġd ra
5 1
Ġstwier dza
9 9
Ġbi z
Ġkar y
M ÃĵW
Ġzm ar
t m
pie ÅĦ
Ġdokona nia
Ġwynika jÄħcych
Ġprzewi duje
Ġstro na
w czych
L u
Ġinte res
ĠRze cz
js c
Ġa pli
no m
ciÄħ g
Ġk art
ĠjÄĻzy ku
Ġwska zuje
Ġ5 00
lo a
ĠspÃ³ÅĤ ek
ĠW ÅĤa
Ġzastrze Å¼eniem
ow er
Ġwielko ÅĽci
Ġoddzia ÅĤy
ĠO pera
ĠT ra
czy ni
ĠL ud
CZ Y
Ġca ÅĤym
kro tnie
Ġwy sp
Ġli tera
Ġ ...
ĠniezbÄĻd ne
Ġinsta lacji
Ġwy twarza
me s
pie j
pie ro
ĠZ wiÄħ
gh t
Ġznale Åº
Ġskar gi
Ã ł
Ġpol ski
R S
daw cy
Ġtowar zy
W e
ĠP ie
n na
ĠokreÅĽ lenia
ĠSt owarzy
ar za
od e
ĠK oÅĽci
Ġustaw Äħ
Å¼y nie
trze b
Ġupraw nieÅĦ
i ne
ter na
gÅĤo szenie
8 8
Ġdob rze
Ġpie niÄħ
Ġws chÃ³d
GULA MIN
Ġf o
Ġpo bra
li na
ĠÅĽwia towej
ty ku
Ġkon stytu
Ġrach unku
wa j
li zowa
Ġprzed e
OW I
za cjÄħ
lo nej
Ġo sie
ĠdostÄĻp u
im na
Ġsu k
ĠwystÄĻp u
i ca
D e
Ġpo je
Ġostatni ch
Ġdochod owego
Ġwie czy
ĠwÄħtp liwoÅĽci
CY J
ĠBryta nii
a u
ĠW AR
Å¼ ar
Ã ¼
ĠUni versi
ĠokreÅĽlo nego
Ġnie ma
__ __
Ġtra kt
ĠT ran
Ġzorga nizowa
6 6
ro dzi
T e
Ġpsy cho
Ġza siÅĤ
f y
P ol
Ġregi ona
Ġu szko
t nÄħ
Ġre mon
ĠT i
Ġry n
Ġproje ktÃ³w
Ġwynagro dzenie
Ġna s
sz one
Ġn owego
Ġprze kro
NI K
Ġw ÅĽrÃ³d
ĠLea gue
ĠOb ec
Ġpo peÅĤ
R a
w ÅĤo
la s
S y
li ne
P B
Ġszko lenia
ĠE U
ĠRa da
Ġo ka
Ġte raz
Ġpro mo
u p
b all
Ġwa lu
Ġzach Ã³d
Ġpo by
j skie
ĠOchro ny
Ġkwo cie
ĠUniwersyte tu
Ġsame go
wiad omie
Ġzmia na
Ġbru tto
Ġemery ta
ci ÅĤ
log ia
Ġu jaw
Ġmo c
Ġszko dy
S z
ÅĽci u
ĠÅĽwiet le
Ġpozy cji
Ġener ge
ĠMi cha
ĠÅģ o
ĠS tar
ĠS to
dzie lni
Ġu ni
ĠokreÅĽ lenie
Ġte l
Ġpodatk owe
Ġch roni
CZ NE
ĠS prze
ĠTwo je
Ġur lo
er ni
ĠT ak
Ġsk orzysta
Ġmia ÅĤy
Ġograni czenia
wo ÅĽci
Ġmiejsc owoÅĽci
Ġdecyz jÄĻ
en t
Ġh o
ĠM on
ÅĦ skie
Ġnazwi sko
ĠZamÃ³wie nia
kÅĤa dy
6 9
Ġ3 4
Ġpa li
Ġcia ÅĤa
U B
Ġbrz mieniu
Ġproto ko
Ġch ÅĤo
ĠWykonaw cÄĻ
Ġterytoria lnego
ro b
w s
ĠskÅĤad ek
p la
Ã³ p
bi Ã³r
Ġpodlega jÄħ
ĠMini strÃ³w
rze j
v is
Ġpro fi
Ġd rÃ³g
Ġpodatk owej
Ġpubli czne
Ġprodu ce
Ġb iaÅĤ
ĠwspÃ³l nie
Ġmet od
ĠO gÃ³l
wy m
ni tar
jÄħce mu
Ġgro ma
7 7
g le
Ġum owie
Ġzapew nienia
Ġdo rÄĻ
Ġnadz oru
Ġm ÄĻ
Ġ199 2
Ø §
F I
ĠNa cze
Ġzwo lni
Ġwska Åº
Ġnie prawidÅĤ
Ġpra ce
Ġzawar te
korzy st
ĠROD O
Ġpo ÅĤu
Ġk lub
Ġnaz wÄĻ
Ġka ta
Ġst w
Ġosob owe
t rwa
Ġko misji
Ġz bud
ĠP omo
Ġpowo da
ĠZ naj
Ġcz tery
pra wa
5 2
ĠAng lii
Ġre j
Ġotrzyma ÅĤ
scy pli
Ġod rzu
ĠL on
ĠuÅ¼ytk owania
e d
R Y
ĠM y
cz onÄħ
Ġjed na
ÅĤa t
Ġpoprze dni
Ġsza c
Ġp ielÄĻg
O T
Ġzaj mu
Ġsez onie
ĠV I
S ta
ĠspoÅĤe czne
Ġzawod owych
k owÄħ
kowa ne
Ġkonsek wencji
ĠG ro
Ġk ro
ni ona
ĠG daÅĦ
Ġkie rowa
Ġca ÅĤy
an ga
ĠPre zyden
Ġd r
Ġmi nistra
ermi n
sze dÅĤ
Ġchoro by
Ġobie ktÃ³w
ĠPO D
Ġ4 1
Ġkom en
Ġli sta
Ġser wi
d la
Ġze bra
ĠpiÄĻ Äĩ
Ġdo prowa
Ġa nty
Ġst Ã³p
Ġprzygo towa
ĠG enera
Ġcho ciaÅ¼
Ġspis u
ĠD ru
Ġ4 2
Ġpowod uje
ĠPra wa
ĠoÅĽ rod
ste go
Ġob raz
tar za
T a
Å¼ on
Ġstra te
ni sty
Ġw tedy
Ġu trzy
ĠM I
Ð ²
Ġwyda ne
Ġzasa dni
W IE
sta wienia
re ch
Ġza ka
Ġzdrowo tnej
ĠG MI
Ġpodstaw ÄĻ
ĠÅºrÃ³d ÅĤa
ĠamerykaÅĦ skim
le ty
Ġkonty nu
Ġwymieni one
Ġrach unek
200 6
ĠG dy
W ar
ĠS k
6 5
Ġfir ma
mia n
wi cz
ĠKa towi
Ġb e
ĠH u
Ġgospodar ki
Ġpla nowa
d ol
200 8
Ġpyta nia
ĠniektÃ³ re
ĠIN FOR
Ġprzy jÄĻcia
ĠÅĽwia t
Ġna r
w czy
Ġsy n
ĠParla mentu
ĠznaleÅº Äĩ
Ã ¶
ĠnastÄĻpu jÄħcych
Ġpo ÅĤo
ĠszczegÃ³l nie
b al
ĠzÅĤo Å¼yÄĩ
ĠM iÄĻdzy
ĠrozporzÄħ dzenie
6 7
Ġwie dzy
Ġmo je
Ġ <
Ġna gra
ĠUniversi ty
sk ry
Ġpyta nie
MÃĵW IE
ĠPO L
owis ka
Ġma gazy
Ġs ing
Ġfa ktury
Ġsta ro
nika mi
Ġra zem
gro dy
Ġda nej
ĠrÃ³w nowa
Ġpoziom u
Ġtre ÅĽÄĩ
Ġprowadzo nej
Ġza by
ĠF il
Ġdodatk owe
Ġtechni cznych
le k
Ġd owÃ³d
ĠÅ¼y w
NI U
ĠKonstytu cji
ĠKali for
Ġm m
Ġpro blem
Ġpo chodzi
Ġpracodaw cy
Ġpoja wi
Ġu two
dzi ÅĤa
kowa ny
Ġnali czonego
ĠZA MÃĵWIE
Ġpo in
ĠPrzed mio
Ġpun ktu
ĠStro na
Ġbi or
arzÄħ d
ĠU rz
ĠrÃ³Å¼ ni
Ġzdarze nia
Ġprogra mÃ³w
ĠP ostanowie
Ġkieru nku
z io
ĠÅ» y
5 7
z Ã³w
Ġna praw
ry w
Ġlicz bÄĻ
zu jÄħ
Ġnie po
8 7
D U
ĠpoczÄħ tk
ek sy
Ġkonie cznoÅĽci
ĠMie jskiej
Ġwykona ne
ĠCen tra
Ġcz ar
Ġwprowa dzenia
Ġzwy ciÄĻ
Ġw ÅĤÄħ
Ġroz sze
Ġo sa
ĠK e
ĠPa na
ĠC ze
ÅĦ skich
Ġk or
dzie Å¼y
Ġgra ÅĤ
Ġryzy ka
Ġzach owania
j ne
Ġusta nowi
Ġs ÅĤowa
m em
el l
ĠM c
ĠT owarzy
ci n
ĠwspÃ³l no
Ġt r
ĠO ÅĽrod
ĠD om
A r
Ġi z
ĠdziaÅĤ ki
Ġotrzyma nia
Ġpraw na
O N
Ġma sz
ru s
ĠS Z
ĠC ie
wÃ³ d
Ġg u
ĠP K
Ġprzy ro
Ġda ta
ĠpoÅĤoÅ¼ ona
ĠPreze sa
Ġpraw nÄħ
szyst kie
Ġpowszech nie
8 3
Ġp owaÅ¼
Ġb ia
ĠI sto
ĠzarzÄħ du
ĠS am
Ġgru pa
Ġwyra Åº
l nymi
Ġkwali fika
Ġindywidual na
kre ÅĽli
Ġskar Å¼
ĠP os
o ÅĤa
j Ã³w
st rybu
k owo
Ġ199 5
ct wo
ĠwojewÃ³dz twie
la mi
I D
Ġwyd arze
ÅĤ ki
j ny
Ġim pre
ĠÅ¼o ÅĤnie
ĠNa leÅ¼y
ie s
Ġeksp loa
Ġniez wÅĤo
pa ra
Ġ â
Ġ *
f r
Ġzamawia jÄħcego
ĠO fer
Ġo cze
tnie go
ĠDzie n
Ġz i
Ġu da
pre tacja
Ġpro kura
ĠPro du
Ġzawar tych
Ġal bu
Ġz ni
ĠH en
Ġpozosta ÅĤych
ĠMi strzo
ĠD Z
ĠRe je
siÄĻ g
ĠzobowiÄħza ÅĦ
ĠInforma cje
1 00
Ġ5 9
Å¼ er
Ġkole i
Ġw si
ĠU rzÄħd
Ġtw orzÄħ
ĠspoÅĤe cznych
ĠP io
Ġwarun kiem
Ġudzie lenia
si n
Ġlu dz
Ġstos ow
Ġpart ner
tycz nym
B C
dnie niu
Ġza b
R Z
Ġkul tury
Ġu zy
ĠS praw
ÅĽ re
Ġb lo
Ġbrz mienie
ĠT h
cza ÅĤ
Ġdy spon
Ġofi cja
st nie
Ġw chodzi
Ġpoja wia
Ġty godni
ĠPro gram
ĠspoÅĤe cznoÅĽci
Ġwymaga ÅĦ
m owanie
Ġstud iÃ³w
8 6
Ġprocedu ry
ktu al
Ġniez god
ĠGmi na
ĠpoÅĤudni owo
Ġwystar cza
Ġpracow ni
Ġnum e
Ġsprawoz dania
v ille
Ġ8 6
w ski
bie g
Ġle czni
Ġlekar za
5 3
ĠT ur
ĠPrze pisy
ĠpÅĤa t
st ki
ogra fi
Ġni Äħ
Ġra zy
Ġod kry
Ġregi onie
u ka
Å¼ nej
nia nia
st ka
Ġja kich
ĠE d
ĠI s
kowa nie
ĠÅĽ w
Ġpolity ki
c ow
IA Åģ
Ġpa sa
sty m
Ġhi po
f ie
Ġpodatk owy
Ġk odek
ÅĤo nek
p s
Ġzwie rzÄĻ
Ġubezpie czeÅĦ
ĠP u
ĠU STA
ĠSz cze
Ġu mo
towa ÅĤ
ĠosiÄħ g
ĠwÅĤas nych
Ġprzeprowa dza
ĠpowyÅ¼ sze
Ġpo chodz
Ġpi ÅĽmie
ĠB ro
wo ka
ĠO P
kar ze
m pa
Ġdo dat
Ġpo rÄĻ
ro bo
Ġ0 1
Ġpochod zenia
ow n
Ġdostar cza
Ġprzetar gu
ĠspÃ³ÅĤ ka
ĠKa Å¼
kÅĤa dzie
d ek
Ġod liczenia
se tek
Ġu cze
Ġpro stu
Ġdochod u
Ġcho dzi
Ġnale Å¼a
Ġmo nitor
Ġobejmu jÄħ
ĠRegula min
Ġpacje ntÃ³w
Ġw g
h ol
ĠM IE
Ã ¦
ĠksiÄĻ g
Ġt war
ĠuwzglÄĻ dnieniem
Ġmin ut
Ġpo ra
Ġro lÄĻ
ĠO D
z wo
in t
ĠsprzÄĻ tu
ĠmyÅĽ l
Ġch emi
Ġre li
ĠGMI NY
pe ten
sze ÅĦ
Ġpodat kowa
Ġt ar
p om
7 4
ĠEuro py
Ġtu rysty
Ä ģ
js kÄħ
Ġpodat nik
Ġc m
da go
Ġu rzÄĻd
ĠW or
Ġnaru szenie
Ġne tto
Ġprzeprowa dzenia
czo ÅĽci
Ġst u
ĠNa stÄĻp
ĠczÅĤowie ka
Å¼ ona
ĠPO ST
Ġg i
ĠZgroma dzenia
dz ÄĻ
ok ra
ĠSpe cy
Ġbudow ÄĻ
ĠkoÅĦ c
Ġpostanowie ÅĦ
ĠMar y
ĠUchwa ÅĤa
Ġme dia
Ġf ar
bli ote
Ġpos ia
Ġdy stry
Ġwspar cia
Ġu rzÄĻ
pie r
Ġstud ia
ar e
Ġpowierz ch
Ġtw orzy
s jona
ĠKrak owie
tek st
ĠpiÅĤkar z
u jÄħc
ĠE x
Ġpowsta nia
20 20
Ġnaz wy
ĠJ or
dzo nego
ĠP er
6 1
ï¿½ ï¿½
Ġu regul
ĠCh a
Ġ199 3
ĠPro jekt
Ġwierzy telnoÅĽci
Ġwi os
Ġs ÄĻdzi
Ġza chod
Ġdo stos
ĠGe or
tycz na
Ġzaku pu
ĠosiÄħ gniÄĻ
u zu
Ġklu cz
ĠIn we
L e
ĠSej mu
Ġod legÅĤo
ĠN IE
st ej
Ġtr wania
B a
tu rÄĻ
ĠSta n
Ġw pÅĤa
E D
rÃ³ cz
ĠDyre ktora
ni cja
ĠP ow
Ġpod wykona
ĠobowiÄħz ki
Ġcz war
ktÃ³ re
ĠmiesiÄħ ca
Ġdo piero
g re
Ġdzie cko
Ġ4 4
Ġd Åº
Ġuwa dze
wa y
s en
m owaÄĩ
Ġka lend
Ġzawar ta
Ġzie mi
OWE GO
Ġli ÅĽcie
ĠokrÄĻ gu
lu s
ZÄĦD ZENIE
Ġsy mbo
ĠWojewÃ³dz twa
Ġfinans owej
Ġzob a
Ġwy ÅĽci
Ġsystem Ã³w
ĠPÃ³ÅĤnoc nej
w ro
Ġkonie czne
Ġwy produ
Ġzawo dni
Ġko lo
Ġzau wa
8 4
Ġw ÄĻg
Ġindywidual nej
rÃ³ deÅĤ
M U
de l
ĠZe spo
ĠspÃ³ÅĤ dziel
wa l
Ġmie ÅĽcie
ĠzarzÄħ d
ĠÅļ wiÄĻ
Ġdowod Ã³w
Ġle czenia
za ch
Ġw szczÄĻ
Ġorze cz
Ġm ln
Ġpo nosi
Ġwszel kie
ĠÂ »
Ġzie m
6 4
Ġosob Äħ
glÄħ da
men cie
s ol
ĠniezbÄĻd nych
Ġg ene
Ġodpowiedzia lnoÅĽÄĩ
Ġza ÅĤÄħ
ĠPrzed siÄĻbior
Ġtu taj
ĠC O
z ny
8 2
Ġk al
war d
ĠuÅ¼y wany
E L
DZ IE
ar mo
Ġgwaran cji
ĠO B
co ny
Ġa kty
Ġod setek
ĠÅ¼ad nych
Ġnie prze
jaz d
z wyczaj
ĠM is
ter min
w or
ĠS cho
Ġprzedmio t
ĠmÄĻÅ¼czy zn
Ġprzeka zy
ct ion
Ġkwali fikacji
ĠP IT
ĠÅļ lÄħ
ĠZarzÄħ d
ku r
Ġcywi lnej
ĠW ol
art o
Ġosob ist
ĠG Ã³r
v o
ĠCz ÅĤon
ÅĦ ca
ĠÅº rÃ³deÅĤ
stwa ch
J ÄĦ
ĠRegi ona
art oÅĽci
Ġstop niu
Ġpodstaw owych
6 2
Ġnaj czÄĻ
Ġgodzi ny
Ġn owy
ĠK omen
ÅĽ le
ko mu
Ġpi Äħ
ĠT ar
Ġwynosi ÅĤa
ÅĤe ÅĽ
Ġele mentÃ³w
ĠDo kumen
fika cja
M ie
ĠciÄħ g
Ġw czes
le ge
ĠU czest
ĠpÃ³ÅĤnoc no
Ġzna laz
Ġopro gram
ta k
de o
Ġb ran
ÅĽwiad czenia
Ġproje k
Ġobsz aru
Ġk war
Ġe mi
Ġzwy k
Ġkwest ii
ĠN owy
ĠPod czas
w szy
Ġpro por
Ġzawar tej
ĠczÅĤonkow skie
ka n
9 0
ĠJa po
ĠB ia
Ġrze ki
Ġkonkuren cji
. âĢĿ
Ġzde cy
Å¼ sze
d owanie
ĠAustra lii
Ġnaru sza
cze m
ĠNajwyÅ¼ szego
ĠE n
ÅĤa m
8 1
Ġkontro l
200 7
Ġprze mysÅĤ
K on
ĠT ek
7 3
Ġzasob Ã³w
Ġdokonu je
ca l
A l
te s
Ġobywa tel
ga mi
ĠmaÅĤ Å¼on
Ġopera cji
ĠK iedy
Ġg ÅĤÄĻ
Ġma szy
Ġwy co
ni ng
na leÅ¼
nali za
Ġro sy
ĠXI X
Ġw pis
ĠPar k
Ġwej ÅĽcia
Ñ ģ
ĠPoÅĤudni owej
U M
Ġzamk niÄĻ
Ġwi do
Ġregula cji
Ġbiz nes
ĠA da
Ġdrog Äħ
no szÄħ
Ġofer ta
Ġra di
Ġfinans owego
Ġkonkur su
Ġro bi
th er
Ġosob om
er t
ĠUÅ¼y tkow
ur i
Ġ ÅĤo
Ġnadz or
Ġda nym
Ġar e
ĠSt re
li k
Ġde cy
ĠJ er
ĠO F
ĠO limpijskich
ĠU CHWAÅģA
sz ta
P S
Ġprze pÅĤy
Ġpozy tyw
Ġwy sÅĤa
ĠzaÅĤÄħcz niku
Ġniewie l
or ty
wa niem
Ġzmia nÄĻ
Ġudziela nia
Ġstro nÄĻ
ĠC or
Prze d
Ġwskaza ne
Ġregu lu
Ġzna na
Ġwynika jÄħce
I V
ĠKa ro
om e
Ġli mi
ĠrÃ³w no
Ð »
Ġwych owa
ta cje
chwa ÅĤa
Ġin nowa
B A
d ne
ĠudziaÅĤ em
Ġ198 9
szy scy
mi u
Ġwymaga ne
E S
Ġpraw ny
Ġwskaza ÅĤ
Ġsk rÃ³
nie ÅĽÄĩ
ĠporzÄħd ku
ĠW Ã³j
Ġrepreze ntu
Ġli sty
ty wy
ĠskÅĤa dzie
t rza
ĠWnioskodaw cÄĻ
ty fikowa
h u
Ġubezpie czenie
ĠCh ar
Ġn owej
Å¼ sa
ĠZdr owia
Ġpo dziaÅĤu
Ġ ner
Å¼e m
ci o
ni n
Ġkonta kt
Ġwszyst ko
Ġmia ÅĤo
t os
ĠWspÃ³l no
Ġwy stÄħpienia
Ġnie bezpie
Ã ±
Ġu zaleÅ¼
sz ÅĤo
Ġod e
Ġpod rÃ³
li sty
sze niem
d ÅĤuÅ¼
Ġjest e
SK I
ga tyw
Ġinforma cjÄĻ
Ġzw raca
Ġkwali fikowa
Ġdziedzi nie
rze niu
à ¤
Ġmie siÄħce
ĠAd res
Ġwskaza Äĩ
Ġnieo grani
kÅĤa dni
owa nÄħ
ĠskÅĤadni kÃ³w
for d
Ġwsp om
ĠObec nie
Ġwy nik
Ġni gdy
ĠInter ne
ĠL et
Ġst rze
Ġsprze ci
ĠmaÅĤ Å¼eÅĦ
Ġkom peten
ĠKo mite
nie waÅ¼
da le
Ġni mi
Ġkorzy ÅĽci
Ġwy raz
Ġtytu ÅĤem
Ġt wÃ³r
ĠDa ta
Ġmini ster
ciÄħ ga
ĠE le
ĠPowia tu
ĠÅļwia ta
Ġnieod pÅĤa
anga Å¼
h en
owa li
Ġwy niki
Ġzamie rza
ww w
Ġadministra cyjnego
po ra
za d
ĠN owej
Ġprawdopod obnie
D F
Ġ1 20
Ġcie p
W nios
ist oria
wa ns
wo lu
Ġdla tego
da lej
Ġra dy
mu jÄħ
ce l
ĠS prawie
t ri
Ġnau ki
ĠPL N
ĠuwzglÄĻ dni
Ġma s
Ġre nt
Ġb roni
Ġanali zy
ĠzajÄĻ Äĩ
Ġtym czas
Ġpisem nej
k et
ĠroÅĽli n
Ġzu Å¼y
ĠSta tu
ĠS SN
ĠPol skiego
Ġta ka
ĠP ri
Ġce na
Ġwzro st
Ġdob re
ĠzamÃ³wie niu
Ð º
ĠwÅĤas ne
Ġdz is
Ġoczy wi
lo no
w skiego
Ġczte rech
Ġ5 2
Ġwykorzysta nia
Ġja s
ĠCo un
ĠobjÄĻ tych
ĠtÅĤu ma
ĠsamorzÄħ d
ĠA s
ĠScho ol
ĠniezwÅĤo cznie
ÅĽ wiet
Ġcho Äĩ
ĠÅĽrodowis ko
NI ST
Ġdu Å¼e
Ġzawod owego
Ġdodatk owych
P A
Ġkandy dat
ĠFundu sz
Ġumie jÄĻ
zna cza
Ġauto ma
ĠCi ty
A d
Ġofer tÄĻ
in gu
Ġnaj mu
6 3
czeÅĦ stwo
ĠjÄĻzy ka
w cze
200 4
ĠÅĽ cia
ĠU sÅĤu
ĠSpoÅĤe cznej
Ġz da
Ġhipo te
ĠwÅĤa ÅĽnie
Ġelekt ro
Ġw ery
Ġprzestrze nnego
Ġd rew
Ġzby cia
Ġob a
Je ÅĽli
Ġlikwida cji
Ġsamochod u
st on
Ġpol skiego
den cji
ĠB el
ĠW O
ch ÄĻ
Ġhandl owych
ĠTy m
Ġrozwi ja
Ġsk le
kra i
za jem
ene fi
dza nie
Ġwskaza nych
Ġpostanowie nie
licza nia
sz ony
d niu
ĠniezaleÅ¼ nie
ĠP en
ĠwÅĤa dzy
Ġbez pÅĤa
K ÃĵW
Ġlu dzie
ĠS za
Ġsku tkÃ³w
Ã ¤
Ġpo ru
Ġlu dnoÅĽci
szy mi
ĠksztaÅĤ cenia
! !
ĠZ na
Ġgru ntÃ³w
fika cjÄĻ
Ġch or
d f
Ġdo chÃ³d
g ru
G RA
z owie
Ġto ku
Ġrodzi cÃ³w
ĠzgÅĤo szenia
Ġfunkcjon owania
SK A
Ġmi kro
Ġpod pis
Ġp le
wÅĤa ÅĽci
cze r
Ġpozosta je
szy Äĩ
Â °
a s
ar Ã³w
ĠBan ku
Ġpod da
J A
ĠÅģo dzi
Ġre Å¼yser
Ġ7 5
nie go
i Äĩ
ĠÅĽ wiÄĻ
W Y
Ġstanowi Äĩ
sti on
ĠK ul
Ġk Äħ
Ġza budowy
ĠczÅĤonkow skich
cz ba
ĠRegula minu
Ġcer tyfika
Ġob ja
n ce
co nych
la k
Ġbezpo ÅĽre
w czego
z owania
tar zy
ĠS ch
S a
ĠNa tional
Ġzg ÅĤasza
Ġdyre ktora
nia r
Ġinfrastru ktury
Ġin Å¼ynie
Ġarchi te
Ġ4 7
ĠcaÅĤ ej
ĠTrybuna ÅĤu
towa nych
ĠN umer
d le
tycz nÄħ
M ar
ĠprzestÄĻp stwa
Ġzdol noÅĽci
Ġok rÄĻg
ĠsÅĤu Å¼y
li am
Ġza wiadomie
Ġma m
ĠgÅĤÃ³w nym
owa ÅĤy
Ġinte gra
Ġroz wÃ³j
Ġprodu ktu
Ġle p
Ġdy strybu
ĠPozna niu
Ġwy dzie
Ġwy pÅĤaty
ĠSe na
Ġjak Äħ
re d
Ġniniej szym
D O
ĠpoÅ¼y czki
Ġzdoby ÅĤ
ĠSpÃ³ÅĤ kÄĻ
Ġdy plo
Ġna zy
rÃ³ b
ĠnaleÅ¼ nego
Ġ3 00
Ġdrugi m
tor ium
Ġ ÅĤ
ĠJ ej
stra li
ha bili
Ġzgod noÅĽci
ĠMar szaÅĤ
Ġpod wyÅ¼
P E
Ġne gatyw
dzo nej
Ġzezwo lenia
Ġdy spozy
Ġ5 5
strzy ma
Ġ5 3
ĠwypÅĤa ca
lo nego
Ġsez on
Ġzawiera Äĩ
Ġodbior u
Äħcy mi
Ġkapita ÅĤu
Ġupad ÅĤoÅĽci
ĠZnaj duje
Ġjaz dy
Ġ6 5
ĠIn spe
ĠpowyÅ¼ szego
ze um
ĠN owym
ÅĤa mi
to gra
R ZE
p ÄĻ
] ,
Ġbez robo
Ġprze sy
M e
ĠE du
Ġdy scypli
Ġod dzie
Ġodpowie dÅº
ze nie
sze m
Ġi na
Ġs kaza
Ġko mis
cyj nymi
ĠpowyÅ¼ szym
T O
ĠBur mi
Na j
Ġpowia tu
C a
or ii
ĠpaÅĦ stwo
Ġodszko dowania
ĠT ermin
ĠU M
Ġg re
ĠI r
owa ÅĤo
ĠmÃ³ z
Ġczer wo
mer ica
ĠosiÄħ ga
U D
ĠdziaÅĤalnoÅĽci Äħ
Ë Ŀ
ĠobowiÄħzu jÄħcych
ĠD osta
mi ni
Ġza miast
Ġmeto dy
Å¼e k
Ġs ur
Ġza angaÅ¼
ĠÅĽrod ka
ĠKraj owej
B I
w rÃ³
Ġja kiej
Ġsta cji
ĠP uch
Ġpotwier dzenia
ĠA m
ĠFi r
Ġsob Äħ
Ġwers ji
Ġdar owi
Ñ Ĥ
w ska
sp i
Ġ8 9
kreÅĽ la
Ġpraw dzi
Ġsta tysty
g is
Ġtrze ba
iel d
ĠNarod owej
ĠAdministra cyjnego
Ġodpowie dnie
Ġs ÅĤa
Ġz im
Ġ5 4
bi o
Ġma ÅĤo
ÅĤ ÄĻd
t j
Ġdo chody
sta wienie
Ġpozwa nego
Ġw ier
Ġ9 9
Ġpra k
Ġinfor muje
la sy
cyj no
ĠUniwersyte cie
ĠobowiÄħza ny
Ġum ow
ĠZa kÅĤad
Ġma n
Ġa li
ĠO l
ĠdostÄĻp ne
ÅĤu je
Ġkar ty
Ġstwier dziÅĤ
Ġwyco fa
n cie
lo kali
Ġga z
Ġobie ktu
Ġpoz arzÄħd
ĠzakoÅĦ czeniu
Ã³ rek
ĠOrdyna cja
Ġdz ier
ĠgÅĤÃ³w nych
ĠwaÅ¼ ne
lan dz
li nie
ĠK i
Ġwy nikÃ³w
b od
U chwaÅĤa
Ġw niesi
Ġu d
dzie siÄħ
ĠczÅĤon ka
Ġfinans owania
Ġza pyta
Ġza czyna
Ġrozumie Äĩ
Ġtowar u
lno praw
siÄĻ cy
czy k
Ġefek tyw
Ġkon serwa
Ġt er
ĠpieniÄĻÅ¼ nych
y s
Ġdyre ktor
ĠW s
ĠuzupeÅĤ nia
pra wia
Ġpis a
Ġposia dania
Ġprofe sjona
Ġpracow nik
ĠM A
Ġza trzyma
j nej
nict wie
ĠW z
cy k
Ġsku tek
200 5
Ġpo jem
Ġp ers
ĠWar unkÃ³w
n ci
ĠNajwyÅ¼ szy
Ġp ÄĻ
Lu dzie
Ġza ga
Ġo tw
owie c
Ġf un
ĠNadz or
Ġpubli kacji
Ġg wia
Ġpo go
ĠskÅĤad ki
Ġfunk cjona
ĠKraj owego
Ġuzna ÅĤ
Ġpoje dyn
Z obacz
ĠJa na
ĠKalifor nii
re g
Ġgmi n
Ġzosta je
Ġpun kt
czeg Ã³ÅĤ
ĠIgrzy skach
ĠwÅĤaÅĽciwy m
cho dzie
Ġwyklu czenia
l la
Ġwyda na
enefi cje
Ġm is
Ġu s
ĠprzedsiÄĻbior cy
Ġob o
Ġza pisa
iÄĻksz oÅĽÄĩ
b l
Ġno mina
Ġprzy chÃ³d
Ġprze sz
ĠB ie
ĠÅ¼Äħ danie
ĠdoÅĽwiad czenia
wa ÅĤa
nio nego
ĠFil m
ĠL in
ĠA t
Ġnie pod
E M
Ġzawod owej
Ġwykony wanie
b rze
Ġdekla racji
wie ÅĦ
ĠInforma cji
sty czne
Ġty siÄĻcy
ĠzÅĤo Å¼one
Å¼o nym
dat ki
la nia
ĠprzedsiÄĻwziÄĻ cia
ĠSprawie dliwoÅĽci
kade mi
ĠRo dzi
Ġosob ie
ĠÅ¼yw noÅĽci
Ġte ra
ĠINFOR MA
da k
Ġfundu szu
Ġmod e
Ġoce nia
ĠÅļ wiad
Ġkwa dra
ĠPoli cji
Ġrejestra cji
Ġutrzyma nia
Ġsez onu
Ġar gu
Ġ6 9
Ġzapo zna
wa nej
Ġkalend arz
Ġpo maga
Ġuzna nia
komu nika
ĠspÃ³ÅĤ ce
Ġalko ho
Ġwyro bÃ³w
Ġwe wnÄħtrz
ĠWo j
Ġpie ni
ĠH er
Ġ0 9
sÅĤa wa
Ġob ra
Ġ198 2
ĠRe c
od u
ĠspeÅĤ nienia
Ġty mi
Ġdofinans owanie
Ġb is
Ġzapew niÄĩ
Ġpar la
Ġwy ga
Ġna cze
Ġnauczycie li
ĠzakoÅĦ czenia
Ġkon tek
Ġsze ÅĽÄĩ
niej szych
Ġw dro
Ġsztu ki
co na
SKIE GO
Ġmet rÃ³w
Ġ6 4
ĠKom u
Ġz biera
Ġele menty
Ġza ist
Ġryzy ko
Ġwi ce
ĠwspÃ³l nego
Ġgdy by
ĠprzedsiÄĻbior cÃ³w
mie c
Ġws chod
ĠSkar bu
ĠA K
Ġdecyz ja
Ġisto tne
Ġfil mu
Ġusta lenie
Ġdrugie go
Ġza kÅĤadu
Ġpr ÄĻd
ĠHi szpa
G I
Ġh y
ow skiego
ĠosiÄħ gniÄĻcia
ĠwpÅĤy wa
Ġaktu ali
ĠSta ni
sty cznych
Ġpara met
tyku ÅĤ
un g
cz nik
strze ga
ĠNastÄĻp nie
l li
Ġisto tnych
ĠcaÅĤkowi cie
Ġorze ka
Ġmili onÃ³w
Ġzrobi Äĩ
Ġi de
szcz ÄĻd
Ã³ ra
ĠÅĽ le
Ġreprezenta cji
Ġpol skim
Ġch cia
Ġprzy chody
Ġstwier dziÄĩ
bo ra
kow ski
ĠS K
ĠUchwa ÅĤy
ĠO p
Ġdnia ch
Ġsy gna
Ġnie waÅ¼
Ġwykonaw cÃ³w
Ġusu niÄĻcia
ĠMiÄĻdzy narod
ĠzamÃ³wie nie
ĠNa tomiast
W a
Ġklie nta
Ġst owarzy
Ġw pisu
Ġiden tyfika
Ġdy sku
bie gu
ĠpiÄĻ ciu
ĠgÅĤo sÃ³w
Ġbudy nek
Ġre feren
ĠspoÅĤe cznego
% .
Ġpow Ã³dz
ĠÅĽwiad e
Ġi nicja
ĠWy dziaÅĤ
Ġwszel kich
ĠuÅ¼y ciu
Ġfaktycz nego
Ġjednoli ty
Ġdo s
u se
Ġrozstrzy gniÄĻcia
Ġprowadz one
ĠI m
rzy m
Ġograni cza
sza wa
Ġrozpo czÄħÅĤ
wo j
Ġz daniem
ĠâĢ ¢
ĠRO Z
ĠdziaÅĤa nie
Ġmi mo
ĠupÅĤy wie
Ġzwro t
Ġsamo lo
ĠwystÄĻp ujÄħ
ÅĤo Å¼enie
men tem
Ġkar nego
Ġosob owoÅĽci
Ġu i
ĠogÃ³l no
Ġdo kÅĤad
Ġro szczenia
Ġpol skich
cjonariu szy
ĠCol lege
Ġwy woÅĤa
Ġkonie cznoÅĽÄĩ
Ġna rzÄĻ
ne mu
ĠP owie
Ġsto li
Ġproble mÃ³w
OWY CH
Ġja po
Ġ196 4
Ġm g
ĠF l
Ġo kaza
ance lar
ĠCzÄĻ ÅĽÄĩ
zu jÄħc
Ġzas Äħ
fi ku
ĠTrybuna ÅĤ
Ġe dy
ĠB ru
Ġro szczeÅĦ
Ġpro pon
Ġprzyczy ny
ĠJoh n
Ġusta nowie
Ġzapro jekt
Ġtek st
ra nie
ĠS N
OWE J
os ob
ÅĤÄħ d
c ro
Ġcy k
Ġm onta
n kiem
Ġu kÅĤad
u th
Ġse kre
Ġdzier Å¼a
Ġli czyÅĤa
L O
Ġpodatk owym
si on
wali fikowa
Ġprzedstawi one
Ġwymi aru
li ny
Ġstru ktu
ni czych
ĠuÅ¼y wane
Å¼ d
Ġprodu kty
g ne
Ġc Ã³r
Ġco ÅĽ
ĠWy so
cyj nie
ĠDa ne
Ġprodu kt
Ġuli cy
Ġma cie
ĠS ze
Ã³ ze
ĠP lan
ĠTo ma
Ġtechni czne
Ġod pada
da li
b ar
Ġprowa dziÄĩ
Ġuczest nikÃ³w
Ġprzy ja
ĠSta ro
S R
Ġdo ros
Å» y
ĠD ar
Ġb ÅĤÄĻd
cze ch
ma na
Ġ197 5
Ġh e
ĠWojewÃ³dz kiego
Ġb ur
ĠZ US
Ġpow ro
ĠzaÅĤÄħcz nika
ĠA fry
dago gi
Ġzby t
Ċ Ġ
Ġunie moÅ¼li
terna tyw
ĠU mowa
le niem
rÄħ z
ĠT re
Ġuzyska ÅĤ
ĠU rzÄĻd
Ġpro te
lokali zowa
ĠKO N
ĠDe parta
Ġzna k
Ã³Åº niej
sol wen
ĠUbezpie czeÅĦ
ÅĦ cu
Ġkana dy
ÅĽci Äĩ
Ġorga nem
Ġelektry cznej
Ġdia gno
Ġloka lnych
Ġtur niej
ĠG ran
Ġde parta
ĠmajÄħtk owych
ĠwÅĤas noÅĽÄĩ
cy m
ma mi
Ġstop ni
Ġd i
AN OWIE
Ġpierw szych
Ġzna czenia
Ġkolej nych
Ġpowie trz
ĠwspÃ³ÅĤ czes
Ġrodzi nie
Å¼ na
Ġmomen tu
Ġseria lu
Ġo pu
ĠW szystkie
Ġza in
Ġak cep
Ġs en
ce ny
Ġo to
D la
Ġszyb ko
Ġmo dy
ĠzwiÄħ zek
Ġpod wÃ³j
t ta
Ġpod jÄĻcia
Ġob sÅĤu
d ie
Ġk rzy
Ġre ak
Ġto Å¼sa
ĠWo js
ĠNiem czech
Ġwo kÃ³ÅĤ
ki ng
ĠPostanowie nia
Ġ9 5
c on
ba ch
Ġsta ÅĤ
Ġme ta
Ġza nim
Ġkla uzu
ĠK siÄĻ
Ġ ?
ĠKon tro
ĠspÃ³ÅĤ kÄĻ
Ġw zajem
Ġod wie
ĠOF ER
qu e
Ã³ g
y e
ĠodwoÅĤa nia
Ġocze ki
Ġpoprze dza
Ġ '
ĠwÅĤaÅĽci woÅĽci
Ġtak Äħ
ĠP eÅĤ
Ġsub stancji
Ġwarun ku
Ġjedno zna
S p
Ġop Ã³Åº
ĠzaÅĤo Å¼y
Ġzre alizowa
Dz ie
War szawa
ĠÅ¼e by
no szenia
ĠPro je
czy li
Ġprzekaza nia
stÄĻp uje
ho ma
Ġnaby cie
ga cji
a le
Ġpod kreÅĽli
Ġkonsu l
9 5
le ni
Ġo no
h an
Ġca ÅĤego
T ER
ĠobjÄĻ te
l s
Ġo pisu
mu m
Ġpowie dziaÅĤ
ĠC el
Ġdzie siÄĻ
ĠK ry
Ġ198 8
ri d
o re
Åģ U
ĠIsto tnych
ĠPa ra
M S
Ġloka lizacji
ĠurzÄĻ dni
ÄĻ dzia
Ġz rozu
Ġma my
d go
ĠporÃ³wna niu
Ġrodzi n
Ġe misji
Ġwy kazu
Ġmateria ÅĤu
ct i
wodnicz Äħcego
Ġnaj korzyst
Ġzob owiÄħ
Ġ198 5
Ġsta ra
Ġba daw
Ġod wo
Ġzdrowo tne
ĠCho ciaÅ¼
Ġchce sz
r in
ĠWe st
ĠC za
ĠWAR UN
Ġgatu nkÃ³w
Ġu nika
Ġma jÄħcych
Ġbi o
ĠPreze s
Ġzwol nienie
Ġrodzaj Ã³w
nie niem
Ġpre mie
ĠsÄħd Ã³w
Ġa na
Ġcywi lnopraw
Ġna m
Ġgru nt
Ġzamawia jÄħcy
Ġprzed ÅĤu
Ġg imna
Ġmie sza
Ġau strali
obi or
Ġza a
ĠbÄĻd Äħcych
Ġ rzym
e la
pa ch
Ġusta nawia
l onÄħ
ĠÅģ a
Ġd owie
Ġroz liczenia
ĠpoÅĤu dnie
Ġjednost ka
c s
Ġro ze
Ġkryter ium
gra ÅĤ
Ġad woka
Ġ197 4
Ġstanowis ku
Ġsty pen
Ġda je
Ġz lokalizowa
Ġ198 4
Ġsz czy
ĠD ol
ow la
T y
Åļ ÄĨ
ĠMie szka
ĠumiejÄĻ tnoÅĽci
ow ska
Ġza jÄĻcia
ĠAgen cji
Ġinwe st
Ġka sa
B E
Ã ¢
a st
Ġzna ne
Ġrozpa t
stÄħpie nie
ĠzÅĤo Å¼y
ty fikacji
ĠPio tr
Ġ Ø
Ġza zwyczaj
Ġhi szpa
ĠKlie nta
ĠgÅĤÄĻ bo
ĠR A
dzie Å¼
Ġpraw nym
Ġcz ÅĤonek
Ġban ku
ga l
ĠLon dy
Ġzgo dÄĻ
Ġwykony wane
s Äħ
k rzy
r owo
Ġnor m
ĠB la
ĠHen ry
Ġdo j
Ġ6 7
ÅĤ owi
Ġreali zacjÄħ
Ġza bu
Ġta jem
Ġwy rÃ³Å¼
dzie ÅĦ
Ġmod el
Ġd uch
ĠK or
Ġ5 6
Ġdos kona
ĠH ol
Ġklie ntÃ³w
ÅĤ by
Ġpierw szÄħ
Ġ( âĢŀ
Ġpieni ÄĻdzy
ĠD ob
ÅĤ owe
Ġna zywa
mu jÄħc
e na
da n
Ġbudowla nego
Ġnieruchom o
Ġna szej
t le
ĠPro kura
Ġnale Å¼Äħ
Ġfaktu r
ĠspeÅĤnia nia
ord s
Ġwz oru
Ġ15 0
ĠLet nich
Ġu kÅĤadu
Ġe pi
ĠFran ci
ud o
ks and
Ġosob ami
Ġspad ku
Ġwyra Å¼a
ni om
9 8
ĠprawidÅĤ owe
ĠJor ku
kowa Äĩ
ĠZAMÃĵWIE NIA
ĠRE GULAMIN
ĠG i
ĠP A
go n
Ġsty lu
Ġsku tki
Ġzapo trzeb
Ġre f
li ma
m p
Ġza licza
Ġwykonaw cÄĻ
Ġrzeczywi stoÅĽci
or zo
ĠC zer
tych miast
g iÄĻ
Ġprze glÄħd
Ġprzy jÄĻcie
Ġwi dzenia
Ġdzi ÅĽ
ĠopÅĤa ca
Ġam orty
ĠJ Ã³ze
Ġmu s
AT U
Ġumie sz
Ġwzro stu
Ġz ÅĤa
Ġk ory
Ġproble my
Ġnajkorzyst niej
Ġu nij
Ġw kÅĤad
Ġpro pozy
Ġni c
ĠDz iaÅĤ
Ġro li
Ġgra nicy
L NO
Ġfe dera
Ġ194 5
ĠO sta
Ġorgani zowa
jaz du
c le
Ġwy j
Ġtry b
RE S
ĠusÅĤug ÄĻ
ni s
Ġkar ie
Ġser ca
ĠpoÅĽ wiÄĻ
ĠkapitaÅĤ owej
ĠSpoÅĤe cznych
ĠKra kÃ³w
Ġp n
ĠInter pretacja
z owanie
kar z
In forma
Ġpom Ã³
Åº ni
Ġwi ru
ĠWor ld
Ġpodat kÃ³w
de s
mie ÅĦ
Ġcy fr
or i
Ġt Äħ
Ġin ten
sz to
ĠniepeÅĤnospraw nych
tar iu
Ġina czej
Ġkom pozy
ka zuje
ĠmiesiÄħ c
ĠMIE J
Ġwprowa dzenie
ĠÅ¼ Ã³ÅĤ
li s
pier w
Ġprze syÅĤa
Ġsi ÅĤy
Ġcza sami
Ġkry teria
ĠNarod owego
wi u
DZ IAÅģ
bi i
ÅĦ stwa
Ġustawo daw
Ġprowadz Äħ
Ġtechno logii
ĠL ubli
Ġwod o
Ġpsy chi
AN Y
C T
Ġ owo
Ġcz Äħ
Ġp ÅĤ
ĠR ZE
ĠOd powie
one m
Ġustaw ÄĻ
kreÅĽ lenie
Ġzatru dnia
Ġt or
v an
Ġnaj bli
Ġro l
Ġbo ga
Ġ Î
Ġdystry kcie
Ġh armo
Ġzapobie ga
waj car
Â ²
P iÅĤ
ĠWo je
Ġmy ÅĽli
C O
ĠoÅĽwiad czeÅĦ
ow cÃ³w
Ġmiejsc owoÅĽÄĩ
P K
Ġ6 1
lo nym
Ġr zu
for mu
j o
Ġt le
man dy
Ġwnios ki
Ġt ka
Ġwz Ã³r
AN S
fo ni
Ġdo ra
prowa dzenie
ĠZa chod
Ġspraw ÄĻ
ã ĥ
. "
N i
ĠI stnie
ĠInwe sty
Ġp ÅĤu
la nie
b oru
ĠM in
Ġprzypad kÃ³w
ĠIndia ch
Ġsa nitar
ĠkomÃ³r ki
Ġeta pie
ni ce
C IE
ĠA b
Ġuni wersyte
Ġsamochod Ã³w
Ġprzyj muje
Ġwy kÅĤadni
Ġno taria
Ġza spo
p Ã³w
Ġ1 000
Ġwy miany
Ġdo rad
ĠpÅĤa tni
Ġob wo
Ġprzewi dy
Ġzwo lnie
Ġodpowiedni ch
ĠPoz osta
Ġprzedmio towej
Ġpodob nie
Ġostate cznie
Ġdu Å¼ej
Ġcz u
ĠkoÅĦ cu
Ġwyda nych
Ġna jem
ĠamerykaÅĦ skiego
Ġta bli
Ġd wo
ĠPomo cy
Ġprzedmio cie
un t
ĠOb sz
Ġ198 6
ÅĤa by
ty mi
Ġwy stawia
ro ma
Ġte st
D y
h y
Ġobszar Ã³w
Ġwykonu je
Ġ4 00
Ġnaz wÄħ
ĠwÅĤaÅĽcicie l
ĠTe le
9 1
od rÄĻb
Ġwi zy
ĠJa ko
Ġ198 3
ĠG ar
ĠA kade
Ġza bi
Ġa ktÃ³w
ĠrzÄħ du
sta l
skie m
cie lem
EN T
Ġza stÄħpi
Ġje zio
do ÅĽÄĩ
ony mi
ĠA D
Ġdob ry
Ġregu lar
ir gi
p df
Z mar
Ġutw orz
wa n
ĠÅ¼Äħ dania
Ġmiejsc owego
Ġprze daw
Ġkomunika cji
ĠP om
Ġkom Ã³rek
ĠWnios ek
Ġr zad
ĠkaÅ¼ da
Ġka ra
Å ¡
ĠSzko ÅĤy
nia mi
Ġhrab stwa
ĠQ u
ĠzwrÃ³ci Äĩ
Ġsz t
Ġwz dÅĤuÅ¼
Ġa ta
Ġzawo du
Ġwymaga jÄħ
ĠSa mo
ĠÅļrod owiska
Ġkontek ÅĽcie
ko ÅĤa
k cje
ĠÅĽcie kÃ³w
g res
wy kle
ty wa
Ġopie ra
Ġja w
il la
o li
AN E
Ġ5 8
ĠHi gh
Ġwy twÃ³r
Ġpoz na
Ġwy po
Ġmog ÅĤy
n or
Ġtechni cznej
Ġkon cep
Ġkos zy
glÄħ du
pow szech
ĠÅĽre dniej
Ġza zna
P R
Åģ OS
Ġpacje nta
ĠWykonaw cÃ³w
ĠspoÅĤe czeÅĦstwa
Ġa kademi
ni owych
F or
Ġna grody
Ġopieku ÅĦ
Ġs ÅĤy
ĠZwiÄħ zku
Ġcharakter u
ĠL ek
Ġso li
Ġwyk sztaÅĤ
Ġzagro Å¼enia
Ģ Â
Ġsto pieÅĦ
ĠH an
ĠEuro pie
L o
j nego
nt ro
d ob
Ġb ÅĤÄĻ
I O
t nia
Ġpodstaw owe
Ġog Ã³
zie m
ĠKon su
Ġmieszka lnego
Ġ nosi
O dzna
Ġproce sie
on or
ra g
Ġwo li
Ġre zer
Ġ5 1
ĠszczegÃ³l nych
Ġotrzy my
ĠnajczÄĻ ÅĽciej
ta Äĩ
Ġ6 2
ĠA merica
dow s
mi ona
Ġzale Å¼y
ĠM eksy
d to
ĠZe spÃ³ÅĤ
Ġfinans Ã³w
niej szy
st en
ĠstanowiÄħ cych
Ġpodej m
Ġz ba
Ġm le
Ġswo bod
Ġ[ ...
n nie
w Ã³w
ĠH and
la m
bie rz
Ġ198 7
Ġ198 0
Ġin fek
ĠpodrÃ³ Å¼y
ĠA pela
t re
wa ÅĤo
f u
Ġkon feren
Ġ9 8
M P
Ġnaj waÅ¼
K ar
I B
Ġpo ÅĤowie
Ġrodza je
Ġ8 7
Ġproduce nta
NE GO
Ġzao pa
Ġu lega
Ġw szyscy
Ġpoby tu
Ġza da
ka cja
ĠuÅ¼y tku
rze go
ĠU sÅĤugi
Ġdopu szczenie
¹ rÃ³d
Ġt rybu
Ġu jÄĻ
ĠdruÅ¼y ny
Ġna tychmiast
Ġwspom nia
Ġsuk ce
ni Å¼
d ii
Ġangiel skim
Ġprzygo towania
Ġwykorzysty wane
ty ma
Ġstwier dzenia
Ġce nÄĻ
Ġsz k
tu ÅĤ
Ġfaktycz nie
C z
Ġrachunk owoÅĽci
ĠD em
lo m
zj um
Ġzapew nienie
Ġau t
Ġgru ntu
ĠPOST ANOWIE
Å į
Ġorganiza cyjnych
Ġre habili
ĠSprze da
ĠÅ¼Äħ da
Ġkomple ks
pro st
Ġfina n
di Ã³w
g rywa
Ġmacie rzy
S za
ĠuÅ¼y tkowa
NIST RA
% ,
ĠgÅĤÃ³w nego
czÄħ c
Ġkwo t
ĠKatowi cach
ri usz
Ġklasy fikacji
sta wy
Ġgru ncie
Ġzasa dami
Ġzgod noÅĽÄĩ
ĠReje stru
Ġl os
Ġ196 0
Ġw nosi
ĠJapo nii
t z
Ġsiedzi by
Ġo mawia
ĠK an
Ġalbu mu
Ġe li
Ġofer cie
Ġtwo rzenia
d ry
Ġro cznie
PiÅĤ karze
ĠB ez
ĠPrze z
Ġkonsek wen
Ġwart o
Ġk rÄĻ
Ġprze kona
Ġna po
PO S
ĠNie ruchom
ze rwa
ce ÅĦ
Ġp ia
ĠZespo ÅĤu
logi czne
Ġb rze
ĠPra cow
Ġoprogram owania
J o
Ġdokony wania
ĠzwiÄĻk sza
be la
Ġare sz
Ġse ktora
âĢ ¢
s kÃ³w
Ġstos owanie
nios ÅĤa
Ġka sy
Ġfizy cznej
Ġo szczÄĻd
Ġsy ste
U CHWAÅģA
st re
Ġpodstaw Äħ
ĠA nt
ĠuÅ¼ytkow nika
ĠMia sto
pa dy
Ġutrzy my
ST Y
ĠV II
st ek
Ġzgod ne
ĠW ska
su al
Ġka toli
prze d
ĠtreÅĽci Äħ
Ġkraj owych
logi cznych
ĠpoÅĤÄħ czenia
Ġzawod owe
ĠupowaÅ¼ nienia
ĠM os
ak e
Ġkorzysta nie
ĠrÃ³wnowa Å¼
Ġwypowie dzenia
Ġrealizowa ne
nio nym
rze ÅĽci
rab ia
ĠspÃ³ÅĤ dzielni
9 6
ĠPrezyden ta
ni cze
rzeÅĽci ja
ĠZ miany
ro na
cie c
ory te
ĠodrÄĻb nych
Ġprze wodni
Ġ8 5
ĠU staw
Ġkraj Ã³w
Ġmedy cznych
P os
Ġpo dziaÅĤ
ce a
cz kÄĻ
Ġkolej ne
ĠrozwiÄħza ÅĦ
Ġa p
Ġkodek su
Ġre zu
Ġwy biera
Ġkra jach
Ġme cz
Ġprotoko ÅĤu
ĠGospodar ki
ĠB en
ĠS ha
Ġokoli czno
Ġprzy naleÅ¼
unda cji
ÅĿ e
9 2
Ġsta cja
sz an
K IE
ĠW iÄĻkszoÅĽÄĩ
Ġopisa ny
Ġdokona Äĩ
Ġko or
Ġ nego
Ġtrwa ÅĤych
Ġpozba wienia
ĠC am
ĠPaÅĦ stwo
Ġuro dzeni
Ġmod erni
Ġkredy t
Ġob rÄĻ
Ġno Å¼nej
Ġin spe
Ġwnios kiem
Ġob sza
Ġwsp o
ro ny
Ġsta ÅĤa
ĠBy dgo
ĠPrze wodniczÄħcy
Ġzna cz
Ġrezu lta
cz ci
ki mi
Ġurlo pu
le c
Ġjedno raz
i usz
f ery
Ġpo rt
sp an
Ġwybra ny
CJ E
Ġedu kacji
ĠTek sa
Ġzy sku
ĠR ich
Ġrozpo czyna
go v
ĠN SA
Ġna ra
da tek
ĠC IT
Ġma jÄħce
Ġtele komunika
Ġd rz
os a
Ġregi onu
pra woz
ĠzwiÄħza ny
Ġza kÅĤada
Ġmieszka nia
ĠoÅĽwia ty
s ÅĤo
ĠÅºrÃ³d ÅĤo
ÅĤ owo
E T
ni owej
Ġdowod u
B o
ĠAkade mii
Ġpowod Ã³w
tu s
owis ko
lo zo
ĠpoÅ¼y tku
po mina
Ġprezyden ta
Ġdo szÅĤo
Ġkon cent
L a
Ġprzewidzia ne
ĠN IP
ĠsamorzÄħ dzie
Ġko mandy
Ġjeste ÅĽ
ĠprzesÅĤa nki
Ġle ÅĽ
ra j
ĠWil liam
Ġrozstrzy gniÄĻ
pi on
ĠpieniÄħ dze
Ġrek ru
ie ÅĤ
Ġprawo moc
jÄħ co
Ġkonkur s
Ġinsta la
ie j
Ġmuzy ki
Ġki lo
ĠEuro pe
Ġnie bÄĻd
Ġza czÄĻ
ĠM IA
. ;
ĠmiesiÄħ cu
Ġpod rÃ³Å¼
Ġobywate li
Ġ6 6
Ġs kali
Ġgrani cach
PO LI
P ier
Ġpierwo tnie
Ġprzetar g
Ġna szych
Ġucze lni
ĠDo datk
ĠM od
Ġda tÄĻ
Ġfil mie
da p
Ġz ja
Ġza ba
sta wie
ĠIz ba
Ġprzy pada
Ġa pe
Ġob sÅĤugu
Ġrekla m
ĠoddziaÅĤy wania
Ġpodat nikÃ³w
Ġeksp er
ĠK en
Ġg rze
Ġce ch
w cÃ³w
ĠZ ÅĤo
b ez
Ġfundu szy
Ġchor Ã³b
le piej
Ġprzy pisa
Ġpodstaw owej
ĠwÅĤaÅĽcicie la
Ġemery tury
Ġprzetwarza nie
w ki
f li
Ġno c
ĠPart ii
Ġwy kaz
Ġzaj muje
Ġuzasa dnia
Ġ0 8
Ġwyda wania
ĠpomÃ³ c
ĠzÅĤo Å¼ony
Ġprzy ÅĤÄħ
Ġdosta wa
ĠS ÅĤuÅ¼
ĠZa sady
Ġte ma
an ta
Ġty le
âĢ İ
P L
Ġpowie trza
ĠAle ksand
Ġkolej noÅĽci
Ġal ternatyw
Ġponad to
Ġ9 3
ĠprzestÄĻp stwo
ĠN owa
Ġkandydat Ã³w
Ġsytua cja
ĠWrocÅĤa w
Ġdzien ni
ĠpÃ³ÅĤnoc ny
Ġodset kami
à ¸
Ã³ rze
ĠWin dows
ra Å¼
Ġsku tku
na gro
Ġs al
Ġrozli czeni
Ġdzie wiÄĻ
ko j
ĠMu si
bur g
naj mniej
ch Ã³w
mie rz
W ie
Ã §
Zmar li
Ġpis ma
cie j
Ġstos owane
sÅĤ ownie
wi n
Ġauto stra
ĠRozporzÄħ dzenie
ĠZjedno czone
Ġprzezna czonych
ĠOkrÄĻg owy
ĠogÅĤo szenie
ĠprzedsiÄĻbior stw
Ġwyna j
Ġstuden tÃ³w
Ġwy ÅĽwiet
Ġza pis
Ġkobie ty
ĠDla tego
Ġum owÄħ
Ġh er
S Äħd
Ġco dzie
Ġka mpa
l on
cie le
d on
ĠWO J
ĠRec ords
9 7
ĠW spÃ³ÅĤ
m na
ĠpaÅĦ stwie
Je Å¼eli
Ġa sy
pos iada
kre dy
Ġs cena
dzo nym
ĠOb owiÄħ
S e
ĠciÄħ Å¼y
Ġre a
o gle
Ġprowadzo nych
9 3
ĠWy rok
Ġspra wa
ĠWie lko
u ma
ĠB ezpie
ĠÅ¼y ciu
ĠPro to
ĠNadzor czej
WI AD
Ġzdrowo tnych
Ġsze reg
ĠXX X
Ġma jÄħc
Ġadministra cyjnych
ĠRa dzie
ĠZ AR
dza j
sze k
ĠO R
G a
Ġproje kcie
Ġprzysz ÅĤoÅĽci
Ġre cep
z ÅĤ
Ġwyda ÅĤ
A u
lo t
ĠAnd rzej
et ro
Ġprzeciw dziaÅĤa
RA Z
Ġprzezna czone
Ġprzeka zuje
Ġ5 7
Ġp ri
kowa nych
Ġdoda je
H istoria
Ġod prowa
IN ANS
la kty
ĠIn ne
ĠZgroma dzenie
is ka
Ġle kÃ³w
AD A
Ġpa kie
Ġ198 1
ar zy
ĠuÅ¼ytkow nikÃ³w
ĠwyÅĤÄħ czeniem
ĠF re
ĠSP ÃĵÅģ
ch er
ĠLi czba
Ġteren Ã³w
Ġgodzi nÄĻ
We dÅĤug
Ġnieruchom oÅĽÄĩ
Ġwy odrÄĻb
Ġpunk cie
Ġnie na
ĠQ ue
Ġkom er
tery na
t d
Ġwyk ro
Ġw Ã³d
Ġwyja ÅĽnia
ĠInforma cja
ser w
Ġtelef onu
ĠC er
Ġ9 6
Ġstatu s
Ì ģ
Ġfizy czne
ĠStra Å¼y
ĠnastÄħpi ÅĤo
ĠsporzÄħ dza
Ġpoin form
CZE NIE
Ġalkoho lu
Ġnajlep szych
ĠwÅĤaÅĽcicie li
Ġ ÅĤu
Ġ ï¿½
erytor y
Ġle ga
tor zy
ĠPo niewaÅ¼
Ġg rzyw
Ġs ma
Ġb ro
F A
stÄĻp owanie
OWA NIA
nÄĻ ÅĤa
ĠO znacza
ĠSz pita
Ġpracodaw ca
Ġpomi mo
pra sza
Ġma lar
ĠMoÅ¼e sz
Ġobni Å¼enia
Ġsie dem
Ġprze le
ĠpoÅĤudni owy
ĠczÄĻÅĽci owo
Ġfirm ÄĻ
ĠÅĽwiad om
ĠMar ia
Ġg ÄĻ
p lar
Ġnapraw dÄĻ
Ġwy bu
Ġ6 3
k m
ĠĠ ĠĠ
Ġzasa dzie
Ġpla t
ĠMinister stwo
Ġpa s
Ġuzna je
Ġ193 9
Ġupraw niony
ĠÅĽredni o
Ġdzielni cy
CZE NIA
Ġobro ny
Ġza si
Ġwnioskodaw cy
Ġg en
Ġprzyzna nie
Ġadres em
Ġpodpisa nia
ĠA p
ĠV e
towa na
ĠpeÅĤnomoc nika
sta nie
orzy Äĩ
ka cje
ty czy
D Y
Ġod mÃ³w
Ġko pii
Ġkryter iÃ³w
ĠSt os
Ġwi deo
c kÄħ
Ġw strzyma
ow uje
Ġregu l
Ġelektroni cznÄħ
ĠBi u
ĠWal nego
ĠKul tury
ci w
Ġkomuna lnych
Ġz bli
art Äħ
ru r
Ġba kt
Ġgra fi
kre a
Ġbra m
Ġw il
Ġli stÄĻ
Ġstu dy
an u
ĠspÅĤa ty
Ġdyspozy cji
ĠW iÄĻ
Ġod li
ĠwspÃ³l nikÃ³w
Ġinte resu
Ġlekar z
Ġindywidual nych
ĠPRZE D
Ġmusi sz
ĠE k
ĠD LA
Ġaut ob
ĠL os
ne l
Ġpozwo lenia
ĠwyraÅº nie
Ġprzed ÅĤo
Ġog Ã³ÅĤ
ĠjÄĻzy k
Ġp ta
w cÄĻ
Ġm erytory
Ġle a
Ġwi ary
Ġpolity kiem
ĠStre et
lo gu
kodaw ca
Ġreli gi
Ġzle cenia
Ġinte re
Ġau dy
ĠktÃ³ry mi
nia nie
Ġba danie
ĠS ÅĤu
ĠOG Ãĵ
na n
Ġkur s
Ġod ro
b in
czy cy
ĠszczegÃ³ÅĤ owe
ĠrozpoczÄĻ cia
kowa na
Ġma te
Ġpotwier dzenie
ZP IE
ĠuÅ¼y te
Ġprofe so
ĠH ist
Ġin nÄħ
ĠtoÅ¼sa mo
Ġ197 2
ĠzobowiÄħza nie
ĠRejon owy
dzo ziem
Ġzawiera jÄħ
ĠrozwiÄħza nie
Ġwyb rze
st ria
U R
ĠM art
ĠA la
Ġprogra mie
Ġra m
rod ÄĻ
ĠWy dziaÅĤu
Ġpo jÄĻcie
Ġma ÅĤych
Ġtek stu
Ġkli k
Ġmini mum
U stawa
Ġwybo rach
Ġkore spon
ra m
Ġprakty ce
Ġzach owanie
Ġnaz wie
sz ÅĤa
Ġmateria ÅĤy
wa gi
wa le
ZP OR
wie rz
Ġu cznia
ĠwÅĤas nym
ĠwewnÄĻtrz nych
ĠPR ZY
Ġprzechowy wania
Ġod de
ĠzÅĤo Å¼enie
n kach
Ġfunk cje
Ġkon to
ĠSz kÃ³ÅĤ
ĠmÅĤo dzieÅ¼y
is h
ow nik
Ġs ia
ĠOd woÅĤa
Ġegza minu
for my
ĠSpecy fikacjÄĻ
Ġ197 6
Ġpo ÅĽwiad
g rze
d or
ĠogÃ³l nej
P ona
u k
Ġme czu
fi l
Ġpopu lacji
Ġwy syÅĤa
porzÄħ d
ot ball
Å¼ ki
ĠS zy
Ġg Ã³ry
Ġrekla ma
no ÅĽ
Ġ8 8
ĠÅĤÄħ cznej
ow iada
ĠwspÃ³ÅĤ prac
Ġmie nia
POS POLI
ĠMinister stwa
ĠnastÄħpi Äĩ
Ġwol on
Ġma sy
Ġku pi
Ġkom or
sÅĤu cha
ĠWy stÄĻpuje
o p
nie c
in forma
ĠGeor ge
Ġhand lu
Ġli czy
wie ra
Ġbi ur
ĠMIA STA
ĠWar unki
Ġg ÅĤowy
re br
Ġra por
Ġzdol noÅĽÄĩ
Ġpo jÄĻcia
ory s
Ġro lnych
Ġnie co
Äĺ P
ĠMe dy
t owo
Ġpracow nicy
ĠO gÅĤoszenie
p kt
Ġ7 7
M IE
Ġdo bra
Ġdob rowo
Ġb Ã³l
ĠNor th
si Äĩ
Ġ[... ]
ĠbyÅĤo by
ĠzaÅĤoÅ¼ ona
Ġwez wanie
ĠM er
Ġapli kacji
ĠSu per
ĠKrzy szto
Ġre zy
Ġkol or
j or
i re
Ġpozosta ÅĤe
ĠdoÅĽwiad czenie
Ġsko n
ĠDa vi
rze ÅĦ
nio nej
ĠWy sp
ĠJ ez
Ġpol skiej
Ġspecy fi
Ġzwa l
Ġst er
pie nia
ki n
ĠwyjÄħ tk
ĠzasiÅĤ ku
zem plar
Ġoce na
Z e
no s
se y
Ġsk Ã³ry
Ġwoj nie
Ġwod ÄĻ
be li
Ġwy re
ĠKana dzie
ĠwÅĤaÅĽci we
ĠSpe cja
ĠWarsza wy
ĠmÅĤo dy
Ġpers one
ro st
dra Å¼a
Ġ197 3
200 3
Ġwynagro dzeÅĦ
Ãĵ DZ
Ġograni czonÄħ
Å¼ onÄħ
ce niu
Ġop owiada
ĠSer wi
Ġdu Å¼o
ĠÅĽre dnia
Ġkur su
Ġprac owaÅĤ
Ġpa na
Ġpodmio tami
ĠCoun ty
Ġstos ownie
Ġme dal
Ġc on
Ġu war
Ġk g
Ġs um
Ġwykony waniu
Ġzmia nami
Ġst wo
ĠAn na
Ġwykona niu
ĠO pis
ĠkrÃ³t szy
Ġre da
Ġoce nÄĻ
ne y
ĠpieniÄĻÅ¼ ne
so pis
ĠmiÄĻdzynarod owych
Ġog ÅĤasza
9 4
Ġtrzeci ch
n tem
me ra
Ġkonsu mentÃ³w
Ġod nosz
bi na
Ġwers ja
ĠD is
Ġochro nÄĻ
ĠÅĽ wiÄħ
ĠRos ji
Ġro s
Ġsta je
Z arzÄħ
Ġofert Äħ
Ġza rob
Ġkli ni
Ġna kÅĤada
Ġniema teria
sto ÅĽÄĩ
C P
ski mi
Ġmie li
ĠodpowiedzialnoÅĽci Äħ
Ġre la
Ġaktyw Ã³w
ĠUSTA WA
st rowa
ÅĽci ÅĤ
ko ma
ĠSP RA
Ġ ï
Ġob ok
ĠK ancelar
ĠD ro
ĠV er
Å¼ ka
Ġzauwa Å¼yÄĩ
ĠdÅº wiÄĻ
ÅĦ stwo
ĠWnioskodaw czyni
Ġdokona nie
ew nÄĻtrz
ĠSz czegÃ³ÅĤ
d wie
Ġpotwierdza jÄħce
ĠInter na
de biu
= "
Ġmog ÄĻ
Ġwz iÄĻ
ĠoszczÄĻd noÅĽci
o ÅĤ
Ġnajbli Å¼
ĠNie ktÃ³re
ĠsÄħ sie
Ġpowie ÅĽci
Ġcharaktery sty
pa ny
l owej
ĠAn to
ber na
Ġszero ko
Ġku p
ĠwÅĤasnoÅĽci Äħ
ry s
ĠKon kur
Ġdrog owego
Ġprzestrze ni
Ġdo t
li p
rÄħ g
ĠR zy
Ġzapro pon
ĠprawidÅĤ owo
ĠG O
Ġnauczycie l
ĠpÃ³ÅĤnoc nej
Ġpro gno
tar y
Ġzosta li
Ġudo kumen
Ġprzeci ÄĻ
ĠOrgani za
Ġco raz
ĠokreÅĽ liÄĩ
Ġdefini cji
ĠTe ch
t noÅĽÄĩ
Ġwz iÄħ
ĠpielÄĻg niar
Ġuzy ski
Ġdeparta mencie
Ġinwesty cyjnych
Ġ0 2
Ġdowo dy
Ġuczest nictwa
wa ÅĤy
Ġon line
Ġzagrani cznych
Ġa t
ĠÅĽ lima
k rÃ³t
< /
Ġsamodzie lnie
s ja
ĠCz ar
Ġbior Äħc
Ġszko ÅĤa
Ġpolity k
Ġsta ÅĤy
Ġprzewidzia nych
Ġ197 9
Ġeg zemplar
Ġpo st
Ġpo tem
Ġkul tura
ĠA R
Za mawia
Ġst art
te nt
Ġstaw ek
ĠÅĽrodowis ku
ĠM al
sz czu
Ġlo gi
Ø§ Ù
ĠWrocÅĤa wiu
owe mu
SZ A
Ġu ru
Ġtowar y
Ġmar ket
Ġkon cer
ĠKo le
Åģ O
Ġ9 1
ĠU ro
ty kÃ³w
g Ã³r
Ġporu sza
Ġdo ÅĽÄĩ
h ttp
ĠZie mi
Ġwykony wanych
kre w
Ġo le
Ġ6 8
Ġpo szuki
ĠV III
Ġr un
Ġreprezent owania
Ġtele foni
Ġna p
Ġorze czenie
Ġpo kona
my sÅĤu
Ġotwar cia
Ġjest em
Ġfar ma
Ġb Ã³
za mi
Odzna czeni
ĠRepubli ki
Ġzde fini
Ġwykaza nia
ch ia
Ġobsza rach
owi ce
ĠL E
kt ry
ĠKrÃ³ le
t ch
Ġda ny
Ġuzyska nie
Ġkontro lÄĻ
mo cy
nali zacji
Pona dto
ĠC Z
Ġpierw sza
Ġko mi
kty wa
Ġpropor cjona
ta cjÄħ
ĠwyjaÅĽ nienia
Ġp ens
Ġwymo gÃ³w
E CY
ci sk
Ġi s
n owe
tion s
ĠwÅĤa dz
Ġwy mia
Ġprogra my
ĠSzko ÅĤa
wi zji
ĠWy kaz
u czy
nosz one
ĠH am
ĠS ÅĤo
Ġry wali
Ġpo siÅĤ
m ow
g rowa
ni czy
Ġk rze
Ġw chodz
ĠsÄħd owych
sz ona
te chni
Ġpart ii
Ġregula minu
Ġwi try
preze nta
Ġarty sty
ĠW is
Ġniez dol
Ġtru d
ĠdorÄĻ czenia
ĠZ d
ĠCh ri
Ġh od
ĠFo otball
Ġkorzysta Äĩ
ni czego
Ġud owod
rak ta
Ġu nik
we dz
Ġna dzie
= =
ĠPOL SKIEJ
towa nym
-------- --------
Ġwspar cie
4 15
Ġkompeten cji
ĠB al
Ġper spek
Ġuzasa dnieniu
ĠodlegÅĤo ÅĽci
Ġla bora
Ġorganiza cyjnej
Ġsa ma
Ġ9 2
Ī Ĵ
c tor
lo bal
ĠS al
Ġfo togra
Ġl od
Ġma ÅĤe
Ġorganiza cja
Ġ197 8
u sza
ĠczÅĤon kowie
t wy
ner ge
rid ge
sku tek
ĠAng e
TE J
Ã³ z
Ġpu ÅĤ
Ġs formu
Ġrej onie
Ġak cyz
Ġde fi
mio t
Ġzapotrzeb owania
uje sz
ĠCzÄĻ sto
szÄħ c
n r
Ġn owÄħ
sa da
ĠW sp
ci orys
Ġpowod owaÄĩ
ĠwÅĤas ny
mie niem
ĠK re
ĠStowarzy szenia
Ġnapisa ÅĤ
ĠR zÄħ
Ġklu bu
Ġustala nia
shi re
ĠSta te
Ġpasa Å¼er
Ġdodatk owo
v al
k ÅĤ
Ġsu ger
Ġprzeprowa dzenie
ĠÄĩ wi
ba mi
mu s
wo od
h n
ÅģOS ZENIE
ĠgÅĤÃ³w nej
Ġzau fa
ĠAda m
Ġinstru mentÃ³w
ĠRZE CZY
Ġza doÅĽÄĩ
ĠJedno czeÅĽnie
Ġpos ÅĤa
V I
Ġkwar ta
Ġnie zna
Ġczas em
ek s
Ġu ÅĤat
ĠO pie
ĠP ary
cho ty
Ġuz godnie
na l
ĠPo la
Ġchwi lÄħ
Ġ7 8
ĠPoli tyki
sz onych
ĠobrÄĻ bie
ĠAmery ki
Ġz mu
ni czej
Ġrozpozna nia
Ġczy nu
pa s
si ng
Ġprakty ki
ĠpÅĤ ci
ĠB iaÅĤ
ĠuniemoÅ¼li wia
Ġ9 4
Ġroz wiÄħ
Ġ197 7
we ÅĤ
pÅĤa ta
Ġspecy fikacji
ĠÅĤa two
sz t
ĠBi ura
ĠwÅĤaÅĽcicie lem
Ġsza ns
d ing
Ġma gi
Ġs kom
ĠRozporzÄħ dzenia
Ġpiosen kar
Ġofer uje
en ty
Ġdostaw ÄĻ
ct wie
ĠgÅĤÃ³w ne
Ġgrani cÄħ
Ġwskaza ny
ĠO bywa
Ġpra ca
ĠY ou
Ġza kaz
Pra wo
b is
Ġ7 2
ow ca
Ġzmie rza
ĠAmery ce
Ġka dencji
Ġodpada mi
d ÅĤa
ĠwÅĤas nego
ĠFl ory
Ġprzy jÄħÄĩ
Ġu bo
ĠwiÄħ za
Ġse na
Ġponow nego
Ġg ier
ĠWOJ EW
POSPOLI TEJ
ier ÄĻ
ĠRa d
Ġgo r
w czej
Ġbi bliote
ĠWY KO
Ġo dzna
ĠT rze
S tro
ĠDzien nik
Ġpo mniej
ĠSZ KO
niÄĻ te
Pol scy
ciÄħ Å¼
ĠczÅĤonkow skiego
Ġwyposa Å¼enia
Ġ197 0
Ġnor my
ĠCy wi
preze nt
z on
wo l
ĠA ir
ĠZa kres
ĠKlie nt
Ġustawo dawca
h ar
ĠF INANS
Ġwystawi one
4 43
Ġnaj lepiej
Ġ196 8
âĢ Ĥ
ĠF C
Ġza prze
ĠuÅ¼y wania
Ġar mii
o ty
Ġostatni m
Ġmiejsce m
ĠW SA
ĠF er
ĠrozporzÄħ dzeniu
Ġod dziaÅĤu
Wy kona
ĠI P
T u
Ġsamo chÃ³d
ÅĽ nienia
ĠRZECZY POSPOLITEJ
Ġza ÅĽwiadczenie
ĠB ryty
ĠMa zowie
Ġf rag
ĠU krai
ĠO rze
ĠPa nie
Ġrozg ryw
ĠÅĽ pie
ĠwiÄĻ zie
ĠF ar
ĠprzedsiÄĻbior stwo
Ġgru pie
ĠS ko
Ġpa ni
Ġsiedzi bie
ĠHiszpa nii
ĠN F
Ġza danie
ĠkrÃ³t ko
t niej
ĠSzcze ci
ni owe
Ġja kiego
ber g
ĠdÅĤu gi
Ġzanie czy
Ġgospodar stwa
v el
E C
ĠmajÄħtk owe
Å¼Äħ da
orga ni
ĠMa s
ĠK ierow
Ġdrz wi
ĠC D
ĠStowarzy szenie
Ġnau kowych
ĠP DF
Ġe x
Ġprze szko
Ġlicz bie
ĠBurmi strza
K S
no gra
Ġ194 4
ĠSta ny
Ġu leg
ce u
Ġpok rzyw
Ġwymi arze
ÅĤy mi
ĠdÅĤu Å¼ej
Ġuprze dni
ĠB or
Ġpo u
F a
s f
ĠCh am
Ġb eneficje
do stÄĻp
rÃ³ci ÅĤ
ge ne
Ġnieruchomo ÅĽciami
Da ta
Å»y ciorys
ĠG ol
Ġ9 7
Ġprzy najmniej
kÅĤa dnie
Ġprze r
Ġ197 1
Ġcu dzoziem
Ġ7 4
Ġpo pra
Ġposta Äĩ
ĠL an
Ġdzis iej
Ġba zy
RO D
Ġsta ÅĤo
ĠT om
ar ÄĻ
ĠwÄĻg la
Ġuzasa dnienia
ĠLo u
Ġs io
ĠD ist
I L
rz ÄĻdzie
ĠC H
Ġponiesi one
Ġdrze w
ĠKomis jÄĻ
F ran
Ġo limpi
Ġobie ktyw
do p
Ġwz or
ko je
Ġo dz
no ÅĽciach
ĠdÅĤuÅ¼ nika
ĠÅĽrod ek
Ġporozu mienia
K D
Ġze staw
ĠB lu
Ġwyk ry
ĠuwzglÄĻdnia jÄħc
Ġza siÄĻ
Ġeksploa tacji
B y
ĠdÅĤugo ÅĽÄĩ
dziesiÄħ t
Ġoj ca
ĠgÅĤos owania
ĠKo lej
Ġna kÅĤad
Ġinforma cja
o kie
RZ Äĺ
P re
Ġgodzi nach
Ġartyku ÅĤu
czy ÅĤy
Ġfi lozo
W o
Ġ ),
li za
P i
ĠB ri
ĠWÃ³j ta
ĠNie miec
Ġrozg rywa
czy wi
ĠÅ¼ad nego
Ġkry zy
Ġlicen cji
to na
ĠK RS
ĠmÃ³z gu
Ġinteres Ã³w
pol skiego
ĠO po
Ġmia st
ĠpowyÅ¼ szych
Ġbur mi
Ġ195 4
Ġinterne towych
ĠAr mii
ĠbÄĻd Äħce
Ġdoros ÅĤych
tu re
ZE NIA
Na leÅ¼y
Ġb rÄħz
Ġbank owych
ĠsporzÄħ dzenia
Ġpo glÄħd
ĠKoÅĽci oÅĤa
Ġbie gu
ĠEU RO
Ġorganiza cje
wier cie
Ġwy daw
ĠGru py
Ġra ty
Re gula
Ġogro m
ĠAr chi
ĠPrze pis
ĠIr landii
tm os
ĠsÄħd owego
Ġry nek
âĢ¦âĢ¦âĢ¦âĢ¦ âĢ¦âĢ¦âĢ¦âĢ¦
unk owo
li zacja
Ġ ).
d owaÅĤ
Ġwyja ÅĽnie
Ġwyre Å¼yser
arze m
Ġnume rem
szy ng
ÅĿ y
ĠRze sz
ĠdostÄĻp nych
Ġprzy sp
re nt
ĠKaÅ¼ dy
e y
ĠzÅĤo Å¼yÅĤ
ĠbudÅ¼e towej
ĠMa ÅĤ
Sp Ã³ÅĤ
Ġpla ne
Ġpowsta nie
u j
ĠpiÄĻ k
Pa na
Je dno
Ġt rÃ³j
ĠT rakta
je cha
Ġsek sual
Ġde biu
ĠwyÅ¼ sze
ĠEdu kacji
Ġochro na
Ġmus iaÅĤ
Ġkredy tÃ³w
Ġpodob ne
Ġ7 6
wa lu
Zamawia jÄħcy
Ġry s
n noÅĽci
Ġwi ny
gi um
ĠdziaÅĤ ek
ĠodrÄĻb ne
âĢĿ ).
ĠV a
ok e
Ġzaku pi
Ġ196 9
ĠM il
ĠdotyczÄħce go
Ġle piej
sta ura
ĠogÃ³l nych
Ġwie k
Ġza gra
200 0
ĠogÃ³ le
ĠGo ogle
Ġdecyz je
Ġpier si
Ġ ÅĤy
ĠT ri
Ġutw orÃ³w
st uje
Ġokoliczno ÅĽciach
Ġprawa ch
nika ch
Ù Ĭ
Ġ11 2
Ġdu Å¼Äħ
ĠOs oby
Ġk p
twie ra
Å» Y
ar ki
j mie
Sza now
ch owa
Ġstru ktury
Ġzwy czaj
ĠMu zeum
k rÄĻ
ĠD ia
Åĵ ci
towa nego
fini cja
d owaÄĩ
ĠwÅĤas nej
Ġtwo je
ko nomi
ali zacja
Ġz bro
b Ã³r
Ġpo kar
Ġob serwa
u sa
ÅĦ skÄħ
Ġza jÄħÅĤ
ĠÅ¼Äħ daÄĩ
Ġga zu
u g
Ġprzyro dy
Ġpostan owi
Ġfil mÃ³w
Ġ0 7
F i
Ġmog ÅĤa
ĠpodkreÅĽli Äĩ
Ġprzeci wieÅĦ
wÅĤa s
ter s
Ġsze ÅĽciu
Ġprze biegu
Ġpun kty
Ġutrzyma nie
ĠmiÄĻ ÅĽni
Ġgospodar czego
Ġodset ki
Ġpowsta ÅĤ
Ġkla s
Ġu tru
ĠroÅĽli ny
Ġsz uka
Ġsie d
Ġe fe
ĠStatu tu
Ġnau czania
Ġte a
ĠAnge les
li wi
or skiego
Ġs ÅĤow
Ġpod jÄĻcie
ciÄħ gniÄĻ
Ġna szego
Ġsprawoz danie
CZ A
Ġpro szÄĻ
ĠK ur
Ġza pisy
Ġsto py
Ġgospodar czych
Ġw draÅ¼a
Ġskarb owego
sy l
Ġkonsu men
ĠM ÅĤo
Ġwymaga nych
Ġpapie rÃ³w
ĠSej m
owi cz
l or
Ġwojs kowej
la ns
Ġbran Å¼y
ob raz
ĠsÄĻdzi Ã³w
Ø ±
ĠÅ¼oÅĤnie rzy
Ġponiesi onych
Ġwskaza no
Ġkontra hen
ĠP ZP
ĠwartoÅĽci owych
ĠprÄĻd koÅĽci
ĠOd dziaÅĤ
Ġczy ta
sza c
ĠzobowiÄħ zuje
Ġsing iel
ta in
ĠK lu
ZPOR ZÄĦDZENIE
ĠwiÄĻk szej
Ġu cie
ĠT ru
so cia
Z daniem
Ġpali wa
ĠIn frastru
is a
Ġa tra
ĠWOJEW ÃĵDZ
Ġkierow nika
Ġw skutek
ĠduÅ¼y ch
ĠD ie
Ġroz waÅ¼a
ĠJ ork
in ter
mi nie
Z D
Ġch rzeÅĽcija
Ġfor mu
ka toli
Ġbank owego
Ġ7 1
Ġistnie jÄħ
Ġce chy
J EK
ĠzadoÅĽÄĩ uczy
ĠD nia
Ġzmniej sza
ĠÅ¼y ci
ber t
Ġgmi nnym
ĠP owy
ĠbÄĻdzie sz
ĠRegiona lnego
ĠMI NISTRA
Ġautor stwa
Ġprzy pomina
dz u
ĠW E
zy waÄĩ
ĠwiÄħ Å¼e
P la
Ġform ÄĻ
ĠpoÅ¼y czek
Ġpowsta je
pen sa
Ġzanie cha
ĠJoh na
ĠLondy nie
Ġzbud owany
Ġskar gÄĻ
i da
ĠC re
ĠDe cyz
ĠInspe ktora
Ġupraw nia
ÅĦ sko
Ġb et
Ġsub stan
Ġgwia z
Ġ8 00
ĠWa szyng
Ġposiada jÄħ
ĠS PO
Ġsz czÄĻ
ku la
Ġl Äħd
Ġczyn noÅĽÄĩ
Ġ8 3
Ġturniej u
r ing
Ġza bra
Ġne uro
Ġprze ÅĤo
wa nego
ĠÅĤÄħ czy
Ġoprac owania
Ġ1 19
Ġsko ro
Ġroz um
ĠJa ck
Ġnauczycie la
t ha
Ġpozwa nej
Ġle Å¼y
Ġstan dar
Je st
Ġkilo met
ni na
ÅĽcie m
EW G
ĠoÅĽ wiet
le tniego
Ġstaro Å¼y
Ġw kÅĤadu
Ġpo ch
ĠZa tem
Ġmar y
Ġko lum
Ġ10 6
kie wicz
Ġw prost
Ġpapie r
Ð ´
Ġ #
b ier
Ġwar unek
Ġposiada nie
ĠP C
Ġdro b
ĠplacÃ³w ki
Ġartyku ÅĤ
stru ktury
Ð¾ Ð²
Ġce s
ob il
Ġwyb Ã³r
Ġn owym
ĠTran spor
Ġzja wi
Ġpis mo
wo dy
Ġodci nku
Ġprodu cent
Ġr ower
A le
Ġwy nikiem
Ġprze niesi
ĠWal ne
Ġusta leÅĦ
IA ÅģA
S S
Ġpara fii
Ġwy glÄħda
k er
ĠDist ri
Ġprzedmio tÃ³w
ĠBi uro
c ku
Ġ11 3
ĠW ewnÄĻtrz
ĠO fi
Ġsp ÄĻ
ÅĽ wia
Ġty god
da j
Pro jekt
an Äħ
Ġpo szko
wa ga
Ġna wierz
Ġ196 7
Ġpali w
sz ono
Äħ Å¼
Ġmog li
Je d
Ġp rz
ĠbyÅĤy m
n nÄħ
Ġa tmos
ĠK os
ĠN et
ĠpowÃ³d ki
Ð¸ Ñ
cza ch
Ġzna nym
Ġza pisÃ³w
ĠpoÅĤudni owej
dzi ÅĤo
v in
ĠSo uth
Ġa war
Ġfun tÃ³w
gis la
Ġza g
Ġdzien nie
A K
Ġna szym
be ra
Ġuchwa ÅĤ
ĠszczegÃ³ÅĤ owych
Ġca ÅĤÄħ
Ġist nienia
ĠCh e
ĠW NI
prze z
v y
u gh
Ġg le
ĠZamÃ³wie ÅĦ
ĠZ miana
Ġodby ÅĤy
Ġge ografi
Ġdra ma
B S
ĠZa kÅĤadu
ĠB rak
czycie la
Ġnowo czes
Ġp ÅĤo
Ġ Ã³w
Ġ6 00
Ġobro cie
ĠA zji
ĠÅģ Äħ
jÄĻ Äĩ
sz ki
Ġpa l
Ġod por
Ġja j
Ġczyn nikÃ³w
ĠB UD
Ġtelewi zji
Ġinten syw
Ġunie waÅ¼
Ġsi Ãª
ĠV al
ĠâĢ ¦
Ġza ÅĽwiadczenia
ĠpoÅĤoÅ¼ ony
m owaÅĤ
Ġorganiza cjami
Ġza kazu
ĠM O
Ġsystem em
ĠO RAZ
Ġprowadz Äħcy
Ġo ni
ĠI T
Ġza mian
b et
Ġdla czego
ĠSu b
Ġobja wy
ĠD ra
Ġpis mem
Ġzw rÃ³
Ġutra ty
Ġci ÄĻ
200 2
Ġorganiza cyjne
ĠprzesÅĤa nek
Ġ194 8
Ġcie r
ĠpeÅĤ nej
Ġsta ÅĤe
Ġsytua cjÄĻ
Ġsy na
ste ty
ĠTowarzy stwa
f ield
re i
Ġk wia
Ġpro f
Ġod zyska
Ġbieg ÅĤego
Ġkontra kt
Ġre zyden
Ġnumer u
Ġodz wiercie
o ra
Ġg Ã³
Ġkosz tami
Ġcie m
ĠodpÅĤa tnego
V ID
Ġograni czeÅĦ
Ġpiosen ka
Ġstwier dzenie
Ġsprawie dliwoÅĽci
RO K
Ġwy bud
Ġprze bywa
lend er
s co
Ġwyso kiej
Ġpod ÅĤo
____ ____
Ġsty cz
ĠKomite tu
Ġnego cja
Ġsamy ch
Ġro ck
ĠO prac
Ġwykona nych
ÅĽ nienie
Ġz wi
du jÄħ
ĠwÄĻ gl
c kiem
Â ĢÂ
ĠOr der
Ġ7 3
dz twa
Ġszko ÅĤach
Ġzawar cie
O s
Ġmateria ÅĤ
ÅĤ ek
ĠBy ÅĤa
Ġwodo ciÄħg
sz czeniu
ĠspeÅĤ nione
Ã ¨
ter ii
ĠSena tu
an t
Ġprowadz ona
Å¼Äħ ca
Ġcie pÅĤa
ĠMe di
Ġkorzy st
Ġprzy by
Ġ25 0
ca go
ĠW ÄĻg
ĠT V
Ġbakt er
ĠporÄĻ czenia
? ?
ĠK la
Ġlekar zy
Ġuro dziÅĤ
Ġz ÄĻ
Ġzw ÅĤo
Ġszko dÄĻ
Ġpod kreÅĽla
Ġry czaÅĤ
ĠCe lem
Mie jsc
ĠOGÃĵ LNE
ĠgÅĤÃ³w ny
ĠObywa tel
Ġkto ÅĽ
ĠFe dera
ĠC lub
Ġnazwi ska
ĠFir ma
Ġwyda j
bi gnie
ĠY o
ĠwyÅ¼ szej
% )
ĠAr tykuÅĤ
ĠS por
Ġkraj owego
ĠO h
mu la
Ġco ro
Ġw chodzÄħ
sa s
ĠW hi
Ġfaktycz nym
ĠodwoÅĤa nie
N NIK
ĠczÄĻsto t
Ġwal ki
ĠT wÃ³j
Ġumie szcza
Ġroz licza
lo ra
Ġwy cie
ĠÅ ľ
Ġdo kÅĤadnie
Ġdo mÃ³w
ĠAdministra cji
Wnios kodawca
ĠSz we
mie szcza
ĠR Ã³w
ni Å¼ej
y o
ĠzwiÄĻk szenie
Ġegzeku cji
Ġmistrzo stw
ie m
Ġjednak Å¼e
Ġo twiera
Ġdrog owym
z je
Ġre cen
Ġbli sko
vis ion
ta lu
Ġstos unek
Ġkonsu menta
Ġ196 6
Ġja ka
Ġwz o
Ġzach ÄĻ
ĠobowiÄħzu jÄħcym
ĠA li
Ġprzekaza nie
Ġkul tur
Ġre nty
Ġad re
Ġpo zyska
Ġzawiadomie nia
ĠInterna tional
Ġprze niesienia
ĠSam orzÄħ
Ġi r
u st
ĠktÃ³re mu
Ġdotycz Äħcy
ĠksiÄħÅ¼ ki
ste cz
ĠKa zi
ĠWy maga
Ġprocedu r
Ġprzezna czenia
Ġinfor mu
Ġkonstru kcji
Ġproje kty
NE J
ĠOrga n
Ġu szcze
mi ng
Sy gn
mi on
200 1
no cy
Ġprzy wrÃ³
Ġprzed stawienia
v ie
Ġtygod niu
mite nta
Ġo ku
po z
k cjÄĻ
ĠL UB
ĠpÅĤu c
Ġu j
cj om
¹rÃ³d ÅĤo
Ġchoro b
Ġb r
Ġzi den
Ġpowierzch niÄĻ
ĠSz wajcar
bud owÄĻ
Ġpla nie
RE GULAMIN
n owo
ak cep
gÅĤo ÅĽci
y er
Ġprze mocy
ha t
Ġpli kÃ³w
kie r
Ġzoba czyÄĩ
f on
f fi
Ã³d Åº
ĠF I
Ġ0 4
ĠAdministra cyjny
ĠPod obnie
la nt
e le
ma ra
a na
ĠskÅĤa du
ĠW ali
Ġod mie
ĠpeÅĤ niÅĤ
Ġproduce ntÃ³w
r b
D ru
Ġdo cho
Ġuzasadni one
Ġprzepis ie
Ġsk lep
ÅĦ cy
Ġzle cenie
ĠSpÃ³ÅĤ ce
Ġdecyz jÄħ
ĠwÄħ tro
Ġfil my
Ġp owa
ĠMIEJ SKIEJ
ĠSz tu
Ġob rad
ĠprzeciwieÅĦ stwie
krÃ³t ce
Ġgo tÃ³w
ĠPozna ÅĦ
Ġpojaz d
Â ±
Ġmedy cznej
ĠDistri ct
Ġpowsta ÅĤa
Ġzna czeniu
ĠCom pany
ia j
Ġ0 3
y ch
Ġli gi
Ġmieszka lnych
ĠGru pa
Ġosie m
sa d
ne d
Ġstru ktura
Ġ(... ),
Ġku pu
Ġpolega jÄħce
Ġko pa
ĠK ing
gi p
m owie
Ġf la
ĠI X
Ġprzysz ÅĤego
Ġmia n
f ro
pÅĤy w
ni kom
Ġodpowie dniej
ĠwystÄħpi Äĩ
Ġprzy dat
mi l
Ġdofinans owania
so lu
w ers
P C
ĠRa ch
Ġzmieni Äĩ
Ġga ze
ĠRo ad
ĠokreÅĽlo nymi
ĠWy daw
Ġwych owania
T ak
no ni
Ġdekla ra
ne rem
li ty
nÄĻ ÅĤo
K T
Ġmode lu
Ġdyre ktorem
199 8
ĠzÅĤo Å¼onych
n nik
Ġstycz niu
Ġgospodar ce
ĠU RZÄĺ
ĠKrzyszto f
Ġkar ÄĻ
Ġkolej ny
Ġop rÃ³cz
Ġzezna nia
wi cza
cy ny
ĠPaÅĦstw owej
Ġmin u
Ġh or
Ġjedy nym
Ġkosz tach
Ġdokona ÅĤ
rÄĻ cz
ZarzÄħ dzenie
ĠBra zy
Ġry b
ĠIs land
Ġtrzeci m
bie nia
ow skiej
Ġwybo rze
Ġwskaza nie
ĠkrÃ³ la
Ġak cje
Ġwy sy
Ġw ra
Ġch od
ĠN owego
ĠdostÄĻp ny
ĠMa g
ĠH ill
ĠRO K
os Ã³b
Ġre staura
Ġzain stal
ĠWspÃ³lno ty
u jÄħcych
co no
ĠPos iada
Ġeuropej skich
ĠwyjaÅĽnie ÅĦ
js ce
Ġg rzy
ĠsprzÄĻ t
ĠS pis
Ġzak walifikowa
Ġsuk ces
ĠS co
ĠAmerica n
Ġre zerwa
ÅĤ ka
Ġa spek
Ġspo ÅĽrÃ³d
Ġwz gl
Ġod pady
FI KA
Ġode bra
ĠsÅĤo ne
ĠTowarzy stwo
de racji
Ġnie bie
niej sza
Ġbi ologi
re na
ĠamerykaÅĦ ska
ĠkrÃ³ l
go rza
ĠAs socia
Ġpo la
ar da
Ġmiejs cach
Ġ0 5
Ġkonsul tacji
Ġwy miar
ĠTe chni
Ì ¨
s ona
Ġodpowie dniego
Ġpla nÃ³w
Ġnie posiada
ĠreÅ¼yser ii
Ġponi Å¼
Ġry go
Ġposie dzenia
Ġkwest ia
ku l
Ġba z
Ġniemie cki
ĠÅĽci ÅĽle
ĠWykona nie
Ġzatrudni onych
ĠI ch
Ġpromo cji
ĠprzynaleÅ¼ noÅĽci
ĠSpÃ³ÅĤ dziel
Ġod biera
ĠpoÅĤoÅ¼ one
Ġzmar ÅĤ
................................ ................................
ĠÅ¼a den
Ġwy czer
ĠNieruchom oÅĽci
Ġwykorzy stuje
Ġdochod owy
ni owego
hi p
Ġkon fli
Ġnag rÃ³d
ĠÅĤa du
Ġtro chÄĻ
ĠB re
w raca
Ġreje str
ĠPRO GRA
Ġadministra cyjne
Ġlek ko
Ġtrzecie j
Ġpowin ni
cza nie
r d
ĠrzÄħd owej
Ġzale ca
Ġpew ne
cz Äħcych
ĠdziaÅĤa jÄħc
Ġalko hol
om et
orzy ÅĤ
Ġartyku ÅĤÃ³w
ĠT homa
Ġcywilnopraw nych
a nia
ĠWoj cie
Ä į
Ġwy mie
ĠOs ob
ma l
pra wo
ĠÅ¼y wo
Ġpoda je
Ġprzedmio towego
ĠIn c
rzy Äĩ
ĠpowÃ³dz twa
Ġstrate gi
zowa ne
ĠChi cago
Ġroz miar
Ġdarowi zny
Ġna sze
Ġtrzecie go
lu bi
Ġza debiu
ĠToma sz
Ġra tow
l nik
ez on
di v
Ġwar ia
Ġli st
Ġstos owaÄĩ
Ġangiel ski
P I
Ġkore kty
Ġwy bi
ĠLe Å¼y
y n
Ġwy emi
Ġstw orz
Ġprzedstawi cieli
Ġpo par
Ġf unda
ĠS kle
Ġle gi
Ġbo ha
Ġa dap
Ġzawod owym
Ġdyre ktyw
ĠĊĠĊ ĠĊĠĊ
Ġz wany
Ġprzestrze ga
Ġza chodniej
sp rze
Ġprzewo Åº
A merykaÅĦ
Regula min
E ST
Ġznaj dzie
ĠCe na
ĠWy Å¼
Ġposiada Äĩ
ĠY ork
ĠPubli cznych
Ġwery fikacji
Ġaktyw noÅĽci
Ġnad mier
ĠspoÅĤe cznym
ĠZosta ÅĤa
fe ra
Ġwymo gi
Ġprzeprowa dzania
ws chodniej
pu lar
Ġ7 9
X X
or ie
h tm
Ġbis kup
ĠbudÅ¼e towych
czÄĻ szcza
Ñ ĥ
Ġograni czenie
Ġre lacji
mi Äħ
Ġdo minu
Ġczer w
ĠZa m
Ġodby ÅĤ
Ġu pro
ĠobowiÄħzu jÄħcego
ĠCen ter
Ġdy dak
ĠprzedsiÄĻbior ca
Ġobsz ary
Ġpowo ÅĤy
ĠFor mular
gen ty
Ġd n
li ka
Ġ19 20
Ġspecja lnych
Ġ196 5
Ġreali zacja
Ġcze ÅĽÄĩ
Ġobec noÅĽci
Ġ8 4
Ġbank owy
ĠPrzedmio tem
Ġwykorzy stu
Ġuchy la
ĠzaÅĤo Å¼enia
Ġfinan sach
ĠÅ¼ ona
ĠNor we
ĠrozporzÄħ dzeniem
BE ZPIE
Ġ11 0
ĠC E
ĠbÄĻd Äħcego
NY M
ĠRa dÄĻ
ĠOkrÄĻg owego
Ġpo kaza
Ë Ī
C ho
Ġâ ĪĴ
Ġ8 1
Ġnag rodÄĻ
Ġm en
g by
Ġna du
Ġcu k
js cy
ĠT ro
Ġwyb orÃ³w
ã Ĥ
ĠC la
Å ľ
b rew
ĠokreÅĽ lonÄħ
Äħ b
N T
Ġob licza
wi ÅĤ
Ġe t
no rod
ĠN owe
m ÄĻ
Ġzwa nej
Ġprowadzo nego
ĠKo lum
Ġno ÅĽ
da mia
Ġoskar Å¼onego
Ġs finans
ĠbieÅ¼ Äħce
Ġkwe stion
ĠÅ¼ad nej
ÅĤa d
Åģ E
Ġnaj star
Ġzamie szczenia
Ġnaby wcy
we st
Ġma ju
Ġstoli cy
CZNE J
Ġsi ÅĤ
W AR
cj um
Ġznaj dowa
Ġpri oryte
skry p
my s
Ġsp Ã³j
Ġkoor dyna
ĠP rowa
Ġfa ÅĤ
ĠBi bliote
Ġgru dniu
ĠFe sti
ĠIn stru
nd ard
Ġz nie
Ġw ro
Ġposie dzeniu
Ġv on
âĢĿ ),
Ġprzedstawi ciela
Ġistnie jÄħcych
Mi ni
Ġo stro
Ġwygra ÅĤ
Ġba zie
Ġzawo dach
ĠE u
ĠzarzÄħdza nie
in ga
ĠpiÅĤ ki
dzi li
Å¼ noÅĽci
Ġprzedstawi onego
NI CZ
z ki
Ġrealizowa nych
Ġstatu su
Ġu kaza
ĠZ bignie
Ġdwo ma
Ġa ku
Ġse sji
lo ad
Ġwi nien
spek cji
Ġformular za
Ġjed n
Ġwrze ÅĽ
Ġorganiza cjÄĻ
ĠZamawia jÄħcemu
de rem
Ġwykorzysta nie
Ġklik nij
czÄħ Äĩ
ty p
ĠstanowiÄħ ce
Ġjednost kÄĻ
ĠdruÅ¼y n
ĠF in
ko bier
Ġupraw nionych
rze niem
Ġprzyzna nia
ĠskÅĤadni ki
sz cie
ĠRe d
Ġpozwo li
ĠO ÅĽwiadczenie
Ġ195 6
Ġmagazy n
cu s
Ġspowod owane
Ġtempera tury
ĠamerykaÅĦ skiej
ĠMar ek
se udo
Ġpodat nikiem
is e
Ġspecjali sty
ĠS O
ĠwystÄħpi ÅĤ
Ġmor skiego
Ġprywa tnoÅĽci
ĠwÅĤa dze
ĠC an
Ġsu per
Ġw ÅĤÃ³
un Äħ
Ġspo tyka
mi aru
Ġdyscypli nar
ĠniewaÅ¼ noÅĽci
Ġzd jÄĻcia
Ġod dziaÅĤ
ce um
Ġh ote
ĠzarzÄħ dzenia
Ġk ier
Ġprowadz Äħcych
ĠXV III
ĠwÅĤaÅĽci wej
Ġsie Äĩ
Ġme tal
dom ie
ĠMeksy ku
Ġszero koÅĽci
Ġobej mowaÄĩ
Ġtermi nÃ³w
ĠBydgo szczy
Ġpol skie
AT A
prawoz danie
Ġroz woj
SP OD
Ġskorzysta Äĩ
Ġdo tk
Ġstwier dzono
ĠP r
ka l
ĠE m
e ta
ĠZ le
Ġzawod Ã³w
st rem
Ġsta di
Ġza ko
ĠpamiÄĻ ci
Ġsz wedz
ĠokreÅĽ li
Ġwz moc
ĠrozpoczÄĻ ÅĤa
ĠzakÅĤad Ã³w
Ġwy szuki
ow nictwa
Ġpocz ty
Ġpomie szczenia
sz czone
ĠW irgi
ĠprzeksztaÅĤ cenia
ja k
Ġpodmio tem
Ġdokona no
ĠPa u
Ġna piÄĻ
LE X
wyczaj ne
Ġbud owie
taria cie
Ġwar szta
ĠWÅĤa ÅĽci
Ġusta liÄĩ
ka ra
pe u
w spÃ³l
Ġr zÄĻ
ĠO n
Ġdo zna
ĠJ ose
Ġse ku
Åº nie
ĠsÅĤu Å¼yÅĤ
ce du
Ä «
ĠwÅĤaÅĽciwy ch
Ġt on
em e
ĠC u
ĠAmery ka
ÅĽ la
SPOD AR
Ġce lach
zu r
Ġmar ki
Ġpokry cie
Ġs ÄĻdzie
Ġodde ch
Ġprze su
Ġumo rzenia
ch an
Ġbudy nki
ĠAl l
ĠF UN
ruchom ie
ĠJa ro
j na
fi gu
Ġ194 6
kow skiego
Ġotwar ty
Ġgu berna
Ġodby ÅĤa
wÃ³ z
Ġpo ciÄħ
ĠOÅĽrod ka
Ġ ]
w ek
ĠspeÅĤnia jÄħ
Ġpo ÅĤowy
Ġi mienia
kre tarz
cjona r
ĠOh io
Ġoj ciec
s is
Ġnaj pierw
Ġzawod owy
ĠT oru
Ġdru gÄħ
UB LI
Ġwykaza Äĩ
uch y
spra wie
ĠBu dy
Å» E
Ġkraj owym
t ia
nar ki
ĠGdaÅĦ sku
lni ctwa
zu jÄħce
Ġzdarze ÅĦ
wo je
gro da
Ġfa bry
Ġstypen dium
ĠKomen tarz
men tami
ĠWs chod
Ġmi nera
Ġnaj niÅ¼
ktor Ã³w
ĠStani sÅĤaw
l os
ĠzakÅĤad owego
Ġwol no
nia jÄħ
ĠA na
cj onu
Ġsta tku
Ġu lep
ĠE ast
ĠRob ert
Ġwymieni onej
B P
ĠzwiÄĻk szenia
un kiem
Ġwyzna cza
Ġsta ÅĤego
t he
ku jÄĻ
Ġsek cji
Ġbud owa
ĠOÅĽrod ek
Ġsytua cjach
ĠksiÄħ Å¼ek
Ġpomie szczeÅĦ
Ġspra wia
Ġdru ga
Ġwska zÃ³w
Ġosobist ego
ĠwrzeÅĽ niu
Ġkosz tu
cjonariu sza
Ġdokona ne
wie n
Ġwe teryna
hi re
prze strze
zu jÄħcych
Ġsystem y
Ġpor tu
ĠInstytu t
Ġsu my
ĠRob er
Ġklie nt
Ġchi rur
Ġzabezpie czenie
ĠPi osen
ĠK wo
ĠW artoÅĽÄĩ
Ġwyzna czonym
Ġsformu ÅĤ
i ta
z ob
niÄĻ ciu
ĠpowoÅĤa nia
ĠcaÅĤkowi tej
Ġsze r
Ġoczywi ÅĽcie
tu j
ĠwspÃ³l nej
Ġsztu k
Ġproble mu
ĠobowiÄħ zuje
Ġa para
ĠPRA W
ĠmiesiÄĻ cznie
ĠT E
Ð ¹
Ġzawiera jÄħce
Ġwez wania
Ġpoz wany
let niej
kowa ÅĦ
ĠBezpie czeÅĦstwa
Ġpot ra
Ġkwalifika cje
Ġosta tniego
legÅĤo ÅĽci
czo nymi
nio no
ĠW od
Ġ18 0
re st
ĠH y
Ġna czy
Ġce nie
Ġinterpre tacjÄĻ
Ġele ment
ĠÅĽrod kami
ĠD NA
Ġkre w
b la
ĠRo ck
ĠstanowiÄħ cego
Ġzale dwie
Ġzasa da
Ġotrzyma ne
Ġ196 2
Ġstos unkÃ³w
or g
Ġuro dzenia
fi na
Ġge ode
ÅĦ cÃ³w
Ġa wans
Ġw eks
Ġwil go
rÃ³w nowa
strze m
ni cznej
Ġwy rzÄħ
Ġ8 2
ĠkoÅĦ czy
Ġzamiesz ki
Ġpo rÃ³w
t ing
A by
Ġoczy szcza
Ġi zo
Ġu rzÄħd
Ġpochodz Äħcych
ĠS mi
Ġpreze nta
Ġz rze
Ġzas oby
ĠkoÅĽci Ã³ÅĤ
Ġme dali
Ġpo cze
Ġmar cu
ĠW A
Ġuzy sku
Ġlu d
Ġma j
Ġwybra nych
ĠmoÅ¼e my
Ġsta bi
Ġf ut
Ġrezy gna
ĠP is
M ia
Ġba se
Ġzaby tkÃ³w
Ġbi ura
ru je
ĠskÅĤada jÄħ
ci ÅĤa
Ġpoda Äĩ
Ġinterpre tacja
sti tu
Ġstra ty
à ¦
ĠAu to
Ġhi gie
O gÅĤoszenie
Ġwspo maga
ta cza
inte growa
Ġdo ktora
Ġuzasa dnienie
Ġinstytu cje
Ġzak ÅĤÃ³
ĠnajwiÄĻk szych
s owych
Ġnarod owej
ĠDem okra
Ġs ej
towa no
Ġg r
Ġrodzi nach
uro dzony
ĠPRA CY
R ze
ĠO S
dz is
Ġist nia
Ġ196 1
Ġodszko dowanie
Ġzastos owaniu
Ġsze f
ĠZA K
Ġod stÄħpienia
p Ã³Åºniej
ĠCO VID
Ġprzedaw nienia
b rzy
ĠWARUN KÃĵW
ĠGran d
Ġdowo lnym
S Y
ĠukoÅĦ czyÅĤ
Ġza to
Ġwieczy stego
Ġsku tkowa
Ġwyda niu
Ġir landz
Ġgrup ÄĻ
ĠBa y
ĠzaÅĤoÅ¼ ony
Ġo szac
Ġzna kÃ³w
ĠÅĽmier Äĩ
Ġab solwen
czy kÃ³w
dz onÄħ
Ġ19 50
Ġre krea
Ġw niÃ³sÅĤ
Ġek spor
Ġza wia
Ġp y
no ÅĽciami
ĠzwiÄħza nej
s si
Ġrozpozna niu
ĠTo ur
ĠogÃ³l nie
Ġuzyska nych
Ġ196 3
ĠodlegÅĤo ÅĽÄĩ
Ġdzienni kar
Ġkraj owe
ĠWojewÃ³dz ki
mina cji
Ma jÄħc
Ġotrzyma nych
k orzysta
Ġi grzy
ru n
Ġtermi nem
kow ska
Ġsprawoz daw
Ġna prawy
Ġczerw cu
Ġsz Ã³
ja mi
Ġwa ha
Ġuprze jmie
ĠJer zy
Ġdro ga
Ġsier p
Ġsta nem
Ġkier owania
ĠKon wencji
Ġuzna ne
Ġofi ce
Ġzmia nÄħ
ĠKo szty
ĠuÅ¼y cia
Ġk uch
Ġnie moÅ¼li
Ġener giÄĻ
ĠOfer ta
czycie l
s ch
Ġorygina ÅĤem
Ġtrzy ma
ĠUrz ÄĻdzie
Ġstre fy
Ġb ÅĤo
ĠT el
stÄħpi ÅĤ
Ġna pra
Ġznajdu jÄħcych
wi one
wyczaj nego
Ġza Å¼a
Ġwiary god
Ġz wane
ĠC al
ĠÅĽ mie
ĠDz iÄĻki
own load
d ru
ĠPo Å¼y
b ÄĻdzie
Ġtempera tura
ĠDokumen ty
ÅĤ gar
s Äħd
Ġza rabia
tw orz
Ġprodu cen
Ġco f
Ġo lej
Ġdochod zenia
Ġ Ù
ĠMie jskiego
Ġpro ÅĽ
w skiej
Ġz biÃ³r
ce ni
ĠChi nach
S tos
Ġmaszy n
czy nku
Ġczte ro
co nego
Ġod czy
ĠobowiÄħzu jÄħcymi
ĠWOJEWÃĵDZ T
Ġnawierz chni
no is
co nej
ĠRejon owego
Ġpok rywa
Ġwyga ÅĽ
ĠdotyczÄħ ca
Ġspotka nia
Ġcza sopis
Ġelektroni cznego
chod Ã³w
ĠksiÄĻ gi
ka Äĩ
Ġle czeniu
kowa ÅĤ
Ġsz ta
Ġbezpie czeÅĦstwo
Ġw szech
ANY CH
Ġzasad Äħ
GO N
sko katoli
rz o
Ġuchwa lenia
D R
sy gn
letni ch
ĠDZ IE
niÄĻ ty
Ġspraw dza
Ġsprzeci wu
ĠnarzÄĻ dzi
Ġmie ÅĽci
Ġkar ierÄĻ
Ġrodzi nnych
Ġprze jÄĻ
Ġobie kty
ĠWYKO NA
Ġmili ona
Ġuzasadni onych
ĠciÄĻÅ¼ ar
AD Z
Ġloka l
Ġdom owych
ĠuzupeÅĤ nienia
Ġswo bo
ch em
Ġs ÅĤÃ³w
Ġubiega jÄħcych
Ġnau k
Ġczas Ã³w
ĠPubli cznej
te li
Ġwskaza nia
Ġuzna nie
Ġgatu nku
Ġpoin for
Ġprzeka zywania
Ġpubli cznym
Å «
Ġpreze nt
bur gu
Ġzgod Äħ
Ġprzygo towanie
ĠwiÄĻk szÄħ
ĠHo use
ĠInstytu tu
P RO
Ġrze Åº
Ġsp rowa
tar g
Ġros nÄħ
Ġsposob Ã³w
sie ÅĦ
Ġzasa dÄĻ
ĠSi ÅĤ
Ġje li
Ġprzewo zu
G e
ĠwiÄĻk sze
logi cznej
sa m
za cyjnych
cyj noÅĽci
Ġdy widen
Ġprzetwarza ne
ĠchÅĤo p
Ġpara fia
Ġprze li
ÅĽ wiÄĻ
Ġsa li
w ka
dzi ÅĤy
. /
l Äħd
ĠrÃ³w na
dz ki
za chodniej
Ġprze w
Ġrodzi na
ce zji
ĠF u
Ġdo p
d owo
Ġpo ry
Ġlea sin
ĠK A
Ġemery turÄĻ
á ĥ
Ġno cy
Ġda le
Ġorgani z
Ġdrew nia
Ġspad kobier
ĠniepeÅĤnospraw noÅĽci
za chod
Ġsta ran
Ġb ÅĤÄħd
mi nowa
ĠzewnÄĻtrz nych
pi ka
ĠU K
Å¼ Äħcych
an na
uje my
Î ±
ĠMi cro
Ġg ar
Ġfizy czna
Ġuro dzony
Ġjednozna cznie
rÃ³Å¼ nic
ĠOl szty
z ar
W IA
Ġsta wia
Ġn owa
Ġ195 8
Ġb la
ta m
Ġfir mie
Ġ194 0
Ġ194 3
lik nij
ĠprawidÅĤ owego
Ġstos owany
ĠgÅĤÃ³w nÄħ
Ġotrzyma Äĩ
Ġwykorzysta niem
A b
S er
ĠZ obacz
Ġkandy data
on t
Ġpe dagogi
Ġm obil
Ġutw oru
Ġze wnÄħtrz
C D
Ġp t
ĠRo y
Ġ ËĿ
ĠZa kup
Ġnar ko
ĠpoczÄħtk owo
re go
00 00
4 23
ĠJÃ³ze f
Ġroz dziale
Ġkli ma
ĠwspÃ³ÅĤ finans
Ġob jaw
ĠNacze lnego
ĠsÄĻdzie go
ĠWie le
ĠÅĽwiad czonych
ĠkaÅ¼ dÄħ
Ġle czenie
Ġkarie ry
nd er
kie t
Ġopar te
ĠO cena
Ġeksp ery
rze Äĩ
Ġobli ga
ci ar
Ġpobiera nia
Ġsiedzi ba
ĠokreÅĽlo na
shi p
ĠKa pitaÅĤ
ni orÃ³w
Ġodpowiedzia lny
stro nomi
Ġna si
Ġwykona Äĩ
Ġznaj om
Ġw ciÄħÅ¼
K om
ĠAu st
ĠpeÅĤ nienia
ĠSpoÅĤe cznego
ĠposzczegÃ³l ne
ĠNa d
T K
ĠTech no
M u
Ġodci nek
ni onÄħ
ĠF SK
ĠIstnie je
Ġzw iÄĻksz
ka na
Ġ194 1
O rga
S E
Ġprzedstawi Äĩ
Ġwykonu jÄħcych
Ġ195 9
ĠOG ÅģOSZENIE
ĠÂ °
ow Ã³dz
Ġprze by
Ġeta p
ĠpeÅĤnomoc nictwa
ob ne
sto ra
cia l
Ġprzedstawi ciel
Ġprze niesienie
Ġjakich kolwiek
Ġstro nach
Ġzakre sem
sku te
ce bo
ĠpoÅĤÄħ czenie
Ġwy two
Ġnie wÅĤaÅĽci
Ġpro mieni
ĠDosta wa
Ġna ÅĤo
Ġtru dnoÅĽci
Ġws chodniej
Ġpracodaw cÄĻ
Ġokoli cznoÅĽÄĩ
kto ran
p ha
ĠpeÅĤ nÄħ
cj o
Ġ194 7
Ġskrzy Å¼
Ġsz lach
ĠbÄĻd Äħcy
ĠbiaÅĤ ka
ĠOFER T
ĠÅļ re
ĠRO ZPORZÄĦDZENIE
s owej
Ġeduka cyjnych
U czest
Ġza dÅĤu
Miejsc owoÅĽci
nizowa ny
Ġprzyzna wania
Ġza pisu
JÄĦ CY
Ġmieszkani owych
Ġma t
Ġobie kt
Ġtra fi
ĠnieprawidÅĤ owoÅĽci
je Å¼d
Ø§ Ø
ĠStro ny
Ġu czy
Ġc mentar
ĠobciÄħ Å¼a
Ġpa sz
ĠspoÅĤe cznoÅĽÄĩ
ĠwyÅĽci g
ob ra
ĠI lli
ĠgÅĤÃ³w na
Ð ¼
Ġwyd ru
Ġzu peÅĤ
da no
Ġlip cu
Ãĵ R
ĠplacÃ³w ek
wen cja
âĢĿ ;
Ġda cie
ĠTa de
Ġde tali
Å¼e b
ĠCzer wo
pa dzie
âĢĿ. [
Ġinwesty cyjne
ĠPrzy kÅĤad
a merykaÅĦ
Ġosobi ÅĽcie
ĠskÅĤada Äĩ
ĠE r
Ġod Å¼y
Ġsil nik
Ġta beli
Ġtre ner
stÄħpie niu
Ġch cÄħ
ĠT ER
Ġdy nami
ĠÅļrod ki
rz ch
Ġhistor iÄĻ
m m
Ġtere ny
Ġiden tyfikacji
Ġop cji
ĠK iel
j nym
k su
ĠukoÅĦ czenia
Å¼ ÄĻ
ste ro
Ġem o
Ġzabezpie cza
ĠÅºrÃ³d ÅĤem
Ġotrzyma ÅĤa
Ġko ÅĽcie
Ġgo ÅĽci
Ġwy ku
Ġtru dno
rze m
ĠdziaÅĤa jÄħcy
ĠMa c
maty ki
ĠE wa
Ã³b r
Ġzarzu t
Ġma tki
de mi
ĠMie jsc
e u
ĠN ar
ĠU l
Ġrozli czeÅĦ
Ġ10 1
Ġosobi stych
ĠzwiÄħza na
fi kowania
ĠXV I
ĠBiu lety
Ġartyku le
Ġzna nych
Ġprzy wÃ³d
Ġkom e
ĠPor t
ĠpiÅĤ ce
O G
Ġpracowni kom
ĠT ow
ĠdÅĤugo termin
g y
Ġzapa lenie
wa jÄħ
SpÃ³ÅĤ ka
htm l
Ġgospodar cze
x i
da ny
le ra
Ġli nia
Ġzna ku
Ġmniej szej
lu je
ar io
Ġca ÅĤoÅĽÄĩ
Å¼o no
li an
Ġzab roni
Ġra portu
Ġpoko ju
ĠkÄħ tem
dzia ÅĤy
Ġdo chodzi
ĠOpera cyjnego
ĠpeÅĤ nym
ĠkoÅĽci oÅĤa
Ġwska zujÄħ
g s
ĠOb rony
Ġdal szej
ÅĤ owÄĻ
ci na
Ġwskaza nym
Ġz danie
so ft
Ġnadz Ã³r
ĠBla ck
ĠWa dium
Ġwyd oby
Ġza czÄħÅĤ
Ġ195 2
Ġprzy sÅĤugi
ĠUsÅĤu g
Ġwybra na
Ã³ n
Ġakty wa
Ġpracow nikowi
Ġosta tnie
B ud
ĠXV II
mu ni
w cza
ĠWÅĤo szech
Ã ī
ĠO N
g ni
Ġpoby t
Ġfarma ceu
Ġod pis
Ġharmo no
ĠZ im
ĠPO Z
ĠPen syl
Ġde s
ne ss
wa no
Ġbi le
Ġ0 6
ĠDa nych
b an
Ġprzy jÄħÅĤ
Ġsam Äħ
la na
Ġk rÄħ
ĠS ÅĤowa
ĠopÅĤa ta
Ġprzezna czeniem
pie c
C zÄĻ
ĠdruÅ¼y na
ĠpaÅºdzier niku
Ġwiadom o
ĠPRO JEK
ĠPowia towego
Ġmor skich
ĠstanowiÄħ cej
LNE GO
ĠFran k
Ġpo boru
ĠwaÅ¼ noÅĽci
ĠdÅĤuÅ¼ szy
ĠS E
Ġcywi lny
Ġzach owaniem
Ġnie sp
Ġrozpat rzenia
H a
Ġw pÅĤaty
ĠUbezpie czenia
ĠgÅĤo su
ĠÅĽlima ka
ĠwspÃ³l nika
prze wodniczÄħcy
ĠT am
Ġnieograni czonego
ĠO Åļ
ra s
Ġpodlega jÄħcych
ĠbezpoÅĽre dniego
Ġspor towych
Ġu go
Ġstos owanych
szy ÅĤ
wa jÄħc
ĠJednak Å¼e
Ġspecja lne
ĠszczegÃ³l ne
cea e
ĠpaÅĦstw owych
Ġf ol
ĠmÅĤo d
Od powie
ĠmaÅĤÅ¼eÅĦ stwa
ĠI B
Ġdo cel
Ġstos unkowo
S C
ĠU r
Ġstrate gii
ĠOgÃ³l no
Ġtaki mi
Ġ195 7
pu r
Ġpow tÃ³
Ġpo stawi
Ġde pozy
ĠG waran
ĠwskaÅº nik
Ġpotwierdza jÄħcego
Ġupraw nione
Ġu prawia
ĠspeÅĤnia Äĩ
Ġo si
Ġde l
ĠC iÄĻ
Ġfinans owanie
g li
Ġdem okra
w czym
Ġfirm Äħ
Ġwy m
Ġap te
Ġpo prawy
ĠIlli nois
Ġab solu
Ġinformu jÄĻ
Ġ194 2
Ġpi lo
Ġd er
ĠusÅĤu go
ko ÅĤo
Ã³ ki
p p
Ġmonta Å¼
Ġpotwierdza jÄħcych
h er
Ġza ty
ĠtoÅ¼samo ÅĽci
Ġa pela
Ġjako ÅĽÄĩ
Ġprzej ÅĽci
ĠA T
ĠPol skie
Ġna pa
Ġza chodzi
Ġnajkorzystniej szej
ĠT er
Ġco okie
Ġka nalizacji
go r
Ġzmniej szenie
Ġin ni
K iedy
Ġko mite
Ġpow tarza
MI S
Ġod zy
pu s
ĠRu mu
Ġwy stawienia
ĠDZ IAÅģA
ĠCza s
ni ny
Ġprojek tem
ĠS ur
ĠobowiÄħ zywania
Ġza sie
ĠRzecz pospoli
ĠopÅĤa tÄĻ
Ġkon ces
Ġinicja tywy
Ġwo da
Ġkampa nii
SR R
lin gu
Ġ194 9
Ġziden tyfikowa
Ġochro nÄħ
Ja kie
Ġautob us
ĠSpÃ³ÅĤ dzielni
Ġserwi su
ĠWY ROK
ar i
Ġpo lu
Ġko t
ur t
ĠAl bum
âĢ ĳ
li wie
Î ¿
m s
Ġra ka
Ġpo dania
ĠmiÄĻdzynarod owej
mÃ³w i
Ġuchwa ÅĤÄĻ
Ġwyro kiem
Ġpraw nie
ĠWyso koÅĽÄĩ
ĠP UBLI
ĠD el
Ġpodlega Äĩ
S u
Ġdy sp
ĠH all
ĠÅ¼y dow
Ġjednoli tego
ĠpÃ³ÅĤ nocy
ĠMo Å¼na
ow skim
Ġ13 0
Ġko go
Ġpod pisu
ĠKana dy
Ġstatu tu
niej szym
ĠWy nagro
Ġgeode zyj
ws chod
ĠMe dia
Ġzakup Ã³w
ĠogÃ³l nego
Ġme cze
ĠsÅĤu cha
Kar iera
ĠSzko cji
Ġwielko ÅĽÄĩ
Ġadministra cyjnej
mi ny
Ġwy mienia
z jÄĻ
ĠU BEZPIE
da je
Ġe ty
ĠX II
Ġpo chodzÄħ
Ġs ÅĤowo
Ġsto i
Ġlisto padzie
ĠM el
cza k
Ġwol ne
Ġza ra
cz kÄħ
per ium
Ġz ga
Ġkwiet niu
ĠZa ÅĤÄħcz
Åģ Y
ĠdoÅĤÄħ czyÄĩ
Ġzaspo koje
ĠUni ted
ĠNarod Ã³w
li pi
ÅĦ scy
Ġprzedszko la
ĠKre dy
k wa
Ġniemateria lnych
on d
Ġca li
u tra
da ne
GA NI
Ġa ka
Ġpopu lacja
Ġroz prawie
Ġformular z
ĠusÅĤu ga
ĠZ daniem
ĠPuch aru
ĠUÅ¼ytkow nika
Ġproce sÃ³w
Ġtek stÃ³w
s ÄĻ
Ġobec nej
ĠB E
Ġstan Ã³w
on s
ĠKa tarzy
Ġrzym skokatoli
ĠczÅĤon kami
ĠJa mes
ĠdzierÅ¼a wy
¬ ģ
Ġgrani c
ĠpÅĤy t
ĠOs oba
ĠGÅĤÃ³w nego
Ġm Ã³j
Ġofi ar
ĠOrdyna cji
ĠSo cja
l nika
LI ZA
ĠV an
m owane
Ġu ruchomie
Ġdob ro
ĠB ir
ĠWOJEWÃĵDZT WA
ĠrÃ³Å¼ norod
B O
ĠÅĤa ÅĦcu
ĠPo mi
Ġmod u
Ġ $
ĠD ÅĤu
Ġner w
Ġle ki
Ġtea tra
ĠUniwersyte t
ĠurzÄħ dzenie
Ġustanowie nia
ĠV o
D ownload
ĠB rze
Ġodszko dowa
Ġmoje j
Ġdwu dzie
Ġzatwier dzenia
ĠNarod owy
chi gan
Ġjedno rodzi
ĠY a
ĠobowiÄħzu jÄħce
F il
ĠÅĽwiadczenia ch
Ġprezyden t
ĠO kres
mowa ÅĤa
mis ja
Ġmarket ing
Ġre struktury
Ġd en
unk owania
ra l
go dzi
ĠduÅ¼y m
Ġzawia damia
ni or
ĠTeksa sie
ĠmajÄħ tek
Ġstaw ka
Ġb ry
Ġzaby tk
ĠR Ã³Å¼
ĠpieniÄĻÅ¼ nej
Ġn u
Ġk k
ĠnaleÅ¼a ÅĤo
ĠGre en
Ġpre cy
Ġwy siÅĤ
Ġlicen cja
Ġma l
Ġszko leÅĦ
ĠK B
Ġodpowiedni m
Ġzaw artoÅĽci
Ġu czÄĻszcza
go dnia
Ġz rÃ³Å¼nic
ĠT owar
Ġd Ã³br
dy ka
Ġubiega Äĩ
CZE Åĥ
Ġro lnego
Ġt ary
Ġszko lnego
ĠzastÄĻp uje
Ġfut bo
Ġpo strzega
Ġwzgl ÄĻdzie
Ġudzia ÅĤy
ĠBud owa
Ġmi strz
Ġna wiÄħza
ĠPod stawa
ĠO bli
Ġzna czy
Ġwierzy ciela
we stion
ĠzwiÄħz kÃ³w
Ġza akcep
5 00
Ġzmia nach
Ġosta tniej
Ġre al
ĠstanowiÄħ cy
Ġwprowa dzone
ĠA ward
ĠrÃ³Å¼ nic
Ġdzie w
Ġma gne
ĠAu gu
Ġku ra
Ġpodej muje
K i
ĠWy datki
ĠIgrzy sk
ĠHist ory
Ġpiosen ki
ĠMaÅĤ gorza
Ġuszko dzenia
Ġrozstrzy ga
ĠpostÄĻp owaÅĦ
Ġwypad ek
Ġle gisla
Ġprofeso rem
ĠP OWI
ce rt
ĠCham pion
Ġnie lega
Å¼ ne
Ġprzekaza ne
P RA
ĠnastÄĻp nego
ĠpaÅĦstwa ch
ĠK il
logi cznego
Ġkolej owa
ĠL ake
Ġodno ÅĽnie
Ġuzyska niu
Ġza miar
Ġprowa dziÅĤ
ĠwspÃ³l ne
wi ony
ĠpielÄĻg na
Ġuz godni
owa ni
Ġkilomet rÃ³w
Ġaktor ka
ka j
Ġs ol
ÅĤ kowi
ĠMi koÅĤa
f fa
an s
cie Å¼
Ġtech nik
Ġ10 7
ĠGro up
ri um
Ġpowia domie
Ġzaga dnienia
Ġmie rze
Ġnau kow
ĠK siÄħ
lakty ki
mu l
ĠAk cyjna
ĠNadz oru
ĠMistrzo stw
Ġnaj wy
Ġtechni cznego
ro lni
ĠAfry ki
Ġrek ord
ĠnarzÄĻ dzia
Ġca ÅĤo
w um
Ġpubli czny
Ġpodstaw owego
Ġra cjona
Ġmo im
Ġsposob em
ĠÃ ¢
CZNE GO
ĠI ST
ĠF unda
ko men
na u
ĠpeÅĤ no
Ġpowie dzieÄĩ
ĠAssocia tion
N o
Ġsierp niu
dni k
Ġp seudo
Ġstro nÄħ
Ġdo tar
Ġzali czki
Ġde lega
Ġubezpieczeni owej
ĠA ma
ĠDo tyczy
om b
Ġkierow cy
st ii
Ġk t
ing ton
Ġse le
czy mi
Ġu n
Ġzabu rzenia
Ġczy stoÅĽci
Ġust ro
Ġpoda niem
Ġmo no
ce sy
Â ¿
Å¼a niem
Ġgatu nki
ĠD E
owa nymi
Ġopar ty
Ġdokony wane
Ġsu mie
ĠD al
Ġprywa tnych
ĠspeÅĤ nienie
cza mi
Ġpol ska
r owania
Ġz gi
ĠMi chigan
Ġwi tami
ĠKonstytu cyjnego
f en
t te
us et
ĠC A
Ġadministra cyjnym
Ġzgod ny
Ġ193 6
bo ur
Ġopro cent
Ġza prezent
Ġdy skry
OW O
Ġopie kÄĻ
Ġzarzu tÃ³w
ĠZe landii
ĠDodatk owo
Ġwojs kowych
Ġokre sy
Ġob liczenia
Ġutwo rzenia
ĠâĢ İ
Ġul gi
li ca
ĠO K
n k
Ġdo maga
ĠT K
wie c
ĠX III
Ġod mowy
szel kie
ck y
Ġdokona na
e uro
Ġpodmio tom
Ġkompu tera
ĠIn dii
ĠDeparta ment
Ġdzie ckiem
Ġkonstru k
Ġnajlep sze
ge s
ze w
Ġro szczenie
iÄĻ kujÄĻ
Ġ19 18
ĠPo czÄħ
Ġs rebr
ĠBrazy lii
b en
ĠrÃ³Å¼ nica
mi r
V II
ma nia
ni ÅĤa
Ġkonta ktu
Ġapli ka
Ġho lender
Ġrozpa trze
czy ÅĤo
wa la
Ġz roma
Ġca ÅĤe
Ġnapisa ny
ĠczÅĤonkow skim
Ġin na
Ġwie m
u jÄħce
Ġkwadra towych
Ġsied miu
ĠwystÄĻp owania
ĠPomo c
WA NIA
Ġob jÄĻcia
ĠogÅĤo szeniu
ĠprÃ³ by
Ġsprawoz daÅĦ
Ġbryty jski
ĠsÅĤu sz
Ġplanu je
Ġ20 21
dziaÅĤa nia
ĠCie bie
Ġpodzie m
Ġst ÄĻ
Stro na
Ġza kÅĤa
pi Äħ
SZ Y
P U
ĠG rzego
Ġna ci
pie ra
p r
Ġstanowis k
ĠÅĽwiat ÅĤa
Ġoka zji
su je
sprawie dli
Ġg ieÅĤ
Ġwa gi
Ġprzepis em
ĠLa w
ci Ã³ÅĤ
Ġg lobal
Ġmi arÄĻ
ĠsÅĤu Å¼eb
Ġ193 8
Dz iaÅĤa
Pos eÅĤ
ĠS hi
ĠKomu nika
ĠInter net
Ġzwa lnia
ĠPOSTANOWIE NIA
n tach
ĠSÅĤuÅ¼ by
Ġtermi ny
p ki
Ġskute cznie
ĠpiÅĤkar zem
nÄĻ ÅĤy
ĠÅĽwiÄħ ty
Ġroz wa
Ġnap ÄĻd
Ġpyta ÅĦ
Ġpowierzch nia
ve s
Ġre du
ĠpieniÄħ dzu
ĠPo stÄĻpowanie
daw cÄĻ
ĠG imna
M EN
kie n
Ġspecja lnoÅĽci
ĠÅĽredni Äħ
ĠRE GON
ĠÅĽ rÃ³d
ĠT or
Ġlu tym
Ġ10 2
Ġokoli cy
wia nia
ĠKrzy Å¼em
ĠP E
Ġnaj now
Ġra czej
wy ciÄĻ
sp a
ĠsÄħd em
CH OD
Ġfa x
ĠGO SPODAR
Ġnie obec
ĠPa weÅĤ
ĠS ty
S i
Ġspowod uje
Ġopisa ne
Ġwy ÅĤo
s se
ĠUM OWA
ĠmaÅĤÅ¼on kÃ³w
ĠPrzedmio t
Ġniniej szÄħ
ĠZwiÄħ zek
ĠLo ka
bi t
Ġfundu sz
ĠpamiÄĻ taÄĩ
Ġdodatk owego
ĠprzepÅĤy wu
ĠsÄħ dy
ĠWielko pol
ĠS ÅĤow
ĠKrÃ³ lew
e re
Ġprze sÅĤucha
Ġpozosta jÄħ
Ġdal sze
Ġleasin gu
Ġroz liczania
Ġnadu Å¼y
Ã £
bie nie
tyw ne
ma to
Äĩ mi
ĠnaleÅ¼ Äħcych
Ġfinans owanych
Ġfrancu ski
ĠMusi c
Â ·
ĠSer vi
Ġangiel skiego
i z
Ġwsp Ã³
dzia ÅĤÃ³w
ba ra
Ġzna czÄħ
czo ÅĽÄĩ
ĠPa wÅĤa
Ġ10 8
to ÅĽci
ĠwÅĤas nÄħ
Ġdrze wa
Ġkonkur sie
Ġaktual ne
Ġnie jaw
Ġs wego
ĠPeÅĤ nomoc
fry kaÅĦ
ĠPrze wodniczÄħcego
ĠspÃ³ÅĤ kÄħ
Ġpodsta wa
Ġ195 5
ĠokreÅĽla jÄħ
ĠKatowi ce
ĠPa miÄĻ
w ne
ĠKa ra
ĠTow ns
x a
Li sta
Ġ10 4
Ġtrzy dzie
Ġole ju
Ã ¸
Ġsy nem
Ġpodej mowania
Ġsie dli
Ġpojawi ÅĤ
Ġprzechowy wane
plo m
ĠE mi
ĠWz Ã³r
e ra
Ġdowod owego
Ġnapisa na
ĠRo dzaj
Ġponie dziaÅĤ
Ġb en
Ġa nek
Ġkar ze
wia du
Ġgodzi nie
Ġcz oÅĤ
Ġru chom
szcze niem
Åģ AD
Ġszko ÅĤÄĻ
ĠZ y
Ġpreze sa
Ġad resu
Ġra n
W il
OW ANIE
ĠÅĽwiad czy
Ġposiada nych
Ġ19 21
B Y
Ġstud i
ĠIz ra
ĠH or
ĠL I
Ġtwo rzenie
ĠW raz
Ġspraw cy
s owe
ĠKar ta
g owych
ĠÅĤa ci
Ġorzecz nictwie
ma c
da cji
Ġcyk lu
Ġau tora
Ġst ary
ĠInfrastru ktury
Ġutw orzo
ĠsÅĤuÅ¼ Äħ
Ġza ÅĤat
Ġwolon tariacie
Ġuchwa ÅĤa
Ġ195 3
ce lar
d ÅĤo
Ġinterne towego
ĠSta tysty
ĠWiel ka
Ġtranspor t
ĠI miÄĻ
Ġwyprodu kowany
ĠwypeÅĤ nia
ĠTrakta tu
ĠwewnÄĻtrz nej
ĠPierw szy
tycz nymi
Ġkata log
pa n
ĠIn te
ĠS il
Ġwie dzÄĻ
ĠK ol
AT Y
Ġre wolu
Ġobjaw Ã³w
Ġna dania
Ġzezwo lenie
Ġu stÄĻp
Ġwo kali
Ġzre zy
Ġzdoby ÅĤa
Ġd Äħ
Ġa tom
Ġrol nikÃ³w
Ġpo pro
Ġprzy to
Ġloka lnej
Ġde szcz
s owego
ti c
ĠamerykaÅĦ skich
Ġ195 1
Ġmetod Äħ
Ġszko lenie
ĠuwaÅ¼a ny
ĠksiÄħ g
Ġsa mi
Ġgmi nÄĻ
Informa cja
Ġza lega
kto rze
Ġbez wz
ĠzadoÅĽÄĩuczy nienia
Ġte ore
Ġprowadz Äħcego
Ġc om
ĠKu pu
jeÅ¼d Å¼a
Ġuwa g
Ġw enty
Ġkla sie
ma nie
Ġme diÃ³w
ĠzakoÅĦ czyÅĤ
ro ko
Ġuchwa ÅĤÄħ
ĠÅĽ wi
ĠP res
Ġ19 19
tu m
Ġra dio
Ġefektyw noÅĽci
FIKA CJA
Ġfor mach
ku jÄħ
ĠEurope jskÄħ
Ġodnosi Äĩ
Ġwyso kie
D I
Ġpoli tycznych
ĠPo rozu
Ġpoprze dniego
Ġprzygo towy
ĠK RA
Ġpar ty
Ġpisem ne
Ġtelewizyj ny
Ġaktuali zacji
Ġha b
ĠKar ty
Ġno n
Ġimpre zy
Ġtrak ta
Ġanali za
mo dy
ĠZ ob
ĠmÅĤody ch
ĠÅģ Ã³dÅº
sach uset
Ġdoty czyÄĩ
ti o
Ġekonomi cznej
Ġpersone lu
Ġwy eli
mie rza
Â »
AN A
no n
sachuset ts
Ġwarun kami
Ġdzis iaj
Ġpoli cji
czywi ÅĽcie
ĠPo dat
czu cie
ĠLubli nie
Ġnie przy
Ġopi niÄĻ
Ġzadebiu towaÅĤ
ĠRo k
Ġog rze
Ġstudy jny
ĠÄĩ ma
Å¼ Äħce
Ġdo Å¼y
V D
chro ni
w skim
ĠrÃ³w nie
nict wem
ĠprzyjÄĻ tych
o mi
ĠEU R
Ġmedy cznego
Ġpo p
f el
ne i
Ġfinans owym
Ġpo kazuje
Ġprzezna czony
OT NYCH
ĠP h
B u
Ġprzy dzie
Ġpowo ÅĤuje
sÅĤugu je
Ġprze sta
Ġprzy woÅĤa
ĠnaleÅ¼y cie
ĠJer sey
Ġreak cji
ĠPow sta
le rii
Ġznalaz ÅĤ
ĠEle kt
ĠOp rÃ³cz
Ġprzyro dni
ĠpeÅĤ ne
Ġw brew
Ġoprac owanie
ĠStra te
en d
Ġme ned
l ski
ĠskarÅ¼ Äħcego
Ġli czÄħc
Ġcze mu
Ġle tni
ĠosiÄħg nÄħÅĤ
u re
Ġpo Å¼ar
ĠB ill
ĠnaleÅ¼y tego
ĠÅĽrodowis kowych
Po z
Ġna ro
Ġsty l
O P
Ġnor we
sor cjum
Ġfak tycznych
ĠGÅĤÃ³w ny
ĠGmi nÄĻ
Ġodbior cÃ³w
Ġka naliza
Ġi lu
la d
Ġst war
Ġsta cjonar
Ġuchy lenia
Ġty godnia
Ġpod jÄħÄĩ
Ġe po
Ġprzyzna je
ĠMin ne
Ġpowa Å¼aniem
Ġmomen t
ĠB row
Ġfizy cznÄħ
rÃ³ci Äĩ
Ġzagro Å¼enie
Ġprojekt owej
Ġszko lny
Ġo szu
Ġprzekazy wane
C C
Ġkonferen cji
Ġdo ktry
ĠCh or
ĠdziewiÄĻ Äĩ
Ġwysp y
Ġstowarzy szenia
za cje
zek w
ĠTa kie
ĠpopeÅĤ nienia
ĠK lub
LNO ÅļCI
ud i
Ad res
L U
ÅĤ Ã³Å¼
Ġsyn te
pu su
wa nym
ĠKon feren
leg ÅĤych
lo p
sp er
t kami
ĠKontro li
Ġu miar
g iel
g lu
Ġstandard Ã³w
Ġ Ã³
ĠSkarb owego
ĠNaj lep
Ġdal szego
cie nce
pe l
ĠDzien niku
ĠpÅĤat nika
Ġnowe lizacji
ĠtworzÄħ c
Ġspecja lnego
pi sz
N r
k se
Ġka den
Ġwy ceny
pa trz
at le
Ġrodzi nnego
ĠNiem cy
Ġnie dzie
Ġch ÄĻ
Ġprzyczy nÄħ
Ġ ow
ĠO to
Ġkonsu lta
Ġtelef on
re e
Ġ19 28
ĠSystem u
Ġzawar ÅĤ
ce k
ph y
Ġpo krew
ri o
Ġdotycz Äħcym
Ġudzia le
ma nd
ĠuÅ¼y Äĩ
Ġist nienie
x t
Ġszko lnym
Ġpar ku
Ġzale g
cha ch
ĠE konomi
Ġnaru szeniem
ĠJ A
Ġinte le
ĠrÃ³w now
Ġspos oby
ĠÅĽredni ch
ĠwyreÅ¼yser owany
Ġod rÃ³Å¼
ĠK al
ĠbudÅ¼e cie
Ġozna czenie
Ġ owa
Ġkredy towej
ĠMas sachusetts
Ġkontynu a
Ġali menta
ĠNau k
ga s
ĠszczegÃ³l nym
ĠN owo
ĠWy niki
Ġkwest ie
Ġpa tro
Ġdokumen tach
ĠZ bro
ĠLo tni
Ġrozpat rywa
wi s
ĠPodstaw owej
Ġpoz wu
wspÃ³l no
Ġauto rem
Ġpo dy
" )
trzy my
Ġuru cho
or Äħc
ĠWy dziale
ĠnastÄĻpu jÄħcy
land ia
Ġzmniej szenia
le tnie
ĠB io
Ġkon tr
ĠWali i
Ġjednost ce
Ġno tariu
Ġp ary
Ġli czne
Ġna kazu
p to
man n
Ġkom pa
Pier w
Ġpa to
Ġod stÄĻp
ĠĊ Ċ
S o
ni owy
Ġrodzi ciel
Ġprocedu ra
Ġtrans fer
y m
Ġdzie wczy
Ġkonty ne
Ġduch ow
Ġnie publi
Ġprac uje
Ġdzielni ca
T S
ĠwÄĻ z
ĠuÅ¼y cie
Ġwyra Å¼enia
Ġwybra Äĩ
Ġkry ty
DZIE NNIK
ĠKoÅĽci Ã³ÅĤ
ta ra
mon d
Ġ14 4
bo ard
Ġprze gra
Ġtrwa ÅĤego
N umer
Ġin wen
Ġda tÄħ
Ġsp oru
Ġszko dli
Ġzwo ÅĤa
ri c
t ÅĤu
ĠK liknij
Ġopodatkowa nych
wÄħ tp
Ġczy ni
pie niÄĻÅ¼
Ġprze woz
Uczest nicy
Ġprze wodniczÄħcego
Ġkory gu
Ġhy dro
ĠCer tyfika
ĠDavi d
ry czaÅĤ
st ia
pita l
ĠS kÅĤad
OS EK
Ġparla mentar
Ġzespo ÅĤÃ³w
Ġdzie siÄħ
ĠnajwiÄĻk szym
TY CZ
ĠB iel
ĠZbignie w
ĠP ru
Ġte maty
Ġdo ktoran
ĠuÅ¼ytkowa nie
unÄħ Äĩ
Ġu twÃ³r
ce niem
Ġobwo dzie
te rem
Ġw Ã³j
Ġpsy chia
ca nia
Ġostatni o
Ġzawiera jÄħcych
Ġbra ÅĤ
Ġape lacji
ĠRol nictwa
Ġformular zu
Ġautoma tycznie
ĠCzÅĤon kow
Ġi dzie
Ġwykona ÅĤ
dy cha
Ġwa dy
Ġutrzyma niu
ĠG liwi
Ġkoszy kÃ³w
k lu
Ġprakty k
JÄĦ CE
Ġdebiu tan
ĠOD P
ĠZ SRR
Ġop tyma
Ġsta tkÃ³w
ĠProto ko
ĠuÅ¼y waÄĩ
Ġinwesty cje
ĠD en
Ġnajlep szy
T V
ĠB ob
Ġrehabili tacji
ĠKancelar ia
Ġod wro
m Äħ
Ġte sta
ÅĤoÅ¼ one
ĠPrezyden t
V III
Ġkraj owej
t is
Pod czas
Mini ster
Ġosobist e
stos owanie
Ġwyklu czeniu
Ġroz prawy
ĠbieÅ¼ Äħcych
N e
Ġo kaz
ar ka
Ġgo rÄħ
lo ga
cie ÅĦ
Ġfunk cjonariuszy
Ġprze rwa
Ġzaist nia
ĠPOD STA
Ġpodstaw owym
Ġotrzy mujÄħ
ĠWska za
ĠS ing
ĠP ÅĤo
Ġoprac owy
ĠPRZE Z
ĠS ÅĤa
fikowa ne
Ġtytu ÅĤÃ³w
ĠTa j
porzÄħ dzenie
ĠZ ar
Ġbi uro
bi ne
Ġmo ra
tu n
ĠzwiÄħza nego
li zm
ĠK R
ers on
i c
Ġuchwa la
Å¼Äħ co
Ġgospodar cza
p owania
Ġnau kowe
Ġpotwierdza jÄħcy
Ġhistor ia
Ġte orii
Ġkry kie
Ġter ro
ĠPor tu
Ġzgroma dzenia
owi u
ĠpoÅĤudni owym
P an
ĠS Y
ĠdotyczÄħ cÄħ
Ġ12 5
ĠW prowadzenie
Ġwyklu cza
ES EL
h r
Ġpodob nych
ĠDz ia
Dy re
Ġwi rus
ĠLi p
Ġproces owego
ra nu
Ġm art
ĠÅ¼y wi
ĠP hi
l owa
ĠwpÅĤy wem
ĠSzczeci nie
Ġuzyska ne
Ġgra jÄħcy
Ġdodat ku
ĠPrzed szko
Å¼y na
un kach
nia k
ĠrzÄĻ du
Ġczy nienia
Ġzastrze ga
mo re
Ġli cy
dz Äħc
ĠWojcie ch
Ġpoli cj
Ġwielo krotnie
wi d
Ġna wiÄħ
Ġra dzie
Ġjednost kach
zu al
Ġbie rze
S H
ĠprzyjÄĻ te
ĠprzedsiÄĻwziÄĻ Äĩ
ĠprawidÅĤ owoÅĽci
Â ®
Ġob serw
ĠF unk
Ġprywa tnego
u te
ĠDom u
Ġubiega nia
Ġskle pu
Ġorze kÅĤ
Ġpocze t
>< /
n owy
ĠF OR
G o
tt le
g lo
ĠwspÃ³ÅĤ wÅĤas
ĠK ie
Ġ193 7
Ġorga nami
li o
Ġwy nosz
ĠSzwe cji
ĠP sy
Ġporozu mieniu
Ġprze bo
ĠO ba
ĠrozstrzygniÄĻ cie
obec nie
Ġcentra lnej
ĠdziaÅĤ ce
Ġspad ek
wa ter
sty ka
Ġod nawia
Ġstosow nych
ÅĤo Å¼y
Ġkor pora
Ġna st
Ġele mentem
Ġpod su
** **
ĠLou is
ĠA ri
Ġmu l
ĠE ner
Ġzamie szcza
Ġch ory
ÅĤy by
sz onego
Ġwydarze nia
zu jÄħcy
Ġu kry
ĠS tru
Ġroz powszech
Ġzy skÃ³w
Ġmar szaÅĤ
Ġnie korzyst
Ġide al
z godnie
i de
Ġuzna ny
Ġkan celar
Ġobie k
ĠwziÄħ Äĩ
Ġnieu czci
towa ÅĤa
f an
ĠpozarzÄħd owymi
ĠFlory dzie
ĠPo za
Ġwy prze
Ġk s
ĠEURO PE
ni cj
Ġroz przestrze
Ġdowie dzieÄĩ
Ġkonkre tnego
Ġzezna ÅĦ
ĠJa ku
Ġli dze
Ġuszcze rb
Ġprowadzo nym
wiÄĻ cej
ĠApela cyjnego
u jÄħcy
Ġbi lans
Ġchoro ba
zy ka
h el
ĠJa kie
bud owie
Ġw zywa
Ġinterne towa
Ġar che
ĠWÅĤa dy
ĠRoy al
nt ario
Ġs ÄĻdzia
tar ze
dowa nego
ĠK to
ĠczÄĻ ÅĽciach
rys dy
Ġpos eÅĤ
B IE
ĠRa dio
ĠW SP
Ġregulu je
Ġw krÃ³tce
ĠsÅĤuÅ¼b owych
Ġ12 1
rowa ny
P e
ze ru
ĠK ro
Ġrachunk owych
Ġrozum ia
Ġcza sach
MA WIA
Ġusta lone
W iÄĻ
Ġprzestrze gania
ĠdziaÅĤa jÄħ
ĠosiÄħg nÄħÄĩ
Ġkontro la
Ġprzysp ie
Ġwykony waÄĩ
towa niu
ĠRzeczpospoli ta
Ġelektroni cznych
ĠÅĽ lu
Ġfaktycz ny
ĠK obie
Ġpowro tem
ĠPozosta ÅĤe
ĠmaÅĤ ej
Ġdro gach
Åģ ÄĦ
ĠNi niejsze
Ġk rzyw
ĠP ÅĤa
zowa Äĩ
Ġnie pieniÄĻÅ¼
ĠRe prezenta
ĠdostÄĻp na
Ġ193 4
b ory
Ġmedy czne
ĠC SK
la ne
Ġmecz Ã³w
ĠpowÃ³d ka
ĠProje ktu
ĠZa chodniej
nowi cie
ĠC ra
Ġodwie dza
Ġdopuszcza lne
wa nÄħ
sy stem
Ġseria l
Ġniemie ckim
p t
ĠwyÅĤÄħ cza
ia l
ĠT ry
ĠURZÄĺ D
ĠM ur
in s
or skim
ĠMistrzo stwach
Ġgospodar stw
d na
Ġpartner stwa
je Å¼eli
T re
sty ki
Ġopa kowania
Ġroz ciÄħga
Ġuro czy
Ġkonkre tnych
ĠÃ³w czes
Ã Ħ
Ġ10 5
Ġu sy
J u
Ġusta lonym
Ġprowadz Äħce
Å¼ bie
ĠP al
Ġbryty jskim
ĠwspÃ³ÅĤ czyn
Jedno czeÅĽnie
Ġpacje nt
Ġ14 0
ĠprzestÄĻp stw
ĠRepubli ce
ĠstanowiÄħ cym
Szanow ny
Ġzespo ÅĤem
to nie
ĠB lo
Ġbudow li
Ġbet on
so li
Ġzao fer
Ù Ī
Ġw nieÅĽÄĩ
by m
Ġskute czne
ĠczÄĻstot liwoÅĽci
ĠU R
ĠZarzÄħ dzenia
na stu
Ġpocz towy
Ġdokumen tem
Z I
Ġ19 24
re szcie
Ġspor tu
ĠMicro soft
ĠrÃ³Å¼ni ce
Ġzroma nizowany
ĠW IE
Ġpraw ej
Ġproto kÃ³ÅĤ
Ġz rÃ³wnowa
pa t
ĠPoli tyka
re y
Ġrezer w
Ġrodzi ce
Ġwe szÅĤa
te lnoÅĽÄĩ
ĠS he
Ġpra g
d owany
Ġzapewnia jÄħ
Ġre kom
ĠC le
ĠnieprawidÅĤ owe
ĠogÃ³ÅĤ em
Ġwie dzieÄĩ
Ġpobra nia
Ġustaw owych
ĠZa wod
Ġpro sto
jaz dÃ³w
ĠKrzy Å¼
Ġzaa wans
Ġjedno czes
Ġgimna zjum
Ġzawiera jÄħcy
Ġpoprzedni m
Ġprze wodniczÄħcy
Ġbada niu
Ġwydarze ÅĦ
Jo hn
ĠK lasy
Ġkal orii
Ġb al
Ġzawie szenia
G dy
le cia
ĠO twar
Ġwynaj mu
ĠB ran
log iÄĻ
Ġpubli czna
Ġro cznego
g ÅĤÄĻ
ĠÅľ e
tk owo
Ġ7 00
Ġusu niÄĻcie
czas em
ĠĊĠĊ ĠĊ
ĠPol skich
ĠwewnÄĻtrz nego
Ġniez wykle
ĠkrÃ³ lew
Ġzastos owaÄĩ
ĠÅĽwiade ctwa
Ġprze szedÅĤ
Ġod grywa
Ġ14 2
qu i
Ġpomi ar
Ġsko nta
Ġbudow nictwa
Ġu der
ĠL y
L NY
ÅĽci Äħ
Ġloka lne
ĠXI V
Ġ(... ).
ĠM en
Ġ19 30
Ġuprzedni o
Ġatmos fery
Ġadministra tora
ĠwyÅ¼ szych
ĠWy bor
Ġdoda Äĩ
dzi n
ĠZ o
P owy
ĠO ne
ĠOb ej
Ġbank owe
Ġdro gÄĻ
ĠpeÅĤ nego
ĠobowiÄħz kiem
i ny
Ġoficja lnie
ĠSkle pu
Ġra port
ĠE mitenta
ja ko
we lo
ÅĤo m
Ġuwar unkowania
Ġspo dzie
i mi
ĠG Ã³ra
Ġuda ÅĤo
M Y
ĠO ntario
W ska
Ġparamet rÃ³w
Ġz budowa
Ġrzeczywi ÅĽcie
ĠNa z
Ġp ry
B ar
Ġp pkt
Ġpubli cznÄħ
ĠS ek
Ġpoda ne
Ġpre feren
e nerge
sta nu
ĠAle x
ĠdÅĤu gu
Ġs an
de go
ĠpowiÄħza ne
ECY FIKACJA
Ġdrew na
ĠLe e
Ġudziela nie
un kt
ose nek
s owa
ra sta
Ġbezpie czeÅĦ
cz Äħce
sto ku
Ġwnioskodaw ca
Ġpozy cjÄĻ
f undu
V AT
ĠwyÅ¼ sza
ĠUsta wo
ĠMarszaÅĤ ek
ktÃ³ rzy
po ne
Na tomiast
Ġreje strze
ĠE g
Ġdwu krotnie
ĠP Ã³Åºniej
Ġstra t
Ġz er
rzy ja
ĠskarÅ¼ Äħcy
d os
Ġe la
ĠOrgani zacji
Ġbez praw
Ġpoza rolni
ĠwÄħtro by
ĠmÅĤo dzieÅ¼
Ġryn kowej
ĠKomite t
ĠksztaÅĤ cie
Ġhttp s
Ġ16 0
ATU T
Ġzale gÅĤoÅĽci
Ġb ok
Ġro czne
Ġpotrzeb ne
to krzy
go ry
J I
Ġreprezentu je
Ġdzia ÅĤu
niÄĻ ciem
à ®
ĠEUROPE J
ĠIN TER
Ġnaby tych
Ġle wej
ĠBlu e
zy w
Ġregula min
O dno
Ġpi osenek
kle r
ĠTowns hip
nu je
Ġby ÅĤego
ĠGenera lnego
Ġsk Ã³r
ĠBe a
Ġpod jÄħÅĤ
Ġpozosta wia
Ġskarb owej
ĠPi ÅĤ
ĠKole gium
Ġza lu
Ġz ryczaÅĤ
Ġisto tny
ĠOR GANI
Ġwykonaw czych
Ġjezio ra
1 12
ter Ã³w
Ġper ku
Ġk ru
da m
Ġna kaz
ĠHo landii
dzia lnoÅĽÄĩ
ĠA ktual
ĠO bie
Ġregula cje
ĠfaÅĤ szy
Ġwy kÅĤad
ĠROZ DZIAÅģ
g et
Ġurlo p
per ski
ĠR an
em o
zy n
Ġnie daw
Ġfa bu
Ġak tach
Ġroz wo
Ġmistrzo stwach
Ġnieprze kracza
Ġwz nowie
eksy kaÅĦ
Ġz bo
ĠprzyjÄĻ ty
t kach
ĠH el
ĠzupeÅĤ nie
ĠOrder u
ĠIST OTNYCH
Z U
Ġko piÄĻ
ster n
ba ty
Ġwniesi one
Ġh onor
zowa ny
s sa
ĠKonstytu cyjny
ĠÅ¼e la
bi ja
ĠF la
ĠPow szech
ĠmiÄĻdzynarod owe
Ġfe sti
ĠC lar
Ġklucz owe
ĠU p
Ġmet ra
ĠSerwi su
ĠmiÄĻ k
ĠMa m
ni owa
ĠpoÅ¼y cz
Ġopera tora
Ġsum ÄĻ
Ġmechani z
ĠtÄĻ tni
Ġopisa nych
ĠsiÄĻ ga
te ro
Ġpozy ski
f al
Ġdyspon owania
ĠEn ter
Ġroze gra
Ġpowie ÅĽÄĩ
rz bie
Ġskorzysta nia
yta nie
199 9
Ġch rzÄħ
Ġuchwa le
ĠSt rze
Ġmie szan
Ġdotychczas owych
ĠI PP
Ġwskaza nego
Ġdzie ÅĤo
ĠWydaw nictwo
Ġty godnie
Ã³ ÅĤy
ĠudostÄĻp nienia
ĠnastÄĻpu jÄħcego
Ġ vi
ĠP ESEL
ĠD r
ÅĤa c
ĠK od
Ġpor talu
ĠMi d
Ġform Äħ
Ġi mie
Ġdaw na
cz ar
se e
Ġmini mis
ĠW stÄĻp
Ġkosz tem
ĠSPO ÅģE
d is
Ġtrwa ÅĤe
ĠF lo
z dni
ĠS ku
Ġgwia zd
199 7
Ġ193 5
ĠRa il
Ġnadzie jÄĻ
ĠKolum bii
ĠC up
ĠMa teria
Ġwyka Å¼e
Ġsp od
zaleÅ¼ nie
ch wy
ĠKwo ta
ĠD an
ĠRO KU
ni cza
ĠMie jsce
ĠDa nie
Ġpar king
Ġtra sy
ko mo
na ÅĽcie
Ġob cych
ti ve
i ra
Ġz integrowa
Ġkandy da
ĠE F
Ġ193 2
ĠbÃ³ lu
ĠuwzglÄĻdni Äĩ
Ġz wana
Ġorgani zmu
la cjÄĻ
Ġwy rÃ³wna
ĠI ranie
ĠrozpoczÄĻ ciem
Ġpok Ã³j
Ġbi u
ĠNA Z
ĠT Y
Ġprzej ÅĽcia
ĠZA MAWIA
ĠwyksztaÅĤ cenia
ĠBiaÅĤ oru
arze nia
ĠMistrzo stwa
Ġ193 3
S t
ĠRumu nii
spra woz
u x
ec k
Ġprze biega
. -
Ġdystrybu cji
ĠobciÄħ Å¼enia
t ter
B e
Ġnaj pÃ³Åºniej
cho dami
Ġwi r
Ġniepod lega
mi arze
Ġt om
ĠS im
Ġprzew lek
zy li
ĠS un
Ġpo to
ĠPrze ciw
ĠINFORMA CJE
NO ÅļCI
ĠpÅĤy ty
ĠporÄĻczenia ch
Ġin dek
Ġwy li
Ġo pisy
Ġprowadz onÄħ
Ġwykorzysta Äĩ
ber ta
Ġau tory
Ġu wie
Ġwa d
tyw ny
3 00
Ġdzie Äĩmi
Ġuz bro
Ġspo t
Ġrekla my
kowa nej
Ġmedy cyny
Ġwskaza nej
Ġpracodaw cÃ³w
Ġza sta
ĠXX I
ĠTwoje j
ÅĤoÅ¼ ona
Ġpo danie
Ġza bie
G ru
Ġaka pi
daw cÃ³w
RO NY
Ġprywa tne
wem u
ĠwspÃ³ÅĤpra cÄĻ
Ġ {
ĠsÅĤo d
Ġpe wien
sza ch
Ġma tka
Ġwysp ie
âĢ¦ )
Ġ2 20
Ġtwier dzi
Ġo powie
Ġzaprze sta
Ġzaka Åº
c cy
rakt ery
Ġna rzÄĻdzie
Ġdz wo
ĠFormular z
ĠskÅĤada ne
Ġli nie
dem ia
li gen
ĠksztaÅĤ t
Ġwprowa dzony
ka zy
Ġozna czone
ĠÅĽwiad czone
Ġkarie rze
Ġepi de
ĠNaj bardziej
Å¼a nia
Ġka waÅĤ
Ġszpita la
Ġwynika jÄħcego
Ġ9 00
NI KA
stw u
d s
Ġsyste ma
ĠDeparta mentu
RA N
Ġ11 5
L AR
ĠFran cu
) )
ck s
Ġprze mysÅĤu
ĠPa ul
Ġzdr owie
Ġi mi
Ġsz la
Ġkierow nik
Ġcentra lnym
ĠpoczÄħ wszy
ĠsÄħd owym
Ġhandl owej
U P
Ġpowi nie
ĠwzglÄĻd Ã³w
Ġskute cznoÅĽci
ĠpÅĤy wa
ÅĤ owych
Ġju rysdy
Ġsp on
po zna
ĠOrgani zacja
ĠSan ta
Ġar ku
tyw nych
ĠPrze j
l ow
Ġmieszkani owej
Ġko cha
ĠIn dy
sz czony
Ġzbior owego
du m
kto ni
ĠM S
ĠB I
Ġemery tura
Ġoddzia ÅĤÃ³w
Ġszac unk
Ġcia ÅĤo
Ġbo j
ĠMicha ÅĤ
ĠS ka
Ġprzesz ÅĤoÅĽci
Ġusta leniu
Ġdop Ã³ki
ĠOgÃ³l ne
Ġzarzu tu
Ġcuk ru
b lo
Ġpla nem
Ġmateria lnego
Ġt zn
Ġgrzyw ny
Ġwod nych
Ġza ÅĤa
ĠÅĽwiad ka
ĠGra ÅĤ
Ġro lnej
ĠMaÅĤgorza ta
ĠB li
Ñ Į
Ġdal szych
Ġstar szych
Ġru gby
C IA
Ġ15 3
Ġpostanowienia mi
Ġkar ne
ĠWie lo
ĠKon ta
Ġmet ro
is ku
ĠpÃ³ÅĤnoc nym
ĠmiÄĻdzynarod owym
T en
ĠzaÅĤÄħcz nikiem
ĠBurmi strz
Ġstanowi ÅĤy
Ġzarzu ty
Ġoce n
Ġkierow cÃ³w
Ġnad wyÅ¼
ob Ã³j
sze r
towa nej
z z
Ġnie wykona
S tan
ĠNorwe gii
x x
ob o
Ġwoj ska
Ġma sa
Ġsu ma
ĠspoÅ¼y wczych
Ġsi Ã³d
Ġman dat
ĠA f
Ġtelewizyj nych
Ġpro c
ksztaÅĤ c
ĠPOST ÄĺP
dy cja
ĠÅĽredni owie
Ġmoje go
ĠzÅĤo Å¼onego
stÄħpi Äĩ
ĠMicha el
Ġu trwa
mio ty
SI Äĺ
Ġrozpa try
Ġpoprzedni ch
Ġkraj obraz
Ġe wa
Ġry ba
ĠFa cebo
ĠzgÅĤo szenie
Ġ( "
Ġtere nach
G ra
Å¼ Äħcy
ĠuÅ¼y wana
ka nie
Ġnieograni czony
Ï Ĥ
ĠmÄĻ Å¼a
ĠAt lan
Ġroz ryw
ĠMa ÅĤo
zasa dni
niÄĻ ta
ĠLi sta
ĠÅĽre dnie
lo giem
ĠGimna zjum
ĠpaÅĦstw owej
Ġrobo tami
u Å¼y
Ġograni czone
Ġpojem noÅĽci
Ġintele ktual
ĠO j
ĠR uch
ÅĤby m
Ġpozwa na
ĠsÄħ dami
ĠobjÄĻ tego
Ġorze czeÅĦ
ĠDz i
ĠÅ¼o ÅĤÄħd
ĠczÄħ ste
Ġgru bo
Ġfinans owÄħ
Ġpot r
Ġnaz wany
Ġpremie ra
d owe
Ġroz dzie
w czeÅĽniej
si my
g owego
Ġprawdopod obie
Ġod dania
ĠK owa
Ġzapobie gania
ĠogÅĤo szone
Ġpli ku
ĠPOSTANOWIE NIE
ĠPro ble
ĠtÅĤu szcz
ĠBi g
Ġinforma cjÄħ
sa l
ĠPROGRA M
ĠUrzÄĻd owy
ĠSa int
Ġfrancu skim
ĠkoÅĽci o
Ġsoli dar
bu my
ĠG or
Ġzach ow
Ġsta Äĩ
ĠdÅĤu gie
ĠIn spekcji
one s
Ġtowarzy sz
ze ta
kali zacja
Ġko li
ĠKra kowa
Ġzga dza
ĠCZ Äĺ
ĠÅĽre dniego
fi t
ĠNi niejszy
zowa nych
s el
Ġka m
ĠporÃ³w ny
A M
ĠwaÅ¼ nych
ĠwewnÄĻtrz ne
sprze da
Ġwynika Äĩ
ĠzwiÄħza nia
ĠBo gu
ĠNa by
ĠâĢ ľ
maty ka
Ġwiru sa
Ġwi zeru
Ġpo kazu
ĠOpie ki
ĠK C
bi tra
Ġ19 22
Ġpowszech nych
Ġmieszka nie
Ġwo dzie
fe rze
Ġzasadni czo
T AR
Ġprze chodzi
ĠTe re
Ġwprowa dzania
trzeb ne
Dzie nnik
Ġkart ÄĻ
Ġty to
Å¼y ÅĤa
ĠSmi th
ĠBia ÅĤym
Ġatra k
ĠPa pie
ĠÅļ ROD
gra fi
ĠE gip
Ġ193 1
Ġs koÅĦ
Ġinspe ktora
od erni
ow nikÃ³w
Ġod czu
Ġza wi
Ġkosz tory
Ã Ĥ
Ġpreze s
Ġjednost kÄħ
ĠW czeÅĽniej
Ġna tury
Ġzaufa nia
ĠsÅĤu Å¼yÄĩ
ĠN I
Na stÄĻp
b ridge
ĠBud owla
ĠA G
C on
ĠFranci sco
ĠLE X
od o
ĠURZÄĺD OWY
ĠwewnÄħtrz wspÃ³lno
Ð ³
Ġkolej owej
i gh
Ġban kÃ³w
Ġprze niÃ³sÅĤ
Ġprzyj mowania
Ġpie choty
Ġstre fie
ty zacji
ĠzwyciÄĻ z
ĠPro cedu
gra f
Ġdyspon uje
Ġe wolu
ĠS zu
: ...
Ġreali zuje
Ġra nki
Ġre d
ĠDziaÅĤa nia
Ġjakiej kolwiek
Ġwie jskich
Ġtechni cznym
Ġ19 29
ĠGdaÅĦ sk
Z AR
s owy
ĠMar cin
li sta
Ġrek or
Ġplan owaniu
ta nie
Ġasy sten
Ġdecy duje
ĠC ri
ĠS prawozdanie
Ġstro nami
ĠwspÃ³l nych
Ġspraw dziÄĩ
Ġmonitor owania
Ġm ÄħÅ¼
Ġprze czy
ĠbÄĻd Äħcej
li kwi
ĠpoÅĤÄħ czeniu
H P
fi kuje
ĠpowoÅĤa ny
Ġunik nÄħÄĩ
ĠWNI OSEK
Ġobro towy
Ġna f
Ġudzie lonej
ĠsÅĤuÅ¼ bie
Ġlicz b
p ry
Ġspowod owaÄĩ
Ġzapyta nia
do raz
Ġstaw kÄĻ
ĠP G
Ġprzedstawi onych
ĠO CH
ĠzapÅĤa tÄĻ
Ġotwar tego
ĠprzysÅĤugu jÄħ
ĠczÄĻ ÅĽciej
ĠSta cja
Ġeksp res
Ġzap la
Ġk se
T OR
Ġtechni ki
Ġu jem
Ġu ra
Ġregu ÅĤy
Ġzaw artÄħ
ĠwÅĤa d
Ġdefi niu
ĠUsÅĤu go
Ġnada je
ĠW ÅĽrÃ³d
ĠO g
Ġcie ka
Ġzy ska
ĠmiÄĻdzynarod owego
C e
ĠsÄħd owej
S ZE
ĠPary Å¼u
m owÄĻ
Ġzatru dnienie
ĠIz bie
Ġkieru je
ĠRa port
em ent
Ġautor skich
ĠÅļ wi
Ġmog ÅĤo
Ġwod Äħ
Ġmor za
Ġenerge tycznej
ĠPa ki
ĠH al
ne su
to ÅĽÄĩ
ĠO C
ĠpowaÅ¼ ne
Ġwypad kÃ³w
ĠLud wi
Ġposiada jÄħcych
Ġdyplo ma
ĠNa tura
Ù Ħ
ĠCz ÅĤowie
den t
Ġu pa
ĠmiesiÄħ cach
Ġ11 1
ĠPiosen ka
ĠO pen
ks em
ĠSzko le
Ġmia stem
Ġinforma cjami
ni cÄĻ
Ġodzwiercie dla
kty wy
Ã º
ÅĤoÅ¼ ony
ĠJÃ³ze fa
ĠpoÅĤoÅ¼ onych
wa nii
ie nta
Ġdokona nych
dz wo
d one
ĠniemoÅ¼li we
Ġewentual nie
Ġod mawia
Ġczyn niki
Ġw niesienie
ĠwyÅ¼ szym
ĠnajwiÄĻk szÄħ
ĠPro gra
ry m
Ġz b
ĠPo Å¼ar
Ġstwar za
bo ga
Ġwar stw
Ġp il
Ġpotr Äħce
Ġkatego ria
Ġmini strem
Ġdzia le
Ġ12 2
Ġte stu
Ġdoda tek
Ġ Ä
ĠU praw
Ġwy ÅĤÄħcz
Ġu de
Ġspot kaÅĦ
ns on
bu ry
Ġna sz
Ġtele informa
Ġporozu mienie
ĠI le
Ġniezgod noÅĽci
ra cja
ĠpoÅĤo Å¼onej
Ġman da
Ġje sie
n kami
Ġdu Å¼a
RU K
Ġfunkcjon owanie
Ġprowadz ony
Ġmaksyma lnie
Ġkata stro
Ġa rab
ĠwspÃ³l nÄħ
Ġniezdol noÅĽci
Ġrygo rem
ĠwyÅ¼ szego
ĠApela cyjny
Ġrun dzie
ka ja
a ktyw
ĠMa na
Ġzak westion
cho dziÄĩ
Ġuchy lenie
Ġprokura tora
wie szczenie
ĠMinister stwie
wy k
Ġjaki ÅĽ
Ġma ÅĤy
Ġf u
Ġinfrastru ktu
ĠPa tri
Ġkar ny
Ġmul ti
ĠPra codaw
Ġstre f
Ġremon t
S k
ĠnastÄĻp nym
g r
ĠrÃ³Å¼ nymi
m or
ÅĤ owego
Ġzapa lenia
Ġs che
ĠAgen cja
M y
ĠpoczÄħ tek
Ġdokumen cie
Ġpodob nym
ĠWhi te
Ġpod ÅĤÄħ
Ġfi gu
ĠÅ» e
O sta
dzie siÄĻ
Ġe tni
Ġprofi l
ĠP N
Ġwskaza niem
Ġbezrobo tnych
rowa ne
ĠG al
Î ¹
f unk
Ġprokura tor
ĠIn stitu
ĠPo ra
ĠLo ve
Ġchoro bÄħ
Ġgrani ce
ĠUS ÅģU
ĠWARUN KI
C za
wi zyj
ow cy
ĠC es
Ġpotrze ba
Ġrobo czych
rowa nie
ĠA M
ĠSPRA WO
Ġpowodu jÄħ
ĠzasiÅĤ ek
g mina
Ġim por
ĠupÅĤy wu
Ġnie p
ĠobowiÄħz kowe
Ä ĥ
Ġzby cie
and er
ĠwyjaÅĽ nienie
ĠÅļ WIAD
ĠEd ward
ĠM AR
ĠRich ard
kowa niu
Ġpla ny
Ġprzej rzy
ĠStani sÅĤawa
Ġprzypad ki
Ġzdr owiu
Ġku chni
Ġnar ciar
ĠukoÅĦ czeniu
I M
ar ia
Ġinstru menty
dni cy
Ġb el
Ġprzele wu
Ġus unÄħÄĩ
ĠBud Å¼e
ĠOk rÄĻ
d owego
ĠwyÅĤÄħ czenia
Ġw ÄĻd
Ġza budowa
Ġopublikowa na
Ġ2 10
ĠTwoje go
ĠUro dziÅĤ
Ġsku tkiem
Å¼ liwoÅĽÄĩ
Ġloka lnym
ĠdziaÅĤa Äĩ
Ġdostar czenia
Ġdostaw cy
owi n
ĠW Z
ĠBo Å¼e
ĠgÃ³ rÄĻ
ĠX L
Ġinfek cji
Ġzwa nego
Ġzdol noÅĽciach
S U
dz two
Ġobli gacji
Ġwstrzyma nie
Ġprogram em
ĠsporzÄħ dzania
ĠC ro
ĠW artoÅĽci
t ran
Ġ10 9
ĠzwierzÄĻ ta
F L
ĠspeÅĤ niony
ĠodpÅĤa tne
cza ka
Ġcel owe
Ġkon cert
ĠPowy Å¼sze
ĠÅģ uka
Ġodpowiada Äĩ
ĠmieszkaÅĦ cy
ĠP ia
ĠnaleÅ¼a ÅĤa
Ġchcia ÅĤ
ologi czne
... )
Ġwi th
ar ch
Ġsk ra
Ġod pisÃ³w
Ġwalu ty
Ġloka lnego
F C
Ġagen cji
ta nia
l owych
wo da
Ġre sor
Ġdefini cja
Ġklauzu li
ĠDziaÅĤa lnoÅĽÄĩ
Ġ19 26
ĠPar ku
Ġfak tyczne
Ġotwar te
Ġsta li
con sin
A L
ĠI L
Ġbudowla nej
Ġiz by
ĠuwzglÄĻ dnienia
mo na
ĠmÃ³wi Äĩ
ĠInspe ktor
Ġmia nowicie
sz oÅĽci
ĠDi vision
d ba
Ġegza mina
Ġfi k
ĠÅ¼ ony
Ġinwesty cyjnego
Ġza prasza
ĠwspÃ³lno ty
ĠIndia na
ĠPensyl wanii
Ġpew nych
ta cyjnych
Ġzaba w
Ġw nosz
mi no
ĠwystÄĻpu jÄħcych
ĠWspÃ³ÅĤ pra
ĠÅ ¹rÃ³dÅĤo
Ġwykony waniem
Ġwyeli min
ĠMinne so
ko pa
ĠpÅĤat noÅĽÄĩ
te cznie
Ġprzekaza Äĩ
ĠzadÅĤu Å¼enia
Ġusy tu
ĠJa me
Pa ni
ĠKaÅ¼ da
Ġm eksykaÅĦ
Ġrze ka
szy b
4 00
ĠbÄĻdÄħ c
ĠwpÅĤa t
li cy
ĠKrÃ³le stwa
Ġ20 22
Ġsocja lnych
Ġwar unk
ĠEl Å¼bie
S M
ĠKatarzy na
po Å¼ar
ĠczÅĤowie k
ĠwspÃ³ÅĤ wÅĤaÅĽci
ĠTranspor tu
Ġ19 14
Ġu raz
Ġba tali
Ġwy z
Ġzwal cza
Ġmian owany
Ġ15 7
Ġu moc
ul l
IN FOR
Ġreklama cji
Ġmo tywa
ĠRos y
ĠObowiÄħ zek
Ġprzy mus
Ġak cy
Ġlitera tury
Ġau stria
ĠzapÅĤa ciÄĩ
ĠAdministra tora
ĠAdministra tor
Ġrekru tacji
ĠÅĤa god
m art
Ġmniej sze
Ġrezulta cie
l owe
Ġr ur
Å¼ Äħcego
p rz
Ġznajdu jÄħce
Ġda na
R ob
PO L
Ġpodob ny
Ġ19 27
czÄħ ca
Ġre cyk
Ġtera pii
mi nem
ĠZ G
da y
wi ce
Ġko st
Ġuli c
wa cji
Ġpora dni
Ġprze mieszcza
Ġni kt
Ġhandl owego
ĠCor pora
p ka
ĠW szelkie
ĠS pa
kie ty
Ġg lu
Ġwykorzysty wania
ĠS portu
ĠD on
tu jÄħ
Wykona wca
Ġrach unkÃ³w
ĠZ wro
Ġsku pia
ĠniektÃ³ rzy
ĠSta nu
Ġd Ã³ÅĤ
Ġdziedzi ctwa
Ġodci nkÃ³w
ĠM etro
ĠPro fe
Ġty siÄħce
ĠNAZ WA
Ġo tacza
Ġwytwo rzenia
Ġsta ÅĤych
Ġpo ro
Ġprze pu
ĠAu tor
Ġpowszech ne
Ġpokry cia
lora do
ci d
Ġspor towe
rzu ca
Ġen demi
Ġwi dzi
ĠZa s
Ġp sÃ³w
Ġmeto da
Ġisto cie
ĠpowÃ³dz two
ĠT RE
o logii
Ġzag waran
ĠLu bel
Ġprzed stawienie
Ġorganiza cjÄħ
g owej
Ġi td
gra fia
po sto
Informa cje
Ġ19 25
Ġodno ÅĽ
Ġspo czy
Ġustanowie nie
ĠMon t
t rzenia
Ġkata logu
ĠM ona
ĠwspÃ³ÅĤpra cu
Ġpojaz dem
O fer
wo ÅĽÄĩ
Ġtro pika
g ry
Ġkraj owy
ĠsÅĤuÅ¼ Äħcych
na le
Ġwie rz
Ġtre nerem
ĠA merykaÅĦ
rowa Äĩ
ty k
Ġcze ka
Ġoskar Å¼enia
A n
ri ca
Ġzaskar Å¼onego
pie nie
wÄħtp liwie
Ġne utra
ren cji
ĠWiel kiego
Ġmieszkani owe
Ġkorespon dencji
Ġda nymi
Ġlimi tu
Ġforma cie
Ġorgan owi
Ġplanowa nych
tÃ³ r
Ġwystar czy
ĠOd dziaÅĤu
b b
Ġnie wo
ĠZ E
a nali
Ġmo cz
pro jekt
ĠWis consin
ĠA gnie
Ġpodpis em
Ġw sz
Ġzd jÄĻÄĩ
Ġewiden cjon
Ġek wi
Cz ÅĤon
Ġzagospodar owaniu
lne mu
R R
ek wa
IE R
Ġkon dy
Ġza ciÄħgniÄĻ
ĠKomu na
Ġu bieg
Ġpli k
my ka
c ra
ĠsÅĤuÅ¼ bÄĻ
al th
ĠK IO
Ġubezpieczeni owych
ĠwiÄĻk sza
Ġrej on
Ġprze wodnicz
ĠdziaÅĤ ka
Ġuczestni czyÄĩ
ĠnajczÄĻ st
ba d
Ġelektroni cznym
Ġpotrze bÄĻ
ĠrÃ³Å¼ nicy
Ġwpisa ny
ba sa
ĠS EK
sz Ã³w
Ġokres owych
Ġintere sy
ĠZa wiera
ĠdÅĤugo trwa
Ġma ni
Ġnum ery
Ġroz dziaÅĤu
ta cyjne
Ġkar nej
gra cji
Ġzazna czyÄĩ
ard Ã³w
Ġobec nym
k li
ĠS ar
Ġryzy kiem
ĠThoma s
ĠrÃ³Å¼ niÄħ
Ġwybu ch
ĠPo datek
Ġmateria lnej
ma i
Ġdy na
Ġzaist nienia
Ġdom em
ge ra
niej szÄħ
Ġwystarcza jÄħco
Ġwykona na
jedno li
ra cza
Ġwyda nego
Ġodpowiedni Äħ
s ha
Ġw raca
Ġmo ty
ĠRi ver
Ġze sta
Ġubezpie czeniu
Ġzasob ami
ĠsamorzÄħd owych
je k
ĠChampion ship
Ġb ÅĤon
M ist
Ġza kÅĤadzie
Ð° Ð½
ng e
mu no
ĠPierw sze
Al bumy
ĠFUN DU
pa mi
p lan
ĠmÃ³gÅĤ by
ĠnajwaÅ¼ niejszych
ĠKrÃ³ tki
Ġ Å¼u
Ġfunk cjonu
log y
ĠT S
Ġfaktu rÄĻ
ĠUrzÄĻd owym
te lni
ÄĻ b
Ġsp rost
ĠPR E
ĠB art
Ġ( )
om y
Ġbis ku
ĠPO LI
Ġbu dzi
ĠK K
G mina
kreÅĽ lony
ĠKo ÅĽcie
Ġmoderni zacji
á Ģ
Ġpew nym
ĠMi mo
ĠzÅĤo Å¼onej
ĠwÅĤo ski
Ġfinans owy
ĠP owÃ³d
ĠKO MIS
ĠS and
niesie niu
ĠspoÅĤe czno
ĠuwaÅ¼a ne
Ġleczni czych
ĠÅ¼ad ne
ĠinÅ¼ynie r
Ġwytwarza nia
ĠP y
Ġ12 4
ĠÅģ Ã³dz
ĠZAMÃĵWIE NIU
ĠZarzÄħ dzenie
Ġaktual nie
ĠNew s
Ġwy noszÄħ
si ÅĤa
Ġwyso ki
Dla czego
Ġkod u
ĠB IP
sz czonych
Ġpew noÅĽciÄħ
ĠÅĽwiad kÃ³w
ĠF undacji
Ġfinans owa
Ġ14 6
Ġna pÄĻ
od powie
pÅĤa t
Ġ14 5
Ġuczest nika
Ġwyda nej
Ġzaopa trze
Ġgrani cÄĻ
pyta nie
ĠprzyjÄĻ ciu
Ar tykuÅĤ
Ġsez onem
Ġobraz u
Ġrosy jski
Ġodwo ÅĤu
Ġokres Ã³w
Jed nak
Ġkonsekwen cje
Ġpowia t
Ġopar ta
ko li
Ġkorzy ÅĽÄĩ
Ġutw ory
Ġre publi
Ġod ej
wa mi
Ġ11 6
Ġnapa st
g la
ĠZa le
In ter
Ġin spi
Ġdzie ÅĤa
Ġse ktorze
Ġwar sza
OR T
su s
ĠpoÅĤu dniu
Ġma ÅĤa
Ġtrakt owania
Â «
Ġty dzieÅĦ
Ġsprze czne
ĠZa interes
po pular
ĠSzwajcar ii
ĠR PO
oru p
Ġozna czony
Ġsta le
d osta
Ġwa dli
Ġopis ie
Ġs cho
ĠA L
Ġupraw nienie
Ġpodej ÅĽcie
Ġpowie rza
Ġprzyja ciÃ³ÅĤ
Ġpowszech nego
Ġpi on
ĠVi ctor
H e
Ġprzedmio ty
ĠpÃ³ÅĤ ro
ĠZa to
Ġdom owe
Ġen zy
Ġnapo jÃ³w
Ġprzy cze
ĠzachÄĻ ca
Ġlabora tory
ĠA kcji
o raz
Ka Å¼
Ġodci nka
Åº nia
g m
ĠJ r
Ġpis arz
ĠKraj owa
Ġpow iÄĻk
Ġko per
ĠzwrÃ³ci ÅĤ
ĠT rzy
Ġ19 17
ĠwszczÄĻ cia
Ġspotka nie
Ġodniesie nia
Ġ12 3
B OR
ĠZ P
ĠGmi nie
Stos ownie
Ġca la
g ers
uchy lony
Ġuzna na
ĠU waÅ¼a
Ġdzie li
M ENT
ĠPuch ar
ĠSp ring
Ġtransa k
tu nek
ĠBa se
Ġindywidual ne
c ri
lo ÅĽÄĩ
ĠO pi
Ġnomina lnej
ZD ANIE
ĠmÃ³wi Äħc
ĠsporzÄħ dzone
Ġwystawi ony
Ġnegocja cji
P Y
Ġpodstaw owÄħ
ĠLud owej
prowa dza
ĠK li
Ġka li
ĠMis so
Ñ ĸ
ĠUM OWY
Ġniema l
ĠzasiÄĻ gu
Ġwyka zuje
ĠCh an
Ġudzie lone
Ġkon figu
pol skim
kar pa
ĠDecyz ja
ĠA naliza
Ġu czci
Ġka dr
ĠS ier
ÅĦ ce
Ġniemie ckiego
ĠR em
Ġwykorzysta niu
mi nÃ³w
Ġrozsze rz
Ġoprac owany
Ġdokona niu
tu nki
.âĢĿ ;
Ġbudowla nymi
Ġpraw da
Ġprowa dzeniem
Ġhandl owe
ĠpiÄĻ cio
Ġuregul owania
ST ÄĺP
ĠB et
men tacji
Ġdywiden dy
ĠWYKONA W
Ġparla mentu
Ġre Å¼
kie run
Ġprze cieÅ¼
ĠUÅ¼ytkow nik
ĠprzysÅĤugu jÄħcych
dne y
Ġin wali
Ġstos owana
ĠPRZED MI
Ġpowie trze
Ġd owÃ³dz
ĠPod la
D E
f fe
ĠPostanowie nie
z nes
Ġwykonaw czego
sprawoz dawca
ĠdoÅĤÄħ cza
ĠPowie trz
Ġspos obie
Ġka mieni
Ġutru dnia
ÅĤo s
: ]
Ġs h
Ġte stÃ³w
Ġplan owania
Ġwska zujÄħc
Ġpodpisa ÅĤ
Ġpozwo lenie
Ġpodat nicy
ma s
A A
ĠAust rii
g owania
Ġwyb ory
ĠOchro na
Ġs wej
Ġplane to
Ñ ı
pre s
ĠDyre ktywy
Ġsil nika
ĠRÃ³w nieÅ¼
Ġbryty jskiej
Î ½
Ġna kaza
CZ NYCH
spe cja
m b
Ġprowa dzeniu
Ġkonsu ment
Ġdru kar
ri ch
Ġma zowie
ĠWo od
ku jÄħcych
ĠA ktyw
ĠK U
Ãĵ J
ĠzobowiÄħza ni
v ia
Ġsze ÅĽci
ĠmiÄĻ sa
ĠObywatel skich
CYJ NA
ĠS kÅĤada
Ġtajem nicy
ĠRE A
Ġ11 4
dopod ob
Ġnaz w
Ġg waÅĤ
Ġpozwala jÄħ
ĠWo jska
Ġkoncep cji
ka Å¼
Ġklu bie
ĠLubli n
ĠR us
Ġprzedszko lnego
.) ;
ĠU waga
R y
ĠSie dzi
ĠRzecz nika
Ġo strze
Ġjedy ny
obior cy
p ty
Ġu krai
Ġpli ki
Ġzach owaniu
Ġpie czÄĻ
bo li
f in
ĠK siÄĻg
Ġnazy wany
Ġka s
bu s
nie Äĩ
wo tnie
T ermin
, ,
uch ar
d owych
Ġodno szÄħ
w ork
ch en
Ġemeryta lnego
Ġpowsta ÅĤy
k rywa
li cz
ĠniezbÄĻd nym
Ġos ÅĤa
Ġwielo ma
ĠÅĤÄħcz nÄħ
Ġstosow ne
Ġpogo r
da niu
! --
te ch
Ġrodzi nne
OW AR
pre ss
ĠwpÅĤy nÄħÅĤ
ĠZa danie
no szenie
Ġprzy wo
Ġprze mawia
ba t
ĠwyrÃ³Å¼ nia
ar k
Ġwiadom oÅĽÄĩ
ologi cznych
Ġprzestrze nnym
Ġdotycz Äħcymi
ĠPla y
Ġ19 23
ĠmajÄħtk owej
Ġzespo ÅĤy
L C
ĠL O
ĠspoÅĤe czna
fika cje
ĠobsÅĤu gÄĻ
Ġlokali zacja
Ġdom nie
Ġprzeciw poÅ¼ar
ĠEuropej ski
Ġu po
me dia
ĠCh ry
Ġg rzbie
ĠG ene
ĠGra nicznej
Ġdobre j
C en
Ġlotni czych
se s
ĠO sie
Ġzdarze nie
ĠG er
ĠS ec
Ġprodu kcja
ĠÅĽcia ny
ĠLi gi
.. .,
Ġpo czy
ĠzÅĤo Å¼ona
ĠAfry ce
Ġpotra fi
Ġstaw Ã³w
Ġka dry
ĠPierw sza
Ġh oke
Ġsymbo lem
ĠMar ii
ĠkapitaÅĤ owych
Ġci ÅĽnienia
ĠBiaÅĤym stoku
Ġwynika jÄħ
ĠTur cji
Ġdie ty
Ġbez skute
ĠPart ner
ZA S
Ġprze budowy
ĠzobowiÄħza na
ĠnakÅĤad Ã³w
Ġwsp ania
Ġst Äħd
Ġwprowa dziÄĩ
Ġrezygna cji
Ġpla cu
m owany
ĠA ra
g ÅĤy
27 1
Ġd ek
ĠBo ga
Ġde welo
ĠL p
Ġpropozy cji
Ġusta lono
Ð¸Ñ ĩ
ĠCh in
mi strz
Ġdo zwo
onal d
Ġstaw kÄħ
z da
ĠW obec
Ġopis uje
ĠpodwÃ³j nego
ĠA c
ĠsÅĤuÅ¼eb noÅĽci
Ġgrani cami
Ob ec
Ġefe kt
Ġs os
Ġwy wie
Ġproducen tem
Ġsta Å¼u
Ġbi bli
nta mi
ĠZgroma dzeniu
ĠORGANI ZA
Ġpolega jÄħcej
Ï ģ
Ġtrwa ÅĤy
we ll
ĠA kt
Ġoprogram owanie
Ï Ħ
Ġa spe
Ġdie cezji
ĠMisso uri
ĠKo rei
ĠamerykaÅĦ skÄħ
Ġser we
Ġzali czek
Ġzaleg ÅĤych
ste in
kra j
Ġk wi
skie mu
H L
k y
ĠwystÄĻpu jÄħcy
Ġse g
ro dzenia
ĠdostÄĻp noÅĽci
ĠS pi
ĠK ru
pu lacja
Ġzwolni ony
kowa nym
ĠpiÅĤkar ski
ĠPe ter
Ġpo e
Ġpochod zenie
Ġniedo puszcza
Ġzwa nym
Ġimpre z
Ġenerge tyczne
Ġpo sze
ĠczÅĤon ko
ĠSzczegÃ³ÅĤ owy
Ġkar nych
R ZY
Ġprzeprowa dzonych
ĠZd oby
Ġtermi nach
ĠWa sh
Ġko rona
bior cy
ÅĤ ty
do c
Ġodby ÅĤo
sta mi
ĠWewnÄĻtrz nych
ĠCze ch
ĠTy lko
ĠG il
jaz dy
Ġmo to
do mi
Ġna pis
Ġj o
js ko
Ġbez dom
Ġma jÄħcy
i ck
Ġm ld
ĠzastÄĻp czej
Ġzatrudni ony
Ġs ce
re j
Ġwynika jÄħcej
ud e
Ġrolni ctwa
Ġp rÄħ
p pe
ã ģ
ĠÅĽ nie
Ġkar nym
Ġo li
Ġgra czy
Ġmuzy kÄĻ
ĠH istoria
Ġproblem em
Ġtranspor cie
ĠA i
ĠPrzedsiÄĻbior stwo
Ġch e
Ġelektro energe
ĠE a
ĠDzie ÅĦ
Ġg li
k r
Ġkon wen
AR S
Ġle ku
Ġprecy zyj
ne ÅĽ
pa l
ĠD VD
Ġwz orÃ³w
Ġde ka
ĠIstnie jÄħ
ta na
e du
logi czny
Po li
ĠoszczÄĻdnoÅĽci owo
Ã¡ n
st ian
ĠOfi cja
Ġob owi
ĠwstÄĻp ne
st ers
ĠpÅĤa ci
u gu
wiadomie nie
Ġadministra cyjnymi
Ġpody plom
re mo
Ġda chu
noÅĽ lÄħ
ĠCre ek
Ġinstytu cja
u li
letni m
Ġarty stÃ³w
W ÅĤa
ĠR od
Ġwyposa Å¼enie
Ġzarzu ca
Ġnadz wyczaj
ĠspeÅĤ nieniu
ĠJed nym
S ezon
ĠPre mier
Ġposiada niu
U mowa
ĠInterne tu
mio tem
ĠdziaÅĤa jÄħcych
% ),
Ġtera peu
Ab solwen
Ġtwar zy
Å¼Äħ cÄħ
ĠprÄĻd koÅĽÄĩ
Ġsta ÅĤej
g ier
kreÅĽ lenia
gi ne
Ġmetro poli
Ġproduk cjÄĻ
mi ra
Ġza robi
Ġsk lasy
ÅĦ czy
ĠKon g
dz iÄĻ
Ġ3 50
at r
Ġgmi nnych
ĠV ol
Ġdzieci ÄĻ
ĠJ os
ĠsÅĤuÅ¼ Äħce
Ġ15 00
Ġzaw artoÅĽÄĩ
Ġh ur
Ġgospodar owania
Ġgmi nnej
C S
Ġlimi t
Ġpis arzem
lo pe
ĠO ÅĽwia
ĠDz iel
ĠW I
Ġsymbo li
Ġz mody
k ta
Ġdru ku
Ġprzy stos
Ġbudy nkach
t ce
ZAR ZÄĦDZENIE
ĠzwiÄħza ni
ĠL ar
ĠDzie ci
Ġotwar ta
Pa ra
ĠÅĽrod ku
Ġwykro czenia
Ġf lo
O Z
ĠÅļre dnia
Ġui szcza
ĠPoli techni
Ġarchite ktoni
Ġzbiera nia
te st
Ġra da
ĠAnd rze
lo gie
Ġpodejm owane
ÅĤo d
Ġdo ktor
ĠPL AN
o le
b ka
Ġzdecy dowa
Ġzapla nowa
Ġzainteres owania
Ġpou f
ku ry
Ġprzy pom
tu rÄħ
e p
Ù Ĩ
st wy
sz onej
Ġ10 3
ow ni
Ġzre ali
ĠzÅĤo ty
ĠPrzed stawi
ĠjÄĻzy kÃ³w
dziaÅĤ em
ĠjÄħ dr
kodaw cy
Ġszk Ã³d
ĠM em
ĠnastÄħpi ÅĤa
st kÄħ
pod staw
Ġkwe sti
lia ma
wi sko
ĠwaÅ¼ ny
O r
Ġa s
ĠPro mo
Ġobejmu jÄħce
Ġtu Å¼
ĠO SN
Ġpreze sem
ĠudostÄĻpnia nia
Ġro kiem
Ġskutku je
ĠTwo ja
Ġkonta ktÃ³w
i ce
ĠrÃ³wno leg
ĠMa te
O pis
ĠAr genty
Ġdobry m
ĠSta ndard
Ġudzie lonych
ĠS ho
Mo Å¼e
ura l
Ġwyna gra
Ġzorganizowa nej
ĠuÅĤat wia
ĠÅ¼ad nym
ĠbezpoÅĽre dnie
Ġupraw nionego
ĠTran sa
Ġwykona niem
Ġwin na
Å¼a nie
ĠpoczÄħtk owej
Ġprofe sor
Ġli niÄĻ
Ġnarod owego
Ġ13 8
NE T
fa ÅĤ
Ġp lus
ĠKomen da
ĠCorpora tion
ĠC li
lo nia
z no
Ã ħ
Ġza ÅĽwiad
Ġwy niosÅĤa
Ġkrzy Å¼
Ġdo tacje
art er
AT K
Ġinter pela
Ġorzecz nictwa
Ġnie mo
Ġprzyzna ne
mie Äĩ
ĠsporzÄħ dzony
ĠzaÅĤo Å¼yÅĤ
Ġdefini cjÄĻ
sz tor
Ġws chodzie
Ġ19 12
Ġprzedstawi ony
b ec
ĠTe raz
che ster
Ġek spozy
Ġprzedstawi ÅĤ
ĠMie jski
Ġrzad ko
b lu
Ġna licza
twie j
P h
K TY
Ġje zdni
Ġrezer wy
t wem
Ġprzy stan
ĠD re
ĠogÅĤo szono
ĠÅĤa zie
ĠobjÄĻ ty
ĠHo t
Ġkontro lÄħ
Ġ12 7
ĠSzcze cin
pÅĤy wy
Ġszpita lu
Ġwy p
ĠwÅĤaÅĽci wemu
ĠkaÅ¼ doraz
Ġwod ne
ĠSÄħd owego
Ġfil mach
Ġjas no
I stnie
s kÄĻ
Ġpa ne
ĠL and
Ġd ba
ĠJe dy
ĠSa ra
ĠOsta tni
ĠpowyÅ¼ szej
ĠÅĽwiat ÅĤo
Ġprze bieg
ĠU DZIE
st or
cz Äħcy
kt orzy
Ġkupi Äĩ
Ġwi od
A nd
Ġwchodz Äħcych
sze ni
Ġk rÄĻg
Ġdarowi zn
Ġtu t
ĠWÃ³j t
zu ÅĤ
Ġpotrze bu
Ġkos mi
Ġprzeprowa dzone
ĠogÅĤo szeÅĦ
Ġuwar un
Ġpod niesi
Ġfi zj
Ġmagazy nu
i dy
o pera
ĠBa dania
Ġpa trz
ĠGrzego rz
ĠTre ÅĽÄĩ
O publikowa
Ġelektry cznych
Ġsy g
Ġ11 8
Ġauto nomi
Ġprzedmio towym
ĠRober ta
ĠGmi nnego
Ġprze trwa
la t
je nia
sty cznej
CzÄĻ ÅĽÄĩ
ĠurzÄĻd Ã³w
Ġtabli cy
le ya
ÅĤ k
ĠN AR
wie lko
le sa
ĠZa sÅĤugi
il d
Ġfina le
Ġpo dziale
Ġodro czenie
Ġwy su
Ġnaby wa
Ġpowsta ÅĤe
Ġa kredy
ĠI S
ĠTade usz
ĠDyre ktywa
ne rzy
Ġrozsze rza
Ġsta jÄħ
P V
ĠksiÄħÅ¼ ka
ja n
Ġw ul
le a
ĠTran s
ĠWil liama
Ġwia tr
ĠEuropej ska
ĠINFORMA CJA
Ġu sprawiedli
t zw
ĠLa s
Ġpo myÅĽ
Ġtka nki
ĠZ i
ra el
la nta
Ġmechani zm
Ġskutkowa Äĩ
ĠT em
star cza
Pol ska
ro nt
Ġpolega Äĩ
ĠBudy nek
Ġ00 00
ĠpasaÅ¼er Ã³w
Ġprojekt owania
Ġci ÅĽnienie
Da ne
ĠpowiÄħza nia
ĠK le
Ġpracownika mi
la del
wa ÅĦ
ĠpeÅĤ ny
Ġar cy
Ġozna czenia
inter pretacja
Ġpropor cji
ĠD er
Ġha ÅĤa
Ġwyda wane
Ġintegra cji
Ġuzyska ÅĤa
ĠU NI
je sz
Ġobec noÅĽÄĩ
Bud owa
Ġartyku ÅĤy
Ġmu zeum
war ka
Ġwdro Å¼enia
k or
Ġu myÅĽ
Ø ¯
ĠOfer ty
Do kumen
Ġpodwykona wcy
ron to
ĠPomi mo
ÅĤÄħ czenie
Ġ lÄĻ
Ġwykonaw cze
Ġkom bina
Ġpokar m
Ġzwolnie ÅĦ
Ġpracow nikiem
Ġwyro by
ĠokreÅĽlo no
ĠStu di
ĠÅ¼ onÄħ
Ġpta kÃ³w
Ġnie wi
ĠbyÅĤ by
Ġorgani zm
Ġmonta Å¼u
Ġkosz tuje
k Ã³j
Ġcywi lnych
Ġpodwykona w
wer sa
ĠbrÄħz owy
ĠuwzglÄĻ dnieniu
ĠA ven
ĠpostÄĻp owaniem
ĠbyÅĤa by
Ġlotni ska
Ġkorespon den
legÅĤo ÅĽÄĩ
ĠH ong
( ...)
Ġkiedy kolwiek
ĠogÅĤo siÅĤ
nios ÅĤy
ĠwspÃ³l nym
ow ne
ĠspeÅĤnia nie
ĠobsÅĤugu je
ĠAleksand ra
Ġkomputer owego
ĠpoÅĤÄħ czone
Ġrodza jem
ow skich
ĠSÅĤow nik
Ġza liczenia
Ġwy prac
Ġodpor noÅĽci
Ġosob owej
Ġusta lonych
ĠBe ach
e ro
Ġto ksy
m os
ĠwÅĤÃ³ k
ĠznaczÄħ co
Ġwy koÅĦ
ĠTo p
ĠPol skÄħ
Ġwymaga nego
ĠP I
ĠÅĽwiad czeniu
Ġmo czu
Ġprzej ÅĽÄĩ
Ġf iska
ĠL w
ist nie
Ġroz mowy
Å¼a ch
la ny
Ġseku nd
ĠspoÅĤe czeÅĦ
Ġmo st
Ġnie sta
Wnios ek
Na zwa
Ġu bra
Ġpojawia jÄħ
ĠpÄĻ cher
Ġprzy cisk
ĠwypÅĤa tÄĻ
Ġu pew
Ġdokumen tacja
ĠGre cji
Ġpol sko
Ġad mini
Ġszczy t
Ġzastos owaniem
ĠZ DR
Ġzapobie c
Ġdale ko
Ġroz biÃ³r
Ġwyczer pu
Ġz dania
CYJ NY
Ġ qu
ĠB eneficje
zna czenie
ĠDÅĤu go
ĠIm perium
Ġwprowa dzono
Ġza daniem
Ġnau kÄĻ
Åģ ÃĵW
Ġr Äħ
Ġdokumen tacjÄĻ
Ġza staw
sz ÅĤy
Ġzwolnie niu
Ġpie kar
ĠF ry
mÃ³wie nie
ĠzwiÄħz ki
Ġwod no
go sÅĤa
str owi
b ru
Ġh u
Ġ13 7
Ġf anta
O B
CzÅĤon kowie
Ġda ch
ĠzakoÅĦ czenie
sto k
Ġwyraz i
ra y
Ġzach owaÄĩ
Ġwin ny
go da
c tu
Ġpodej rza
NI CT
ĠW ia
Ġintere sie
ĠoÅĽ miu
Ġwymagania mi
ma ÅĤ
Ġekwi wale
to p
ÄĻ zy
Ġrozpo czÄħÄĩ
Ġre komen
S po
Ġpodlega jÄħce
Ġa gre
czo zna
BI OR
nes see
Ġlicz bÄħ
ĠpÅĤa c
Ġod pisu
Ġpo sto
Ġza chodzie
RO N
Ġtra ci
Ġbrze gu
ty na
wi lej
ĠBar bara
ĠwiÄĻk szy
trzy muje
ĠDa y
ĠrÄĻ koj
Ġpodat ki
j nÄħ
na da
Ġzawodni kÃ³w
Ġkonkre tnej
Ġkon cie
Ġlo go
ĠTy tuÅĤ
ĠprzedsiÄĻbior cÄĻ
ĠK AR
Ġka mie
Ġswobod nego
za cyjne
ĠZAK RES
Ġkur sÃ³w
ĠMu zy
Ġfinans owymi
ĠsÄħ sia
ĠdziesiÄĻ Äĩ
ĠPK P
Ġparamet ry
c or
ĠC K
Ġspra wu
ĠPO MO
Ġakty wi
rzch nia
Ġwy trzyma
Ġdo my
Ġtytu le
ĠW ene
Ġusta lona
Ġwyso kim
ĠLe ÅĽ
ĠÅĤÄħcz Äħ
Ġata ku
Ġko lar
ĠPro szÄĻ
ro ba
ĠG ry
ĠPo stÄĻp
Ġwymo gu
Ġ13 5
Ġaku mula
J E
ĠuÅ¼y wanych
ÅĤoÅ¼ onych
Ġzapozna Äĩ
ĠFor t
ĠP on
== ==
Ġhod ow
Ù ĩ
Ġkasa cyjnej
Ġre formy
Ġ12 8
ĠSa nitar
Ġo limpijskich
ĠwystÄĻp owaÅĤ
Ġistnie jÄħcego
Ġtrze ciÄħ
ĠwaÅ¼ nÄħ
Ġcu krzy
Ġprzedstawi ciele
Ġindywidual nie
Wy rok
ĠWi ce
Ġusta lonego
ers ja
cz nika
Ġperspek tywy
ie go
Ġkobie ta
Ġedy cji
cy na
Ġusta lony
ĠI SO
noszÄħ c
Ġu ksztaÅĤ
ĠmaÅĤÅ¼on ka
Ġzoba cz
Pod staw
ĠkoniecznoÅĽci Äħ
ĠwyÅ¼ szy
ĠÅĽci s
ĠMar ka
Ġzali czyÄĩ
D S
Ġinte ligen
ĠJe den
v il
A P
Odno szÄħc
Ġodby waÄĩ
Ġharmono gram
ï¿½ï¿½ ï¿½ï¿½
Ġbie ga
Ġm no
in du
ĠTy p
Ġdrog owych
ĠkrÃ³ tki
Ġwykony wana
Ġz do
ĠON Z
ĠrÄĻ ce
ĠniezaleÅ¼ nych
Ġwykony wanej
Ġkre a
ĠchoÄĩ by
ĠCywi lnego
si ness
ĠÅĽci ga
ĠwartoÅĽci Äħ
l k
Ġobec ny
wy rok
Ġinter wen
ĠPo cz
ak cji
Ġpod wod
ĠDe finicja
H i
ĠZ u
ĠKon gres
Ġz o
Ġde leg
Roz dziaÅĤ
Ġw tÃ³r
Ġarchite ktury
Ġkalendarz owego
ĠpieniÄĻÅ¼ nego
ĠDokumen t
Ġpisem nego
ĠniÅ¼ sza
P or
Ġbrz mi
SZ CZENIE
Ġzawar tego
Ġzw ery
ĠOr derem
ĠzuÅ¼y cia
Ġlekko atle
Ġprzezna czenie
ĠC ZP
f ej
Ġnie praw
ĠA C
Å¼y se
ĠFUNDU SZ
Ġnazy wane
dziesiÄħ tych
B U
Ġskom pli
Ġw strzy
ĠWsp ar
Ġutwo rzeniu
ĠSte fa
Ġnie dob
Ġdysku sji
Ġzy sk
Ġjednost kami
Ġpseudo nim
Ġrekom pensa
czu cia
ĠmoÅ¼liwoÅĽci Äħ
Ġopi nie
Ġzamk niÄĻcia
ĠK el
ĠJa cek
ĠumoÅ¼li wiÄĩ
Ġf er
ÅģÄĦ CZ
ĠO SO
Ġk c
ĠÅģ u
Ġopodatkowa ne
ĠKaro linie
ĠobowiÄħzu jÄħcej
Ġzawiera nia
Ġwol ny
Ġpojawi ÅĤa
b ej
Ġmo ich
Ġza bud
Ġp ne
d owane
Ġmu sia
li we
Ġ13 4
Ġgodzi na
ĠO ut
ĠMa jor
Ġna szÄħ
Ġusta lonej
Ġw glÄħdu
fikowa ny
Ġnaby wca
ĠOsob owych
cze nio
Ġak cjonariuszy
ĠZarzÄħ dzania
Ġdzie je
Ġstra Å¼
Ġpro pa
Ġskar ga
Ġtw orz
ha ra
ns oli
Ù ħ
Ġ12 9
Za tem
o ff
Ġprzedmio towych
Ġwypowie dzi
W z
CA A
ĠZ MI
ĠpeÅĤnomoc nictwo
Ġudziela nych
ĠNF Z
ĠAD RES
bi ny
Ġawar ii
g ÅĤa
Ġm on
ĠIn Å¼ynie
ĠDo stÄĻp
ÄĦ CE
met ry
Ġpowsta ÅĤych
Ġw noszone
W OD
Ġkiedy ÅĽ
Roz porzÄħdzenie
Ġdo pas
ĠCh eÅĤ
Ġinter wencji
Ġpowietrz u
Ġkwar taÅĤ
ĠA ni
dzie li
Ġpis ze
Ġd wor
Ġ5 000
P DF
ĠRzesz owie
ĠÅĽwiadom oÅĽci
Ġwy st
Ġpra cach
fi r
Ġ ÅĤowie
Ġwy dÅĤu
ĠuwzglÄĻ dnienie
ĠCa ÅĤkowi
ĠGeor gia
Ġdrog owej
Ġprze Å¼y
Ġs ank
Ġinwe stora
ĠTen nessee
M L
ĠBu ÅĤgar
Ġtyp Ã³w
ĠtÅĤu szczu
mi ary
Ġro lne
11 1
CH O
Ġso ÅĤe
o gÃ³l
Ġprzygo tow
ow ce
Ġwyk racza
ĠFunda cja
De finicja
b s
45 12
Ġorygina ÅĤu
Ã ¥
Ġal fa
b re
ĠB ow
Ġtu re
Ã³w ki
Co V
wi ona
Ġzapew ni
Ġa zo
Ġmuzy ka
Ġoskar Å¼ony
ĠW Äħ
ju sz
Ġnau kowej
ĠChar les
Ġ19 00
Ġbra zyli
Ġpo stu
M R
Å ¹
Ġkolej owych
ĠKon fe
Ġ17 8
ĠDO KU
Ġk lÄĻ
Ġkonstytu cji
G ÅĤÃ³w
Ġzagro Å¼eÅĦ
Ġ ×
ne n
ĠWoje nnej
Ġg rÄĻ
K oÅĽci
k h
Ġkon t
t su
45 11
ĠZA S
sty czny
ST WA
Ġod bÄĻdzie
ĠkoszykÃ³w ki
Ġdodatk owej
Ġnada na
Ġal b
s ma
Ġtrze cia
ĠÂ ©
sz o
Ġposiada ÅĤ
re gi
Ġewentual nych
Ġegza min
sza nia
ĠH ome
ĠÅļwiÄĻ tego
Ġzale cenia
pi na
Ġpoli tyczne
ĠI ran
Ġa ma
Ġmie jskiej
ĠniezbÄĻd ny
Ġwi no
Ġprzed mie
Ġpow iada
Ġko ni
ĠW arto
Ġmniej sza
kowa nego
ĠÅĤa t
sz tÄħ
Ġu kÅĤadzie
Ġten den
ca tion
Å¼ noÅĽÄĩ
Ġograni czony
ĠMa ciej
Ġwyso kiego
Ġwalu cie
Ġbieg nie
Ġprzy stÄħpienia
Ġmody fikacji
Ġczyn szu
Ġutrzyma Äĩ
n gu
ĠzajÄĻ ÅĤa
Ġwspiera nia
Ġmiasta ch
ĠReprezenta ntÃ³w
Ġwym Ã³g
Ġga bine
ce nio
ĠDo ro
Ġuszczerb ku
Ġadministra cyjny
dz Äħcy
ĠE widen
Ġnowe li
Ġzawar ciem
ba ta
Ġinte rak
Ġwyka zie
Ġtre nera
ko nie
WI ÄĦ
Ġniebezpie cznych
Ġprac owaÄĩ
Ġstwo rzenia
Ob owiÄħ
Ġp sa
Ġh omo
ĠObsz ar
d owy
Ġob rÃ³t
Ġpoko j
ĠMa le
Ġminima lnego
ĠMart in
ĠzwiÄħza nym
a su
w spÃ³ÅĤ
Ġzrezy gn
T C
Ġspraw owania
Ġprze glÄħ
Ġgi tarzy
Ġkon sorcjum
ĠpeÅĤnomoc nik
Ġpolega jÄħcych
Ġmen u
Ġna wi
rzÄħd Ã³w
Ġobec nych
Ġprzysz ÅĤych
z ona
Ġisto ty
Ġz likwi
ĠPa cje
Ġwszyst kimi
Wi U
Ġpro ste
d t
Ġzaopa trzenia
ĠSo li
Ã£ o
ĠuÅ¼ytk owej
Ġkalendarz owym
ĠO li
Ġdostar czyÄĩ
ĠâĢ º
Ġwy bierz
Ġnajlep szym
ĠWi ktor
ja s
Ġpotrzeb ujesz
Ġprzeprowa dzeniu
ĠP AR
ĠdÅº wiÄĻk
Ġgru nty
Ġprzekro czyÄĩ
Ġjaw nej
ĠSP ECYFIKACJA
ro l
Ġniedo zwo
Ġanali zÄĻ
Ġh uma
ĠÅĽrod kowej
ĠCo lum
ĠU dzie
wi zja
Ġkon wencji
P W
Ġorganiza cyjna
Ġpomi aru
ĠMos k
ĠbÄĻdzie my
Ġodbior cy
Ġsele ktyw
Ġod twarza
letni Äħ
Ġprac Äħ
Ġ13 1
rzy ÅĤ
ĠSer ies
ĠniÅ¼ szej
g owe
ĠKo szt
ĠprzeksztaÅĤ ca
Ġamorty zacji
bi p
Ġinforma cyjnych
ĠKan sas
Ġmistrzo stwo
Ġjeste ÅĽmy
Ġdostaw cÃ³w
TA Åģ
Ġtru dne
le d
Ġfunkcjon owaniu
Ġstwo rzenie
Ġob rÄĻb
Ġplan owane
Ġbezwz glÄĻd
Ġ3 000
ĠudostÄĻp nienie
Ġh ol
Ġzagra Å¼a
v ar
ĠwspÃ³ÅĤwÅĤas noÅĽci
ĠD un
Ġutra tÄĻ
Ġserwi s
ĠDa nii
Ġg nia
Ġ11 7
ĠO CE
koma nii
ĠBro ad
Ġprakty ka
Ġga ra
Ġprzesy ÅĤki
ĠzakÅĤa dach
mowa ÅĤy
ĠT A
ĠE ng
Ġopie kÄħ
Ġko ÅĤa
ĠP et
Ġelekt row
b ki
ĠM et
ĠUni on
Ġpubli cznie
ĠPro fil
Pro gram
ĠAgnie szka
Ġr Ã³
lub ow
ĠG ri
Ġza kÅĤady
p hi
!! !
.... ..
ĠksiÄħÅ¼ ÄĻ
ĠPrzy go
U ni
mie siÄĻ
ria n
Ġhigie ny
ĠdziesiÄĻ ciu
Ġog ni
Ġzawiadomie nie
ĠNau ki
Mia sta
Åº nik
re r
ĠR ural
mi t
Ġsanitar nej
Ġopera cyjnego
Ġfor um
Naj lep
Ġusu wania
Ġzmienia jÄħce
SK O
ter ium
ĠĊ Ġ
Ġkomandy towo
kreÅĽli Äĩ
Ġniesp eÅĤ
ĠwÅĤa dzÄĻ
wo ÅĤu
Ġdecy du
Ġlicy tacji
Ġprzed kÅĤada
Ġfa zie
Ġobro ÅĦca
y ne
Ġtra m
Ġpojaz dy
Ġpos ÅĤÃ³w
ĠTym czasem
Ġinstru kcji
Ġwers jÄĻ
Ġpew no
Ġkieru nkÃ³w
za ÅĤÄħcznik
Ġza wiad
Ġko leg
ĠSy dney
ĠB on
z be
Ġprzekaza nych
c m
Ġrealizowa ny
Ġwierzy cieli
Ġsp rzyja
ĠSp osÃ³b
ĠS ri
Ġspon sor
Ġzab Ã³j
cia ch
gi o
Ġzaprojekt owany
Ġwar stwy
a ktual
Ġinnowa cyjnego
Ġkse roko
Ġst rza
Ġrze kÄħ
Ġfutbo lu
Ġtrakt owane
ĠD Äħ
Ġw nÄĻ
Ġwydaj noÅĽci
Ġzam on
Ġor ienta
an tÃ³w
d Å¼
Ġtempera turze
Ġemeryta lne
Ġmie jskich
Ġp l
Ġ19 10
ĠÅļlÄħ skiego
wiÄħza nie
jest r
Ġod po
ĠwytwÃ³r ni
ĠSPÃĵÅģ KA
Ġeg zekw
Ġzawod owÄħ
ĠwÄĻg ier
ĠPro gno
ĠbudÅ¼e t
ĠB il
Ġbro ÅĦ
Ġopi nia
ck er
Ġv an
ĠodmÃ³w iÅĤ
bour ne
Ġtrady cji
Ġter m
sz li
dnie ÅĦ
je my
Ġp lu
Ġprzeprowa dzonej
ĠCon ne
Ġraz u
Ġfrancu skiego
Ġzwolni one
I nne
Ġu cz
ĠuÅ¼yte cznoÅĽci
cjona riusz
ze niem
ĠksiÄĻ gach
Ġregiona lnych
Ġu powszech
Ġpodpisa ny
Ġreli gii
wi cy
zja ty
ciÄħ gu
Ġpochodz Äħce
Ġwyraz iÅĤ
Ġpo grze
ĠrÃ³wnowaÅ¼ ne
Ġprz odu
ck ey
ĠdziaÅĤa ÅĤ
Â ¶
konu jÄħc
ĠwaÅ¼ nym
ĠPorozu mienia
Ġekonomi cznych
ĠskarÅ¼ Äħcej
ĠgÃ³r nej
ng eli
o ka
Ġ17 0
l owego
Ġnieu zasadni
Ġka bl
Ġregular nie
Ġwi na
Ġjakie ÅĽ
Ġmle ka
dzie ÅĽcia
Ġposta nawia
Ġpod rÄĻcz
ow skie
Ġobejmu jÄħcy
Ġle Å¼Äħcych
ĠrozwiÄħ zywania
ĠPo datk
ĠobjÄĻ tym
Ġskle pie
Ġprzedmio towe
ĠSÄħ dzie
Ġdokumen tami
Ġniemie ckiej
ĠD rÃ³g
Ġwyda niem
ct w
ĠKierow nik
s che
ĠBiulety nie
Ġpo sÅĤu
la cje
g da
ĠskÅĤada jÄħcy
Ġwy stÄħpienie
o pie
S te
Ġubezpie czonego
Ġ24 0
Ġna gro
ĠTa bela
Ġponow ne
Ġbryty jskiego
i ma
Ġbez prze
nie ni
Ø§Ù Ħ
ĠF rie
ĠpoÅĽredni o
r Ã©
ĠPa cy
p em
ĠWÅĤo ch
Ġustaw owego
ĠwÅĤaÅĽci wie
Za sady
Absolwen ci
Ġad ekwa
Ġprezenta cji
ĠPla t
zasa mi
ar s
Ġzawo dy
Ġwieczy stej
Ġna krÄĻ
Ġpo szu
ĠDO TYCZ
Ġbudy nkiem
ing s
Ġremon tu
Ġmoc no
pÅĤa ca
Ġdom owego
Ġpod pisy
ĠwskaÅº nika
Ġnie ob
ĠÅĤÄħcz na
c onÄħ
Ġigrzy skach
Ġprzewi dzieÄĩ
ĠjÄĻzy kiem
Ġstud ium
Ġtelewizyj nym
ĠK sztaÅĤ
dz Äħcych
Ġmo ja
ĠZdr owo
ni sta
T ra
ĠTek st
10 1
Ġwie cz
ĠodrÄĻb nej
wÃ³ rz
ĠgÅĤo ÅĽ
ĠPR OW
D EN
Ġuwa lnia
Ġroz ÅĤoÅ¼enie
Ġkontra ktu
Ġhrab stwo
Ġistnie jÄħcej
f em
Ġniezgod ne
Ġkomen da
Ġanali zowa
ĠksiÄĻ cia
Ġrze te
Ġkome di
ĠÅĽ lÄħ
Ġubezpie czony
Ġprofi lak
ĠogÃ³l ny
Ġprze sÄħ
ĠP S
Ġjak by
ĠZ nak
ĠO ce
Ġwz mac
ĠNarod owym
Ġf al
ĠoÅĽwiet lenia
pro fit
Ġli ter
Ġpodat nikowi
ĠU cze
Ġotrzyma niu
Ġalbu mie
zasa dnienie
Ġnotaria lnego
à ¥
Ty m
Ġprowi zji
Ġ14 1
Ãĵ B
ĠRy sz
Ġmi to
Ġtechni czny
Ġob liczania
tyw nej
Ġwypo czyn
Ġprzebo jÃ³w
ĠFor mu
w art
szyst ko
ĠbÅĤÄĻd Ã³w
ĠzasÄħ dzenie
ĠBro ok
ĠB BC
s ci
Ġgrup Äħ
Ġkra wÄĻ
z iÄĻ
dek lar
bezpie czenie
Ġwykona lnoÅĽci
ez ji
Ġ19 15
Ġpo ÅĤowa
ĠRE J
Ġwios ka
Ġo l
Ġmo tyw
G E
ĠAda ma
ĠobowiÄħz kowi
ĠWy szuki
ar skiej
Ġsamo chody
dzi ny
A S
Prze pisy
ĠzaÅĤoÅ¼y ciel
ka demia
Ġc ud
ĠPortu ga
Ġnaby te
n noÅĽÄĩ
Ġwy tycznych
ĠbÄĻd ÄĻ
Ġ7 70
po le
ĠR en
ĠInterne towego
Ġmg r
ĠK W
Ġustala niu
ĠprzeciwdziaÅĤa nia
ĠVal ley
jecha ÅĤ
ĠChry stu
mi ÅĦsko
Ġga ÅĤÄĻ
ĠopÃ³Åº nienie
ĠPie choty
Ġpoli tycznej
ĠwÅĤo skim
ĠPro ces
Ġedy cja
W sie
Ġwy glÄħd
dza Äĩ
Ġprzezna czona
ja wy
ĠQue ens
ĠspoÅ¼y cia
Ġzmieni ÅĤ
ĠH on
Ġa w
ĠnieodpÅĤa tnie
K ÃĵÅģ
ĠTo ronto
Ġpier wia
Ġ17 7
Ġorga nom
Ġkompozy tor
Ġprzeka zu
ĠDla czego
e dy
Ġefe ktÃ³w
ĠOP IS
w na
Ġo por
Ã ĭ
ĠU wagi
owia t
E uro
U wagi
o fi
Z d
ĠdoÅĤÄħ czyÅĤ
Ġinnowa cyjny
Ġw or
Ġ2 12
Ġniewie le
c owa
Ġodzy sku
ĠDo chody
let nia
ĠniÅ¼ sze
Ġskierowa ne
Ġprzyj mu
Ġwy staw
). [
ĠSe kre
E F
Ġprze glÄħdu
ĠJan usz
ĠPro fi
Ġmaszy ny
m owÄħ
Mist rzo
Ġale r
praw dzie
Ġutwo rzenie
Ġ13 3
ĠTE CH
ĠS mo
co l
Ġwol nych
ĠPa w
L NA
szy ÅĤa
bo x
Ġob jÄħÅĤ
ĠJ ED
tu cky
Ġbadania ch
ĠpaÅĦstw owego
Ġzdrowo tnego
nia Äĩ
Ġkonces ji
Ġpar k
ĠR Y
ĠG RU
Ġgospodar czy
li t
ĠWiÄĻ cej
wielko ÅĽÄĩ
Ġpolega jÄħcego
Ġ17 5
Ġza chodzÄħ
niu m
Ġsz wajcar
Ġpi onie
Å¼li we
ĠKON KU
Ġzab lo
Ġbi twie
Ġwczes nych
.... .
Ġusta liÅĤ
ĠTe a
g Ã³
usz ki
ĠWAR SZA
ĠJame sa
A W
li ÅĤa
ĠSP E
ri ght
ĠwyÅĤÄħ czenie
Ġzastrze Å¼eÅĦ
Ġindywidual nego
ĠTRE ÅļCI
Ġjakie kolwiek
ter dzie
log Ã³w
d ny
Ġkolej nym
Ġdokony waÄĩ
Ġutrzy muje
Ġwierzy ciel
Ġ( âĢ¦)
ĠÅ ĵ
Ġprzyzna ÅĤ
po trzebne
ĠKazi mierz
ĠK P
Ġza myka
ĠksiÄĻg owych
ĠRy nek
Ġw szedÅĤ
Ġkwali fiku
Ġmis ji
P is
ĠSzpita la
Ġâ Ĩ
ĠMary land
L NYCH
CZ NY
ĠP ÅĤy
t kÄĻ
i g
Ġak rÃ³w
ow nika
Ġumo rzenie
Ġko ÅĤo
ktu alizowa
niÄĻ tych
Ġportu gal
sz onym
Ġchoro bÄĻ
Ġzainteres owanych
Ġt h
Ġle gen
l owy
Ġcywi lnym
Ġmi strzem
Ġh an
Ġzaku py
Ġpojawi ÅĤy
ĠZAR ZÄĦD
ĠwÅĤo sÃ³w
O kreÅĽlenie
ĠPri x
ĠzwiÄĻk szyÄĩ
Ġpotencja lnych
bud owany
ĠWash ington
NI KI
J U
Ġre Å¼yse
ĠokreÅĽla jÄħcych
O to
Ġpolity ka
Ġob sa
fa x
C KIE
ĠO le
Ġprzysz ÅĤym
ĠPio tra
no nim
ĠPowia towy
i no
ĠB AN
Ġdal szym
ĠCentra l
Ġtelekomunika cyjnych
ĠÅ¼y wie
Ġgle by
Ġ23 3
Ġbra ta
Ġaktyw noÅĽÄĩ
ĠB os
ĠnajwyÅ¼ szej
Ġu lubi
Ġdefi cy
ĠJack son
wi ru
Ġnazy wana
a th
dziesiÄĻ ciu
le b
Ã³w i
ĠZbro jnych
Ġcie le
Ġodda liÅĤ
ĠD or
Ġwykona ny
ĠBi bli
Ġho tel
Ġrobi Äĩ
ĠpÅĤatni czych
ra t
ĠBia ÅĤy
ty n
ĠrÃ³w noÅĽci
orz ÄĻd
M E
wy sp
ĠSt wier
p Äħ
Ġ- -
Ġfinans owane
ĠdruÅ¼y nie
Ġposiada jÄħcy
ĠPola kÃ³w
Ġpo nosz
Ġty ÅĤu
Ġemerytura ch
ĠN ADZ
Ġty siÄħ
11 4
Ġzau waÅ¼a
Ġwod nej
Ġznajdu jÄħcy
ĠuzupeÅĤ nienie
ÅĤ ku
jaw sko
ud io
ĠMar k
Ġlekar zem
Ġstruktu rÄĻ
ĠrozwiÄħza niu
Ġmi ÅĤoÅĽci
ĠMag dale
Ġkwo tÄħ
O p
ĠWirgi nii
ĠWojs kowego
ĠszczegÃ³ÅĤ owego
Ġwaria nt
Ġf an
C ÃĵW
N or
Ġmniej szoÅĽci
Ġszko lnych
Ġzak water
Ġpo ÅĤowÄĻ
Ġroz rÃ³Å¼
Ġko rek
ffi ce
Ġzezwo leÅĦ
Ġno ta
Ġinterne towe
Ġdom owej
OWY M
re t
Ġ19 16
Ġpracowni czych
ĠCzÅĤowie ka
Ġzach owaÅĦ
ĠMa jÄħ
ĠMo nitor
Ġturysty ki
Ġroz puszcza
Ġustro ju
Ġsta tek
nu s
Ġkomuna lnymi
Ġopublikowa ny
Ġuwarunkowania ch
Ġprzetwarza niem
P IS
Ġdru go
Ġspis ie
mowa nego
ĠP rin
Ġpowszech nym
Ġwojs k
ĠwÄĻgl owo
Ġnume rze
Ġro ÅĽnie
ĠKom or
ÅĤa w
tÅĤu ma
Ġnatura lne
ĠSh ow
ĠRepubli ka
Ġprze nosi
Ġ12 6
Ġzaskar Å¼onej
ĠwygaÅĽ niÄĻcia
in d
Ġposiada jÄħce
daw cÄħ
Ġbud owÄħ
Ġpo prawia
ĠÅĽredni cy
ADA NIA
Åĵ Ã¦
ku j
Ġt wÃ³j
Ġnatura lnych
ĠMe dal
bud owla
cza m
WA GA
ĠwiÄĻk szych
ĠFre e
Ġgospodar czym
Ġpreze ntu
Ġwynosi Äĩ
Ġfundu sze
ĠpowiÄħza nych
Ġspa da
Ġczego ÅĽ
ni czym
Ġref undacji
Ġspowod owaÅĤo
Ġin wa
Ġca ÅĤa
ĠS C
Ġpsychia try
N ew
ĠJa giel
Ġkompeten cje
Ġstruktu rze
now ski
Ġkomputer owych
dz ka
ÅĤ owÄħ
rab stwo
Ġorzecz nictwo
ĠNie pod
Ġmechani cznych
O Åļ
lko hol
Ġgo l
Ġ13 9
Ġunij nych
Ġscena rzy
R D
K u
Ġwy miana
ĠuÅ¼y wanie
ĠMary narki
Ġmi strza
ĠDo mi
Ġkuch en
Ġpi w
ĠPubli cznego
Ġdo me
Ġlep sze
ĠNacze lny
Ġma py
Ġludz kiego
Ġzna czne
Ġwykaza ÅĤ
ch ii
Ġsob o
Ġkorzysta jÄħ
Ġwypad kach
Ġopera cyjnych
dzie m
tar zem
Ġwie dzÄħ
rÃ³w nieÅ¼
Ġf os
logi czna
Ġosa da
ĠLu i
ci dae
ĠLon don
prze ciw
ĠProto kÃ³ÅĤ
Ġakcep tacji
ĠObej muje
Ġbra t
Ġpolega jÄħcÄħ
Ġz bio
ĠwyÅĽci gu
Ġcie n
ĠprzeciwdziaÅĤa niu
ĠksiÄĻ dze
Ġegzemplar zy
ok ej
Ġgenera lnego
Ġin Å¼
Ġelektry cznÄħ
Ġpostanowie niem
G B
ĠL am
Ġta ble
Ġpow rÃ³ciÅĤ
Ġwybrze Å¼a
Prze z
Ġwymo gami
ĠAp ple
ty fiku
Ġn ur
Ġnie naleÅ¼
ĠK er
Ġpo noszenia
ĠP le
ĠD wa
H o
Ġadre sa
Ġrozpatrze niu
Ġciep ÅĤo
ĠJ im
Ġek stra
Ġkla wi
ĠDo puszcza
Ġwal ory
Ġminima lnej
ĠZa pew
g owa
ogra fii
ĠRoz wÃ³j
owie dz
ĠzÅĤo Å¼eniem
ĠWie tna
Ġprojek ta
h or
scypli nar
Ġakcy zy
ĠL td
ĠPrzy j
ĠZDR OW
mie jsc
ĠA N
ĠTa ka
Z na
go sÅĤu
Ġburmi strz
Ġz wanych
Ġskonta kt
nia ne
ca le
ĠNa grody
ĠpaÅĦstw owe
bu la
Ġcentra lnego
Ġu jednoli
Ġu nd
zu j
Ġpole cenia
ĠZa dania
ĠA ga
ĠLe x
Ġzabi ja
ĠÅ» a
ku lar
ĠcaÅĤkowi ta
Ġ19 0
Ġwykonu jÄħ
Ġeta pu
ĠnajwiÄĻk szy
Ġgospodar stwie
Ġinstytu cjach
nia rek
Ġpoinform owaÄĩ
za n
pu l
ĠD Y
si c
Ġjedy nÄħ
Ġbra kiem
ĠS ÄĻdzia
lo ka
Ġzdecy dowanie
dz twie
ĠL ong
zy waÅĤ
ĠBel gii
ĠE nerge
ĠTu rysty
sz czÄħ
Ġaspek ty
Ġznalaz ÅĤa
LE NIE
ĠMe to
si u
Ġwyra zy
ĠwystÄħpi ÅĤa
Ġme czach
âĢ ī
G u
ĠobowiÄħzu jÄħ
ĠUkrai ny
% ).
Ġpowo ÅĤu
Ã¼ r
te dra
Ġod ku
Ġo stre
Ġs et
logi czno
Ġprzy bli
Ġkom pi
to rze
Ġs ÅĤowy
Ġch ary
ÅĤo Å¼enia
ĠServi ce
Ġpe dago
Ġsta ny
chod Åº
ĠPo pulacja
ĠwziÄħ ÅĤ
k en
Ġnajlep szego
Å ¾
f iÄĻ
ĠSzczegÃ³ÅĤ owe
Ġra t
Ġdoda nej
Cho ciaÅ¼
ĠcaÅĤkowi tego
Ġ17 6
É Ļ
ĠKen tucky
ĠW el
Ġadministra cyjnie
ĠgÄĻ stoÅĽÄĩ
Ġlotni sko
Ġpo niesienia
ĠumoÅ¼liwia jÄħce
Ġumow nych
ĠJe an
hu a
ĠHar ris
Ġwywo dzi
Ġsta nach
ĠSzpita l
Ġutra ta
Ġdo rob
de cy
ĠrÄħ k
ur ch
ĠnastÄĻp stwie
ĠogÃ³l na
ĠSEK CJA
Ġopo zy
ĠJe ff
Ñģ Ðº
Ġ ................................................................
De cyz
Ġst ol
nu l
ĠAl ba
Ġokre sach
ĠzgÅĤo siÄĩ
Ġdo ro
Ġwi daÄĩ
ĠLu b
ĠA ca
Ġlo tu
su r
Ġowo cÃ³w
NIE NIE
ĠNie ktÃ³rzy
Ġznale zie
w n
ĠM onta
Ġtowar owego
zuÅĤ ma
Ġpu sty
ĠSY ST
M OR
le nt
Ġpod nosi
ĠMa jÄħc
Ġ19 08
ĠRa m
ĠWaszyng ton
ĠwypeÅĤ nienia
Ġwyda nym
ci li
ta cyjnej
Ġnaj szyb
ĠzaczÄĻ ÅĤa
Ġoczeki wania
ĠbezpoÅĽredni m
Ġcy t
c owe
Ġbieg ÅĤych
zowa ÅĤ
Ġrozli czenie
Ġzaty tuÅĤ
Ġszero koÅĽÄĩ
Ġroz bie
Ġmili ony
wyÅ¼ sza
ad res
Ġumowa ch
ĠW rze
ĠÃ³ s
Ġprze jÄĻcia
Ġodpowiada jÄħ
taria t
Ġprzy stÄĻp
ĠoÅĽrod ka
Ġna sto
ĠHenry k
mon t
ĠDru gi
1 20
Ġsa teli
Ġprofi lu
nio pom
ĠWie ÅĽ
ĠHo u
Ġinterne towy
Ġwyra zami
Ġskarb owe
Ġtra ktu
cjonariu sze
ĠuÅ¼ytkow nik
ĠwypÅĤaca ne
pi Äĩ
ĠN u
ĠHand lu
v ery
t nymi
Ġdrze wo
Ġmiejsc owo
Ja ko
Ġza kaza
ĠB ol
ĠS KA
Ġmuzy czny
Ð ±
ĠksiÄĻ Å¼y
ĠUbezpie czenie
Ġod dycha
ĠpodjÄĻ te
ĠPRA C
Ġba ro
Ġustaw owe
z nÄĻ
Ġpiersi owej
ĠKon tra
Ġme tali
ĠwiÄĻzie nia
Ġrze czozna
Ġpolity kÄĻ
Ġde kre
Ġimi gra
C ha
he im
cho dziÅĤ
Ġabsolu torium
or skie
u jÄħcego
Ġsk rÄĻ
Ġar bitra
stÄħpie niem
D D
ĠnastÄĻpu jÄħcym
mie szka
Ġro man
Ġkonserwa cji
Ġcertyfika t
ren ce
ĠPe dagogi
Ġrozgryw ek
Ġden tysty
w nios
Ġwyszuki wania
Ġty py
sÅĤu ga
Ġwol nym
ĠV in
Ġwybrze Å¼u
j czycy
ĠInstitu te
ĠPo niÅ¼ej
ĠnastÄĻp nych
S kar
poli s
un tain
Ġzgo da
Ġni Å¼ej
Ġmagi ster
Ġwyda Äĩ
Ġr dze
ĠP W
Ġsa ty
le ry
ĠprzyjÄĻ ta
tw or
Ä ±
Ġg al
sa mo
ĠSztu ki
u cha
ĠÅĽwiad czeniem
ĠMc C
Ġscena riu
Do datk
W szystkie
ga Å¼
Ġskaza ny
Ċ ĠĊ
Ġpisem nie
t no
Ġi miona
Ġkp c
ĠRoz po
ch el
ĠA B
ĠosiÄħgniÄĻ cie
ĠkoÅĦc owego
Ġwy Å¼y
st le
Ġzd jÄĻcie
ĠAven ue
prawo moc
Ġkierow ca
Ġce remo
pol skie
Ġdostar czania
ĠR NA
Ġeksper tÃ³w
Ãª ci
ĠmoÅ¼li wych
Ġofer owanych
ĠGÅĤÃ³w nym
ĠÅļ redni
ka nia
n Ã³
Ġfil mowy
Ġzmniej szyÄĩ
Ġproporcjona lnie
Ġ19 13
Ġplat formy
Ġwyro bu
Ġprzele wem
Ġprzed w
ĠsÄħd owe
ĠprzepÅĤy w
Ġwymaga na
Ġprofeso ra
ĠT ermi
Ġcz ci
ĠO czywiÅĽcie
ĠP ower
Ġ27 0
ĠBase ball
S pe
ti cs
Ġturysty cznych
Ġwybra ne
Ġwi dz
ĠUczest nictwa
ĠJedno stki
Ġewentual ne
ĠplacÃ³w kach
ĠSko ro
Ġza deklar
Ġodpowiada jÄħce
Ġpot om
ĠBiaÅĤoru si
logi cznym
J Äĺ
p sy
ĠN CAA
Ġserwi sie
Ġoku pa
Ġsamochod owych
ĠJ en
Ġklucz owych
ĠĠĠĠ ĠĠĠĠ
Ġnajwy Å¼ej
P N
Ġofi cer
Ġspecja lnie
tera pii
) (
Ġwz rasta
Ġwi zual
Ġsprze dawcy
ĠPrzedsiÄĻbior czoÅĽci
Ġwal ce
Ġs ch
ĠB ang
Ġtrakt owaÄĩ
Ġwzo rze
cha mi
tyw nego
e ni
ĠIN WE
ĠGol d
ĠRe alizacja
Ko lej
Ġ19 07
ĠnajwyÅ¼ szym
ĠPodstaw owa
Ġdokony wana
ĠwyksztaÅĤ cenie
ro ugh
bo ÅĤÃ³w
Ġczwar ty
Ġska lÄĻ
Ġdokumen ta
S tacja
Ġinter fej
Ġprak tycznie
Ġlegi tyma
Ġpoinform owaÅĤ
Ġkomis ja
ĠLi fe
ĠK L
si l
U Å¼y
ĠZa war
Ġzarejestrowa nych
Ġopublikowa ne
Ġla sÃ³w
Ġu gru
( -
Ġprzedstawi ono
ze c
Ġf ot
Ġdo pÅĤy
ĠpoÅĽ re
m owanych
Ġsprzeda Å¼Äħ
ĠZAR ZÄĦDZENIE
ĠogÃ³l nÄħ
Ġk ÅĤo
Ġpo zew
ĠprzykÅĤad em
Ġsk ory
ĠciÄĻÅ¼ arÃ³w
ĠwpÅĤy wy
Ġstw orzyÄĩ
ĠwskaÅº nikÃ³w
Ġzawar ciu
Ġzastrze Å¼enia
Ġro cznej
Ġ er
lo nii
Ġalb owiem
mu r
Ġpokrew nych
ĠsÄħ dzie
ĠT erytor
ci l
ĠRa y
ĠPoczÄħ tkowo
ĠMini strze
Ġeduka cyjne
Ġska n
Ġprzedstawi onym
Ġopa trz
Ġzmieni ony
Ġroz dziaÅĤ
p ton
Ġ16 9
th y
Ġo my
ĠE P
Ġzez wala
Ġs sa
Ġwy kre
ĠÅĽci gania
Ñ ĭ
czes ne
Ġarchi tek
ĠC ru
nict w
bra ne
Mistrzo stwa
Ġpow strzyma
ĠrozwiÄħza niem
Ġro py
Ġpo mys
ĠWymaga nia
is s
sp ar
ĠO re
ĠÅĤ Ã³dz
Ġprzy ci
ĠpielÄĻgniar ki
Ġce nÄħ
NE R
WIE SZCZENIE
Lo kalizacja
Ġrys unku
kla sy
R P
Ġpotwier dzone
Ġchirur gi
Ġpowo dzi
Ġaustrali jskim
Ġzatwier dza
ĠMi ro
Z JA
Ġudzie liÄĩ
ĠU zyska
ĠnaleÅ¼ ne
Ġnaz wane
ĠLi ceum
Ġch rom
Ġplanowa nej
ĠnajwiÄĻk sze
h l
owie nia
ty godni
RO M
ĠzastÄĻp stwa
t ts
Ġu mysÅĤ
ĠUBEZPIE CZENIA
Ġspo za
ĠProkura tor
Ġoce niÄĩ
Ġswo imi
ĠskrÃ³ cie
wiÄħ ty
Ġdostos owania
Ġpopraw ÄĻ
ĠJedno stka
za nia
ĠniezaleÅ¼ ne
Ġwynagra dzania
ĠWarsza wskiego
Ġobni Å¼enie
Ġr z
b ank
ĠszczegÃ³ÅĤ owy
Å¼ nych
Ġjakiego kolwiek
ĠRa dom
ĠSÅĤu p
Ġrodzi nnej
Ġper ski
ĠNa wet
Ġruch em
nt on
ĠpuÅĤ ku
ĠUbezpie czonego
Ġwynika jÄħcy
ĠPowia t
la j
Ġgro Åº
rodzi ny
Ġw ali
Ġwypo Å¼y
Ġdokony wanych
bur ga
Ġsku r
ĠTa y
Wil liam
Ġza ok
me d
Ġpis m
B ez
Ġnaby ciu
dz kiego
Ġsp orÃ³w
ĠPer u
Ġwa dze
Ġdy wizji
sza nie
ten cji
Ġpodwykona wcÃ³w
Ġnu kle
c owych
M C
ĠJe rzego
ĠCz ÅĤonek
ĠST AN
Ġuzysku je
Ġwyna laz
Ġstanowi ÅĤa
Ġkur sy
Ġjaz z
ĠopÃ³Åº nienia
Ġka pli
ĠZ wykle
ĠWy nika
Ġograni czona
Ġprzeprowa dzono
Ġlekar skich
ĠMod el
ĠrzÄħ dÃ³w
Ġwprowa dziÅĤ
ĠnaleÅ¼ ny
ĠzaÅĤoÅ¼ one
Ġa ktorem
ĠÅĽcia n
ĠS S
un try
ĠOCH RONY
, -
ĠKong resu
Ġroz mawia
cz ce
Ġzachod nim
Ġpapie ru
Ġbile tÃ³w
Ġzaspokoje nia
Ġpowsta ÅĤo
Ġpodat kach
ĠNo Å¼nej
Ġprzeprowa dziÄĩ
ĠO grani
wie cieÅĦ
U sta
to k
Ġuczni owie
CZE J
Ġo zd
Ġwymaga ny
Ġust nej
Ġpo bo
ĠC ur
sto ne
ĠWy bierz
ĠPrze wi
Ġpier ÅĽcie
Ġwzo rem
ĠG A
ĠCe le
ĠZa sa
trzyma nie
Ġwschod nim
ĠJa c
Ġu rzÄĻdzie
pa nia
Ġzle ca
199 6
ĠcÃ³r ki
ĠCzÅĤon kowie
ĠdÅºwiÄĻ ku
ĠOdpowie dÅº
Ġdokona nej
ĠspÅĤa t
Ġga zÃ³w
Ġui szczenia
se kretarz
Ġnacze lnika
ĠNaj czÄĻ
Ġm el
Ġwenty la
to rek
Ġminima lne
ĠWe b
ĠBud ownictwa
ĠPod wykona
Ġza ÅĤ
Ġwielo kro
Ġpowinie neÅĽ
cie ra
Ġszko lni
Ġinwen tary
Ġnaj popular
Ġdyspon owaÅĤ
w cÄħ
d ery
L ÄĦ
ĠT an
Ġmieszkani owego
ĠInterne cie
dz kiej
Ġp ÅĤe
Ġ18 3
Ġwymia nÄĻ
je ÅĽli
Ġban ki
ze n
ĠFor um
t li
P IE
Ġupraw niona
Ġlub el
Ġlekar skie
Ġburmi strza
Ġli ceum
u stawa
Ġzna cznym
os i
Ġkol oru
ĠUsta la
ĠF al
Ġprzy kÅĤady
logi cznie
Ġsta ÅĤym
ĠK T
ĠAndrze ja
Ġwspo mina
ĠMa ni
z jÄħ
Ġkonsu mp
Ġk rwa
Æ Ĵ
ĠG ali
sty cznego
ĠFinans owego
ĠIn done
Ġwyro ki
ĠcÃ³r ka
Ġprzy jem
ÅĽ wie
li czenie
Ġkwa su
ĠPod miot
Ġjas ne
ĠkrÄĻ gosÅĤu
â Ī
sz czona
Ġszac unku
Ġsubstan cje
czo raj
K ancelar
Ġob rzÄĻ
Po niÅ¼ej
Ġza dowo
pisa ny
ĠtoÅ¼samo ÅĽÄĩ
Ġzespo le
Ġdyna stii
Ġa lu
su l
Ġim ple
Ġemo cjona
Ġtary f
ĠwyÅĽwiet la
ĠZ wyciÄĻ
ST WO
Ġjed ena
Ġpunk tem
rze cz
Ġwol nego
wi i
owi cach
Ġzmar ÅĤego
ment s
Ġoznacza jÄħ
Ġamorty zacyjnych
Ġsuger uje
Ġklub Ã³w
czy ÅĦski
Ġjedno osob
Ġalkohol owych
Ġpo py
." ;
sto p
Ġkolo nia
Ġpot rÄħ
Ġo czu
Ġsen sie
ia ch
ĠS ol
Ġspra wca
ĠmoÅ¼li wa
Ġry by
Ġpiosen kÄĻ
t kÄħ
Ġpodzie liÄĩ
ĠÅĽ la
Ġudzie liÅĤ
Ġzesta wu
Ġgra cz
ÑĢ Ð°
Ġrela cje
ie n
ĠSe a
ĠOlszty nie
Ġziem nia
v ing
ĠpozarzÄħd owych
Ġakapi t
obie rz
ĠNF L
Ġwol noÅĽÄĩ
ĠmÃ³wi Äħ
A C
Ġza graÅĤ
i me
Ġzda niu
Ġsprowa dza
ĠÅ¼ela za
Ġn ow
ĠodwoÅĤa wczego
ĠRo man
ĠB r
Ġnie wÄħtpliwie
vie w
zy dium
Ġpowiadomie nia
Ġnieobec noÅĽci
ĠSPÃĵÅģ KI
Ġgwaran cjach
wi ar
gi n
Ġstaran noÅĽci
na ta
ĠzÅĤo ta
Ġniena leÅ¼y
199 4
Ġ16 2
Ġwir tual
ï ¬ģ
Ġdo peÅĤ
Ġforma lnych
ĠobowiÄħza ni
wz glÄĻ
ĠProtoko lant
ĠzÅĤo Å¼onym
Ġlo dzie
c to
Ġprzypad ek
Ġinterpela cjÄĻ
ĠAla ba
Ġkol ory
AmerykaÅĦ scy
Ġsfinans owanie
Ġodprowa dza
Ġser wer
Sy stem
Ġfaktu ra
Ġspoczy wa
P ubli
Ġwyda no
ĠS IE
ĠpojÄĻcie m
ĠA BC
Ġkapita le
ĠPres s
Ġod syÅĤa
ĠbudÅ¼e towa
Ã «
ci ng
Ġup dop
Ġmor der
Ġodda lenie
Ġprawa mi
Ġzauwa Å¼yÅĤ
Ġpoziom Ã³w
Ġ14 9
ĠBar dzo
ĠpoÅĤÄħ czeÅĦ
gi mna
Ġwykorzysty wany
ĠR io
Ġkolej nego
ĠWirgi nia
Ġanali zie
ce zja
ta cyjnego
pro gram
Ġcertyfika tu
Ġna dzo
PR OW
ers ona
wz glÄĻdnia
Ġuzasa dnieniem
ĠdÅĤuÅ¼ nik
ami l
Ġefek cie
dziaÅĤa nie
ĠS U
ĠY e
Ġko pia
lar y
pi one
ĠWynagro dzenie
CYJ NE
d l
Ġzap om
Ġprze noszenia
Ġprzy chodami
ta Å¼
ĠI MIE
Ġspo j
Ġrodzi nÄħ
Ġodpowiada jÄħcej
ĠSk y
Ġ15 1
Ġpie czy
kÅĤa dnia
ĠZa sada
Ġci ÅĽnie
ĠI t
Ġfak s
Ġodpada ch
ĠPacy fiku
Ġtransa kcje
Ġmened Å¼er
Ġwprowa dzonych
Ġma ci
Ġwojs kowego
Ġwybor czych
ĠmÄĻÅ¼czy zna
ĠzwÅĤo ki
Ġnie ch
ĠE LE
Ġzi ar
ĠPROJEK T
Ġroz mie
kie dy
C ar
Ġskar g
Ġzaspo kaja
ĠS ÅĤowe
Ġjapo ÅĦski
199 1
O L
Ġsze fa
gÅĤo szenia
ĠJo e
Dyre ktor
Ġprzy pis
Ġ20 7
u ry
ĠBru kse
ga dy
Ġzach or
Ġopieku na
Ġ23 0
ĠBryta nia
Ad ministra
do kumen
S prawa
ĠBo le
Ġtle nu
ĠNet work
Ġan te
ĠRegula minie
Ġotwar cie
Ġsytua cje
ĠI owa
Ġwalu t
Ġd ÅĤo
Ðµ Ð²
Ġt rz
ĠC N
szko dli
Ġozna czonych
ĠMis sis
ĠprzysÅĤugi waÅĤo
Ġma ÅĤym
ĠrÄĻkoj mi
ĠMieszka niowej
ĠB us
ĠFi lipi
Po niewaÅ¼
00 1
C y
ĠKo lorado
Ġpocz tÄħ
ĠWy d
Ġwoje nnej
Wy so
Ġbran Å¼
LNE J
Ġzarejestrowa ny
MU LAR
ĠG ieÅĤ
Ġtur nie
Ġnieu regul
Ġdotychczas owego
Å¼ ni
ĠG lo
D osta
pol ski
Kancelar ia
Ġmary narki
ĠTi mes
kro Äĩ
Ġpoda no
Ġwykorzysty wanych
Ġpowiada mia
ro da
Ġ19 11
Ġrealizowa nego
ĠMor za
ÅĦ cz
fo nii
Ġpotencja lnie
Ġprze ja
o ro
Ġzalu dnienia
Ġ13 2
Ġ15 5
Ġ15 6
Ġobra zy
Ġaktual ny
Ġg ÅĤu
Ġskute cznego
Ġkla sa
Ġwykorzysty wana
ĠÅĽredni m
Ġwej ÅĽciem
ĠM ul
Ġpoziom y
car e
Ġweteryna ry
Ġhistory czne
Ġkana ÅĤ
Ġdzieci om
ĠStan owisko
i sto
ĠK M
ĠPart ia
Ġpodejm owanych
ĠobsÅĤu ga
t nik
Ġko pie
ĠU mie
ck et
zi ony
ĠÅĽwiad czenio
Ġzbior Ã³w
ĠdziaÅĤania ch
Ġu spraw
ĠG wi
ĠCZÄĺ ÅļÄĨ
Ġposta ciÄħ
ĠrÄĻ ki
ĠpeÅĤ na
s kar
Ġfor mat
sza mi
ĠMi strz
dziaÅĤa ch
ĠÅĽwiade ctwo
Ġpa le
Ġra my
ĠzÅĤoÅ¼y ÅĤa
Ġroz bi
zu jÄħcej
Ġni sko
ĠwojewÃ³dz kiego
Ġda Äĩ
Ġsp ali
Ġinforma cyjne
199 0
Ġli cznych
Ġmo ne
Ġpo lubow
Ġwspiera nie
ĠS TU
ĠTe x
Ġkogo ÅĽ
Ġprzydat ne
ska mi
Ġprzekracza jÄħcej
nor ma
Ġ21 7
Ġzbud owana
Ġfunk cja
mÃ³wie nia
ĠO W
D L
K E
ĠNadz wyczajnego
vi d
Ġspotka niu
wodni k
ĠzobowiÄħza ne
ĠOkrÄĻ gu
Ġbudowla ny
dem u
Ġra no
Ġautor skie
si de
ĠI M
Ġgmi nach
Ġzna nego
k rze
ĠNie stety
Ġmuzy czne
Ġw er
ĠNa g
AmerykaÅĦ skie
ĠO kla
Ġni skiej
Ġprowin cja
Ġa stro
p in
ĠbÄĻdÄħ ca
ĠpoÅĽredni ctwa
Ġfa ktÃ³w
ĠF M
ĠLe gi
Ġwoje nnych
lo nie
ĠwypeÅĤ niÄĩ
Ġau kcji
Ġzwo len
ĠokreÅĽla ne
Ġz bÄĻd
ĠzgÅĤo szone
Ġustaw owymi
Ġroz sÄħd
Ġod niÃ³sÅĤ
Ġorganiza cyjnÄħ
Ġwyso kich
peÅĤ nospraw
ĠDavi da
Ġmieszka lny
Ġpoli tycznÄħ
Ġwynika ch
Ġprze nosz
Ġ \
Ġpr Äħd
Ġg ard
Ġofer owane
Ġzawar ty
ĠO SP
Ġprzewi dujÄħ
ĠSPRAWO ZDANIE
ĠumoÅ¼li wi
ĠkrawÄĻ dzi
ĠdowÃ³d ca
ĠKry teria
chod zenie
ĠWyszuki warka
Ġin cy
Ġw rÄĻ
Ġ, ,
ma li
Ġba sen
Ġspor tow
now u
ĠodrÄĻb nymi
ĠrÃ³Å¼ niÄĩ
Ġin f
Ġnie szczÄĻ
Ġprze myÅĽ
ĠobowiÄħz kowych
Ġinforma tycznych
ĠSI Äĺ
Ġkal kula
Ġre dak
di t
Ġnatura lnego
ther n
Z miany
ĠZarzÄħ dza
WiÄĻ cej
ĠwszczÄĻ ciu
my m
Ġniemie ckich
Ġ ................................
h al
ĠCzÄĻ ÅĽci
N owe
stra cji
cho tni
Ġde lika
Ġkolej owego
Ġb ÅĤy
Ġtowar owych
DZ A
Ġnieposiada jÄħca
Ġto le
Ġka u
Ġwin no
ho p
R I
ra Å¼a
Ġsz czycie
od c
Ġcookie s
ĠIMIE NIU
Ġpre para
Wy niki
ĠS ir
Ġdoj rza
Ġpodmio towi
Ġrachunk owe
Ġp ud
ĠÅ¼yw noÅĽÄĩ
Ġkar dyna
nisty cznej
Ġs zyj
Ġtrans forma
Ġosa dni
ĠU rzÄħ
ĠMarszaÅĤ ku
Ġro cznych
te t
tua cja
ĠPolitechni ki
Ġkierowa ÅĤ
Ġ **
Ġwoj na
Ġszk lan
in dy
Ġstanowi ÅĤo
Ġzgroma dzonych
ĠPoÅ¼ar nej
Ġchory ch
Ġal ar
Ġaktual nych
ĠokreÅĽla ny
ĠK wa
ĠW si
ĠT al
ĠcaÅĤkowi tÄħ
ĠOdpowie dzialnoÅĽÄĩ
ĠZamÃ³wie nie
Ġmaksyma lna
Ġna mi
8 00
Ġstandar dy
Ġwynosi ÅĤ
da na
Ġwe ek
ĠDzie dzi
Ġstanowis kiem
bi le
ĠH ali
Ġzna ki
Ġwar zyw
ĠN BA
ko p
ĠIPP B
Ġprzewodnicz Äħcym
mowa niem
ĠÂ ĢÂ
szy n
Ġkar ta
ĠO bra
tain ment
cu t
ĠÅĤy Å¼
Ġlotni czego
ĠÅĽ lub
Ġkieru n
ĠKar nego
Ðµ Ð½
Ġrestruktury zacji
Ġli bera
omo c
ĠBa daÅĦ
Ġpod ga
ĠczÅĤon kom
sk y
Ġubiega jÄħcy
Ġspraw dzenia
Ġw licza
Ġswobo dy
Przed miotem
Ġspad kÃ³w
Ġpo szan
p su
kowi ce
ĠspÅĤa tÄĻ
Ġ19 05
ĠKiel cach
ĠAnd rew
ĠKon ty
ĠszczegÃ³l nÄħ
Ġkla sztor
Ġgi tara
Ġpo sÅĤugi
Ġprocedu rÄħ
owie nie
ĠprÃ³b ek
ĠJez io
Ġproce sy
Ġzbior u
ca n
grani cznych
Ġblo ku
ma j
Ġmonitor ingu
Ġprzer wy
Ġs re
stawie niu
Ġsi wz
ĠSco tt
Ġwyzna czony
ĠwyjaÅĽ niÄĩ
Ġnie mow
o kres
ĠÅ¼e glu
Ġ7 50
Ġindywidual nÄħ
ĠSte ve
rowa na
Ġcz terdzie
Ġleczni czego
Å¼ szy
ĠC ENT
em u
ch owie
Ġsprzeci w
Ġro lnym
ĠJ ones
ĠOs Ã³b
ow cem
Ġdobre go
Sa mo
ĠwspÃ³ÅĤpra ca
Ġpo mysÅĤ
r Å¼a
11 3
ĠKa ta
Ġb omb
Ġpo piera
Ġstanowis kach
Ġwitry nie
ĠMo gÄħ
ĠF ra
K al
ĠP T
Ġzasi la
Ġsamochod em
ĠRe ktora
ĠPo st
cia mi
Ġkra je
ĠPa le
Ġzna kiem
ĠMa tki
Ġzmienia jÄħcej
tycz no
ĠplacÃ³w ce
IP PB
Ġmanda tu
Ġpisa nia
Ġsamolo tÃ³w
w czÄħ
ĠB ÄĻdzie
ĠspÃ³ÅĤdziel czej
Ġtechni czna
1 10
Ġdaw niej
Ġmniej szych
Ġodbywa jÄħ
met r
Ġobec ne
Ġzawiad omi
ĠbÅĤÄĻ dy
Ġzaa ta
ĠZna ny
ko ju
Ġmi o
ĠRP A
ob serw
ĠPodstaw owe
Ġzwal czania
i k
Ġnie dale
d owanych
Orga ni
Ġmate ma
Ġoprocent owania
ĠBrow n
ĠO T
ĠGliwi cach
l osa
Ġwymieni ony
ĠOgÃ³lno ksztaÅĤc
ĠG Ã³rze
asu mujÄħc
Ġkomor nika
Ġpens ja
Ġpow iÄĻksz
ku lacji
Ġkolej nej
Ġna bo
Ġwi d
Ġne rek
ĠwojewÃ³dz kich
Ġprowadz Äħcym
Pol skie
wi onych
Ġwido czne
Ġalbum Ã³w
ĠzakoÅĦ czyÅĤa
ĠspÃ³ÅĤ kach
Ġzawo dzie
S tar
ĠK ir
Ġuni wersa
mu jÄħcych
Ġbra Äĩ
ĠK orzysta
Ġzawodni k
ĠszczegÃ³l ny
rab in
ĠT wi
ĠprÃ³ bu
Ġgospodar stwo
f re
Ġma jÄħcej
ĠPodstaw Äħ
s c
ĠT F
Ġzdoby wajÄħc
pad ÅĤ
ĠKancelar ii
ul t
iel ski
Ġrodzi nny
ĠM ali
Ġtra sie
ĠNau czyciela
ĠPh il
ĠSamo dzie
Ġmog ÅĤoby
Ġdyrektyw ÄĻ
Ġelektry czne
Ġoj cem
t wÃ³rz
Ġim muno
Ġu porzÄħd
Ġpodpisa ne
ĠMon te
Ġprzeciw nym
Ġroz dziel
Ġtymczas owego
Ġbi twy
ĠK im
ĠDo daj
Ġdzie ÅĤ
ĠSub fundu
na zwa
ĠwypÅĤa t
Ġtechni cznÄħ
Ġkwa s
Ġtek sty
Ġpartner Ã³w
Ġdo z
o ma
Ġstre fa
ĠK ÅĤo
ĠTwo im
ĠG od
Ġprogra mach
ĠoÅĽrod ek
de x
ĠS rebr
ĠprzemysÅĤ owych
ĠÃ Ĺ
dÅº mi
W al
ĠÅ¼ad na
le na
Ġtworzy Äĩ
Ġza mach
ĠStos ownie
Ġinforma cyjny
Ġsta Å¼
Ġbo ku
ĠS en
ĠusÅĤu gami
ĠF A
, [
Ġfa ce
ĠS ARS
Ġre widen
ĠJaro sÅĤaw
ĠStu den
os kona
men tach
Ġanali z
ĠRa zem
wiÄħ zywania
Ġregi on
Ġroz kÅĤad
Ġglu ko
Ġefek ty
ST RUK
Ġpojaz dami
Ġpraw nikiem
mite nt
p owo
gimna zja
ĠB is
Ġzwyk ÅĤych
R Ãĵ
Ã³r ki
Ġdodatk owy
Ġinstytu cjÄĻ
ĠJ E
ĠTi me
Ġbeneficje nta
ĠPra c
Ġdo jazd
Powy Å¼sze
Ġwy szczegÃ³l
ĠCzy taj
dÅº wie
Ġszko lnictwa
f ran
st el
Ġ18 2
ĠnajwyÅ¼ szy
Ġsyste mach
bet h
ĠKon stan
Â Ī
ĠzwyciÄĻ stwo
Ġkontrahen ta
ĠkrÃ³ le
os zy
ĠI F
Ġnaby wcÄĻ
ĠDis ney
cz Äħcego
Ġwystarcza jÄħce
Ġautostra dy
ĠS ul
b ri
Ġeuropej skiego
Ã Ĭ
Ġcodzie nnie
ĠS ÄĦD
ĠKraj owym
nowa na
ĠAR T
Ġosobist ej
Ġzrozu mieÄĩ
i la
Ġsz kie
Î µ
Ġchemi cznych
ĠpodkreÅĽli ÅĤ
ĠDÄħ br
ĠZarzÄħ dzanie
ĠzaÅĤo Å¼eniu
ĠT O
g owi
................ ........
Ġal gory
Ġch ro
Ġsze regu
ni owym
Ġchary ta
Ġobro ÅĦcy
Ġotw arto
ĠmiÄĻ so
ĠFor ma
Gru pa
ĠÅĽcie Å¼
OWA NIU
Ġprzysz ÅĤoÅĽÄĩ
ĠWyÅ¼ szej
ĠbÅĤÄĻ du
ĠkaÅ¼doraz owo
Ġwitami ny
ni cznych
Ġwyra Å¼enie
Ġop er
Ġmor skiej
ĠrÃ³wnow artoÅĽÄĩ
OD Y
Ġrestaura cji
Ġutworz ona
Ġ22 3
Ġkatego rie
j my
za nie
ĠN BP
ĠP owo
Ġ16 5
Ġuszko dzenie
Ġudowod niÄĩ
Ġspraw noÅĽci
Ġsekre tarza
ĠksztaÅĤ towania
Ġinterne towÄħ
ĠMa y
ostanowie nie
ĠC zasami
Ġma sie
Ġskar Å¼Äħca
W iel
Ġpowro tu
co nym
Ġwy rzu
Ġdotychczas owe
Ġs eme
ĠwÅĤa dza
KoÅĽci Ã³ÅĤ
Ġmog Äħcych
ĠpÅĤa szczy
ĠWiel ki
Ġpostanowi ÅĤ
Ġniepo Å¼Äħda
ĠurzÄĻdni kÃ³w
ĠREA LIZA
ĠDosta wy
ĠCam bridge
ĠBa danie
Ġwios ki
ĠT U
Ġwzro sÅĤa
K odek
Ġkry mina
ĠopÅĤaca niem
Ġwyga sa
ĠDol noÅĽlÄħ
ĠdostÄĻp ie
Ġprzekaza ÅĤ
Re prezenta
Ġ13 6
ĠRo ute
ĠDar iusz
ĠBill board
ĠobjÄĻ cie
ĠW szyscy
ĠPaÅĦstw owego
ĠJagiel lo
C om
Ġjezio ro
men tarz
Ġwy wiad
Ġpakie tu
nÄĻ li
Ġco l
Ġznaj dowaÅĤ
wi rus
R i
ĠFe deracji
g ÅĤÃ³w
ĠRe da
Ġodpowiedzia lnych
ĠrozpoczÄĻ cie
Ġaudy tu
OW ANE
ly wood
ĠGenera lny
Ġode sÅĤa
Ġlu dÅºmi
Ġgo t
Ġza dzwo
ĠskrÃ³ tÃ³w
Ġser iÄĻ
Ġwz boga
cie p
Ġw rÃ³ciÅĤ
er i
ĠwdraÅ¼a nia
Ġe u
Ġdosta wca
Ã ĥ
Ġs ferze
ĠFo x
ĠSza c
Ġgro zi
zi one
Ġzabu rzeÅĦ
Ġczyn noÅĽciami
Ġwybor czy
ĠpowoÅĤa ne
Ġwnioskodaw cÄĻ
mo no
Ġzwalcza niu
zy ko
Ġwej ÅĽcie
Ġdek lar
ĠCh ris
Ġok na
Ġpodstaw owy
ĠA Ca
Ġda ÅĤ
Ġpo my
Ġloka le
ĠEnter tainment
ĠOÅļ WIAD
Ġkom pone
Ġpunk tach
Ġwykonaw cÄħ
S ie
Ġcyk l
ĠodrÄĻb nie
NIK ÃĵW
ĠZa stÄĻp
ĠRzy m
ĠIn sta
Ġforma lne
Ġdefiniu je
ĠB un
ĠÅĤ Ã³Å¼
ke ra
RE DY
By ÅĤ
ĠBer linie
ĠBu siness
Ġregula cja
Ġu kara
li stÃ³w
Ġhistory cznych
Ġma ÅĤego
Ġorygina le
ĠFin landii
wie niu
ga ra
ni ÅĤy
Ġbudow nictwie
C ze
Ġgroma dzenia
orzy ÅĤa
Ġorzeka nia
Ġte ni
199 5
ĠspÄĻ dziÅĤ
g ement
Ġmate maty
O bie
Ġzasad noÅĽci
ĠE li
Ġli czyÄĩ
---------------- ----------------
ĠI ra
Ġpot ÄĻÅ¼
p onu
Ġzwro towi
sf al
ĠKaro la
Ġcoro cznie
Ġch cÄĻ
Ġpozarolni czej
ĠTS UE
ĠLi tera
Ġzaga dnieÅĦ
ĠokreÅĽ liÅĤ
Ġse ktor
Ġnieu praw
Ġszy i
ĠDo tacje
Ġszcze blu
Ġobliga tory
ĠA P
ĠA U
ĠuÅ¼y ciem
Ġustawo dawcy
ĠmogÅĤy by
P ow
euro pa
ĠproÅĽ bÄħ
ĠrÃ³w nej
Ġkomen tarz
ĠP un
da lem
Ġmistrzo stwa
Ġtranspor towych
ĠWNI O
ĠH onor
Ġpapier owej
m owe
ĠKonkur su
Ġzwa nÄħ
ĠProcedu ra
ve y
ĠÅĽmier ciÄħ
Ġspraw uje
ciÄħ gÃ³w
Ġpubli czno
ĠdziaÅĤa jÄħce
Ġposiada cza
Ġt ren
ĠG en
ĠrÃ³Å¼ni cÄĻ
Ġrzeczywi stym
Ġinspe ktor
Ġwojs kowe
Ġwybor czego
Ġzabezpie czeÅĦ
Ġser ce
ekla ma
Ġpre fek
ĠduÅ¼e go
tu ÅĤowa
Ġs ens
tora mi
Ġzaskar Å¼enia
ĠdowÃ³d cy
a rab
li ÄĻ
u sta
Ġkompu terze
Ã ½
ĠKonkur s
w artoÅĽÄĩ
ĠzgÅĤo szonych
Ġbank owym
ĠnieruchomoÅĽci Äħ
ĠpaÅĦstwa mi
ĠzÅĤo te
ĠÅĽmier te
ĠY or
w sze
Ġprzychod em
Ġpersone l
Ġdocho dach
Ġpodstaw owa
ĠJo anna
ĠsporzÄħ dzenie
Ġpoprzedza jÄħcym
R ZA
ĠÅļwiÄĻ tokrzy
ĠÅļwiad czenie
Ġkil koma
Ġchi ÅĦski
c owego
Ġpie szych
Ġkwest iÄĻ
Ġnajkorzystniej sza
Ġo kÅĤad
kon stru
ĠTwo ich
Ġelektroni czny
Ġnagra ny
Ġstrze l
ĠPOL SKA
ĠÂ ·
ĠU dziaÅĤ
Ġwers je
ĠwstÄĻp ie
cha mia
Ġdyskry minacji
Ġmaksyma lnej
ĠMo untain
la de
so ra
t onu
Ġumiesz czone
ĠUR ZÄĦD
ĠobjÄĻ ta
Ġmo le
Ġprzestrze ÅĦ
Ġre ntach
ĠKOMIS JI
Ġu lec
Ġprzepis om
lizowa ne
Ġna rzÄħdÃ³w
cz ko
ĠE sto
ĠWilliam s
ĠST ATUT
ĠudostÄĻpnia niu
Ġ19 1
Ġpozytyw nie
Ġla su
19 89
zo lu
kony wanie
ĠszczegÃ³l nej
ĠRzecz nik
Ġupraw nionej
Ġa sfal
nu mer
ĠZ by
ĠopÅĤa tach
Ġsko nsoli
ĠÄĩwi czeÅĦ
dz kim
Ġdyrekty wa
Ġpowie r
ĠsÄħsie dni
Ġpodej ÅĽcia
ono ÅĽ
Ġkla tki
Ġrzu ca
ĠOprac owanie
sz nie
Ġde ko
Ġprzepis a
Ġdy sko
lu e
ta h
ĠZdrowo tnej
Ġwy mu
Ġwizy ty
Â Ģ
Ġwi dzia
Ġkredy towÄħ
Ġrad nych
Ġeuropej skiej
Ġogrze wania
ĠgwaÅĤ tow
Ġwy zwa
Ġnaczy ÅĦ
ĠMinneso ta
ĠDe fini
wiad czenie
ĠPier wotnie
ĠpowoÅĤa nych
Ġprzej ÅĽcie
ĠÅĽpie wa
ĠwaÅ¼ na
Ġzagrani cznej
b ek
Ġpowia towych
Ġwdro Å¼enie
Ġadwoka ta
ĠGdy ni
Ġpokrzyw dzonego
Ġbakter ii
ĠZar Ã³wno
Ġkon wers
ĠS ad
ow u
Ġprzyzna nych
Ġs mu
ĠmajÄħtk owego
ĠCentra lnego
Ġroz dz
Ġwy tworz
ĠSz czegÃ³l
Ġm l
Ġza raz
Å ¹rÃ³dÅĤo
Ġkomandy towej
zna ny
Ġstos unki
ĠA rab
wol nienie
Ġzamie rz
Ġcie k
ĠprzeciÄĻ tnego
Ġdwa dzieÅĽcia
Ġsocja lnej
te xt
Ġgenera lnej
ĠToru niu
ĠB ut
Ġzajmu jÄħcych
ĠKon serwa
ĠzewnÄĻtrz nej
Ġpod porzÄħd
Ġra tun
Ġwnios ÅĤa
Ġobywate la
Ġmet ry
ĠÅĽrod kiem
Obec nie
d rze
Ġsprze cznoÅĽci
ĠWa ter
Ġuczni om
ĠporÃ³wny wa
ĠzÅĤoÅ¼y li
Ġkredy towych
ktu j
ĠJose ph
Ġcie bie
sty czna
ĠNa groda
R M
Ġgru czo
ĠSo cie
ad ministra
ĠStro n
ĠNacze lnik
ĠwyjaÅĽ niÅĤ
Ġkontro lnych
Ġza wÃ³d
Ġterro ry
ĠnaleÅ¼ nych
ĠWie lu
Ġ å
niesie niem
ĠO kreÅĽlenie
li zmu
ĠRzy mie
ĠN y
ĠuwaÅ¼a na
Ġwy tw
Ġupraw nionym
ĠMie jska
Ġwy tyczne
Ġku kury
Ġuzyska ny
Ġodnosz Äħce
ĠMo unt
ĠA nty
ĠFi re
Ġh ra
ĠOFER TY
Ġna boru
Ġpoda ny
ta s
Ġsamodzie lnego
ĠspoÅĤe czny
ĠrÃ³wno czeÅĽnie
ĠHe alth
d lenie
Ġwynagro dzeniem
s ÅĤy
Ġ4 50
S tra
ĠKO MU
Ġcze le
zer bej
ĠKo per
Ġobraz Ã³w
Ġniepod legÅĤoÅĽci
Ġjednoczes nym
ma d
m ÅĤod
Ġnie rÃ³w
Ġli m
Ġforma lnie
Ġmieszka lne
do ra
Ġnajlep szÄħ
Ġnie pew
ĠPo le
ĠKil ka
ĠzaÅ¼a lenie
Ñģ ÑĤ
DZ I
Ġta ÅĦ
G W
ĠnajwyÅ¼ szÄħ
Å¼e ni
ĠÅ¼y je
Ġcu kier
ĠJedno stek
ĠLi ttle
om oderni
Ġmia stecz
tyw na
ĠUSÅģU G
Ġuz dr
Ġreprezent owaÅĤ
czy sz
Ġobszar em
rÃ³ bu
Ġspecjali stÃ³w
ĠCentra lnej
Ġzabytk owy
DZ IA
ĠPan u
Ġtelewizyj ne
Ġwy budowa
Ġu nor
ĠwpÅĤywa jÄħ
Ã³ rÄĻ
ĠPo jÄĻcie
ĠÅļ wie
Ġdowo dami
ĠMel bourne
ĠspeÅĤ niÄĩ
Ġzorga ni
SZ KA
Ġgrunt owej
ĠS TA
Ġosta tnia
Ġotrzyma nej
zio no
Ġkolej owe
ĠuwzglÄĻdnia Äĩ
Ġ19 06
ĠKredy t
u la
Ġkolo rze
ĠprzemysÅĤ owej
ĠBryty jskiej
Ġnarko tykÃ³w
Ġga stronomi
Ġobejmu jÄħcych
Å¼ ny
Ġpraw nik
Ġmagi stra
Ġwy niÃ³sÅĤ
ĠOd woÅĤu
ĠzakÅĤad owy
Ġlitera turze
Ġkonkre tne
Ġindy jskim
Ġzwyk ÅĤego
Ġzamieszki waÅĤo
W obec
ĠzapÅĤa ci
Ġposzko dowanego
k owymi
wy mi
ĠpÃ³Åºniej szymi
Ġczar no
ĠSP IS
Ġnaby ÅĤ
Ġprzeniesi ony
ĠA nali
p ek
ĠP ho
Ġprawomoc nego
Ġegzeku cyjnego
Ġprze budowa
Ġwpisa Äĩ
Ġpoziom em
Ġudziela ne
Ġbiz nesu
Ġutworz ony
ĠogÃ³l nym
Ġobwo du
Ġtra f
Ġ17 3
n kÄĻ
Ġwie sz
ĠodwoÅĤa wczy
p il
C hi
Ġstudi owaÅĤ
z ard
Ġzie leni
Ġener gia
Ġde ter
ĠPrze budowa
Ġpew nego
Ġ19 09
I X
Ġboha ter
d nych
ĠPRO CE
bior ca
Ġs owie
cz Ã³w
ĠLondy nu
s ne
ĠpeÅĤ niÄħ
v ers
sz ar
wie niem
Ġtele dy
ĠrozwiÄħza Äĩ
ĠoÅĽrod kÃ³w
ĠU P
ĠMa j
ĠpowoÅĤa nej
S W
Ġwykaza ÅĤy
ĠDa vis
ĠNiepod legÅĤoÅĽci
ĠO pÅĤaty
ĠA sh
ĠAmeryka nÃ³w
nisty cznych
Ġ15 4
Ġemi towany
ĠgÅĤos owaniu
Ġco untry
gu je
Ġwz ory
Ġstanowi ÅĤ
ĠpÅĤy nÄħ
Ġje Åº
Ġotwar tych
ĠodmÃ³w iÄĩ
ĠKazi mierza
ĠsÅĤa bo
Ġkontro lu
Ġzap lan
Ġkup na
Ġbel gi
ĠÐ ¡
Ġko ro
Ġbie Å¼Äħco
Ġnie spo
ĠwkÅĤad Ã³w
Ġchrom os
E l
Ġnie kom
ĠBibliote ki
Ġniebezpie czne
ĠLu ksem
towa nÄħ
ĠbieÅ¼ Äħcego
pre sji
Ġposiada jÄħcÄħ
Ġpowia domi
Ġ16 7
st om
ĠrÃ³w nego
ĠDziaÅĤa nie
ste ÅĽ
ĠGmi n
Ġsrebr ny
n sa
Ġna danie
Ġh os
ĠPo k
ĠobjÄĻ toÅĽci
Ġemeryta lnych
g dzie
cent ra
Ġdo pre
Ġwygra ÅĤa
ĠO pÅĤata
war e
OWAR ZY
ĠMi ke
Ġfaktu rze
Ġ à¤
ĠspÃ³ÅĤdziel czego
ĠzÅĤa go
O gÃ³l
Ġinwest orÃ³w
15 0
ĠwystÄĻpu jÄħce
ak s
Ġprawo sÅĤaw
Ko misja
Ġzbior owych
me go
zu jÄħca
ĠposiÅĤ kÃ³w
ĠParla ment
Ġinicja tyw
Ġ6 13
Ġnie czy
Ġczy te
Ġnau ce
ĠÅĤa twiej
Ġsocja lnego
Ġdowo lnej
Ġmie rz
Ġtka nek
ĠusÅĤu gach
ĠwÅĤaÅĽci wÄħ
ĠW en
Ġro la
Ġinwest or
ĠDziaÅĤa lnoÅĽci
Ġw rÃ³ci
ĠGra m
Ġza siÄĻg
ĠS MS
ch owy
Ġwprowa dzeniu
Ġgenera ÅĤa
te le
cz Äħcym
ĠDemokra tycznej
Ġdebiutan cki
Ġpopular ne
Ġprzed ÅĤuÅ¼
Ġak cjonariusza
Ġklasy fika
ĠPra ca
ĠCzÅĤonkow skie
Ġwykaza ÅĤa
Ġlicen cjon
ÅĤ owej
Ġz niesi
Ġkli maty
ĠDy wizji
ĠrÃ³w ne
sty le
Ġha bili
os y
ĠNaj wiÄĻk
ĠzÅĤo Å¼eniu
ĠC EL
Ġstruktu r
Ð¾ ÑĢ
Ġsklep Ã³w
MULAR Z
ĠJoh nson
Ġprzy sta
Ġkontro le
Ġnarod owych
czy taj
Ġmoto cyk
ĠnajwaÅ¼ niejsze
ĠODP OWIE
Ġustaw owej
Ġdewelo per
ĠnastÄĻp stwem
ĠÅļwiad czenia
wych owa
Ġu chodÅº
Ġskute cznoÅĽÄĩ
ĠY u
h armo
Do dano
Ġpra wym
Å¼ nÄħ
Ġarcy bis
o ku
ĠGdy by
Ġprzewidzia nego
wa ler
ĠÅĽrod kach
ĠpiÄħ tek
Ġw ch
ko sz
ĠpodziaÅĤ em
Ġka pÅĤa
zachod nim
Ġsprost owania
g wa
su nek
Ġgrubo ÅĽci
Ġcmentar zu
Ġprze anali
Ġopis em
SK U
ĠWil hel
x y
ĠKo ÅĤo
Ġwszel kiego
ĠW pÅĤywy
Ġfunk cjonariusza
Ġk Ã³ÅĤ
fe re
K ra
Ġg m
war da
PE Åģ
D u
Ġa pro
ĠPrze glÄħd
Ġroz budowy
mow ujÄħc
Ġzaok rÄħg
Ġwyra Å¼one
Ġlista ch
ĠNie mniej
Ġdoprowa dziÄĩ
Ġobywatel stwa
ĠP rywa
Ġpo et
ĠdziaÅĤa niem
mie ra
ĠMazowie ckiego
ĠPo twier
Ġ15 2
two rzenie
Ġla sy
Ġzapisa mi
ĠP Z
ĠAk cjonariuszy
ĠRa j
cti ve
ĠOpo lu
Ġpo Å¼Äħda
ĠM B
Ġ19 04
ĠOd rodzenia
ĠWie jskich
Ì ĩ
Å Ł
Ġujaw nia
Ġma kler
ta ny
Ġrodzi nÄĻ
Ġmu zuÅĤma
Ġkonstru kcja
Ġosob owoÅĽÄĩ
ÅĦ sku
Ġguberna tora
ĠspoÅĤe cznÄħ
AT O
Ġpotrzeb uje
ĠProkura tury
Ġwyso kÄħ
Ġs wych
ĠwspÃ³l ny
ĠLi ve
Ġpodzie lone
Ġpow rÃ³t
Ġwz niesi
ĠS um
Ġfa zy
li nd
Ġpre mier
ĠPra ce
ĠA th
Ġstop ÄĻ
T P
ĠNa le
Ġsprze d
Ġk rok
lizowa nych
Ġzatru dnieniu
Ġludz kich
ol k
ĠwyÅ¼ szÄħ
ĠPODSTA W
ĠpÃ³Åºniej szym
Ġzbli Å¼a
ĠWa ÅĤ
rod ki
ĠPRA WA
ĠMo ra
ĠpodjÄĻ tych
ĠprzewoÅº nika
zm em
Ġoj czy
Ġplanowa nego
g ard
Ġtelewizyj nego
Ġpo noszone
Ġzdoby Äĩ
Ġkom pensa
Ġzapyta nie
ĠupowaÅ¼ nia
Ġpo ÅĤow
sta ns
Ġob wie
Ġop cjÄĻ
ĠmiesiÄĻ cznego
wi ck
Ġry boÅĤÃ³w
R N
ĠwiÄĻkszoÅĽci Äħ
Ġmod eli
ÅĽ nij
Ġma jÄħcego
ĠJe ro
K to
pad ek
Ġzgod na
Ã İ
Ġ16 3
ĠROD ZI
Ġdyplo m
ĠP F
Ġsukce sy
Ġsiedli sk
Ġdob rych
c la
Ġemery towanym
Mi cha
Ġpozosta ÅĤoÅĽci
Ġe mis
Ġzmody fikowa
ĠHou ston
Ġrze czÄħ
Ġre sz
Ġdora dztwa
Ġhi p
Ġzna cznej
ĠobciÄħ Å¼enie
sz czonej
ĠBo y
dza je
chodz Äħc
Ġsp i
" ;
Ġkieru nek
ĠrzÄħd owych
Ġiz rael
ĠFUNDUSZ U
ĠdoÅĽwiad cza
Ġt kan
ktu alizacja
Ġw rÄĻcz
Ġskon cent
ĠS os
Ġosobi sty
Ġpoprzedza jÄħcego
T ran
tyw nie
Ġim portu
Ġs mo
Ð ·
Ã Ł
Ġostate cznej
ĠwodociÄħg owej
Ġro cznym
ĠÅĽci Äħ
Ġsta ÅĤÄħ
Ġsty czeÅĦ
ĠD ÄĻ
Ġpre fer
Ġpowod em
ĠodrÄĻb nÄħ
Ġzatrzyma nia
ĠR ud
wiad czenia
ĠzaÅĤÄħcz niki
ĠKraj owy
Ġpowodu jÄħc
ĠJED NO
Ġpubli ka
Ġtwar dy
ĠKa toli
Ġkore kt
ni cÄħ
ĠskÅĤa danie
Ġzna nÄħ
stra cja
Ġali mentÃ³w
Ġeli mina
Ġreferen cyjny
Ġistnie jÄħce
os oby
Ġopisa nej
ni zacji
Ġpro sta
Ch ar
Ġinterne towym
Ġ21 6
ĠCes ar
Ġsing li
Ġsi ÅĤÄĻ
Ġautor skim
Ġmetod ÄĻ
Ġze gar
czni ki
Ġdob rÄħ
ĠV irgi
Ġmo ÅĿe
Ġwybor cÃ³w
h ra
Ġfina ÅĤu
ĠI loÅĽÄĩ
Ġw Ã³z
Ġzy ski
Ġobserwa cji
ĠRob o
Ġprze noÅĽ
Ph one
Ġst e
Ġskierowa nych
Ġli ÅĽci
Ġwykorzysta ne
Ġdra mat
ĠÅļrod kowej
199 2
n kÄħ
S tu
Ġmaksyma lnÄħ
ĠWy ja
ob owiÄħ
Ġzle conych
199 3
kÅĤa dania
ĠÅĤÄħcz noÅĽci
Ġw reszcie
Ġa portu
Ġgre ckiego
ĠKonferen cji
nu m
Ð ¿
ĠZa ch
M W
Ġprawdzi we
Äħ Å¼a
ĠZa by
js ca
Ġnie roz
Ġza miaru
OD ATK
NI O
S prze
un kowa
Ġznalaz ÅĤy
Ġprzezna cza
e g
Ġwska zywaÄĩ
ĠRob oty
M K
ĠStra Å¼
ĠOre gon
Ġin du
Ġmedy czny
ĠS ak
ĠI za
Ġgwaran tuje
ĠwspÃ³ÅĤczes nej
Ġwywo ÅĤu
ĠCam p
Ġm ro
Ġwzajem nych
ĠzwiÄħza nÄħ
Ġwy dziaÅĤu
Ġar y
ÄĦ CY
6 79
le ria
ĠÅĤo dzi
Ġbez czyn
io no
Ġprak tyczne
Ġh ali
Ġstar tu
Ġz niesienia
ĠS qu
nd ar
Ġ23 1
Ġo glÄħda
je d
MI ST
H A
mowa nej
N F
ĠnapiÄĻ cia
ĠW an
Ġg ÅĤad
Ġczyn sz
Ġpa ten
Ġfor te
cyk lope
ĠuÅ¼ytk owych
Ġzebra nych
ste p
Ġpraw nymi
Ġkomputer Ã³w
ĠogÃ³lno dostÄĻp
Ġsty lem
Ġreje strowa
Ġsub wencji
Ġosie dla
tk owe
Ġzasi lania
Wy kaz
ĠGospodar ka
Ġzasob u
Ġplat form
ĠJaku b
Ġspecjali stycznych
IP T
Ġzrozu mia
ĠCh u
Ġwyku pu
ĠWÄĻg ier
Ġchroni Äĩ
Ġok rÄħ
Ġopisa nego
ni nie
Fil my
Ġposiada cz
ĠMi ckie
czycie li
Ġpozy cje
st ent
ĠksiÄħÅ¼ ce
Ġskar dze
Ġwul ka
a a
ĠZamawia jÄħcym
NIE NIA
Ġto czy
ĠReje strze
H z
ĠÅ¼oÅĤnie rz
Ġzaj mowaÅĤ
wschod nim
Ġele mentu
Ġu kierun
g owy
Ġwy grywa
su d
Ġznajdzie sz
ĠZob owiÄħza
Ġob wi
/ .
ĠO trzyma
ĠDZIAÅģA LNOÅļCI
ĠOb sÅĤugi
Ġcywi lna
ĠElÅ¼bie ta
Ġniedaw no
Ġpokazu jÄħ
ĠprzedÅĤu Å¼enie
ĠWol noÅĽci
Ġtu ry
ta lnego
nie ÅĽli
ne w
Ġhan del
ĠPri oryte
ko ntro
Ġo szczÄĻ
wo lni
Ġpozy cja
Ġsu ple
ĠbiaÅĤ ek
ro r
ĠEle ct
Ġporozu mieÅĦ
ĠD NIA
ĠREJ EST
ĠPOWI AT
ty wie
pi ni
Ġniez godnie
Ġzanieczy szczeÅĦ
Ġo go
ĠZy gm
ko la
ĠJo ur
kon gu
Ġzm ÄĻ
Ġgaz owych
st ing
Ġstworz ony
Ġro lach
Ob wieszczenie
Ġdyscypli ny
Ġautor Ã³w
11 5
É Ķ
ĠzaÅĤo Å¼eÅĦ
ĠAward s
Bi orÄħc
ĠK ÄĻ
Ġadministra tor
ĠSy l
ĠuzupeÅĤnia jÄħce
ĠRodzi ny
ĠrÃ³wnowa gi
ĠwczeÅĽniej szych
Pod su
Ġuzyska nego
Ġ16 4
ĠZim owych
ty no
Ġuwarun kowaÅĦ
ks hire
ĠSkar gÄĻ
Ġtrans misji
b owych
Ġkana ÅĤu
Ġszcze pion
sie r
spor t
Ġnumer Ã³w
Ġ nia
Ġbrz ucha
mo uth
ĠS inga
glÄħ daÄĩ
ĠprzyjÄĻ to
ĠC Y
Ġobec nego
cti cut
Ġlokali zacjÄĻ
Ġdo lnej
kt ory
ĠU n
Ġwy ÅĤa
ĠnieodpÅĤa tne
ĠÅĽwiadom oÅĽÄĩ
ĠprÃ³b uje
Ġtwo rzeniu
Ġor bi
Ġpoda ÅĤ
Ġotwar tym
W s
to l
Ġdwu tle
c owy
ur Ã³w
Ġzawiera ÅĤ
ĠSpecja listy
ow ers
gi Äħ
Ġwskaza ÅĤa
at re
Ġs ÅĤowe
L S
Ġzasta nawia
Ġfi li
Ġautor skiego
Ġoczyszcza lni
ĠWs chodniej
ĠS wi
Ġ25 6
ĠSz czy
Ġuczest nik
B ie
ĠnieodpÅĤa tnego
Ġf ali
Ġpopar cie
is ko
) -
Pro to
Ġport fe
ĠchociaÅ¼ by
Ġarty sta
mu jÄħcy
Ġczyn nej
Ġok rÄħg
Ġkosz towaÄĩ
' :
ĠN ot
ĠwpÅĤy waÄĩ
ĠNie z
Å¼y cia
ĠzaÅĤo gi
Ġrecyk lingu
ĠP DO
ĠÅ»y dÃ³w
Ġostate cznego
Ġa frykaÅĦ
ĠuzupeÅĤnia jÄħcych
ĠRy nku
ĠN ow
Ġrolni czej
ĠzewnÄĻtrz nego
Ġprzewidzia nej
ĠKana da
Ġprakty kÄĻ
Ġbra tem
Ġpotencja ÅĤu
Ġstopni owo
Ġopi ni
ĠDanie l
to pe
Ġkomuna lne
ĠmajÄħ tkiem
ĠnaleÅ¼y tej
Ġtwier dzÄħ
k g
ĠWar unkiem
orie nt
Ġzainteres owanie
Ġurucho mi
ĠW prowa
ĠÄĩwi czenia
Ġustawodaw cÄĻ
Ġpo god
ĠO pa
Ġwz bu
Ġstuden ta
ĠS us
tk owych
Ġkos me
ro by
Ġod mowie
praw ÄĻ
ĠJoh an
Ġm Äħ
ĠLe ona
Ġhote lu
Ġprocedu rÄĻ
Ï ĥ
Ġniewy dol
rÃ³ dziem
Ġwojs kowy
Ġpobra Äĩ
T ANIE
ï¿½ ,
Ġkomi k
Ġpowia tÃ³w
ĠÃ Ĥ
ĠJu Å¼
ĠKaro l
ĠumoÅ¼liwia jÄħcy
ĠFesti walu
wi ca
Ġma ÅĤÄħ
ĠS ong
Ġwyda jÄħ
Ġbia ÅĤe
ĠmiÄĻ ÅĽnia
ĠprawidÅĤ owej
Å¼e ra
Ġblo ka
Ġwskaza na
Ġta bel
Ġaustrali jski
si sta
ĠÐ Ĳ
Ġni sz
ra dy
ĠO koÅĤo
Ġk im
Ġprze wyÅ¼sza
Ġmacierzy ÅĦskiego
dziaÅĤa mi
ĠWnios ki
ĠRail way
ĠÅ¼oÅĤÄħd ka
Ġuprzedni m
ĠMikoÅĤa ja
ĠGa me
ĠzÄĻ bÃ³w
th ur
Ġjaki kolwiek
ĠprzedÅĤu Å¼enia
Ġgimna zja
Ġmniej szÄħ
ĠG orz
Ġa wan
ran ge
Ġpotwier dziÅĤ
T ek
J an
ÅĽ lÄħ
ĠPRZE TAR
ple ks
Ġbu tel
Ġry nkÃ³w
Ġnapra wienia
ĠFi lip
Ġp p
Ġza obserw
ĠW P
ĠG wia
o ÅĤnie
ĠKRA J
ĠprzesyÅĤa nia
li ki
ĠG nie
u sÅĤu
ĠZespo le
Ġli der
Ġpierwo tnego
ĠRzÄħ d
Ġp ul
Ġwypo czynku
F e
Ġza py
Ġorze czeniem
ĠElekt roni
Ġpotencja ÅĤ
Ġlabora torium
ĠNAR OD
Ġmaci cy
ce do
Ġte sty
Ġpo glÄħ
W ÅĤo
ĠSZ CZE
che mi
Ġwynika jÄħcym
Ġp res
Ġzaczyna jÄħ
spi ra
Ġgenera lny
Ġt len
Ġpara gra
Ġkierowa nie
" >
ĠUkrai nie
Ġszyb kie
ti na
ĠZAS ADY
ĠRysz ard
E le
Os oby
Ġnieprze rwa
Ġka mienia
40 12
R B
Ġwykonaw czy
Ġrolni czych
ĠmÄĻÅ¼czy Åºni
ĠwpÅĤyw Ã³w
Ġidentyfika cyjny
Ġza ple
ĠD ANE
Ġskom pon
Ġob wod
k cjÄħ
ĠprzeglÄħd ar
y u
Ġlea sing
Ġwy obra
ĠGospodar czej
ĠNie peÅĤnospraw
Ġdoprowa dziÅĤo
ĠMagdale na
ĠBo ok
ĠuÅ¼ywa jÄħ
Ġ21 4
Ġzaw rzeÄĩ
ĠMar ian
Ġwy wÅĤa
u rea
________ ________
ĠKonfe deracji
Ġha s
Ġniedale ko
Ġhiszpa ÅĦski
di na
ĠSpecy fikacji
R u
ĠMi li
Ġ36 0
ĠIn nymi
Ġsamolo tu
For mular
ma cji
Ġak ces
ĠGo od
ĠBy ÅĤy
ĠO limpi
ĠSk lep
Ġpomi arÃ³w
zu jÄħcego
ÃŃ a
Ġna js
ĠuzaleÅ¼ nione
ĠC ali
Ġby ÅĤych
Ġwy pa
Ġdo li
Ġdob ÄĻ
Ġro dzeÅĦ
ĠpÅĤa ciÄĩ
Ġszkolni ctwie
Ġkro ki
wia m
ĠO SK
Ġwynika jÄħcÄħ
b ÅĤon
Ġro czny
ĠzaÅĤÄħcz nikami
Ġzaniecha nia
ĠbieÅ¼ Äħcy
Ġleczni czej
Ġczyn nym
Ġï ¬ģ
Ġlotni czy
Ġoprac owana
Ġudzie leniu
ve ra
ĠK wia
Ġu prawomoc
al le
ĠB P
Ġspraw Äħ
Ġi w
Ġwyj ÅĽcia
Ġodpowiedzia lne
Ġpodej mowanie
gu a
ĠWi ki
Ġswobo dzie
Ġpolega jÄħca
Ġod biÃ³r
b Ã³j
Ġwywo ÅĤy
da ÅĤ
Ġpowsta jÄħ
Ġsp rzÄħ
ĠPol skÄĻ
Ġkategoria ch
Ġzara zem
Ġob szer
ĠH os
obior ca
Ġepide mii
ĠrozpoczÄĻ ÅĤy
powiada jÄħc
ĠniebÄĻd Äħcych
ĠponiedziaÅĤ ek
cyj noÅĽÄĩ
ĠT own
ĠW ÄĻ
ĠSprze dawca
H S
gÅĤo ÅĽ
Ġsam obÃ³j
Ġod wrÃ³
Ġzd arza
UR MIST
ĠObsz arÃ³w
Ġarchi wa
sam owi
P om
pi tu
ĠOpera tor
ĠRe a
Ġzagrani cznego
Ġzlokalizowa na
ĠK REDY
Tre ÅĽÄĩ
Ġra sy
leg ÅĤe
ĠbiaÅĤ ko
Ġdy sk
Ġpowietrz nych
ĠPowie rzchnia
dz Äħce
Ġsymbo l
ĠMo tor
ĠUS B
Ġspecja lnej
on dy
Ġwitry ny
ĠConne cticut
g ma
for t
ĠG rab
sor ty
ĠPsy cho
Ġnieuczci wej
ĠPa niÄħ
Ġ18 4
ktÃ³ ry
Ġukaza ÅĤ
t Ã©
mina rium
d wi
ĠsÅĤuÅ¼b owe
Ġpos el
Ġpozosta ÅĤym
Ġre wi
ĠMa ksyma
ĠA S
ĠwartoÅĽci owe
ĠKONKU RS
ĠOficja lna
Ġda t
ran ce
ĠdoÅ¼y wo
ĠINWE STY
ĠSpÃ³ÅĤ kÄħ
ÅĤa u
KA Z
ĠSP S
Ġd anÄħ
ÅģÄĦCZ NIK
ĠumoÅ¼liwia jÄħcych
ĠwskaÅº niki
Ġpubli cznoÅĽci
ĠzgÅĤasza nia
Ġprze jÄĻcie
Ġczy tel
Ġpozosta ÅĤa
Ġma il
ĠamerykaÅĦ skie
IB PB
ct s
ni czne
Ġo puszcza
Ð½ Ð°
ĠWykonaw cÄħ
ĠprÃ³b ki
Ġna rzÄħ
pu ter
Bi znes
ĠobowiÄħza ne
Ġpa tent
ĠUSTA W
Ġmus iaÅĤa
ĠNie zaleÅ¼nie
Ġmechani zmu
Ġfrancu skiej
ĠciÄħg ÅĤych
Ġkondy gna
ĠKrzy Å¼a
ĠKontro la
Ġuru chamia
Ġtransa kcja
d wa
Ġsk Äħd
Ġzam el
ĠDodatk owe
Ġpar kin
ĠpÃ³ÅĤ fina
Ġskierowa ny
ĠN O
JÄĦCE GO
ĠsÅĤuÅ¼b owego
za m
Ġniez wyk
kan sas
Ġprze jazdu
Ġugo dy
Ġstrze la
P lan
si o
go m
ĠProble mÃ³w
ĠUstawo daw
ĠD ECY
ĠpozarzÄħd owe
Ġu ko
koÅĦ czyÅĤ
Ġkrykie ta
Ġwymaga Äĩ
ĠRo ku
ĠWÅĤady sÅĤaw
ĠO ffice
Ġzawiera jÄħcym
ĠpodwyÅ¼ szenia
on ÄĻ
ho u
ĠN an
pla y
Ġ18 7
Kodek s
ni stÃ³w
Ġs chroni
ĠFi zy
ĠT rÃ³j
Ġma kro
unk owoÅĽÄĩ
Ġregula minie
n niki
ĠJe stem
TA CJI
Ġprze mie
Ġwol nej
Ġuzasadni onej
For um
Ġprz od
Ġnau kowy
Ġdziedzi ny
Ġak ta
Ġszczeg Ã³ÅĤy
ĠHo tel
Ġda jÄħ
Ġjeli ta
Ġznaj dowaÄĩ
B ra
Ġno gi
ÅĽwiÄĻ t
ĠT RY
Ġregi onÃ³w
gniÄĻ cie
Ġza miany
Ġ14 8
Ġdokumen tacjÄħ
ĠFinans owej
ĠwpÅĤa ca
Ġog rod
Ġznajdowa ÅĤa
Ġtytu ÅĤy
zowa na
Ġwyda ÅĤa
ĠWiÄĻ c
D P
ĠKa m
ĠbezpoÅĽredni ch
Ġposto j
ĠPÃ³ÅĤnoc na
ĠRos ja
Ġba terii
Ġinstru mentami
Ġwyda tek
Ġprzewo du
ĠPo int
ĠPOWI ATU
Ġsztu ka
Ġni skie
Ġrealizowa na
dopod obnie
Ġby cia
ĠHong kongu
se na
ĠobsÅĤu gÄħ
Ġza jÄĻcie
g Ã³rze
Ġu prawy
Ġwy liczenia
ĠMar ket
Z arzÄħd
Ġzdecy dowaÅĤ
ĠMia mi
ĠwiÄĻk szym
Ġlotni cze
Ġbia ÅĤych
ĠB ridge
Ġg Ã³ra
ĠPoÅĤudni owa
ĠMa d
Ġmu sie
ĠumoÅ¼liwia jÄħ
Ġskrzy deÅĤ
ĠobjÄĻ tej
c ta
ga ni
ĠR om
Î »
Ġdokony wanie
Ø§Ù Ĩ
Ġorze czeniu
ĠokreÅĽla jÄħce
ha ma
ĠPod su
Ġosob owego
ĠSz ta
ĠK SH
ĠG ir
U K
Ġniewiel kie
sze wski
ĠH IV
ĠLin co
w ny
kowa no
ĠKa sy
Ġrach unki
ĠzastÄĻp cy
Ġakcyz owego
Ġwyda wanych
at tle
Ġkodek s
ĠV illa
ĠskÅĤada jÄħcych
Ġwej ÅĽciu
Ð¸ Ð¹
Ġnie stety
Ġ19 03
Ġuzasadni ony
Ġpoko ntro
ĠpowoÅĤa nego
A m
ĠLui zja
Ġincy den
O rze
Ġor kie
ĠE K
Ġofi ary
Ġutworz one
Ġroz mÃ³w
ĠP P
Ġzdarze niu
ĠMicha ela
a cji
j Ãł
Ġce lnego
S Äħ
Ġro le
ĠTry b
ÅĤ owia
Ġzebra ne
Ġdobrowo lne
ÅĤy n
Ġsen tencji
Ġa zbe
ĠL is
Ġmy szy
fi c
Ġwyna jem
Ġpomaga jÄħ
t nikÃ³w
Ġzbior nika
Ġprzeprowa dzona
a frykaÅĦ
ĠAustra lia
ĠÐ Ĵ
Ġpow raca
Ġopie ka
Ġwymaga nej
Ġinwesty cja
Ġzosta jÄħ
Ġ17 1
Ġprze lew
Ġwo ka
ĠBy ÅĤo
D i
ĠWy bÃ³r
Ġfotogra fi
B ryty
AT OR
ĠksztaÅĤ tu
Ġt owa
Ġwprowadza jÄħce
ĠKON T
Ġ14 3
ĠoÅĽwia towych
Ġobro towego
ĠprzeglÄħd arki
Ġgwiaz dy
ĠP osta
Ġcharaktery zuje
za ÅĤ
Ġmuzy cznych
Ġpiosenkar ka
ĠzamkniÄĻ ty
Ġprzechowy wanie
Ġumie szczenie
Ġepo ki
Ġroz pro
Ġkoordyna cji
Ã¶ r
Ġrozliczeni owy
Ġpakie t
Ġtre ning
Ġekonomi czne
Ġniejaw nych
K e
ĠI d
ĠsÅĤuÅ¼b owej
ĠP owod
Ġprzekracza Äĩ
ni owÄħ
Pra cow
Å¼ Äħcej
Ġkanady jski
Me dali
se arch
Ġorze czono
Sz ko
Ġopera cje
ni ÅĤo
ĠrÃ³Å¼ nego
ĠWspÃ³ÅĤpra cy
Ġz ro
Ġfinans owo
Ġgenera lnym
st rÄħ
ling ton
ĠArchi te
zy wanie
Ġwyposa Å¼ony
ĠprowadzÄħ ca
ĠwojewÃ³dz tw
ĠMa x
M am
Au tor
STA WA
ĠRzesz Ã³w
Ġw nu
Ġdowo lnego
tw ory
19 45
Ġreferen dum
ma la
Ġdo tacja
Ġak tem
re ali
Ġsp ek
Ġpla sti
Wy bory
W iÄĻkszoÅĽÄĩ
Ġ[ âĢ¦
Ġpomo Å¼e
ĠnaleÅ¼ Äħce
Ġregiona lnej
Ġuzgodnie ÅĦ
Ġpsychi cznego
Å¼one k
g owym
Ġ ~
po lu
Ġbrz mienia
ĠRe y
Ġpa nie
p pi
ĠH il
Ġrapor tÃ³w
ĠÅĽcie Å¼ki
Ġkraj owa
SP EK
ĠELE KT
em ery
ĠâĢ Ŀ
e x
ĠC I
ĠzakÅĤÃ³ cenia
Ġu to
Dz iÄĻkujÄĻ
Ġdodatk owÄħ
ĠPapie rÃ³w
dru k
Ġoce nach
ĠprzywrÃ³ cenie
Ġun cji
Ġprzy stÄħpi
ĠponiÅ¼ szych
Ġchwi lÄĻ
Ġsk Ã³rÄĻ
ĠpÅĤy nu
Ġusta wienia
Ġgra czem
de d
Ġf rom
Ġsena tor
ĠC ZY
Ġprogno zy
Ġokres em
sy jne
ĠnaleÅ¼ Äħcy
Ġkomite tu
Ġwice preze
Ġdziedzi nach
ĠdziaÅĤa cz
chodz Äħcych
Ġpopra wiÄĩ
ĠdziaÅĤ kÄĻ
czÄĻ ÅĽci
ĠZ mar
Ġau ten
ĠRo ma
Ġmar i
M or
ĠZARZÄĦD U
ĠSÅĤo ÅĦca
Ġpodlega ÅĤa
ĠPa kiet
Ġuzna niu
Ġz ÅĤÄħ
Ofer ta
Ġograni czyÄĩ
Ġ22 6
in ne
ĠDO CHOD
ĠwypÅĤa cone
lo nymi
Ġendemi czny
Ġo kien
Tu be
grani cza
Ġnad to
ĠMa tt
ĠK art
ĠPortuga lii
t ti
ni li
Ġze stawienie
ns is
Ġdodat kÃ³w
Ġko j
ĠbÅĤÄĻ dnie
ĠN ob
ction s
Ġupa miÄĻ
gie j
Åº niki
Ġna groda
ĠudostÄĻpnia ne
ĠPom or
âĢ¦âĢ¦âĢ¦âĢ¦âĢ¦âĢ¦âĢ¦âĢ¦ âĢ¦âĢ¦âĢ¦âĢ¦âĢ¦âĢ¦âĢ¦âĢ¦
min owany
Ġzaty tuÅĤowa
Mo nitor
Ġuwie rzy
Ġla tem
Ġszko ÅĤÄħ
ĠA lkohol
Ġdydak tycznych
ĠWaszyng tonie
Ġofice rÃ³w
Ġza jÄħÄĩ
ho use
Ġpow ziÄĻ
z ia
ĠOÅĽwia ty
Ġju niorÃ³w
n owych
Ġpopraw ki
Ġwie jskim
Ġw ÅĤÄħcznie
g el
ĠLi ga
Ġuczest nicy
Ġtwier dzenia
ĠdoÅĽwiad czeniem
Åģ AT
ĠPo zy
Ġprywa tnym
ĠPol skim
ĠDy stry
ĠÅĽmie ci
ĠPOMO CY
Ġnali czony
Ġradi owa
Ġkorzysta jÄħcych
Ġbakter ie
Ġpo mara
ĠM Ã³wi
Ġkol orÃ³w
6 00
Ġokaza ÅĤo
Ġlisto pad
ĠOdwoÅĤa wcza
ĠT rum
Ra da
ÅĦ stw
Ġpozosta ÅĤ
etro it
É Ľ
Ġmarket ingu
ĠuwzglÄĻdni one
Ġt ÅĤo
Ġobni Å¼a
ĠPrin ce
ĠS port
Ġa nul
Ġli niÄħ
ĠZ wyczajne
Ġob rÃ³b
ĠBuÅĤgar ii
Ġbi od
ĠYo ung
Ja ka
B iaÅĤ
Ġpo ci
Ġtwar z
ĠAr kansas
E d
Ġgenera lnie
Ġzastos owaÅĦ
Ġwypowie dzenie
ĠbezpoÅĽre dniej
sze chni
ĠQueens land
Ġz nowu
ĠrÄĻ ka
Ġkar cie
ĠO ÅĽwiad
ĠKonstytu cja
ĠkrÃ³t kim
b ary
Ġwczes nym
ro p
K rÃ³
Ġgroma dy
c owej
Ġi Phone
ĠsÄħd owy
Ġpo jÄĻÄĩ
ĠwÅĤaÅĽcicie le
ĠWoje wody
ĠÅĽwiade ctw
Ġprzy brze
ze niu
Ġpodpisa na
Ġku li
Ġpole cenie
ĠInstytu cie
przed siÄĻbior
MI NISTRA
Ġwoje wo
ĠINTER NET
Ġudzie lonego
ĠMa la
Ġpod obie
Ġ22 7
ĠZ ez
Ġce rami
Ġszyb kiego
O NA
Ġin ge
praw dopodob
spe kt
ĠbezpÅĤa tne
k ÅĤo
Ġtelef onÃ³w
Ġs cience
Ġwie jska
one y
ĠnastÄħpi ÅĤ
stro ny
Ġdziedzi czenia
Ġoddzie lnie
Ġus ÅĤy
Ġwy specja
Ġodprowa dzania
Ġli nk
i or
r r
Ġdoskona lenia
Ġczyn Ã³w
Ġorygina ÅĤ
Ðµ ÑĢ
Ġprzygo towaÄĩ
ÅĤow ni
ĠU WAGA
ĠPrze targ
Ġpro sty
Ġ16 8
Ġme cha
Ġs ca
Ġewentual nego
Ġka sie
ĠpiÄĻ tna
Ġzagrani czne
ĠRzÄħ du
ĠPau la
Ġnie li
Ġpotwierdza jÄħ
tow n
Ġdem onta
Ġmuzy k
V i
ĠNi ght
ĠWynagro dzenia
s jÄĻ
Ġk ÅĤa
Ġfilozo fii
Ġwymaga jÄħcych
Ġozna czonej
Ġminima lna
j on
Ġkorzyst ne
N G
ĠMosk wie
Ġzawodni kiem
se um
Ġstatu t
gÅĤo s
ĠS ÄĻdzi
Ġspor towy
Ġza miarze
Ġumie ÅĽciÄĩ
ĠDie go
Ġam basa
ĠDo piero
ĠR h
Ġnotariu sza
T I
Ġpowia towej
ĠKsiÄĻ Å¼y
ĠP AN
Ġtrwa ÅĤa
ĠKon ku
ĠÅ¼oÅĤnie rza
d owana
Ġfabu lar
Ġrozli czeniu
Ġotrzyma li
Ġtrwa le
Ġspecja lny
Ġrodzi nnym
OWI ÄĦ
Ġelektrow ni
Ġ19 01
U r
je nie
ĠobowiÄħzu jÄħcy
ĠEuropej skich
ĠChi le
ĠB A
Ġprzekaza na
ĠprzedÅĤo Å¼yÄĩ
Ġa dop
nia n
Ġwykorzystu jÄħ
Ġ Ãĵ
Ġ( Â§
Ġko la
Ã ´
Ġodnosz Äħcych
LE NIA
ĠtrÃ³j kÄħ
ĠI den
Ġgra ch
ĠWod nej
Ġpre mii
Ġpogo dy
koÅĦ czenie
Ġodrzu ceniu
Ġzie mia
ĠMikoÅĤa j
Ġgru dzieÅĦ
ĠKalifor nia
ĠLe o
Ġsprze dawca
ĠwÅĤÄħ cza
. (
Ġp rÄĻ
Ġpapie ry
Ġwoj nÄĻ
Ġsprzeci wia
Ġz nik
Ġcudzoziem cÃ³w
Ġopar tych
ĠProkura tora
ĠokreÅĽla nia
ĠPOLI TY
Ġzna cznÄħ
ĠAn ny
Ġdosta Äĩ
ĠR id
Ð¾ Ð»
Ġzawar tymi
ĠKen ne
Ġminu ty
n nymi
Ġkar Äħ
ĠMod erni
Ġzawiera jÄħcego
Ġfizy cznego
ĠWojs kowej
mio ny
Ġwa s
ĠTex as
ĠO ld
Ġorgani zuje
ĠkoÅĦc owe
kie wicza
ur za
Ġm owy
Ġw st
Ġza gi
Ġa stronomi
su m
ĠrzeÅº bi
m owych
owaÅĤ em
ĠcÃ³r kÄħ
ĠâĨ Ĵ
ĠPracodaw ca
NICT WA
sko p
ĠSt Äħd
iera r
ĠM E
ĠA te
Ġzjawi ska
Ġgra Äĩ
Ġja my
ĠzarzÄħd cy
ĠI l
DZIAÅģ U
ĠMickie wicza
lizowa ny
Ġna turze
ss on
Ġtajem nicÄĻ
ĠW ej
Ġznajdu jÄħca
ĠM D
Ġg ÅĤowÄĻ
RO NA
Medali ÅĽci
Ġpa tri
Ġcz terna
Ġistnie Äĩ
UN K
Ø ¨
Ġkon soli
Ġhodow li
ĠBi orÄħc
Ġczwar tym
Ġpod rÄĻ
ĠWo la
Ġr za
Ġpers ona
B N
Ġmog ÅĤaby
Ġzawiera nych
Ġszero ki
ĠU nia
Ġpozwa nÄħ
ĠSocie ty
Ġradi owych
Ġintegra lnÄħ
ĠFran cja
Ġi mieniem
jÄĻ ciu
Ġniewiel kÄħ
Ġni skich
ĠosiÄħg nÄĻÅĤa
Ġnaj wiÄĻcej
19 72
Ġregu ÅĤ
ran Ã³w
ĠK RY
Ġsil nie
AD ZENIE
Ġniewy starcza
Ġwar stwa
Ġh okej
Ġaspe ktÃ³w
ĠTe go
ĠPe ters
zowa nego
Ġpodatk owÄħ
ĠUsÅĤu ga
mite d
ĠciÄħg ÅĤy
ĠK y
Ġram owej
Ġw czoraj
Ġwy ce
Ġmo cÄħ
Ġsprawoz daniu
Ġwierzy telnoÅĽÄĩ
ro ku
ro dni
dza jÄħ
b em
Ġi nicj
F O
Ġre form
Ġdotychczas owej
Ġkanady jskim
Ġdoj dzie
ĠDe lega
zer w
ĠB ul
ona ch
ĠOb ro
nia nych
ĠmiÄĻ ÅĽnie
Ġspo krew
Ġmi ÅĤoÅĽÄĩ
ĠmiesiÄĻ czne
d lenia
Ġba za
R ach
ĠzaÅĤo Å¼enie
c ci
Ġusta wi
Ġobywatel stwo
Ġwymieni onymi
ĠT ÅĤu
M T
Ġjednoraz owo
Ġfunkcjon uje
ÅĤ kÄĻ
ĠrozpoczÄĻ to
Ġuzgodnie nia
ĠD ow
ĠNi niejsza
Ġzasadni czej
Ġniez wiÄħza
ia gno
ĠFa ir
Ġopie ce
Ġpowie rzyÄĩ
rÃ³d mie
Ġobejmu jÄħcej
Ġuzyska niem
Ġpowro cie
Ġoto czenia
Ġ18 1
Ġnie jedno
b lÄħ
ĠPowietrz nych
Ġpubli kacje
Ġprzekro czenia
Ġspor t
Ä Ľ
ĠwystÄĻp Ã³w
Ġ2 15
ĠmyÅĽ lÄħ
Ġczu j
Ã Ĺ
Ġskory g
o pis
F ir
ĠpiÅĤ kÄĻ
ĠbieÅ¼ Äħcym
ĠÅģ om
Ġstw orzyÅĤ
ĠsÄĻdzi Äħ
ĠJed na
Ġrewolu cji
dy re
Ġ Ø§ÙĦ
Ġwy wiera
CZ NA
Z miana
Ġbezpie czne
Ġaktual nego
ĠwystÄĻp owaÄĩ
Ġanek su
Ġupo ÅĽle
Ġk w
ĠwspÃ³ÅĤczes nych
Ġkana le
ĠIn ve
Ġjurysdy kcji
Ġwy prowa
ĠzaÅĤoÅ¼y cielem
Ġt ri
ĠobowiÄħz kowego
* .
Ġobro ÅĦ
Z ÄĦ
ĠWielko polskiego
] )
tro l
ĠKo nie
OR ZY
Ġref unda
T ÃĵW
Ġkancelar ii
Ġze sz
ĠkrÄĻgosÅĤu pa
ĠP ytanie
I le
ĠG et
daw niej
Ġu czenia
ĠPla nu
) ?
ĠWy brze
Ġfunk cjÄħ
Ġuczestni czyÅĤ
Å Ļ
Ġf lu
ĠwÅĤo sy
ĠMo Å¼liwoÅĽÄĩ
Ġnasto la
Ġchroni onych
to maty
Pre ze
ĠpaÅºdzier nik
ÅĽ lÄĻ
CA CH
ĠKlie ntÃ³w
Ġwy pu
Ġbi lan
ĠLe s
ĠHenry ka
AT E
Ġ17 9
Ġregiona ch
Â Ļ
Ġklima tu
Ġprofi laktyki
Ġga raÅ¼
Ġkwarta le
cze n
ĠE mery
ĠEd warda
Ġposta cie
tu jÄħc
ĠporÃ³wna nia
Ġf rak
Ġbryty jskich
ĠtÅĤuma czenia
ĠzakÅĤad owym
ĠukoÅĦ czone
Ġje dzenia
ĠÅģuka sz
dow Ã³d
Ġsp rÄĻ
ĠT ED
Ġkolej no
ĠprzedÅĤo Å¼enia
Ġkorzysta jÄħc
Ġutworzo no
ĠNadz wyczajne
ĠAd woka
Ġlub i
wa ni
È Ļ
ĠHar ry
ĠpoÅĤo Å¼enia
kÅĤa danie
je Åºdzie
K W
Ġdysp onu
Ġprzekazy wanie
ĠrÃ³wno zna
Ġgenera ÅĤ
ne nta
ĠS om
ĠujÄĻ te
Ġwykry wania
ĠgÅĤÄĻbo koÅĽci
Ġli tery
Ġgrupa ch
ĠNi ger
Ġnaj mÅĤod
ĠchrzÄħ szcza
uzu la
ĠokreÅĽla Äĩ
ĠskrzyÅ¼ owania
CZ O
Ġprze nieÅĽÄĩ
wiÄħza nia
ca ra
Ġprzezna czonej
Ġwieczy ste
Ġprzed si
Ġreferen cje
Ġ22 5
ĠE ta
Ġopera tor
Ġsekre tarz
Ġe l
ĠLi cen
Î ·
ĠmajÄħ ca
Ġs cenie
ĠBer nar
ĠBiaÅĤy stok
Ġce nach
ĠG ÅģÃĵW
ĠSPOÅģE CZNEJ
Ġo ch
ĠJ ÄĻzy
ĠWie rzy
Ġzanieczy szczenia
cj one
Ġpot ÄĻ
Ġtrze ma
ĠG ÅĤo
ĠzaÅ¼a lenia
Ġces arza
Ġowo ce
tar iusz
Rob ert
lÄħ t
zu jÄħcym
ĠMar i
ĠoÅĽwiad czeniu
ĠEurope an
ki o
kom Ã³r
Ġproce sem
Ġspra wi
Ġopu ÅĽciÅĤ
ĠIndia n
ĠPK WiU
C i
Ġwiel ki
Ġ14 7
i dae
Ġb ier
Ġprzedmio towy
Ġcywi lne
ĠkaÅ¼ demu
prawdopodob niej
ĠCha raktery
Ġpoli sy
Åº woÅĽci
Ġcho le
ĠAnto nio
ĠWal nym
Ï Ģ
mieni one
s la
Ġspowod owana
Ġpol skÄħ
si li
Ġkry tykÃ³w
ĠwskazÃ³w ek
S am
Ġsche ma
ĠinÅ¼ynie rii
ĠwyjÄħtk owo
Ġu ÅĤa
Ġpoz or
Ġpo sa
Ġlod Ã³w
co u
ĠD etroit
Ġnieo kreÅĽlony
ĠwspÃ³lno towego
Ġprokura tury
Ġpart nera
ĠF all
Ġmu ze
ĠMarszaÅĤ ka
Ġprzeciw cia
Pier wszy
Ġwy to
Ġpoprzedza jÄħcych
ia nt
ĠYou Tube
Ġbezprze wod
ty ny
Ġtar czycy
ĠD ekla
ĠwskazÃ³w ki
Ġekonomi i
ĠI D
Ġmode le
sty cznym
CYJ NEGO
Pro du
Ar chi
Ġprzesz k
ĠAnd ro
ĠSprzeda Å¼
so ur
o lu
Ġstos owaniu
Ġwykony waÅĤ
Ġposie dzenie
Ġbiznes owych
ĠpoÅĽ lubi
ĠMiÄĻdzynarod owego
ĠOd kry
Ġ| |
ĠzastÄĻp ca
M B
Ġs odu
Ġme dale
Ġele mentami
ĠP owi
ĠH art
Ġu czeÅĦ
Ġad no
Ġmod li
Ġfa kty
ĠD Äħb
Ġdem on
Ġposiada jÄħca
ĠmÄĻ Å¼em
bit rÃ³w
Ġautob u
Ġpo Å¼
ĠCa ro
Ġzrealizowa ne
gÃ³r za
za ÅĤoÅ¼y
ha na
ĠWartoÅĽci owych
Re asumujÄħc
ĠChrystu sa
Ġspor towego
ĠWy daje
ĠspÃ³ÅĤdziel cze
ĠFi ladel
Ġostate czna
Ġposiada czy
Ġtowar owy
Ġbadaw czych
Ġwa gÄĻ
ĠStaro stwa
str owie
ĠROZ WO
Ġta le
u da
Ġ2 11
ĠskÅĤadni k
Ġwej ÅĽÄĩ
Ġudzie lona
Ġbraku je
di on
ĠBiu rze
et te
Ġna cisk
ĠZa miast
Ġwydaj noÅĽÄĩ
Ġde dy
Ġ19 02
Ġod bi
Ġegza minÃ³w
ĠspoÅĤeczeÅĦ stwie
ĠZA WOD
Ġwyra Å¼onej
ĠksztaÅĤ cenie
w raz
wers ja
ĠDo ug
Ġpocz towych
wo jewÃ³dz
ĠRe al
ĠkrÃ³tko termin
bur gh
w nik
Ġbadaw czo
Ġspraw dzenie
ĠnastÄĻpu jÄħco
Ja ki
Ġdyrektor Ã³w
bie ÅĦ
Ġorganizowa nych
Ġin su
Äħce mu
Ġ( -
da lu
kowa ÅĤa
Ġwszech stro
ĠMe chani
wi na
wa gÄĻ
Ġwyraz iÄĩ
Ġnatura lnym
Ġprzedszko li
ĠkoÅĦ cem
â Ħ
ĠsÄħsie dztwie
Ġniedzie lÄĻ
Ġniewy korzysta
czy ny
ĠA posto
Ġop cje
Ġwez waniem
od zy
R T
ĠNa vy
Ġrozwo jem
wa nymi
Ġan kie
Ġprzewidzia nym
ĠC PV
ĠÅļ w
ĠRe jestr
Ġrzeczywi stego
ĠHo ckey
sie nia
Ġprzesy ÅĤu
Ġzawod owa
Ġbibliote ki
L D
Ġwy mar
Ġmie jskie
Ġzale ceÅĦ
nia jÄħc
ok racji
os ÅĤowa
W W
Ġtempera turÄĻ
Ġs ceny
Ġweteryna rii
wia nie
Ġnaru szeÅĦ
Ġzasadni cze
ran d
ist ory
ĠWY BOR
Ġskontakt owaÄĩ
i ght
Ġwzro stem
Ġzbior owe
Ġzasad ne
Ġregulu jÄħcych
Ġnag le
Ġprze mian
ĠdziewiÄĻ ciu
Ġwykro czenie
Ġzni szczenia
Ġkatoli cki
S ko
s ej
ĠH un
Ġwyzna czonych
Ġma terii
ĠWewnÄĻtrz nego
ti ce
N ad
Ġzach owuje
Ġrodzi cami
Ġdwie ma
Ġpolity ce
p son
Ġrozsze rzenie
Ġi ra
Ġwprowa dzona
Ġety kie
ĠB and
Ġkonfli ktu
ĠprzywrÃ³ cenia
ĠpiÄĻ tro
d wu
Ġprowadz Äħcej
Ġsukce su
Ġwod nego
ĠodnoÅĽ niku
czÄħ t
Ġpro simy
t ie
th an
ĠKonsu mentÃ³w
ĠprzedsiÄĻbior cÄħ
Ġ12 00
ĠrÄĻ kÄĻ
ĠzajÄĻcia ch
na s
Ġszyb ciej
Ġro gu
z bi
ĠpiÅĤkar ska
Ġdwu kro
ĠI gna
ĠSza now
Ġwej ÅĽci
ĠzakoÅĦ czone
la ss
Ġso jusz
g g
ĠS KO
rz ut
Ġzajmu jÄħc
h ony
Ġla sach
v on
ĠM ED
Ġmedia ch
Ġekspery menta
Ġwycofa nia
ĠBra ÅĤ
Ġgospodar owanie
Ġa sorty
Ġsytua cjÄħ
ĠRoz wiÄħzywania
lew ski
ĠmÃ³z g
for nia
ĠZe bra
ĠBydgo szcz
Ġpropozy cje
ĠA zerbej
ĠwczeÅĽniej szego
Ġpod niÃ³sÅĤ
ĠmiesiÄĻ cznych
b ow
da nÃ³w
Ġod pisy
ĠwÃ³j ta
M an
Ġzna nej
Ġs nu
ĠRuch u
Ġob raca
U rzÄħd
Ġproces owych
Ġprze k
Ġ5 35
ĠU L
ĠpowoÅĤa nie
âĢĿ [
Ġzasadni czego
Ġwymia rach
Ġwymieni Äĩ
Ġwystawia nia
ĠRy zyko
D em
Ġdora sta
ni czÄħ
Ġni ÅĿ
ĠPracow nik
ĠRy b
trze Äĩ
ĠpoÅĽwiad czonej
ma ns
Ġ20 5
Ġwykonaw czym
Ja mes
ĠEx press
s an
Ġdyrektyw Äħ
ĠprzysÅĤugu jÄħcego
Ġbia ÅĤy
ĠOrga ny
ĠdziesiÄĻ cio
logi cznÄħ
Ġdostar czenie
Ġmusie li
ĠR ek
ĠTe am
ĠZa u
ĠPiÅĤ sud
ia ng
dni o
Ġof ia
ĠZAMAWIA JÄĦCY
Ġkal kulacji
pow szechni
Ġmeta lu
ĠCh urch
Ġstra Å¼y
dzi na
Ġwyso ce
Ġprzy jaz
Ġpoda nych
ĠSpor ts
Ġof e
Ġkierow nikiem
ĠnastÄĻp ne
ĠÅļwiad czeÅĦ
Ġrealizowa Äĩ
Ġta bela
wi ch
ĠPre zydium
W spÃ³ÅĤ
ĠF ield
Ġzajmu jÄħca
ki na
Ġsz kla
bie go
Ġdo lno
Ġklient om
Ġmu szÄĻ
Ġinforma cyjnego
Ġuzna wania
ĠF eli
ĠÅ»y cie
Ġmo jÄħ
Ġemi sy
Rze ka
Ġwy sta
Ġwyra Å¼ona
nia ÅĤ
ĠT im
Ġstra j
ĠCoun try
Ġniezgod ny
ĠDZ IAÅģ
ĠodrÄĻb nego
âĢ ļ
Ġdzie lÄħ
Ġuzyski wania
ĠObli gacji
Ġorganiz mie
Å¼ sza
ĠM P
ĠBa za
ĠwiÄĻk szego
Ġek ranu
ĠporzÄħd ek
Ġregulu jÄħ
ĠzgÅĤo szeÅĦ
por ÄĻ
Ġangiel skiej
ĠGospodar czy
Ġunie szkodli
pli ka
Ġniemie ckie
Ġumow ne
Ġpozosta ÅĤej
PY TANIE
Ġ189 8
ga nie
kow skim
Ġroz miaru
Ġw pisy
ĠZa mo
sz onÄħ
ĠobowiÄħzu jÄħcÄħ
Ġza ktualizowa
ĠupÅĤy nÄħÅĤ
Ġpo rzu
ĠH D
ĠMe dalem
ĠTe ren
i th
ĠB ad
Ġbank owej
Ġuro dziÅĤa
Ġo kie
Ġlo ja
dy nek
P eÅĤ
Ġpropon uje
Ġob cej
ur s
Ġszko lnej
Ġwojs kowym
Ġobli czyÄĩ
feren ce
Ġru mu
Ġpra gnie
ĠszczÄĻ ÅĽcie
Ġpor tal
Ġkomunika cyjnych
Ġu twar
Ġreje strÃ³w
ĠpoÅĤudni owych
ĠPro blem
ĠV ie
Ġsp rin
Ġoce a
Ġwidz Ã³w
Ġrozgryw kach
Ġnale ÅĿy
orga n
ĠSÅĤowe nii
Ġv s
Ġskrzy dÅĤa
ĠP lus
Ġopisa nym
ĠPa s
ĠU tah
Ġubezpie czeniem
Ġzatwier dzony
ĠK r
ĠK rysty
Ġz bie
ĠGa zeta
ĠSoli dar
ĠzarzÄħ dzenie
ĠdoÅĽwiad czeÅĦ
ĠS cience
te czne
ĠAnto ni
Ġra cji
Ra port
Ġinstru mentu
CP V
Ġoznacza Äĩ
re f
Ġproduk tach
ĠzaangaÅ¼ owania
Ġnie jas
wier Äĩ
Ø ³
Ġwychowa wczych
Ġumie ra
ĠV is
k l
Ġbudowla nym
Ġu jÄĻcia
ĠkoÅĽcie le
Ġkolej nÄħ
Ġindy jski
Ġra mienia
Ġpseudonim em
P ar
Ġpo prowa
Ġ189 6
Ġprze ÅĤa
ĠGa la
ĠwypÅĤa ta
Ġanty bio
Ġog rÃ³d
ĠniezbÄĻd nymi
Ġzam ku
ĠÐ ľ
ĠWiel kie
ĠStatu t
Ġcudzoziem ca
Ġcertyfika tÃ³w
ĠKlu bu
ĠczÅĤonko stwa
ĠJez usa
ĠzarzÄħdza niu
Ġprzy dom
ĠbyÅĤy by
ĠF ord
ĠR EK
Ġa ktora
ra cjÄĻ
Ġna kazuje
o pa
ĠprzeÅĤo mie
u dy
ĠKiel ce
ĠAr ty
Ġkur czaka
ĠksiÄĻg owego
or dyna
ĠnaleÅ¼a ÅĤoby
Ġstrze liÅĤ
ĠMetro poli
ĠCel nej
ĠTF UE
Ġnau kowego
Ġhod owla
Ġkierowa Äĩ
Ġstudia ch
Ġindywidual nym
ĠM W
Ġ22 1
li st
Ġ18 5
Ġlicen cjÄĻ
Ġpodlega jÄħcego
li ÅĦski
P ie
Ġnoc leg
ĠÐ ļ
Ġuruchomie nia
ĠsporzÄħ dzona
Ġaktuali zacja
Ġtowarzy szy
ss en
ĠD C
Ġpart ia
Ġinstytu cjona
ĠÅ»y w
ĠUro dzony
A ktual
Ġczyn nikiem
Ġopieku nÃ³w
Ġa tak
Ġstatysty ki
ĠRol niczego
ĠG lobal
Ġdopu szczenia
Ġwydat ku
ĠnapÄĻ dza
Ġnada nym
Ġnatura lnie
Ġisto tnÄħ
ĠKT Ãĵ
Ġsez onÃ³w
ĠPo land
Ġbiskup em
na t
do f
Ġk le
Ġpowi kÅĤa
ĠP KO
ĠTur niej
Ġkontyne nta
ĠOdwoÅĤa nie
ĠJero zo
Ġtwo im
Ġuczestni czy
ĠO cea
Ġpomoc nik
Ġ2 19
Ġprote stu
li zacjÄĻ
Ġpo staw
Ġpierwo tny
Ġwynika jÄħcymi
Ġnegatyw ne
ĠDo rad
Ġprzewidzia ny
Ġge omet
ĠStu dia
ĠpoÅĤo Å¼onego
ĠpÅĤy n
Ġz ÅĤe
Ġtu tej
ĠkrÃ³t kie
Ġpis arza
Ġster owania
ĠNie mie
kaza nie
ĠThe atre
ĠskÅĤada nych
Ġszko da
ĠHam p
Ġpowie dziaÅĤa
Ġu posa
Ġopublikowa ÅĤ
Ġsi ÅĤa
Ġpodziem nych
Ġmiejsc owym
ĠA h
Ġf ry
ĠDa ko
Ġzbud owane
Ġsan kcji
Ġranki ngu
Ġakcyz owym
ĠukoÅĦ czyÅĤa
Ġni ski
Ġwyj ÅĽci
de sh
Ġnaby ciem
ĠÅļROD OWI
Ġzy skach
ta ni
Ġoczywi ste
10 4
ĠpielÄĻg niarek
Ġroze graÅĤ
ĠPRZED SIÄĺ
Ä ¹
ĠdÅº wi
Ġb iaÅĤa
Ġprzy pisy
Ġpa miÄħ
nie mie
ĠPi Äħ
ĠpowaÅ¼ nie
Ġlu ty
Ġnie samowi
mu jÄħce
Ġmo nar
Ġwywo ÅĤuje
ĠÅĤat we
Ġszef em
Ġwymieni onego
ĠokrÄĻ tÃ³w
B ur
el la
ĠsÄħd owi
ĠÅĽ ru
ĠzaÅĤÄħcz nikÃ³w
ĠWi os
Ġzie miÄĻ
Ġustaw owo
Ġmechaniz mÃ³w
ĠG Ã³
Ġopa kowaÅĦ
Ġprzeprowa dzonego
ĠpieniÄĻÅ¼ nym
t in
Ġdzienni karz
Ġ @
Ġupad ku
Û Į
Ġw noszenia
Ġcyfr owych
Ġegzemplar zach
S to
ĠL or
Ġkonserwa tor
Ġprawomoc nym
ĠDru k
Ġar genty
ba ck
Ġlekar ze
Ġludzi om
ĠPoz iom
ĠdÅĤu g
ĠPOD AT
Ġwie prz
Ġja b
Ġpodzie la
Dz iaÅĤ
Ġaktor ki
Ġrozwoj owych
ĠC mentar
ĠSÅĤowa cji
z osta
ĠZG ROM
Ġopera cyjne
Ġha sÅĤa
ĠDOKU MEN
Ġprawdopodobie ÅĦstwo
Ġwierz cho
ĠpÅĤat nik
Ġrza dziej
ĠIn die
RZE DA
Ġod nieÅĽÄĩ
Ġo dzieÅ¼y
Ġa muni
Ġmi ar
Ġosob ach
Ġuczestni czÄħcych
ĠBibliote ka
Ġszans e
k B
ĠSpo tka
Ġadre sy
ci nek
qu a
ĠzaÅĤÄħ czeniem
Ġsu chy
Ġwiel kim
Ġopodatkowa nie
Ġklini cznych
Ġziem nego
ĠoÅĽwia towej
Ġu bÃ³
ĠPR L
Ġwpisa na
Ġryn kowych
ĠKobie t
g ary
ĠStefa na
Ġidentyfika cjÄĻ
ĠÃ ī
wen cje
Ġdot Äħd
ĠIB PB
skryp cji
ĠMa ine
ĠPrzy ja
ĠSÄħd em
ĠwspÃ³ÅĤ Å¼ycia
Ġwy wal
Ġprzyzna wane
ĠdziaÅĤa jÄħcego
ĠGdaÅĦ ska
Ġpan cer
l skiego
ĠdziaÅĤa niu
Ġdoj ÅĽÄĩ
Ġokoli cach
chro na
ĠSe attle
Ġzrobi ÅĤ
Ġsil ne
Ġsamodzie lnych
ĠZa tru
ĠS M
Ġposia d
sz ku
Ġzamiar em
Ġso cjo
Ġzmierza jÄħcych
v Ã¡
ĠbÄĻd Äħcym
ĠI Z
ve land
Ġfunkcjona riusz
ĠP iÄĻ
Ġ7 49
ĠD wu
ĠG MIN
TU RY
ĠK h
niej szego
Ġzaw arto
Ġak cie
ĠP in
Ġdokonu jÄħc
ĠWe teryna
Ġkonkre tnie
Ġtwoje go
Ġmi le
ĠwewnÄĻtrz nym
sprzeda Å¼y
Ġzas iada
lety n
ĠÅļlÄħ ska
ĠPla cÃ³w
Ġstadi onie
Å¼e Äĩ
K la
Ġwy wia
ĠÅ ¹rÃ³d
cze b
Ġniewiel ka
ĠkÅĤo po
Ġkana ÅĤÃ³w
ĠSk rzy
ĠujÄĻ ciu
ĠZna czenie
Ġinstala cje
Ġpierwo tnej
Ġwyposa Å¼one
Ġabsolwen tÃ³w
Ġpomi ja
Ġzawie szenie
ĠÅº le
obi le
ĠsamorzÄħd owej
I F
ted ry
ĠUni ver
Ġ189 0
Ġchorob owego
Ġmar zec
Ġopera cyjnej
Ġponi Ã³sÅĤ
Ġw torek
ĠWZ ÃĵR
ĠROZWO JU
Ġreali zujÄħcych
Ġreligi jnych
wy miar
ĠA bra
ĠwiÄħ Å¼Äħ
Ġmniej szym
ĠuwaÅ¼a jÄħ
ĠStru ktura
âĦ ¢
ĠG E
ĠÅĽ li
Ġcz o
ĠNa sze
Ġab ona
10 6
ĠRe habili
ĠzastÄħpi ÅĤ
Ġro czna
ne ta
ĠpieniÄĻÅ¼ nÄħ
iu sza
ĠOpera tora
Ġs ery
Ġwychowa wczego
ĠGa tunek
b on
Ġgrani ca
wzglÄĻdnia jÄħc
Ġlekar skiej
Ġstadi on
b ski
Ġprac ujÄħcych
Ġakademi cki
Ġa lo
ĠAK CYJNA
s no
ĠB ene
ĠKlu cz
ĠoÅĽwiad cza
ĠJ ona
Ġznajdu jÄħcego
Ġsta wu
O TU
Ġperspek tywie
ĠO publikowa
twarza nie
Ġu chwy
ĠGospodar czego
ĠÂ «
Ġzrozu mienia
Ge or
mieszcza nie
da cja
Ġkra dzieÅ¼y
Ġge ologi
Ġofice rem
ĠU O
Ġobiek tach
10 5
or dy
szaÅĤ ek
ĠChor wacji
Ġwyzna czonego
Ġpremie rÄĻ
cze w
ĠCho dzi
ĠupowaÅ¼ niony
ĠThoma sa
Ġrent owe
ma teria
Ġsy pia
Ġpre ju
Ġszans ÄĻ
d ri
ĠPeÅĤnomoc nictwo
Ġno sa
ĠGenera l
t ÅĤo
Ġprzedstawi cielem
Ġcel owej
ĠAD MINISTRA
ĠNA J
Ġwynika jÄħca
ĠponiedziaÅĤ ku
ĠprzesÅĤucha nia
Ġh al
ĠM us
L P
ĠUSTA WY
Ġutra tÄħ
ĠWiÄĻ zie
ĠNor ma
Ġnadzor czej
ĠH owar
Ġpopraw ek
Ġpo kÅĤadzie
f Ã³w
ĠPo ja
ĠÅĽrÃ³d lÄħd
he ad
ĠBe st
âĢ ²
Ġwy ciÄħg
ĠÅĽwie Å¼y
ĠrÃ³Å¼ nym
Ġwykona no
Ġpowie rzenia
Ġ16 6
ĠB Ã³g
Wy nagro
Ġotrzymy waÄĩ
no l
ly n
ĠPaÅĦ stwie
Ġprywa tny
set ki
ra Åº
h in
Ġmusi my
ĠnakÅĤada jÄħ
ĠogÃ³ ÅĤu
ĠDefini cje
Ġ23 4
ÅĤa cu
Ġab stra
Ġczwar tek
ĠT AK
Ġli te
NIE J
ĠDal las
Ġjesie niÄħ
Ġtrady cyjnych
Ġpowszech ny
H er
ĠNaj ÅĽwiÄĻt
ĠHa y
ĠU zna
bezpie czenia
Ġstatysty cznych
Ġwez waniu
na z
o ÅĽ
ĠProfi laktyki
e a
Ġzarejestrowa nym
Ġgo dnoÅĽci
Ġotrzyma nie
Ġwybu chu
Ġko ali
Ġch cieli
ĠzaÅĤÄħ czyÄĩ
ĠSamorzÄħ du
Ġnapisa ne
ĠpodrÄĻcz nikÃ³w
Ġpokona ÅĤ
ĠMa ja
ĠKonstytu cjÄħ
ĠJa cka
C KI
ĠkomÃ³r kach
Za kres
Ġawar y
Ġdowod em
ĠwstÄĻp u
Ġsamolo t
Ġt an
Ġpotrzebu jÄħ
f la
ĠokrÄĻg Ã³w
P ytanie
Ġs wym
Ġtran zy
Ġprocedu rze
Ġdzia ÅĤÃ³w
ĠE C
ĠIndone zji
ĠPoÅĤudni owo
owi cza
Ġnauczycie lem
ĠW er
ĠSkÅĤad ki
Ġzamie nnych
ĠDOTYCZ ÄĦCE
Ġprogra mi
ĠOS ÃĵB
ĠÅĤÄħ czenia
ĠSiedzi ba
ĠstanowiÄħ cÄħ
god ne
Ġprze sie
ĠmaÅĤÅ¼eÅĦ stwo
wÅĤa szcza
Ġbisku pa
Ġproduk cjÄħ
ĠIndy widual
ĠpoÅĤo Å¼enie
Ġgrzy bÃ³w
AD ZENIA
Ġbieg nÄħ
ĠZa j
ĠspÃ³j noÅĽci
bo l
ografi czne
ĠHa wa
ĠSÄħd owi
Ġza mÃ³wi
Ġprzewi du
Ġpo spo
Ġza trzymuje
ĠJu li
Ġuder zy
ĠchÅĤop cÃ³w
niÄĻ to
in ÄĻ
ĠSa mu
ĠKaro lina
ĠPuch arze
Ġusta li
ĠkÄħ pie
Ġm Äħd
ĠOsta tecznie
Ġkontakt owe
Ġ lÄħ
Ġunij nego
i te
ĠPod stawy
Ġprzeprowa dziÅĤ
roz woj
Ġnauczycie le
Ġzagro Å¼onych
Ġwiel kie
ĠGÅĤÃ³w ne
Ġkonkur sÃ³w
ĠGre at
ne st
Ġgra wi
Ġpla y
pre zyden
Ġja ski
Ġzbior owym
j nie
ĠcaÅĤkowi te
sk et
ĠGÅĤÃ³w nej
ĠS ali
Ġpoda jÄħc
ĠColum bia
T RZ
ĠWia dom
Ġobywatel skich
ĠK in
Ġkrwi onoÅĽ
z dr
li ce
Ġodno towano
ĠzwiÄħza nymi
ÅĤow ski
ĠRob in
Ġ va
Ġro czni
ĠdokÅĤad ne
Ġeta tu
Ġregiona lnego
k rÄĻg
Ġpobra nych
Ġkoncent racji
ĠSer bii
Ġzbro dni
ĠspeÅĤnia niu
Ġdia logu
Ġofert owy
Ġmili on
Ġzamawia jÄħcemu
at rze
Ġustanowi ony
Ġadmini strowa
Ġpow ÅĤo
ĠBow l
ĠToru ÅĦ
Ġdostaw Äħ
Prze pis
Ġi d
Ġkontrahen tÃ³w
tyw nym
Ġprzysz ÅĤe
ĠU rzÄĻ
ĠskÅĤadni ka
Ġuli ca
ĠWÅĤo chy
ĠpopeÅĤ nione
ĠA re
ĠÅĽrod kowo
Ġwykaza nie
ĠÅĤa go
Ġpo ka
Ġbase bal
ĠSo u
ĠbieÅ¼ Äħcej
Ġgo d
Ġszko lne
Ġrock owego
Ġliczy ÅĤo
Ġa mino
Ġucze lnia
ĠprzyjÄĻ ÅĤa
ĠH amil
Ġw cale
Ġzmieni one
Ġpodlega jÄħcy
Ġje dzenie
N P
p ri
Ġpo kÅĤad
ĠprzedsiÄĻwziÄĻ cie
Ġk W
Ġfran czy
fika cjÄħ
ĠUbezpie czeni
ĠZie lona
Ġod stÄħpiÄĩ
fikowa Äĩ
Ġtrwa jÄħ
Ġpozytyw ne
cha Äĩ
Ġwielo funk
liza beth
Ġdo myÅĽ
al no
ĠtwÃ³r czoÅĽci
ĠStu dium
Ġ189 9
czy ka
G P
Ġtra fia
Ġewa ku
z dy
we l
Ġdora Åº
Ġo mÃ³wi
Ġrzeczywi sty
Ġnegatyw nych
Ġsztu ce
ĠSte fan
ĠW ÃĵJ
Ġprywa tnej
ĠU zasadnienie
ĠB roni
ĠUczest nika
ĠPOSTÄĺP OWANIU
Ġnaz waÅĤ
ĠOprac owano
RU CHO
Li czba
Ġredu kcji
Ġtech nika
I C
Ġuzna no
za ne
ĠObsz aru
ĠBea ta
ĠMiÄĻdzynarod owej
Ġstuden ci
w nej
Ġh am
pi ÅĤ
lizowa Äĩ
ĠSena t
Ġza biegu
tera peu
ĠzaÅĽwiad czeÅĦ
ĠdÅĤuÅ¼ szym
ĠMIE SZKA
Ġdo danie
Ġ189 5
Ġprzech owuje
ĠOgÃ³l nie
th o
Ġeduka cjÄĻ
Ð° ÑĢ
ĠcÃ³r kÄĻ
Ġczar ny
Ġforte pia
Ġdoktry nie
Ġsty le
Ġbra kÃ³w
ĠSy tuacja
ĠM Åļ
) ...
Prze budowa
Ġkon tu
ĠPar ty
we ren
ĠE s
p ing
Ġharmono gramu
for mie
Ġch mu
czÄħ cÄħ
Ġzmieni ona
i nicj
Ġk res
Ġwybra nego
t owie
ĠurzÄħdzenia mi
Ġpod legÅĤych
za tor
ĠO bo
Ġbez zasa
ĠdziaÅĤ kach
Ġpo czucie
ĠMana gement
ĠD RO
Ġsta cje
Ġkomis jÄĻ
Ġochro nnych
Ġigrzy sk
ĠW ersja
Ã© e
Ġs fery
SZ KO
ak er
Ġkomple mentar
Ġnasi ona
Ġp iel
Ġmieszkani owym
Ġlu Åº
Ġzawiera ÅĤa
kow skiej
Ġko dy
Ġwizeru nku
gniÄĻ ciu
nt i
ke s
Ġskie rowania
Ġm undu
Pa nie
Ġpo ta
chi um
Ġo stry
Sz czegÃ³ÅĤ
RU M
Ġposzuki wania
ĠPi ÅĤki
ĠcaÅĤkowi ty
Ġd um
ta lia
ĠNe va
K siÄĻg
ĠG on
Ñ ĩ
Ġoce nÄħ
Ġmedy cznÄħ
Ġhy bry
Ġreklam owych
ca ne
li g
ĠPo ÅĽredni
Ġzam ek
ĠnajbliÅ¼ szej
ĠMar iusz
Nie ktÃ³re
Ġmor skie
ĠPa la
ĠTe st
Ġ189 7
Ġog nia
Ġodnawia lnych
Ġnorma lne
ĠWielkopol ski
Ġ17 4
ĠodpÅĤa tnoÅĽci
Ġh indu
Ġzapozna nia
t ko
Ġ36 1
Ġpe ty
Ġpan owania
ĠWysp y
Ġzawod owo
Ġuzna jÄħc
ĠMiejsc owoÅĽÄĩ
ĠAustra li
Ġgra mÃ³w
Ġza biera
Ġprac ujÄħ
ĠudostÄĻpnia nie
Ġama tor
Fran cu
Ġinsta lacja
ĠAu stria
ĠWspÃ³l ny
mo Å¼e
mu jÄħcej
ku m
Ġodby wania
Ġdwu na
ĠB URMIST
Ġmie nie
Ġpreju dycja
ĠGa br
Ġinstru ment
ĠpÅĤy ta
Ġge o
Ġul g
Ġw stÄħpiÅĤ
c re
Ġtrans grani
Ġofert owe
ma gne
ĠUbezpie cza
ko rea
Ġutrzyma niem
Ġnazwi sku
Ġfi ction
ĠPracow nicy
mia rach
Ġwie czo
Ġorgani zowanie
Ġpla c
m pi
il y
Ġryn kiem
lo ro
a p
ĠPeÅĤ niÅĤ
tar gi
w nego
ĠO ak
ĠnastÄĻpu jÄħcej
ĠzakaÅº nych
Ġ/ >
Ġwczes nego
ĠSto ne
Ġaresz towania
ĠD ur
Ġz jedno
ĠzaÅĤo Å¼yÄĩ
za cyjnego
Ġup rzy
Ġisto tnie
Ġintelektual nej
go s
twie nie
rod kÃ³w
E k
s na
Ġwykonu jÄħce
ĠArchi wum
Ġwyemi towany
Ġkobie tÄħ
Ġorgani zowania
ĠA kty
Ġzaniecha nie
Ð¾Ð² Ð¸Ñĩ
ĠSpraw dÅº
Ġu rz
ĠBo ston
Ġarty stycznych
ĠMini ma
Ġ19 2
Ġtechni czno
Ġod miany
Ġegzeku cyjnym
Ġlo tÃ³w
ĠÅ¼y Äĩ
Je go
Ġrozpatry wania
Ġinstytu cjÄħ
Ġ189 3
K lasy
Ġt rzÄĻ
ĠEuropej skim
Ġreda ktorem
Ġdokona ÅĤa
ĠInstytu cja
bur n
Ġprogram owania
Ġryn kach
Ġ ery
KaÅ¼ dy
ĠPi tts
ĠB O
Ġnaj wczeÅĽniej
zo nie
ĠWy danie
ĠG Ã³ry
Ġstypen dia
Ġzawie szeniu
on da
ĠDe la
ĠKonsu ment
d Å¼a
dza jÄħc
Ġdo pÅĤaty
fi zy
Ġnaczy nia
Ġzbior nikÃ³w
ĠU CHWA
ĠOkrÄĻg owej
ĠOB WIESZCZENIE
ĠprÄħ du
Ġmo ÅĿ
ĠArt s
ĠÅĽwiÄĻ ta
Ġpochod nych
ch ali
ĠAma zon
10 2
Ġdostos owanie
Ġzgo dziÅĤ
c owi
siÄħ Å¼ka
ĠRe gu
ĠHigh way
Ġde te
ĠBar ce
Ġce lnych
Ġsma ku
ĠU su
Ġjaki mi
Ġinter pe
Ġarty lerii
Ġwa ga
Ġprowadzi ÅĤa
Ġostro Å¼noÅĽci
Ġwojs kowÄħ
Ġod biega
ĠE ko
Ġkredy towego
Ġwy wiadu
ÃĤ ÃĤ
Ġ15 8
Ġzau tomaty
ĠwspÃ³l nicy
Ġprosto kÄħ
ĠksiÄħÅ¼ kÄĻ
Ġchroni one
Ġkoli zji
ga ÅĤÄĻ
ĠL ist
w ni
ĠAnt ar
Ġubezpie czyciela
ĠpowyÅ¼ szy
Ġpowsta niem
Ġdeklara cjÄĻ
Ġdefini cjÄħ
Pod sekretarz
ĠAleksand er
Ġ26 7
ĠprÄĻdkoÅĽci Äħ
ĠD J
Ġp Ã³l
Ġkomer cyjnych
ma ne
inter pre
Ġzarejestrowa na
ĠwpÅĤy nÄħÄĩ
Przed siÄĻbior
P u
ĠRos e
ST O
ĠNieruchom oÅĽÄĩ
ĠGwi nei
ĠRa do
ĠStatysty cznego
Ġprzekazy wanych
Ġzmienia nej
Wo jewÃ³dz
ĠWY D
Ġtrwa Äĩ
Ġchemi czne
Ġpu ÅĤa
ĠLi ne
Ġpostanowie niu
Ġnadzo rem
ĠA ct
Ġza sÅĤuguje
pra ca
l ki
Ġc ar
z miany
Ġponad gimnazja
ĠFormu ÅĤy
Ġklu by
ĠMa ster
Ġstatu towych
ĠwewnÄĻtrz nÄħ
Å¼ an
ĠOpi nia
ĠTER MIN
Ġponosz onych
Ġ17 2
Ġdoty ka
ĠnadwyÅ¼ ki
Ġalfa be
Ġwywo zu
Ġst res
Ġinfrastru ktura
Ġinfor mowania
ĠgÅĤos owanie
Ġf undacji
ĠcaÅĤo dob
Ġ18 00
Ġoddzia le
Ġna sion
Ġpa syw
ĠSÅĤa wo
Ġspor towej
co la
ĠÄĩ my
Ġkieru nkiem
ĠmoÅ¼li wy
Ġpowod owi
ĠE KO
Ġelektry cznego
Ġza sÅĤugi
Ġstar szym
Ġko stki
stan owi
Ġzgo dziÄĩ
Ġprac owaÅĤa
ĠU ST
ĠtwÃ³r cy
ĠTh om
ĠTere sa
nogra fi
Ġkryzy su
ĠzaangaÅ¼ owanie
Ġbud dy
ĠMeksy k
ĠzÅĤo Å¼onÄħ
G miny
ĠrÃ³wnow artoÅĽci
Ġra dÄĻ
ĠT R
Ġrodzi ca
Ġro d
ĠWspar cie
rÃ³bu j
o po
ĠSpÃ³ÅĤ ek
Ġmieszka ÅĤ
ĠVe gas
Ġwzmac nia
li on
kÅĤa dami
ĠRodzi nie
ĠBo g
ĠpowaÅ¼ nych
wor th
so Å¼y
Ġdo tacjÄĻ
ĠupowaÅ¼ nienie
Ġkonwen cjona
arz ÄĻdzia
Ġma jÄħcym
ĠpÃ³Åºniej szych
ĠFi na
ĠprzestÄĻp czoÅĽci
Ġewentual nymi
Ġse cesy
sza k
ĠnaleÅ¼ nej
Szanow na
ĠUczest nik
Ġwa pnia
ĠL en
ĠA de
Ġkome dia
Ġmeta boli
T rze
Ġre organi
Ġekspozy cji
Ġargu menty
Ġstart owaÅĤ
Ġra ba
ĠPra desh
kon stytu
Ġtrafi ÅĤ
Ġnaz wana
ĠporÄĻ czenie
Ġtu ne
SKI CH
Ġprzeka zujÄħ
ĠHill s
ĠleÅĽ nych
ĠIn du
vi Äĩ
Ġniepubli cznych
Obie kty
ĠspoÅĤe cznie
Ġinstytu cjami
ĠAth le
ĠJ ar
ĠÅģ ÄĻ
ĠB rad
Ã³r ka
ĠSa ma
O fi
Ġsia tkÃ³w
ĠLa bora
Ġmat kÄħ
Ġroz powszechni
ĠÅ¼ onÄĻ
Ġop rÃ³Å¼
>< !--
D T
ĠumoÅ¼li wienie
ĠStudi os
Ġprze jazd
ĠÅĽnie gu
ĠSer ia
ĠSP RZEDA
Ġnau kowym
Ġumo rzeniu
ĠÅĽwiÄħty ni
Ġa udio
ĠTe mat
Ġuro dzonym
Ġwysp a
g ow
Ġocze kuje
ĠszczÄĻ ÅĽli
z or
Ġkon te
Ġza powie
ĠHe art
T ur
ĠbudÅ¼e towe
Ġwyka zy
ĠAlkohol owych
Ġtej Å¼e
Ġr Ã³l
Ġte nis
Ġzgo nu
G enera
l skim
Ġtrady cyjnie
ĠUczest nikÃ³w
Ġsygna tura
ĠBUD OW
ĠA rena
Ġsztu cznych
land s
Ġpiosen karz
ĠV en
ĠRe search
Ġcy ta
Ġsil nikÃ³w
ĠD owiedz
Ġzachod nich
po ÅĽredni
Ġu ÅĤam
C ena
u a
Ġumiesz czony
Ġumie szczenia
Ġprzy s
men tacja
Ġmie jskiego
ĠZ wyczajnego
Ġmieszka lnym
Ġfrag ment
qu es
ĠPierw szym
Ġto rze
Ġodrzu cenia
Ġnad rzÄĻd
Ġpodzie lony
la Äĩ
DZIE L
Ġkoncent ruje
Ġprzeci na
Ġwie dza
Ġnotariu szem
Ġkolo nii
th ers
Ġsma k
wizyj nej
ĠStaro sty
ĠmiÄĻdzynarod owy
Ġpo eta
Ġprze ze
and ra
ĠI re
Ġminima lnych
kowa nÄħ
p kÄĻ
D ob
N S
Ġzagospodar owanie
L ek
Ġmo stu
t ies
Ġodpowiedzia lna
le i
IE L
ĠM ET
Ġobej mowaÅĤy
Ġcech Äħ
om ba
nos ci
Ġfizy cznym
Ġprzyzna no
i miÄĻ
Ġcol lege
Ġur ba
Ġprzeszk Ã³d
ĠTay lor
Ġobejmu jÄħcego
ĠMar sh
Ġzmienia jÄħcego
Ġstary ch
Ġspad kodawcy
wi zj
K ad
ĠmÃ³ c
Ġprzyzna Äĩ
Ġ22 9
Ġ22 8
ĠzatytuÅĤ owany
ĠMa gazy
re l
Ġzasob ach
Os oba
Ġkra w
Ġpoli tycznym
ĠMI NIST
ĠPUBLI CZNEGO
Ġfan Ã³w
Ġzlokalizowa ne
Ġpowo li
Ġe gip
Ġobro nie
ĠT ony
ĠZa zwyczaj
ĠjÄĻzy kach
ĠpodjÄĻ ÅĤa
Ġutru dni
F E
ste ra
rze c
STY TU
ĠA kademia
li ch
Ġprzewidzia no
ĠPa y
Ġtelefoni cznie
Da vid
ĠbezpÅĤa tnego
Ġoba wy
Ġodli czeniu
ĠÙ ħ
ĠRejon owym
Ġzwolni onych
Ġzdo ÅĤa
ow nikiem
Ġpoprze dniej
ĠSp Ã³j
li wa
no mia
Ġprzy mu
ĠPamiÄĻ taj
Ġadministra torem
ĠU niÄĻ
no ty
B er
ĠLud noÅĽÄĩ
Ġdzisiej szego
Ġzapa ÅĽ
Ġu lo
Ġma jÄħcÄħ
Ġza czÄħÄĩ
kie w
Ġh ar
Ġloka lny
ke e
ĠkrÃ³t szym
ĠpuÅĤ kow
Ġzainteres owane
ĠChan nel
Ġopera cyjny
ĠdowÃ³dz twem
ĠMa dry
H O
K P
RA K
Ġwy chodzi
Ġpozosta jÄħcych
Ġkontr ower
Ġprzy spo
ĠF le
Ġha sÅĤo
Ġnau kowo
Ġpreze n
ĠczÄħste czki
Ġpo gÅĤÄĻ
Ġwy kÅĤadnia
cy mi
Ġzajmu jÄħ
ĠZ WIÄĦ
Ġsk oru
Ġsamo ist
ĠKa mi
ĠhaÅĤa su
Ġbezrobo cia
Ġudzie li
Ġtechno logia
Odpowie dÅº
Te mat
ĠgaÅĤÄĻ zi
S prawozdanie
O GRA
Ġstar szy
Ġ24 9
Ġrze ce
Kom u
bio rze
Ġrecen zje
ĠO dno
Ġutw orzyÄĩ
Ġzgroma dzenie
v ard
ĠzÅĤo ÅĽli
Ġmary na
Ġs we
ĠTa ki
ÅĤ owym
f ar
rowa ÅĤ
Ġmate matyki
Ġprze szcze
Ġzwolni ona
Ġelektroni czne
Ġpud eÅĤ
ĠpodjÄĻ ta
o koÅĤo
Ġogrom ne
ĠStu dio
Ġfunkcjona lnoÅĽci
ĠuzaleÅ¼ niona
âĢ ľ
ĠJa dwi
Ġnajem cy
Ġzabie gÃ³w
Ġarchi wum
Po datki
ĠM ill
Ġob fi
Ġsz ar
ĠPROCE DU
Ġprzy porzÄħd
ÅĦ sk
U SA
ta my
ĠKo z
Ġpoz io
Ġprawdopod obne
ve lop
ĠD owÃ³d
Ġzapobiega nie
ĠDziaÅĤa jÄħc
sy n
Ġubezpieczeni owego
Ġznajdowa ÅĤy
Ġozna kowania
m el
ĠU czni
Ġ _
Ġtenden cjÄĻ
Z NA
B UD
por z
u stro
ĠKsiÄĻ ga
Ġul tra
ĠkoÅĦ cÃ³w
P owÃ³d
Ġbia ÅĤo
in ci
Ġpo sad
Ġran gi
ĠFOR MULARZ
Ġwyda waÄĩ
Ġlikwida cjÄĻ
Ġtrzydzie stu
Ġwska zywa
Ġinfrastruktu rÄħ
ES PO
Ġorganiza tora
Ġinterpre tacje
10 3
Ġmateria lnych
ÅĽ l
ĠPrze mysÅĤ
ĠUÅ¼y j
A merica
ĠmÄĻ skiej
Ġp Ã³
Ġwprowa dzeniem
Ġstoli cÄħ
ĠNaz wisko
Ġdystry ktu
pÅĤa tÄĻ
gie go
ĠmiaÅĤ by
ĠWa le
Ġakademi ckim
Ġeta pÃ³w
Ġinterpre towaÄĩ
Ġpisem ny
Ġtram waj
mi ku
Ġpowia towego
ĠWaÅĤ brzy
Ġspecjali sta
Ġdy s
ĠDo c
ck en
li nes
Ġdo mach
ĠprzesÅĤa nie
S ing
ca m
Ġnegatyw nie
ĠMÅĤo dzieÅ¼y
Ġpo noszÄħ
H en
Ġporozu mie
Ã³w ka
ĠPodat nik
ĠEx cel
SP RA
ĠS ma
ĠPod obne
ĠJour nal
Ġwyra Å¼onÄħ
ĠrÄĻ ko
Ġpraw no
Ġzaka Å¼enia
Ġchole stero
Ġkaden cjÄĻ
Ġfa cto
ĠSzko lenia
Ġsz pi
Ġdo sÅĤownie
datkowa nie
Ġre zolu
Ġniepraw dzi
ĠPra kty
45 10
Ġaktor kÄħ
Ġkrykie ci
Ï ħ
S an
Ġobie kcie
Ġfak tem
ta tion
M iÄĻdzy
ĠMia ÅĤ
Ġprzeli czeniu
ĠKie ru
Ġproduk cyjnych
Ġwiru sem
Ġob ud
to mi
ro czy
ia na
ĠsÅĤo ÅĦca
Ģ Ń
Ġsto mato
Ġmo tory
je r
ĠCle veland
Ki K
Ġre mi
Ġszkie le
Ġ[âĢ¦ ]
Ġspecjali styczne
ĠÅģÃ³dz kiego
dor f
ĠD ri
ĠPO T
ĠniezaleÅ¼ ny
Ġzre sztÄħ
ĠAl ber
Ġrad cy
Ġzatrudni one
dy scyplinar
H ar
ĠpaÅĦstw em
ĠWe stern
ob Äħ
Ġprzeszko dy
ĠPrze strze
Ġf ront
Ġbase ball
Ġ æ
ĠP ielÄĻg
ĠK ura
RUCHO MO
ĠdruÅ¼y nÄħ
ĠSek cja
Ġ9 26
Ġwyro kÃ³w
Ġwynika ÅĤo
Ġhi per
ĠpiÄħ ty
ĠP iÄĻk
ĠInwesty cji
Ġna sy
Ġduchow ny
ĠPowia towe
od er
Cza s
la ÅĤ
piÄĻ tr
ĠukÅĤad Ã³w
ĠrozporzÄħ dzania
ga na
ĠTeksa s
Ġna sza
Ġ20 2
Ġuprzy wilej
ck e
ĠGospodar stwa
e konomi
Ġprzyzna na
Ġprotoko le
Ġbra ci
W P
Ġs or
Ġudokumen towane
pu la
g owanie
s owym
Ġprzy kÅĤadzie
T h
ĠOCE NY
ĠD S
sty cznÄħ
Ġzaprzesta nia
Ġserwe ra
Ġrezyden cji
ber ga
Ġustanawia jÄħcego
Ġodpowiedni mi
Ġosie d
ĠspoÅĤe czeÅĦstwo
Ġstos ujÄħc
ĠW szystko
os obie
ĠHa w
p per
Ġsto pa
Ġwsp ina
Ġrze k
ĠPrzeciw dziaÅĤania
z kÃ³w
Ġtra sa
Ġko rze
Ġum arza
Ġkru szy
ĠÃ ł
12 5
Ġformular zy
ha i
ĠpeÅĤ nych
Ġobywate le
Ġinne mu
ĠN aru
p he
Ġnaz iem
ĠW lk
Ġalimenta cyjnego
ĠD ubli
d ÅĤem
ĠZdoby ÅĤ
ĠO stro
ĠOkla homa
ĠWsp iera
Ġprze budowÄĻ
tk owej
ma ni
Ġkonie cznych
n da
Ġwie dziaÅĤ
ĠRich arda
Z O
Ġnaf towej
Ġuzna nych
NIA NIA
ĠzasiÅĤ kÃ³w
ĠL P
Ġkontro lne
Ġsp Ã³r
Ġh ierar
Ġlotni sk
Ġszero kie
Ġko pi
wz Ã³r
Ġek ranie
Ġzamiesz czone
Ġprzy lega
ĠKoÅĽci uszki
Ġgospodar zem
Ġnie w
ĠÅ¼y jÄħ
Ġmili ardÃ³w
Ġof en
ĠUstawo dawca
ĠÅ¼e gl
Ġdotychczas owym
Ġby dÅĤa
Ġzaburzenia mi
tariu szy
ĠAtlan ty
k Äħd
Ġdo strze
Ġ189 2
Ġzanie dba
ĠPrzedsiÄĻbior stwa
Ġczwar te
Ġmas ÄĻ
ĠFry dery
ĠiloÅĽci Äħ
Ġgen Ã³w
tor ia
Ġopisa ÅĤ
Ġadministra cyjnÄħ
Ġdo pÅĤat
Ġsa la
ST ÄĦ
Ġklub em
âĢĶ âĢĶ
ĠNADZ OR
Ġz nÃ³w
Ġwielo rodzi
Ġczerwo ne
Ġzie lone
Pro szÄĻ
Ġspodzie waÄĩ
Ġo mÃ³w
Ġ15 9
ĠS in
Ġustanowi one
ĠszczegÃ³l nego
ĠwspÃ³l nik
ĠbudÅ¼e towego
Ġhipote cznego
OD O
Ġra Å¼Äħco
Ġmniej szy
Ġpew nÄħ
Ġaktyw ny
Ġra j
Ġna kÅĤady
ĠopiekuÅĦ czo
Ġzd iagno
ar ium
ce gowi
Ġrobo cze
19 39
ĠwczeÅĽniej sze
ĠumoÅ¼li wienia
ĠInwesty cyjnych
ĠFundu szy
S CE
Ġscena riusz
ĠAr bitrÃ³w
Ġref le
Ġodzyska nia
peÅĤ nienie
ell s
Ġw prawdzie
IN G
ĠRo ÅĽli
nios ÅĤo
Ġstop nie
czeg Ã³ÅĤy
Ġskarb owych
pÅĤy wa
ĠpoÅĤÄħ czonych
Ġdobrowo lnie
ĠKupu jÄħcego
Ġo pada
Ġobej mowaÅĤ
ĠuÅ¼ywa nym
Ġ20 3
ĠS el
Ġwystawi onego
ĠPK B
Ġni skim
ĠE pi
Ġnotaria lnie
Ġrozpa tru
Ġod nale
Ġte or
ĠSe ba
Ġ20 9
arze nie
ĠSprze dawcy
ĠP ers
Te le
Ġodda la
Ġf ra
ĠniÅ¼ szy
owis k
Ġszkole niowych
Po datek
Ġomawia nej
Ġwiel kÄħ
ĠwysÅĤa Äĩ
Ġpomoc niczych
Ġwar zywa
ĠÅĤÄħcz Äħcych
ĠV ale
Ġprze waÅ¼a
ĠZ wie
ĠL ATA
or s
bud owÄħ
Ġkwi tnÄħ
Ġczasopis ma
Ġszpita l
ĠstÄĻ Å¼enia
Ġp Ã³j
Ġher bu
ĠFir st
ro ga
Ġprzy w
Ġ16 1
Ġuregul owane
Ġo strzega
j ka
Ġusu wanie
Ġnie letnich
ha la
Ġzmierza jÄħce
N ÄĦ
Ġspowod owany
Ġreprezent owaÅĤa
m l
Ġspor cie
ĠpiÄħ tku
j czykÃ³w
pli kacji
Ġrozsze rzenia
Ġkonie czna
Dosta wa
ĠpotrÄħce nia
a ther
ĠL ie
ĠPrzedszko la
Ġaktual nej
Ġostatni Äħ
ĠodmÃ³w i
Ġd is
praw nych
Ġben zy
ĠA g
Ġprzekaza niu
ĠoddziaÅĤy waÄĩ
y d
Ġzreali zowania
ĠLa u
ĠzwyciÄĻ stwa
Ġor dyna
ĠchÅĤo pa
ĠS la
1 19
wi l
Ġelektry czna
ĠStrze l
ĠSta tes
Ġsobo tÄĻ
ĠobowiÄħ zywaÄĩ
Ġo glÄĻ
Ġprze chodzÄħ
Ġkanady jskiej
Ġunik niÄĻcia
S uk
Ġustaw owym
ĠmÃ³wi ÅĤ
ĠMona chium
ĠRodzi na
ĠK rok
ĠwiÄĻ Åºni
ph er
Ġjedy ne
Ġpo ciÄħg
Ġskon stru
sz kÃ³w
ĠAlaba ma
Ġstowarzy szenie
Ġpot rakt
Ġtema tu
Ġzawiera jÄħca
Ġ6 43
Ġodwo ÅĤy
Ġkieru jÄħc
ph en
Ġmazowie ckim
kar zem
Ġbryty jska
Ġpa liwo
tro p
ĠPiÅĤsud skiego
ĠEk sp
Ġtrud nej
ĠT RAN
ĠTu taj
Ġenerge tycznego
ĠE dy
ĠNIE RUCHOMO
Ġrun dy
Ġpowia towym
JÄĦCY CH
Ġbez zw
Ġpotrzeb ny
lar ne
ĠS G
ĠupowaÅ¼ nione
Ġbez war
Ġbli Å¼ej
ĠHamp shire
ĠSPRA WIE
Ġdowie dziaÅĤ
ĠKrÃ³ l
ĠB ÅĤo
Ġisto tnym
ĠskÅĤad owania
Ġza budowÄĻ
Ġprzekro czy
Ġpocz towe
Po stÄĻpowanie
Ġ189 4
ĠwspÃ³ÅĤczyn nik
stro na
Ġemeryta lnym
Ġobie gu
dÅĤu go
Ġpora dy
Ġwyda wanie
Ġwy s
Ġ20 6
la ta
ĠFa bry
Ġeuropej skie
ĠH um
ĠTransa kcji
Ġzagro Å¼one
Ġod urza
Ġsu ch
Ġ18 6
ĠwziÄĻ ÅĤo
ÅĽci ÅĤa
ĠodrÄĻb ny
pisa ne
Ġpsycho logiczno
Ġlotni ctwa
E E
Ġpisem nÄħ
ĠrÃ³w nych
ĠnajwiÄĻk szej
Ġwpisa ne
Ġwydarze nie
Ġprawo daw
Ġde szczu
ĠKodek sie
Ġzmienia jÄħca
V A
ku jÄħce
Ġprzechowy waÄĩ
Ġwiel kich
ĠwÄĻglowo danÃ³w
ĠKomunika cji
ĠzaczÄĻ ÅĤy
Ġodniesie nie
Ġpojedyn czej
ĠSp ar
ĠHa j
ĠwczeÅĽniej szej
Ġces ar
Ġwprowadza nie
Ġbiznes me
Ġma p
ĠN el
ĠsÅĤusz nie
ĠwaÅ¼ nego
Ġutrzymy wania
ler s
pa lu
Ġspecja lizacji
Ġk orup
ĠBo Å¼ej
ĠCo mi
ĠREALIZA CJI
Ġproble mami
Ġustawa mi
m owaniu
ĠO ri
Ġpan u
hi bi
Ġkorona wiru
Ġprzewodni k
ĠE NER
Ġ23 5
Ġob rze
J ez
ĠEg za
ĠnieszczÄĻ ÅĽli
Z osta
Ġwykro czeÅĦ
p ris
Ġpozwo leniu
Ġsta tki
Ġrapor cie
pro cent
Ġregiona lne
Ġpro bo
ĠpostÄĻp u
ĠWÅĤo cÅĤa
ĠZDROW IA
Ġb rÄħ
10 9
n dy
Å¼y ny
Ġprzy ciÄħga
Ġe mitenta
ĠBAN K
Pod obnie
ĠAk cje
Ġdyrekty wie
Kal kula
Ġpapie ro
i sta
Bi u
ĠprzesÅĤa Äĩ
Wykona nie
ĠS ER
ĠsamorzÄħ dÃ³w
ĠL A
AR I
Å¼ nie
Ġpa da
K L
13 0
Ġmie si
Ġzba dania
Ġoprac owane
Ġuleg ÅĤ
G ospodar
Ġod er
ĠAf gani
Ġle Å¼a
Ġkolej owy
Ġunika niu
fikowa na
Ġzapa ch
Ġkontr owers
ĠS prawoz
ĠwszczÄĻ te
Ñ Ĩ
tar i
Ġprzekro czenie
Ġodrzu ca
Ġpa sie
cz nicy
ĠSt art
Ġza bieg
Ġto po
tyw nÄħ
Ce lem
Ġczer wiec
Ġkura tora
Ġbo les
ĠChar lesa
Ġs chro
ĠÅ ł
ĠC lo
u stawy
Ġsateli tar
Ġstworz ona
Ġpie s
ĠCe ny
Ġeksper ty
Ġawan su
Ë Ĳ
ĠKor pusu
Ġorganiz mÃ³w
sp ad
czÄĻ ÅĽÄĩ
CYJ NYCH
ĠO dzna
Ġnaro du
Ġniena wi
Ġre forma
Ġpis ar
ĠOb jawy
Sk lep
ĠnajbliÅ¼ szych
Ġnie forma
Ġgatu nkiem
Ġme bli
ĠwÅĤo skiego
i b
czeni owych
ĠE mitent
ĠC ir
ĠmaÅĤ Å¼e
Ġweks la
ĠzastÄħpi Äĩ
ĠMor skiej
Ko szty
Ġpomieszczenia ch
Ġza czer
ĠSo und
Ġrobi Äħ
B rak
ĠMa cie
ĠWy ro
Ġwpis ie
Ġpromieni owania
Ġdziew czÄħt
ĠLi mited
ĠZasa dni
Tek st
Ġprezyden tem
ĠOlszty n
ĠTo kio
Ġp ru
Ġod pad
K B
CKIE GO
K ry
da nych
g ÅĤasza
ĠProwa dzenie
Istnie je
ĠwystÄĻp y
Ġelektroni czna
Ġczyn ny
Ġekspor tu
Ġzie lonych
K oszy
finans owanie
ĠwyÅĤÄħ czone
Z US
Ġsh ow
Ġroz kÅĤadu
sza Äĩ
Ġnada ny
ga dnia
Ġko rea
Z IE
Ġpa zno
Ġsprawie dli
ĠprÃ³ bÄĻ
Ġoka zi
ob u
Ġ á
Ġod sÅĤo
ĠBang lade
ĠKapitaÅĤ owej
Ġz orient
ĠMedi care
no tice
Ġla pto
Po czÄħ
ĠInte gra
ĠMicha ÅĤa
ĠPis mo
Ġg nie
Ġakt orzy
Ġpod rodziny
Â ľ
mi um
o rze
Ġhy dra
ĠwykÅĤadni ÄĻ
do tyczy
ĠpostÄĻpowania ch
ĠF ami
1 000
ni zmu
Ġpod la
Ġak cja
ĠFranci szka
ĠMie jskim
Ġnaj prawdopodobniej
ĠZnaj dÅº
obior cÃ³w
Ġzar z
Ġn Ã³g
Ġpar ÄĻ
ĠHol lywood
Ġ ....
Ġpozwa nych
Ġkod Ã³w
[...]
