{
  "version": "1.0",
  "truncation": null,
  "padding": null,
  "added_tokens": [
    {
      "id": 0,
      "content": "<|endoftext|>",
      "single_word": false,
      "lstrip": false,
      "rstrip": false,
      "normalized": false,
      "special": true
    },
    {
      "id": 1,
      "content": "bos_token",
      "single_word": false,
      "lstrip": false,
      "rstrip": false,
      "normalized": false,
      "special": true
    },
    {
      "id": 2,
      "content": "eos_token",
      "single_word": false,
      "lstrip": false,
      "rstrip": false,
      "normalized": false,
      "special": true
    },
    {
      "id": 3,
      "content": "unk_token",
      "single_word": false,
      "lstrip": false,
      "rstrip": false,
      "normalized": false,
      "special": true
    }
  ],
  "normalizer": null,
  "pre_tokenizer": {
    "type": "ByteLevel",
    "add_prefix_space": false,
    "trim_offsets": true,
    "use_regex": true
  },
  "post_processor": {
    "type": "ByteLevel",
    "add_prefix_space": true,
    "trim_offsets": false,
    "use_regex": true
  },
  "decoder": {
    "type": "ByteLevel",
    "add_prefix_space": true,
    "trim_offsets": true,
    "use_regex": true
  },
  "model": {
    "type": "BPE",
    "dropout": null,
    "unk_token": null,
    "continuing_subword_prefix": "",
    "end_of_word_suffix": "",
    "fuse_unk": false,
    "byte_fallback": false,
    "ignore_merges": false,
    "vocab": {
      "<|endoftext|>": 0,
      "bos_token": 1,
      "eos_token": 2,
      "unk_token": 3,
      "!": 4,
      "\"": 5,
      "#": 6,
      "$": 7,
      "%": 8,
      "&": 9,
      "'": 10,
      "(": 11,
      ")": 12,
      "*": 13,
      "+": 14,
      ",": 15,
      "-": 16,
      ".": 17,
      "/": 18,
      "0": 19,
      "1": 20,
      "2": 21,
      "3": 22,
      "4": 23,
      "5": 24,
      "6": 25,
      "7": 26,
      "8": 27,
      "9": 28,
      ":": 29,
      ";": 30,
      "<": 31,
      "=": 32,
      ">": 33,
      "?": 34,
      "@": 35,
      "A": 36,
      "B": 37,
      "C": 38,
      "D": 39,
      "E": 40,
      "F": 41,
      "G": 42,
      "H": 43,
      "I": 44,
      "J": 45,
      "K": 46,
      "L": 47,
      "M": 48,
      "N": 49,
      "O": 50,
      "P": 51,
      "Q": 52,
      "R": 53,
      "S": 54,
      "T": 55,
      "U": 56,
      "V": 57,
      "W": 58,
      "X": 59,
      "Y": 60,
      "Z": 61,
      "[": 62,
      "\\": 63,
      "]": 64,
      "^": 65,
      "_": 66,
      "`": 67,
      "a": 68,
      "b": 69,
      "c": 70,
      "d": 71,
      "e": 72,
      "f": 73,
      "g": 74,
      "h": 75,
      "i": 76,
      "j": 77,
      "k": 78,
      "l": 79,
      "m": 80,
      "n": 81,
      "o": 82,
      "p": 83,
      "q": 84,
      "r": 85,
      "s": 86,
      "t": 87,
      "u": 88,
      "v": 89,
      "w": 90,
      "x": 91,
      "y": 92,
      "z": 93,
      "{": 94,
      "|": 95,
      "}": 96,
      "~": 97,
      "¡": 98,
      "¢": 99,
      "£": 100,
      "¤": 101,
      "¥": 102,
      "¦": 103,
      "§": 104,
      "¨": 105,
      "©": 106,
      "ª": 107,
      "«": 108,
      "¬": 109,
      "®": 110,
      "¯": 111,
      "°": 112,
      "±": 113,
      "²": 114,
      "³": 115,
      "´": 116,
      "µ": 117,
      "¶": 118,
      "·": 119,
      "¸": 120,
      "¹": 121,
      "º": 122,
      "»": 123,
      "¼": 124,
      "½": 125,
      "¾": 126,
      "¿": 127,
      "À": 128,
      "Á": 129,
      "Â": 130,
      "Ã": 131,
      "Ä": 132,
      "Å": 133,
      "Æ": 134,
      "Ç": 135,
      "È": 136,
      "É": 137,
      "Ê": 138,
      "Ë": 139,
      "Ì": 140,
      "Í": 141,
      "Î": 142,
      "Ï": 143,
      "Ð": 144,
      "Ñ": 145,
      "Ò": 146,
      "Ó": 147,
      "Ô": 148,
      "Õ": 149,
      "Ö": 150,
      "×": 151,
      "Ø": 152,
      "Ù": 153,
      "Ú": 154,
      "Û": 155,
      "Ü": 156,
      "Ý": 157,
      "Þ": 158,
      "ß": 159,
      "à": 160,
      "á": 161,
      "â": 162,
      "ã": 163,
      "ä": 164,
      "å": 165,
      "æ": 166,
      "ç": 167,
      "è": 168,
      "é": 169,
      "ê": 170,
      "ë": 171,
      "ì": 172,
      "í": 173,
      "î": 174,
      "ï": 175,
      "ð": 176,
      "ñ": 177,
      "ò": 178,
      "ó": 179,
      "ô": 180,
      "õ": 181,
      "ö": 182,
      "÷": 183,
      "ø": 184,
      "ù": 185,
      "ú": 186,
      "û": 187,
      "ü": 188,
      "ý": 189,
      "þ": 190,
      "ÿ": 191,
      "Ā": 192,
      "ā": 193,
      "Ă": 194,
      "ă": 195,
      "Ą": 196,
      "ą": 197,
      "Ć": 198,
      "ć": 199,
      "Ĉ": 200,
      "ĉ": 201,
      "Ċ": 202,
      "ċ": 203,
      "Č": 204,
      "č": 205,
      "Ď": 206,
      "ď": 207,
      "Đ": 208,
      "đ": 209,
      "Ē": 210,
      "ē": 211,
      "Ĕ": 212,
      "ĕ": 213,
      "Ė": 214,
      "ė": 215,
      "Ę": 216,
      "ę": 217,
      "Ě": 218,
      "ě": 219,
      "Ĝ": 220,
      "ĝ": 221,
      "Ğ": 222,
      "ğ": 223,
      "Ġ": 224,
      "ġ": 225,
      "Ģ": 226,
      "ģ": 227,
      "Ĥ": 228,
      "ĥ": 229,
      "Ħ": 230,
      "ħ": 231,
      "Ĩ": 232,
      "ĩ": 233,
      "Ī": 234,
      "ī": 235,
      "Ĭ": 236,
      "ĭ": 237,
      "Į": 238,
      "į": 239,
      "İ": 240,
      "ı": 241,
      "Ĳ": 242,
      "ĳ": 243,
      "Ĵ": 244,
      "ĵ": 245,
      "Ķ": 246,
      "ķ": 247,
      "ĸ": 248,
      "Ĺ": 249,
      "ĺ": 250,
      "Ļ": 251,
      "ļ": 252,
      "Ľ": 253,
      "ľ": 254,
      "Ŀ": 255,
      "ŀ": 256,
      "Ł": 257,
      "ł": 258,
      "Ń": 259,
      "ni": 260,
      "Ġp": 261,
      "Ġw": 262,
      "ie": 263,
      "ow": 264,
      "ÅĤ": 265,
      "st": 266,
      "Ġz": 267,
      "ze": 268,
      "na": 269,
      "ch": 270,
      "Äħ": 271,
      "Ġo": 272,
      "Ã³": 273,
      "nie": 274,
      "ra": 275,
      "Ġd": 276,
      "ÄĻ": 277,
      "Ġs": 278,
      "cz": 279,
      "ne": 280,
      "Å¼": 281,
      "ro": 282,
      "ny": 283,
      "ÅĽ": 284,
      "nia": 285,
      "Ġpo": 286,
      "ar": 287,
      "Ġi": 288,
      "Ġk": 289,
      "go": 290,
      "Ġt": 291,
      "rze": 292,
      "Ġu": 293,
      "Ġna": 294,
      "Ġm": 295,
      "li": 296,
      "zy": 297,
      "je": 298,
      "re": 299,
      "ia": 300,
      "Ã³w": 301,
      "Ġza": 302,
      "owa": 303,
      "Ġdo": 304,
      "dz": 305,
      "sta": 306,
      "le": 307,
      "ka": 308,
      "ci": 309,
      "Ġ1": 310,
      "Ġwy": 311,
      "or": 312,
      "da": 313,
      "ÅĤa": 314,
      "wa": 315,
      "mi": 316,
      "Ġprze": 317,
      "no": 318,
      "ko": 319,
      "Ġb": 320,
      "Ġ2": 321,
      "cy": 322,
      "ku": 323,
      "ce": 324,
      "cj": 325,
      "ĠP": 326,
      "ki": 327,
      "Äĩ": 328,
      "la": 329,
      "er": 330,
      "sz": 331,
      "ty": 332,
      "cze": 333,
      "iÄĻ": 334,
      "jÄħ": 335,
      "nych": 336,
      "Ġa": 337,
      "ĠS": 338,
      "Ġje": 339,
      "ÅĽci": 340,
      "ta": 341,
      "ĠW": 342,
      "owy": 343,
      "Ġ(": 344,
      "rzy": 345,
      "Ġnie": 346,
      "Ġro": 347,
      "owe": 348,
      "Å¼e": 349,
      "Ġod": 350,
      "za": 351,
      "ry": 352,
      "wo": 353,
      "âĢ": 354,
      "ma": 355,
      "on": 356,
      "lu": 357,
      "tu": 358,
      "te": 359,
      "ÅĦ": 360,
      "Ġsp": 361,
      "kie": 362,
      "en": 363,
      "wie": 364,
      "dy": 365,
      "Ġr": 366,
      "cji": 367,
      "Ġ20": 368,
      "ja": 369,
      "ÅĤo": 370,
      "Ġg": 371,
      "wi": 372,
      "czy": 373,
      "nego": 374,
      "ĠK": 375,
      "ĠsiÄĻ": 376,
      "tÃ³": 377,
      "od": 378,
      "ca": 379,
      "ĠN": 380,
      "ĠM": 381,
      "nej": 382,
      "ĠktÃ³": 383,
      "os": 384,
      "ru": 385,
      "is": 386,
      "ĠZ": 387,
      "ÅĤu": 388,
      "ga": 389,
      "cie": 390,
      "dzie": 391,
      "ĠR": 392,
      "Ġpra": 393,
      "Ġin": 394,
      "Ġpod": 395,
      "Ġprzy": 396,
      "ĠB": 397,
      "Ġf": 398,
      "lo": 399,
      "Å¼y": 400,
      "ĠA": 401,
      "..": 402,
      "Ġst": 403,
      "ob": 404,
      "wy": 405,
      "Ġjest": 406,
      "Ġlu": 407,
      "ÅĤy": 408,
      "art": 409,
      "ĠC": 410,
      "du": 411,
      "ĠD": 412,
      "ĠO": 413,
      "ĠâĢ": 414,
      "om": 415,
      "owi": 416,
      "Ġte": 417,
      "Ġob": 418,
      "kt": 419,
      "sp": 420,
      "niu": 421,
      "ĠI": 422,
      "Ġprzez": 423,
      "cza": 424,
      "em": 425,
      "ĠU": 426,
      "raz": 427,
      "kre": 428,
      "Ġlub": 429,
      "sze": 430,
      "wia": 431,
      "mie": 432,
      "Ġty": 433,
      "ĠT": 434,
      "Ġma": 435,
      "noÅĽci": 436,
      "Ġto": 437,
      "Ġja": 438,
      "Ġmo": 439,
      "pa": 440,
      "nym": 441,
      "Ġre": 442,
      "dzi": 443,
      "Ġpro": 444,
      "Ġ3": 445,
      "Ã³ÅĤ": 446,
      "Ġ19": 447,
      "Ġ201": 448,
      "ÅĽÄĩ": 449,
      "owie": 450,
      "rz": 451,
      "un": 452,
      "dze": 453,
      "kÃ³w": 454,
      "by": 455,
      "Ġsta": 456,
      "Ġdz": 457,
      "ski": 458,
      "ĠÅĽ": 459,
      "ĠG": 460,
      "00": 461,
      "gi": 462,
      "Ġe": 463,
      "Ġby": 464,
      "owych": 465,
      "stÄĻ": 466,
      "Ġroz": 467,
      "skie": 468,
      "stÄĻp": 469,
      "Ġusta": 470,
      "Ġko": 471,
      "szy": 472,
      "an": 473,
      "ĠJ": 474,
      "osta": 475,
      "owo": 476,
      "si": 477,
      "cja": 478,
      "Ġsz": 479,
      "pis": 480,
      "po": 481,
      "ez": 482,
      "Ġart": 483,
      "mu": 484,
      "ĠÅ¼e": 485,
      "dat": 486,
      "sa": 487,
      "owej": 488,
      "nÄħ": 489,
      "Ġoraz": 490,
      "jÄħcy": 491,
      "to": 492,
      "ĠL": 493,
      "ek": 494,
      "Ġ-": 495,
      "Ġli": 496,
      "Ġmie": 497,
      "Ġta": 498,
      "owania": 499,
      "pie": 500,
      "mo": 501,
      "owego": 502,
      "cyj": 503,
      "ĠktÃ³ry": 504,
      "ska": 505,
      "Ġprzed": 506,
      "in": 507,
      "pe": 508,
      "sie": 509,
      "ĠPo": 510,
      "Ġn": 511,
      "Ġdnia": 512,
      "cia": 513,
      "rowa": 514,
      "dni": 515,
      "jÄħce": 516,
      "Ġos": 517,
      "Ġroku": 518,
      "ĠF": 519,
      "fi": 520,
      "co": 521,
      "Ġpoz": 522,
      "Ġ4": 523,
      "kÅĤa": 524,
      "niej": 525,
      "ĠâĢĵ": 526,
      "Ġcz": 527,
      "ter": 528,
      "dzia": 529,
      "kona": 530,
      "Ġkon": 531,
      "Ġpa": 532,
      "Åº": 533,
      "Ġzosta": 534,
      "ĠE": 535,
      "gu": 536,
      "Ġust": 537,
      "sty": 538,
      "men": 539,
      "su": 540,
      "gra": 541,
      "ud": 542,
      "my": 543,
      "nika": 544,
      "Ġjed": 545,
      "zÄħ": 546,
      "ier": 547,
      "Ġ200": 548,
      "Ġokre": 549,
      "ĠktÃ³re": 550,
      "al": 551,
      "ĠsÄħ": 552,
      "bi": 553,
      "Ġspra": 554,
      "Ġ5": 555,
      "Ġdla": 556,
      "rÃ³": 557,
      "zna": 558,
      "sy": 559,
      "czo": 560,
      "czenia": 561,
      "Ġka": 562,
      "niem": 563,
      "tycz": 564,
      "Ġze": 565,
      "il": 566,
      "pra": 567,
      "zu": 568,
      "rod": 569,
      "tÃ³w": 570,
      "Ġce": 571,
      "ÅĤÄħ": 572,
      "bli": 573,
      "ĠZa": 574,
      "âĢĿ": 575,
      "jÄĻ": 576,
      "Ġni": 577,
      "ĠNa": 578,
      "pi": 579,
      "Ġda": 580,
      "Ġch": 581,
      "nu": 582,
      "owiÄħ": 583,
      "ĠH": 584,
      "Ġwie": 585,
      "ej": 586,
      "Ġra": 587,
      "Ġdzia": 588,
      "dnie": 589,
      "20": 590,
      "ĠâĢŀ": 591,
      "Ġh": 592,
      "for": 593,
      "sza": 594,
      "Ġpodat": 595,
      "Ġczy": 596,
      "Ġustawy": 597,
      "Ã³l": 598,
      "ona": 599,
      "wiad": 600,
      "Ġ6": 601,
      "pu": 602,
      "wiÄħ": 603,
      "Ġgo": 604,
      "sÅĤu": 605,
      "dza": 606,
      "we": 607,
      ").": 608,
      "Ġzna": 609,
      "Ġjako": 610,
      "ÄĻd": 611,
      "ur": 612,
      "czeg": 613,
      "Ġfi": 614,
      "ĠWy": 615,
      "um": 616,
      "kar": 617,
      "Ġtym": 618,
      "pad": 619,
      "de": 620,
      "sto": 621,
      "war": 622,
      "ran": 623,
      "dzenia": 624,
      "ĠdziaÅĤa": 625,
      "one": 626,
      "owym": 627,
      "mia": 628,
      "Ġpow": 629,
      "js": 630,
      "Ġsa": 631,
      "bo": 632,
      "),": 633,
      "Ġosob": 634,
      "chod": 635,
      "ÅĤe": 636,
      "nios": 637,
      "stwa": 638,
      "nik": 639,
      "....": 640,
      "ol": 641,
      "mÃ³w": 642,
      "kowa": 643,
      "Ġde": 644,
      "Ġsy": 645,
      "ktu": 646,
      "Ġpodsta": 647,
      "ery": 648,
      "Ġpraw": 649,
      "rga": 650,
      "ba": 651,
      "jÄħc": 652,
      "tor": 653,
      "cznych": 654,
      "mio": 655,
      "Ġla": 656,
      "Ġ7": 657,
      "Ġszczeg": 658,
      "cje": 659,
      "ĠwÅĤa": 660,
      "Ã³b": 661,
      "bie": 662,
      "IE": 663,
      "kiem": 664,
      "ĠmoÅ¼e": 665,
      "ĠokreÅĽ": 666,
      "Ġstan": 667,
      "ali": 668,
      "Ġnaj": 669,
      "stra": 670,
      "daw": 671,
      "nt": 672,
      "Ġ8": 673,
      "siÄĻ": 674,
      "Ġco": 675,
      "Ġdzie": 676,
      "owanie": 677,
      "skiego": 678,
      "ns": 679,
      "Ġjak": 680,
      "noÅĽÄĩ": 681,
      "pÅĤa": 682,
      "Ġbez": 683,
      "ĠÅ": 684,
      "Ġorga": 685,
      "czenie": 686,
      "Ġle": 687,
      "ri": 688,
      "ĠrÃ³w": 689,
      "forma": 690,
      "wÃ³": 691,
      "jÄħcych": 692,
      "orzy": 693,
      "Ġof": 694,
      "oÅĽci": 695,
      "Å¼a": 696,
      "ĠJe": 697,
      "skiej": 698,
      "201": 699,
      "ju": 700,
      "do": 701,
      "Ġwsp": 702,
      "ji": 703,
      "so": 704,
      "ubli": 705,
      "cjÄĻ": 706,
      "powie": 707,
      "et": 708,
      "Ġprzepis": 709,
      "Ġzakre": 710,
      "Ġtak": 711,
      "Äħce": 712,
      "ĠIn": 713,
      "Ġum": 714,
      "Ġ9": 715,
      "cho": 716,
      "ĠzwiÄħ": 717,
      "ĠV": 718,
      "Ġgru": 719,
      "Äħcy": 720,
      "tem": 721,
      "Ġnale": 722,
      "por": 723,
      "rÄĻ": 724,
      "ĠczÄĻ": 725,
      "cznej": 726,
      "czas": 727,
      "Ġnr": 728,
      "ony": 729,
      "Ġprzypad": 730,
      "Ġ.": 731,
      "niÄĻ": 732,
      "eÅĤ": 733,
      "Ġwykona": 734,
      "dziej": 735,
      "ĠPa": 736,
      "Ġmi": 737,
      "ct": 738,
      "Ġpkt": 739,
      "Ġmiejs": 740,
      "gl": 741,
      "czne": 742,
      "Ġwo": 743,
      "Ġzgo": 744,
      "ÅĤÃ³w": 745,
      "ĠRa": 746,
      "ĠNr": 747,
      "ardziej": 748,
      "Ġkom": 749,
      "Äħd": 750,
      "lnoÅĽci": 751,
      "Ġ10": 752,
      "nÄĻ": 753,
      "Ġwz": 754,
      "Ġwe": 755,
      "Ġsprawie": 756,
      "prze": 757,
      "kty": 758,
      "ĠskÅĤa": 759,
      "Ġwi": 760,
      "Ġprac": 761,
      "wier": 762,
      "ĠÅĽrod": 763,
      "Ġ18": 764,
      "Ġpubli": 765,
      "Ġdy": 766,
      "tar": 767,
      "prowa": 768,
      "dania": 769,
      "nd": 770,
      "Ġzd": 771,
      "el": 772,
      "Ġbud": 773,
      "uje": 774,
      "czeÅĦ": 775,
      "nieÅ¼": 776,
      "Ġjego": 777,
      "ĠusÅĤu": 778,
      "ezpie": 779,
      "cÃ³w": 780,
      "Ġprowa": 781,
      "ĠMa": 782,
      "wania": 783,
      "ĠMi": 784,
      "trzy": 785,
      "Ġspo": 786,
      "odar": 787,
      "mÃ³wie": 788,
      "Ġpier": 789,
      "Ġ199": 790,
      "den": 791,
      "Ġmu": 792,
      "nymi": 793,
      "ĠmoÅ¼": 794,
      "owÄħ": 795,
      "kÄħ": 796,
      "ÅĤÄħcz": 797,
      "ĠbyÄĩ": 798,
      "bezpie": 799,
      "ĠRe": 800,
      "Ġtego": 801,
      "ĠobowiÄħ": 802,
      "gro": 803,
      "ĠrÃ³wnieÅ¼": 804,
      "Ġwar": 805,
      "Ġstos": 806,
      "Ġodpowie": 807,
      "nans": 808,
      "kumen": 809,
      "Ġjedno": 810,
      ".,": 811,
      "ĠktÃ³rych": 812,
      "Ġich": 813,
      "zacji": 814,
      "ĠbyÅĤ": 815,
      "ÄĻdzie": 816,
      "NI": 817,
      "Ġstro": 818,
      "Ġrze": 819,
      "skim": 820,
      "bu": 821,
      "kich": 822,
      "Ġprzypadku": 823,
      "Ġmia": 824,
      "Ġpodstawie": 825,
      "cu": 826,
      "praw": 827,
      "Ġinforma": 828,
      "ĠwiÄĻ": 829,
      "ĠpostÄĻp": 830,
      "ĠszczegÃ³ÅĤ": 831,
      "Ġwnios": 832,
      "Ġswo": 833,
      "szka": 834,
      "ĠKo": 835,
      "ĠuÅ¼y": 836,
      "OW": 837,
      "ermi": 838,
      "cznego": 839,
      "pre": 840,
      "nistra": 841,
      "19": 842,
      "uro": 843,
      "towa": 844,
      "Ġal": 845,
      "nii": 846,
      "unk": 847,
      "ĠRo": 848,
      "Ġme": 849,
      "ĠÅĽwiad": 850,
      "jÄħcego": 851,
      "...": 852,
      "Ġba": 853,
      "dzenie": 854,
      "Ġsie": 855,
      "Ġzar": 856,
      "ii": 857,
      "nienia": 858,
      "Ġwyda": 859,
      "Ġog": 860,
      "Ġ0": 861,
      "Ġpot": 862,
      "Ġzmia": 863,
      "wca": 864,
      "ak": 865,
      "spodar": 866,
      "ÅĽli": 867,
      "Ġprawa": 868,
      "Ġofer": 869,
      "Ġmowa": 870,
      "Ġlo": 871,
      "lnego": 872,
      "tego": 873,
      "dzo": 874,
      "ĠCh": 875,
      "ĠĊ": 876,
      "ng": 877,
      "Ġ15": 878,
      "ĠÂ": 879,
      "Ġzakresie": 880,
      "tro": 881,
      "bior": 882,
      "skich": 883,
      "ĠokreÅĽlo": 884,
      "ĠPrze": 885,
      "ï¿": 886,
      "ï¿½": 887,
      "owar": 888,
      "iada": 889,
      "ĠzamÃ³wie": 890,
      "II": 891,
      "dzy": 892,
      "Ġdokumen": 893,
      "szyst": 894,
      "ec": 895,
      "Ġdotycz": 896,
      "ĠKa": 897,
      "Ġfor": 898,
      "Ġ12": 899,
      "ti": 900,
      "Ġad": 901,
      "Ġpla": 902,
      "ĠPol": 903,
      "Ġpierw": 904,
      "Ġca": 905,
      "ĠSta": 906,
      "Ġszko": 907,
      "nikÃ³w": 908,
      "ciÄħ": 909,
      "Ġkosz": 910,
      "Ġreali": 911,
      "Ġtermi": 912,
      "Ġumowy": 913,
      "stem": 914,
      "Ġgdy": 915,
      "mawia": 916,
      "ĠosÃ³b": 917,
      "Ġpracy": 918,
      "di": 919,
      "Ġwska": 920,
      "czÄħ": 921,
      "he": 922,
      "ĠniÅ¼": 923,
      "Ġmog": 924,
      "lar": 925,
      "ĠzÅĤo": 926,
      "ĠszczegÃ³ÅĤowo": 927,
      "Ã³r": 928,
      "Ġ14": 929,
      "owis": 930,
      "Ġzasa": 931,
      "pÅĤy": 932,
      "Ġ11": 933,
      "Ġcze": 934,
      "kÄĻ": 935,
      "Åģ": 936,
      "lko": 937,
      "dziaÅĤ": 938,
      "ĠÅ¼y": 939,
      "lega": 940,
      "Ġpi": 941,
      "lej": 942,
      "ĠBardziej": 943,
      "siÄħ": 944,
      "maga": 945,
      "Ġzw": 946,
      "nek": 947,
      "ĠSp": 948,
      "ĠtakÅ¼e": 949,
      "ĠbÄĻdzie": 950,
      "zowa": 951,
      "ÅĤon": 952,
      "dnia": 953,
      "Ã³d": 954,
      "ĠnastÄĻp": 955,
      "lnych": 956,
      "ĠPra": 957,
      "ĠNie": 958,
      "ĠPro": 959,
      "ĠnaleÅ¼y": 960,
      "ĠktÃ³rym": 961,
      "ĠDo": 962,
      "tach": 963,
      "tk": 964,
      "res": 965,
      "Ġwszyst": 966,
      "Ġry": 967,
      "cha": 968,
      "lenia": 969,
      "kÅĤad": 970,
      "ha": 971,
      "Ġpowie": 972,
      "Ġpodatku": 973,
      "Ġgospodar": 974,
      "ĠzostaÅĤ": 975,
      "Ġwarun": 976,
      "stÄħ": 977,
      "AT": 978,
      "Ġspos": 979,
      "se": 980,
      "Ġmar": 981,
      "ÅĽwiad": 982,
      "Ġwa": 983,
      "tra": 984,
      "chro": 985,
      "Dz": 986,
      "Ġar": 987,
      "Ġwyk": 988,
      "Ġwyso": 989,
      "ĠDz": 990,
      "Ġaby": 991,
      "Ġprodu": 992,
      "liwo": 993,
      "ĠmiÄĻ": 994,
      "lne": 995,
      "ÅĽcie": 996,
      "tni": 997,
      "tek": 998,
      "tych": 999,
      "........": 1000,
      "Ġrodzi": 1001,
      "Ġjej": 1002,
      "Ġorgani": 1003,
      "Ġsty": 1004,
      "pisa": 1005,
      "iel": 1006,
      "Ġ13": 1007,
      "Ġproje": 1008,
      "zku": 1009,
      "stru": 1010,
      "fika": 1011,
      "ĠspÃ³ÅĤ": 1012,
      "ĠczÄĻÅĽci": 1013,
      "kach": 1014,
      "Ġale": 1015,
      "Ġkra": 1016,
      "wiet": 1017,
      "ge": 1018,
      "Ġinter": 1019,
      "trzyma": 1020,
      "ĠwÅĤaÅĽci": 1021,
      "Ġ,": 1022,
      "ZE": 1023,
      "Ġele": 1024,
      "szej": 1025,
      "rem": 1026,
      "ST": 1027,
      "Ġ16": 1028,
      "stwo": 1029,
      "py": 1030,
      "Ġwart": 1031,
      "me": 1032,
      "rzÄĻ": 1033,
      "cÄħ": 1034,
      "zyska": 1035,
      "Ġpos": 1036,
      "Ġgra": 1037,
      "ĠzÅĤ": 1038,
      "Ġsprze": 1039,
      "stw": 1040,
      "ĠWar": 1041,
      "lenie": 1042,
      "kony": 1043,
      "ĠJa": 1044,
      "bra": 1045,
      "pro": 1046,
      "Ġ17": 1047,
      "ĠÅļ": 1048,
      "ĠusÅĤug": 1049,
      "ĠÂ§": 1050,
      "Ġzm": 1051,
      "Ġcelu": 1052,
      "nta": 1053,
      "ministra": 1054,
      "10": 1055,
      "Ġczyn": 1056,
      "onych": 1057,
      "mach": 1058,
      "Å¼eli": 1059,
      "ist": 1060,
      "Ġzgodnie": 1061,
      "cznie": 1062,
      "Ġdru": 1063,
      "ner": 1064,
      "czej": 1065,
      "orzysta": 1066,
      "kim": 1067,
      "trz": 1068,
      "Ġpomo": 1069,
      "ory": 1070,
      "mis": 1071,
      "strze": 1072,
      "ĠktÃ³rej": 1073,
      "porzÄħ": 1074,
      "Ġbi": 1075,
      "Ġfinans": 1076,
      "ĠdziaÅĤalnoÅĽci": 1077,
      "Ġtej": 1078,
      "Ġprzedmio": 1079,
      "Ġpodmio": 1080,
      "Ã³Å¼": 1081,
      "ĠAr": 1082,
      "rak": 1083,
      "Äħcych": 1084,
      "chni": 1085,
      "ĠmajÄħ": 1086,
      "stan": 1087,
      "cyz": 1088,
      "chom": 1089,
      "Ġkwo": 1090,
      "lnej": 1091,
      "kaza": 1092,
      "Ġmieszka": 1093,
      "Ġdro": 1094,
      "owaÄĩ": 1095,
      "chwa": 1096,
      "Ġlat": 1097,
      "ĠzamÃ³wienia": 1098,
      "kiego": 1099,
      "Ġcza": 1100,
      "rÃ³w": 1101,
      "Ã³Åº": 1102,
      "ĠzwiÄħza": 1103,
      "Ġsk": 1104,
      "Ãĵ": 1105,
      "ĠX": 1106,
      "taÅĤ": 1107,
      "Ġinnych": 1108,
      "ĠktÃ³ra": 1109,
      "Ġau": 1110,
      "Ġgmi": 1111,
      "peÅĤ": 1112,
      "ĠSz": 1113,
      "Ġproce": 1114,
      "Ġoko": 1115,
      "Ġsystem": 1116,
      "grani": 1117,
      "fe": 1118,
      "12": 1119,
      "Ġwymaga": 1120,
      "obie": 1121,
      "Ġfa": 1122,
      "ĠczÅĤon": 1123,
      "nak": 1124,
      "owane": 1125,
      "Ġznaj": 1126,
      "Ġtych": 1127,
      "Ġdanych": 1128,
      "ruchom": 1129,
      "Ġudzie": 1130,
      "ĠKon": 1131,
      "nosi": 1132,
      "CH": 1133,
      "Å¼enia": 1134,
      "lni": 1135,
      "ĠWykona": 1136,
      "Ġtytu": 1137,
      "dno": 1138,
      "200": 1139,
      "Ġuwa": 1140,
      "Ġkar": 1141,
      "redni": 1142,
      "stytu": 1143,
      "ÅĤuÅ¼": 1144,
      "tÄĻ": 1145,
      "Ġpodatk": 1146,
      "Ġuzyska": 1147,
      "Ġpracow": 1148,
      "ĠmiÄĻdzy": 1149,
      "szym": 1150,
      "owaniu": 1151,
      "kiej": 1152,
      "Ġpowi": 1153,
      "szÄħ": 1154,
      "ĠkaÅ¼": 1155,
      "ĠpaÅĦ": 1156,
      "twar": 1157,
      "Ġtowar": 1158,
      "Ġnaz": 1159,
      "ĠspoÅĤe": 1160,
      "ciu": 1161,
      "kodaw": 1162,
      "Ġcy": 1163,
      "ĠmogÄħ": 1164,
      "nku": 1165,
      "szego": 1166,
      "czÄĻ": 1167,
      "ul": 1168,
      "tru": 1169,
      "RA": 1170,
      "th": 1171,
      "oru": 1172,
      "Ġwysoko": 1173,
      "cÄĻ": 1174,
      "ing": 1175,
      "tacji": 1176,
      "ĠEuro": 1177,
      "orzÄħ": 1178,
      "ĠSpÃ³ÅĤ": 1179,
      "Ġ30": 1180,
      "Ġop": 1181,
      "mery": 1182,
      "Ġzawie": 1183,
      "owany": 1184,
      "ren": 1185,
      "11": 1186,
      "Ġczer": 1187,
      "sÅĤa": 1188,
      "szcza": 1189,
      "Ġochro": 1190,
      "Ġzob": 1191,
      "stawi": 1192,
      "cjÄħ": 1193,
      "Ġtylko": 1194,
      "logi": 1195,
      "Ġga": 1196,
      "lny": 1197,
      "Ġzawo": 1198,
      "Ġ2015": 1199,
      "000": 1200,
      "Ġnad": 1201,
      "ĠbÄĻd": 1202,
      "Ġoce": 1203,
      "szenia": 1204,
      "cyjnych": 1205,
      "ste": 1206,
      "oÅĽÄĩ": 1207,
      "wu": 1208,
      "im": 1209,
      "owiÄħza": 1210,
      "Ġpre": 1211,
      "ĠOd": 1212,
      "Ġsu": 1213,
      "kcji": 1214,
      "Ġloka": 1215,
      "Ġwynika": 1216,
      "Å¼ej": 1217,
      "Ġzawar": 1218,
      "Ġno": 1219,
      "ĠwÅĤas": 1220,
      "Ġubezpie": 1221,
      "Ġsto": 1222,
      "ĠpeÅĤ": 1223,
      "Ġniez": 1224,
      "Ġ2014": 1225,
      "lem": 1226,
      "czny": 1227,
      "ĠszczegÃ³l": 1228,
      "ĠrÃ³Å¼": 1229,
      "ĠMar": 1230,
      "cznia": 1231,
      "muje": 1232,
      "ck": 1233,
      "ad": 1234,
      "ĠsposÃ³b": 1235,
      "wen": 1236,
      "Ġjednost": 1237,
      "Ġkie": 1238,
      "gÅĤo": 1239,
      "wiÄĻ": 1240,
      "rza": 1241,
      "ktÃ³w": 1242,
      "Ġwskaza": 1243,
      "spo": 1244,
      "szych": 1245,
      "kaÅĦ": 1246,
      "niesie": 1247,
      "Ġdecyz": 1248,
      "Ġ\"": 1249,
      "mieni": 1250,
      "AR": 1251,
      "ĠLe": 1252,
      "Ġfunk": 1253,
      "Ġbu": 1254,
      "pada": 1255,
      "stos": 1256,
      "Ġnau": 1257,
      "Ġsamo": 1258,
      "Ġbudow": 1259,
      "kto": 1260,
      "towej": 1261,
      "nach": 1262,
      "Ġc": 1263,
      "Ġnieruchom": 1264,
      "owaÅĤ": 1265,
      "Ġpie": 1266,
      "rzÄħ": 1267,
      "Ġdochod": 1268,
      "bud": 1269,
      "Ġten": 1270,
      "nienie": 1271,
      "arze": 1272,
      "Ġsprzeda": 1273,
      "ĠGmi": 1274,
      "ĠpÃ³Åº": 1275,
      "ĠPod": 1276,
      "ers": 1277,
      "jÄħcej": 1278,
      "Ġ198": 1279,
      "sk": 1280,
      "Ġprawo": 1281,
      "pnia": 1282,
      "Å¼Äħ": 1283,
      "cyjnego": 1284,
      "wane": 1285,
      "ĠprzedsiÄĻ": 1286,
      "ĠzostaÅĤa": 1287,
      "teria": 1288,
      "Ġ[": 1289,
      "wz": 1290,
      "nÃ³w": 1291,
      "Ġuzna": 1292,
      "datk": 1293,
      "Ġramach": 1294,
      "Ġposiada": 1295,
      "Ġ2013": 1296,
      "Ġspraw": 1297,
      "ĠLi": 1298,
      "Za": 1299,
      "ĠpostÄĻpowania": 1300,
      "gie": 1301,
      "ĠzwiÄħzku": 1302,
      "duje": 1303,
      "ĠprzepisÃ³w": 1304,
      "Ġsam": 1305,
      "ĠZamawia": 1306,
      "Ġosoby": 1307,
      "rÄħ": 1308,
      "rÃ³d": 1309,
      "roni": 1310,
      "nict": 1311,
      "io": 1312,
      "ĠRady": 1313,
      "leÅ¼": 1314,
      "ĠWnios": 1315,
      "czonych": 1316,
      "uch": 1317,
      "Ġwykony": 1318,
      "pej": 1319,
      "AN": 1320,
      "Ġgrudnia": 1321,
      "Ġzawiera": 1322,
      "ĠRoz": 1323,
      "Ġ24": 1324,
      "Ġ22": 1325,
      "pera": 1326,
      "Ġprogra": 1327,
      "Ġstycznia": 1328,
      "ÅĤem": 1329,
      "sko": 1330,
      "ÅĽnia": 1331,
      "Na": 1332,
      "owia": 1333,
      "Ġsku": 1334,
      "Ġpoli": 1335,
      "ĠrozporzÄħ": 1336,
      "Ġpoprze": 1337,
      "waÅ¼": 1338,
      "ster": 1339,
      "Ġtre": 1340,
      "15": 1341,
      "czeÅĽ": 1342,
      "ÅĽcia": 1343,
      "and": 1344,
      "ksz": 1345,
      "Å¼o": 1346,
      "Ġtran": 1347,
      "Ġelekt": 1348,
      "szu": 1349,
      "dÅĤu": 1350,
      "Ġpodstaw": 1351,
      "ĠmoÅ¼na": 1352,
      "ĠWo": 1353,
      "âĢĵ": 1354,
      "koÅĦ": 1355,
      "ĠWarsza": 1356,
      "Ġmiejsce": 1357,
      "Ġser": 1358,
      "RO": 1359,
      "kow": 1360,
      "glÄĻ": 1361,
      "Ġ25": 1362,
      "Ġkwiet": 1363,
      "jaz": 1364,
      "Ġprzeci": 1365,
      "rwa": 1366,
      "Ġozna": 1367,
      "Ġdniu": 1368,
      "ĠMo": 1369,
      "Ġkontro": 1370,
      "âĢĿ.": 1371,
      "liwoÅĽci": 1372,
      "daÅĦ": 1373,
      "pew": 1374,
      "ĠwspÃ³l": 1375,
      "Ġkla": 1376,
      "szko": 1377,
      "dziaÅĤu": 1378,
      "Ġlip": 1379,
      "Ġmarca": 1380,
      "Åºdzie": 1381,
      "fa": 1382,
      "ĠgÅĤÃ³w": 1383,
      "tyw": 1384,
      "lnoÅĽÄĩ": 1385,
      "ĠUS": 1386,
      "ÅĤych": 1387,
      "Ġwrze": 1388,
      "czych": 1389,
      "ĠII": 1390,
      "owod": 1391,
      "--": 1392,
      "Ġtrze": 1393,
      "am": 1394,
      "Ġalbo": 1395,
      "ktor": 1396,
      "Ġul": 1397,
      "gula": 1398,
      "ĠwspÃ³ÅĤ": 1399,
      "Ġsier": 1400,
      "Ġstanie": 1401,
      "staw": 1402,
      "Ġpozosta": 1403,
      "szenie": 1404,
      "Ġpis": 1405,
      "Ġupraw": 1406,
      "Ġzamie": 1407,
      "Ġinformacji": 1408,
      "ĠzarzÄħ": 1409,
      "wÃ³dz": 1410,
      "Ġczerwca": 1411,
      "czna": 1412,
      "wanie": 1413,
      "ene": 1414,
      "Ġswoje": 1415,
      "Ġzdr": 1416,
      "Ġadministra": 1417,
      "pisy": 1418,
      "Ġ2012": 1419,
      "Po": 1420,
      "Ġcho": 1421,
      "Ġwyro": 1422,
      "ary": 1423,
      "Ġrozpo": 1424,
      "ĠspeÅĤ": 1425,
      "Ġpowod": 1426,
      "Ġspe": 1427,
      "wali": 1428,
      "Ġstanowi": 1429,
      "ĠwartoÅĽci": 1430,
      "czego": 1431,
      "tej": 1432,
      "Ġwyna": 1433,
      "kami": 1434,
      "Ġkwietnia": 1435,
      "jewÃ³dz": 1436,
      "NIA": 1437,
      "Ġrzecz": 1438,
      "Ġwprowa": 1439,
      "cznym": 1440,
      "hi": 1441,
      "ĠbyÅĤa": 1442,
      "Ġjednak": 1443,
      "Ġsze": 1444,
      "tua": 1445,
      "Ġtra": 1446,
      "ĠpÅĤa": 1447,
      "Ġ23": 1448,
      "jÄħcym": 1449,
      "cej": 1450,
      "ĠjeÅ¼eli": 1451,
      "ĠdotyczÄħce": 1452,
      "Ġrodza": 1453,
      "ĠBa": 1454,
      "lnym": 1455,
      "tku": 1456,
      "undu": 1457,
      "mieniu": 1458,
      "ĠÅĽrodkÃ³w": 1459,
      "Ġse": 1460,
      "Ġ21": 1461,
      "Åºdzier": 1462,
      "ĠwysokoÅĽci": 1463,
      "Ġpowy": 1464,
      "Ġ2016": 1465,
      "Ġbra": 1466,
      "Ġlipca": 1467,
      "ĠDa": 1468,
      "Ġ29": 1469,
      "ĠPO": 1470,
      "danie": 1471,
      "cyjne": 1472,
      "tnie": 1473,
      "ĠzobowiÄħza": 1474,
      "NE": 1475,
      "Ġobej": 1476,
      "Ġ197": 1477,
      "ĠWnioskodaw": 1478,
      "ĠpaÅºdzier": 1479,
      "czeniu": 1480,
      "nowa": 1481,
      "nad": 1482,
      "ĠVAT": 1483,
      ".[": 1484,
      "Ġpol": 1485,
      "Ġpodczas": 1486,
      "merykaÅĦ": 1487,
      "ĠnieruchomoÅĽci": 1488,
      "pos": 1489,
      "lnie": 1490,
      "Ġfir": 1491,
      "Ġdokona": 1492,
      "MI": 1493,
      "ĠwpÅĤy": 1494,
      "18": 1495,
      "ĠopÅĤa": 1496,
      "SK": 1497,
      "CZ": 1498,
      "Ġlisto": 1499,
      "Ġ2011": 1500,
      "Ġdu": 1501,
      "Ġlicz": 1502,
      "czone": 1503,
      "ĠprzedsiÄĻbior": 1504,
      "Ġosta": 1505,
      "Ġzach": 1506,
      "onÄħ": 1507,
      "ÄĦ": 1508,
      "Ġotrzyma": 1509,
      "niku": 1510,
      "ktÃ³": 1511,
      "13": 1512,
      "nem": 1513,
      "cznoÅĽci": 1514,
      "wem": 1515,
      "Ġsierpnia": 1516,
      "Ġpotrze": 1517,
      "Ġ27": 1518,
      "Ġim": 1519,
      "czyÄĩ": 1520,
      "Ġsytua": 1521,
      "sku": 1522,
      "ĠTe": 1523,
      "14": 1524,
      "Ġokres": 1525,
      "Ġtele": 1526,
      "Ġuchwa": 1527,
      "OR": 1528,
      "stÄħpi": 1529,
      "stu": 1530,
      "nÄĻtrz": 1531,
      "Ġju": 1532,
      "ĠwrzeÅĽnia": 1533,
      "Ġlatach": 1534,
      "ĠsÄħd": 1535,
      "ÅĽredni": 1536,
      "AD": 1537,
      "Ġcha": 1538,
      "zuje": 1539,
      "ew": 1540,
      "Ġwraz": 1541,
      "Ġrealizacji": 1542,
      "gen": 1543,
      "Ġzapew": 1544,
      "ĠczynnoÅĽci": 1545,
      "ĠpÃ³ÅĤ": 1546,
      "Ġfizy": 1547,
      "nali": 1548,
      "Ġnaby": 1549,
      "dÅĤug": 1550,
      "ĠbyÅĤo": 1551,
      "ok": 1552,
      "Ġskar": 1553,
      "Ġdni": 1554,
      "dÅĤ": 1555,
      "arzÄħ": 1556,
      "Ġ2010": 1557,
      "Ġsiedzi": 1558,
      "Ġkolej": 1559,
      "Ġpowin": 1560,
      "Ġopo": 1561,
      "stwie": 1562,
      "rywa": 1563,
      "Ġbie": 1564,
      "ĠFi": 1565,
      "chi": 1566,
      "ĠCo": 1567,
      "pl": 1568,
      "tom": 1569,
      "Åļ": 1570,
      "wcy": 1571,
      "ank": 1572,
      "ĠzostaÅĤy": 1573,
      "jÄħca": 1574,
      "jedno": 1575,
      "ĠDe": 1576,
      "now": 1577,
      "Ġfil": 1578,
      "ĠpaÅºdziernika": 1579,
      ".)": 1580,
      "Ġorganiza": 1581,
      "Ġak": 1582,
      "preze": 1583,
      "tw": 1584,
      "ĠdostÄĻp": 1585,
      "Ġ26": 1586,
      "Ġzawod": 1587,
      "Ġmaja": 1588,
      "mniej": 1589,
      "Ġzastos": 1590,
      "Ġniniej": 1591,
      "Ġinwe": 1592,
      "noc": 1593,
      "rab": 1594,
      "Ġok": 1595,
      "ĠEuropej": 1596,
      "Ġpodlega": 1597,
      "Ġpotwier": 1598,
      "Ġprzeprowa": 1599,
      "ÅĤoÅ¼": 1600,
      "Ġorze": 1601,
      "Ġbudowla": 1602,
      "WA": 1603,
      "Ġpowo": 1604,
      "ĠtytuÅĤu": 1605,
      "oby": 1606,
      "Ġlistopada": 1607,
      "Ġbudy": 1608,
      "jem": 1609,
      "ĠSa": 1610,
      "czest": 1611,
      "tami": 1612,
      "ĠTo": 1613,
      "ĠdÅĤu": 1614,
      "ten": 1615,
      "ĠiÅ¼": 1616,
      "Ġpoda": 1617,
      "godnie": 1618,
      "star": 1619,
      "Ġstwier": 1620,
      "ĠktÃ³rego": 1621,
      "Ġstanowis": 1622,
      "ĠTa": 1623,
      "Ġpowsta": 1624,
      "ard": 1625,
      "ium": 1626,
      "NIE": 1627,
      "ĠbyÅĤy": 1628,
      "nicy": 1629,
      "ĠbÄĻdÄħ": 1630,
      "Ġwniosku": 1631,
      "Ġprzeciw": 1632,
      "GO": 1633,
      "Ġkre": 1634,
      "Ġopie": 1635,
      "cznÄħ": 1636,
      "Ġbo": 1637,
      "Ġograni": 1638,
      "Ġek": 1639,
      "ĠteÅ¼": 1640,
      "Ġ196": 1641,
      "ĠÅģ": 1642,
      "Ġczas": 1643,
      "ĠogÃ³l": 1644,
      "ve": 1645,
      "NY": 1646,
      "land": 1647,
      "ĠOb": 1648,
      "ÅĤoÅĽci": 1649,
      "cjona": 1650,
      "owanych": 1651,
      "cyjnej": 1652,
      "ĠSÄħd": 1653,
      "Ġponie": 1654,
      "Å¼enie": 1655,
      "Ġprzedstawi": 1656,
      "zasa": 1657,
      "us": 1658,
      "âĢ¦": 1659,
      "mienia": 1660,
      "lan": 1661,
      "unku": 1662,
      "twarza": 1663,
      "Ġtere": 1664,
      "Ġkil": 1665,
      "Ġtu": 1666,
      "Ġkonie": 1667,
      "âĢĿ,": 1668,
      "waÄĩ": 1669,
      "kro": 1670,
      "Ġstrony": 1671,
      "Ġ28": 1672,
      "wnÄĻtrz": 1673,
      "Ġraz": 1674,
      "ser": 1675,
      "Ġodpowiedzia": 1676,
      "ĠBo": 1677,
      "ho": 1678,
      "16": 1679,
      "cyjny": 1680,
      "Ġ/": 1681,
      "ĠciÄħ": 1682,
      "Ġww": 1683,
      "ĠSt": 1684,
      "tp": 1685,
      "Ġprzewi": 1686,
      "wyÅ¼": 1687,
      "Ġ2017": 1688,
      "ĠwystÄĻp": 1689,
      "misji": 1690,
      "Ġobec": 1691,
      "miÄĻ": 1692,
      "ĠAd": 1693,
      "dia": 1694,
      "ĠGminy": 1695,
      "zie": 1696,
      "ĠskÅĤada": 1697,
      "Ġmateria": 1698,
      "ÅĤego": 1699,
      "min": 1700,
      "iom": 1701,
      "ĠSÄħ": 1702,
      "gÄĻ": 1703,
      "towych": 1704,
      "17": 1705,
      "owoÅĽci": 1706,
      "Ġobro": 1707,
      "Ġofert": 1708,
      "onu": 1709,
      "ĠUni": 1710,
      "ĠamerykaÅĦ": 1711,
      "Ġinne": 1712,
      "Ġzwo": 1713,
      "Ġprowadz": 1714,
      "lna": 1715,
      "Ġzmiany": 1716,
      "ĠJest": 1717,
      "ktyw": 1718,
      "Ġbar": 1719,
      "jÄħcÄħ": 1720,
      "ĠtowarÃ³w": 1721,
      "Ġcie": 1722,
      "Ġist": 1723,
      "ĠkosztÃ³w": 1724,
      "Ġlutego": 1725,
      "wiÄħza": 1726,
      "Ġsi": 1727,
      "dziÄĩ": 1728,
      "Wy": 1729,
      "ktora": 1730,
      "Ġindy": 1731,
      "ĠoÅĽwiad": 1732,
      "ĠokoÅĤo": 1733,
      "Ġgodzi": 1734,
      "Ġpomi": 1735,
      "jÄĻcia": 1736,
      "sÅĤ": 1737,
      "ÃĵW": 1738,
      "Ġrozu": 1739,
      "ĠstanowiÄħ": 1740,
      "Ġkry": 1741,
      "wany": 1742,
      "Ġwyb": 1743,
      "Ġwynagro": 1744,
      "ĠPaÅĦ": 1745,
      "erytor": 1746,
      "cenia": 1747,
      "ntÃ³w": 1748,
      "Ġci": 1749,
      "Ġustaw": 1750,
      "ĠMe": 1751,
      "Ġzwy": 1752,
      "be": 1753,
      "ĠDy": 1754,
      "ÅĤÄħcznik": 1755,
      "Ġreje": 1756,
      "ĠRze": 1757,
      "ĠMie": 1758,
      "dziÅĤ": 1759,
      "Ġobsz": 1760,
      "mina": 1761,
      "tura": 1762,
      "chy": 1763,
      "CJ": 1764,
      "zek": 1765,
      "prac": 1766,
      "odek": 1767,
      "Ġwszystkich": 1768,
      "ĠKra": 1769,
      "wer": 1770,
      "Ġzas": 1771,
      "Ġwieku": 1772,
      "ut": 1773,
      "ĠsÅĤuÅ¼": 1774,
      "Ġ2009": 1775,
      "lie": 1776,
      "Ġdyre": 1777,
      "Ġ194": 1778,
      "pod": 1779,
      "czni": 1780,
      "ĠZjedno": 1781,
      "Ġdecyzji": 1782,
      "tne": 1783,
      "Ġobie": 1784,
      "Ġwol": 1785,
      "rt": 1786,
      "Ġcywi": 1787,
      "................": 1788,
      "ĠskÅĤad": 1789,
      "owymi": 1790,
      "ĠÅĤa": 1791,
      "Przy": 1792,
      "Ġdob": 1793,
      "Ġtechni": 1794,
      "Ġkorzysta": 1795,
      "ÅĤÄħcznie": 1796,
      "ÅĤudni": 1797,
      "tury": 1798,
      "ĠnastÄĻpu": 1799,
      "cach": 1800,
      "Ġinterne": 1801,
      "szech": 1802,
      "NA": 1803,
      "cka": 1804,
      "ĠWe": 1805,
      "ĠogÅĤo": 1806,
      "pita": 1807,
      "ĠrozporzÄħdzenia": 1808,
      "gniÄĻ": 1809,
      "ĠbudÅ¼e": 1810,
      "Ġmiejsc": 1811,
      "publi": 1812,
      "Ġterminie": 1813,
      "per": 1814,
      "tki": 1815,
      "OD": 1816,
      "szcze": 1817,
      "ir": 1818,
      "dach": 1819,
      "tora": 1820,
      "ĠPre": 1821,
      "dÄĻ": 1822,
      "Å¼li": 1823,
      "Ġpoziom": 1824,
      "ich": 1825,
      "lep": 1826,
      "zem": 1827,
      "Ġpostan": 1828,
      "cki": 1829,
      "Ġodpowiedni": 1830,
      "ÅĤÄĻ": 1831,
      "ĠusÅĤugi": 1832,
      "ĠnaleÅ¼": 1833,
      "woÅĤa": 1834,
      "Ġrok": 1835,
      "bÄĻd": 1836,
      "tnych": 1837,
      "lub": 1838,
      "pow": 1839,
      "rzenia": 1840,
      "ĠszczegÃ³lnoÅĽci": 1841,
      "moc": 1842,
      "owana": 1843,
      "ĠAl": 1844,
      "Ġmusi": 1845,
      "Ġspecja": 1846,
      "Ġokresie": 1847,
      "Ġprzychod": 1848,
      "Ġinte": 1849,
      "ĠjuÅ¼": 1850,
      "Ġuwz": 1851,
      "kom": 1852,
      "Ġ2008": 1853,
      "Ġinwesty": 1854,
      "ĠMini": 1855,
      "Ġkraj": 1856,
      "ber": 1857,
      "ĠobowiÄħz": 1858,
      "ĠNaj": 1859,
      "Ġnaru": 1860,
      "czony": 1861,
      "kowi": 1862,
      "Ġstud": 1863,
      "Ġzatru": 1864,
      "wÃ³j": 1865,
      "Ġ31": 1866,
      "Ġpomocy": 1867,
      "zo": 1868,
      "Ġrach": 1869,
      "Ġ2004": 1870,
      "rakt": 1871,
      "ĠkoÅĦ": 1872,
      "Ġ(...": 1873,
      "Ġochrony": 1874,
      "ĠkrÃ³": 1875,
      "ĠokreÅĽla": 1876,
      "scy": 1877,
      "ĠwiÄĻcej": 1878,
      "woz": 1879,
      "sÃ³w": 1880,
      "ĠwarunkÃ³w": 1881,
      "widu": 1882,
      "ment": 1883,
      "IA": 1884,
      "ĠPrzy": 1885,
      "Ġwynosi": 1886,
      "jÄĻzy": 1887,
      "obec": 1888,
      "Ġwykonania": 1889,
      "50": 1890,
      "nio": 1891,
      "Ã³j": 1892,
      "ĠtreÅĽci": 1893,
      "Ġarty": 1894,
      "ĠWa": 1895,
      "man": 1896,
      "ÅĦski": 1897,
      "ble": 1898,
      "ĠniektÃ³": 1899,
      "konu": 1900,
      "ĠCz": 1901,
      "Ġprzyzna": 1902,
      "Ġwydat": 1903,
      "30": 1904,
      "ĠÅĽrodowis": 1905,
      "czeÅĽniej": 1906,
      "ĠspÃ³ÅĤki": 1907,
      "Ġkonku": 1908,
      "Ġpublicznych": 1909,
      "spor": 1910,
      "ver": 1911,
      "ĠÅĽwia": 1912,
      "czu": 1913,
      "nki": 1914,
      "biera": 1915,
      "niki": 1916,
      "mier": 1917,
      "Ġcel": 1918,
      "mat": 1919,
      "ĠZA": 1920,
      "Ġku": 1921,
      "Ġkredy": 1922,
      "Ġ2007": 1923,
      "kle": 1924,
      "poli": 1925,
      "ĠpostÄĻpowaniu": 1926,
      "ĠpaÅĦstwa": 1927,
      "Ġmini": 1928,
      "Ġ|": 1929,
      "ÄĻÅ¼": 1930,
      "pli": 1931,
      "Ġznajduje": 1932,
      "widual": 1933,
      "ĠArt": 1934,
      "ĠY": 1935,
      "fikowa": 1936,
      "Ġon": 1937,
      "ĠPrawo": 1938,
      "Ġ2006": 1939,
      "Ġrepreze": 1940,
      "chodzi": 1941,
      "Ġokoli": 1942,
      "Ġdoty": 1943,
      "fikacji": 1944,
      "ĠLa": 1945,
      "Ġpoprzez": 1946,
      "Ġwyra": 1947,
      "zji": 1948,
      "mowa": 1949,
      "niÄħ": 1950,
      "ĠMia": 1951,
      "widÅĤ": 1952,
      "Ġodby": 1953,
      "Ġoznacza": 1954,
      "bÄħ": 1955,
      "dom": 1956,
      "ĠmiesiÄĻ": 1957,
      "Ġpar": 1958,
      "ĠÅĽwiadczenia": 1959,
      "Ġstanu": 1960,
      "wodni": 1961,
      "Ġpojaz": 1962,
      "ĠurzÄħ": 1963,
      "Ġ000": 1964,
      "lÄħ": 1965,
      "Ġem": 1966,
      "ĠjeÅĽli": 1967,
      "rach": 1968,
      "ĠokreÅĽlonych": 1969,
      "ĠSkar": 1970,
      "chÃ³d": 1971,
      "Ġdzieci": 1972,
      "glÄĻd": 1973,
      "sÅĤugu": 1974,
      "ĠSe": 1975,
      "Ġjedy": 1976,
      "ami": 1977,
      "Je": 1978,
      "Ġwoj": 1979,
      "lÄĻ": 1980,
      "22": 1981,
      "ĠBy": 1982,
      "ĠudziaÅĤ": 1983,
      "ple": 1984,
      "Ġprzezna": 1985,
      "ĠAu": 1986,
      "chodz": 1987,
      "rybu": 1988,
      "Ġuzasa": 1989,
      "Ġposta": 1990,
      "Ġwymieni": 1991,
      "ĠsprzedaÅ¼y": 1992,
      "Ġpowierz": 1993,
      "bÄĻ": 1994,
      "Ġprojektu": 1995,
      "Ġuczest": 1996,
      "Ġpostanowie": 1997,
      "Ġrzeczy": 1998,
      "Äĺ": 1999,
      "ĠZamawiajÄħcy": 2000,
      "moÅ¼li": 2001,
      "Ġhist": 2002,
      "ĠCa": 2003,
      "ER": 2004,
      "aru": 2005,
      "Ġne": 2006,
      "vi": 2007,
      "kry": 2008,
      "twa": 2009,
      "Å¼u": 2010,
      "Ġnum": 2011,
      "ĠosiÄħ": 2012,
      "yta": 2013,
      "lacji": 2014,
      "tÄħ": 2015,
      "Ġindywidual": 2016,
      "ktury": 2017,
      "Ġ2018": 2018,
      "Ġeg": 2019,
      "LI": 2020,
      "two": 2021,
      "ĠBi": 2022,
      "ĠWie": 2023,
      "Ġterytor": 2024,
      "Â³": 2025,
      "rzÄĻdu": 2026,
      "gh": 2027,
      "zacja": 2028,
      "sti": 2029,
      "ĠjÄĻzy": 2030,
      "kra": 2031,
      "dÃ³w": 2032,
      "Ġsytuacji": 2033,
      "Ġener": 2034,
      "ĠZarzÄħ": 2035,
      "Ġfak": 2036,
      "Ġinterpre": 2037,
      "gii": 2038,
      "Ġponad": 2039,
      "ĠpiÅĤ": 2040,
      "ĠpowyÅ¼": 2041,
      "Ġoferty": 2042,
      "tnoÅĽci": 2043,
      "ÅĤym": 2044,
      "Ġpozwa": 2045,
      "ĠSo": 2046,
      "omen": 2047,
      "tion": 2048,
      "dzania": 2049,
      "czycie": 2050,
      "Ġso": 2051,
      "ĠuÅ¼ytk": 2052,
      "Ġbezpie": 2053,
      "Ġstronie": 2054,
      "Ġprzepisy": 2055,
      "Ġgdzie": 2056,
      "strzy": 2057,
      "czeni": 2058,
      "sce": 2059,
      "kowych": 2060,
      "Äħcego": 2061,
      "sztaÅĤ": 2062,
      "Ġudo": 2063,
      "stro": 2064,
      "tera": 2065,
      "Ġ195": 2066,
      "nikiem": 2067,
      "Ġczasu": 2068,
      "strz": 2069,
      "Ġwniosek": 2070,
      "ĠIII": 2071,
      "Ġbezpo": 2072,
      "Ġbardzo": 2073,
      "Ġnieza": 2074,
      "23": 2075,
      "ĠSÄħdu": 2076,
      "Å¼yÄĩ": 2077,
      "ĠdziaÅĤania": 2078,
      "Ġcharakt": 2079,
      "PO": 2080,
      "Ġnada": 2081,
      "ĠpÃ³Åºniej": 2082,
      "towego": 2083,
      "ĠPrzed": 2084,
      "log": 2085,
      "ĠUsta": 2086,
      "ĠÅº": 2087,
      "kowej": 2088,
      "Ġpun": 2089,
      "Ġdodatk": 2090,
      "ĠZjednoczonych": 2091,
      "ĠPar": 2092,
      "Ġnajmniej": 2093,
      "widen": 2094,
      "ĠpoczÄħ": 2095,
      "wienia": 2096,
      "at": 2097,
      "Ġtakie": 2098,
      "Ġtrwa": 2099,
      "ĠspeÅĤnia": 2100,
      "ĠwzglÄĻ": 2101,
      "Ġpublicznego": 2102,
      "ks": 2103,
      "Ġwod": 2104,
      "ĠPR": 2105,
      "Ġmniej": 2106,
      "sÅĤugi": 2107,
      "Ġ50": 2108,
      "ĠÅ¼a": 2109,
      "Ġzgod": 2110,
      "CY": 2111,
      "ĠobjÄĻ": 2112,
      "ĠCen": 2113,
      "ĠwiÄĻc": 2114,
      "ĠFran": 2115,
      "nictwa": 2116,
      "ĠczÄĻÅĽÄĩ": 2117,
      "Ġl": 2118,
      "Ġdane": 2119,
      "Ġpoza": 2120,
      "Ġkomu": 2121,
      "niÄĩ": 2122,
      "Ġdopu": 2123,
      "Ġstra": 2124,
      "Ġpr": 2125,
      "ĠpÃ³ÅĤnoc": 2126,
      "Ġmy": 2127,
      "ĠudziaÅĤu": 2128,
      "nami": 2129,
      "ĠrzÄħ": 2130,
      "cen": 2131,
      "dzeÅĦ": 2132,
      "DZ": 2133,
      "Ġrodziny": 2134,
      "rÄĻb": 2135,
      "Ġkm": 2136,
      "Ġopera": 2137,
      "Ġtrzy": 2138,
      "gn": 2139,
      "ĠThe": 2140,
      "ÄĻdzy": 2141,
      "Ã©": 2142,
      "ĠdwÃ³": 2143,
      "Ġlekar": 2144,
      "zi": 2145,
      "ĠIz": 2146,
      "ĠwczeÅĽniej": 2147,
      "ĠpiÄĻ": 2148,
      "Ġaktu": 2149,
      "Ġprzyczy": 2150,
      "ĠrozwiÄħza": 2151,
      "ĠSpÃ³ÅĤki": 2152,
      "iaÅĤ": 2153,
      "Ġthe": 2154,
      "Ġtakich": 2155,
      "Ġzasady": 2156,
      "waÅĤ": 2157,
      "ĠZe": 2158,
      "ĠSy": 2159,
      "rzÄħd": 2160,
      "Ġelektroni": 2161,
      "pÅĤaty": 2162,
      "zyj": 2163,
      "Ġuro": 2164,
      "ĠSI": 2165,
      "LA": 2166,
      "waran": 2167,
      "ogra": 2168,
      "Ġ(...)": 2169,
      "czes": 2170,
      "ĠktÃ³rzy": 2171,
      "ton": 2172,
      "czeniem": 2173,
      "Ġistnie": 2174,
      "liwoÅĽÄĩ": 2175,
      "ierow": 2176,
      "zyden": 2177,
      "ĠgÅĤo": 2178,
      "Ġzale": 2179,
      "ĠWykonawca": 2180,
      "Ġ2005": 2181,
      "ĠzakoÅĦ": 2182,
      "licza": 2183,
      "onie": 2184,
      "24": 2185,
      "Å»": 2186,
      "Ġisto": 2187,
      "dzeniu": 2188,
      "iast": 2189,
      "ĠwojewÃ³dz": 2190,
      "Ġczasie": 2191,
      "Ġwszystkie": 2192,
      "der": 2193,
      "ĠoÅĽ": 2194,
      "Ġdosta": 2195,
      "ss": 2196,
      "czyÅĤ": 2197,
      "ĠsamorzÄħ": 2198,
      "Ġterminu": 2199,
      "Ġkontroli": 2200,
      "fia": 2201,
      "ĠdziaÅĤalnoÅĽÄĩ": 2202,
      "ĠupÅĤy": 2203,
      "Ġprzetwarza": 2204,
      "kÃ³ÅĤ": 2205,
      "Ġpozy": 2206,
      "Ġsprawy": 2207,
      "Ġopar": 2208,
      "Ġregi": 2209,
      "tel": 2210,
      "ÅĽnie": 2211,
      "ĠdwÃ³ch": 2212,
      "Ġkonsu": 2213,
      "Prze": 2214,
      "szczenia": 2215,
      "ĠKodek": 2216,
      "narod": 2217,
      "ĠobowiÄħzu": 2218,
      "Ġprzygo": 2219,
      "towy": 2220,
      "spÃ³ÅĤ": 2221,
      "woju": 2222,
      "Ġsez": 2223,
      "ĠWi": 2224,
      "dÅº": 2225,
      "dium": 2226,
      "ckiego": 2227,
      "Ġ100": 2228,
      "Ġzespo": 2229,
      "orÃ³w": 2230,
      "czeÅĦstwa": 2231,
      "Ġmiasta": 2232,
      "spra": 2233,
      "tyczne": 2234,
      "Ġtj": 2235,
      "com": 2236,
      "wersy": 2237,
      "tka": 2238,
      "Ġregula": 2239,
      "ĠwedÅĤug": 2240,
      "Ġnich": 2241,
      "Ġprawnych": 2242,
      "czonego": 2243,
      "Ġpodej": 2244,
      "ĠcaÅĤ": 2245,
      "usz": 2246,
      "ÅĤowie": 2247,
      "skÄħ": 2248,
      "ĠmieszkaÅĦ": 2249,
      "Ġ193": 2250,
      "ĠJo": 2251,
      "Ã³wno": 2252,
      "Ġsamy": 2253,
      "tycznych": 2254,
      "SZ": 2255,
      "datkowa": 2256,
      "KA": 2257,
      "lii": 2258,
      "ĠwzglÄĻdu": 2259,
      "ĠpracownikÃ³w": 2260,
      "ĠsÅĤu": 2261,
      "ĠpÅĤy": 2262,
      "dnienia": 2263,
      "25": 2264,
      "Ġilo": 2265,
      "WZ": 2266,
      "rych": 2267,
      "Ġlit": 2268,
      "ĠponiewaÅ¼": 2269,
      "Ġkwali": 2270,
      "ĠniezbÄĻd": 2271,
      "ĠFundu": 2272,
      "jÄĻcie": 2273,
      "lnÄħ": 2274,
      "par": 2275,
      "groma": 2276,
      "Ġzaku": 2277,
      "Ġnor": 2278,
      "ĠLo": 2279,
      "Ġzie": 2280,
      "Ġpolega": 2281,
      "Ġdotyczy": 2282,
      "Ġbrz": 2283,
      "Ġdwa": 2284,
      "ĠUSD": 2285,
      "wersyte": 2286,
      "wÃ³r": 2287,
      "tacja": 2288,
      "ĠpÃ³Åºn": 2289,
      "ĠÅ¼ycie": 2290,
      "Ġkwoty": 2291,
      "tomiast": 2292,
      "Przypisy": 2293,
      "owaÅ¼": 2294,
      "Ġstaw": 2295,
      "ĠzwiÄħzane": 2296,
      "01": 2297,
      "27": 2298,
      "Ġgatu": 2299,
      "Ġani": 2300,
      "ĠPi": 2301,
      "sh": 2302,
      "Ġzasad": 2303,
      "Ġsystemu": 2304,
      "Ġklasy": 2305,
      "Ġsza": 2306,
      "Ġprzekaza": 2307,
      "ĠdotyczÄħcych": 2308,
      "Ġkiedy": 2309,
      "dami": 2310,
      "Ġinformacje": 2311,
      "kla": 2312,
      "kowe": 2313,
      "dem": 2314,
      "Ġstosunku": 2315,
      "owarzy": 2316,
      "rii": 2317,
      "towe": 2318,
      "Ġwykonaw": 2319,
      "Ġpyta": 2320,
      "wego": 2321,
      "kaz": 2322,
      "Ġzwro": 2323,
      "ĠdÅĤugo": 2324,
      "ĠkaÅ¼dy": 2325,
      "Ġkraju": 2326,
      "stÄħpie": 2327,
      "Ġemery": 2328,
      "09": 2329,
      "trze": 2330,
      "Ġformie": 2331,
      "07": 2332,
      "ĠPolsce": 2333,
      "Ġinstytu": 2334,
      "ĠdokumentÃ³w": 2335,
      "ĠOr": 2336,
      "Ġdrugie": 2337,
      "Ġgrani": 2338,
      "cep": 2339,
      "Ġzaw": 2340,
      "ly": 2341,
      "ach": 2342,
      "Ġzez": 2343,
      "Ġmod": 2344,
      "Ġszy": 2345,
      "ĠmoÅ¼liwoÅĽci": 2346,
      "nomi": 2347,
      "ĠNi": 2348,
      "fer": 2349,
      "wet": 2350,
      "Ġpierwszy": 2351,
      "nkÃ³w": 2352,
      "wana": 2353,
      "LE": 2354,
      "enera": 2355,
      "Ġumie": 2356,
      "05": 2357,
      "che": 2358,
      "ÄĻg": 2359,
      "powiada": 2360,
      "08": 2361,
      "TA": 2362,
      "ĠLu": 2363,
      "Ġgospodarczej": 2364,
      "Ġosobowych": 2365,
      "fini": 2366,
      "god": 2367,
      "Ġprojekt": 2368,
      "21": 2369,
      "ĠÅ»": 2370,
      "tnego": 2371,
      "06": 2372,
      "Ġrobo": 2373,
      "Ġzakresu": 2374,
      "ĠWY": 2375,
      "Ġoceny": 2376,
      "ĠWarszawa": 2377,
      "ĠczÄĻsto": 2378,
      "nowie": 2379,
      "Ġhand": 2380,
      "ÅĿ": 2381,
      "Ġhrab": 2382,
      "ĠInter": 2383,
      "Ġwykorzysta": 2384,
      "ĠDyre": 2385,
      "Ġwykorzy": 2386,
      "Art": 2387,
      "ĠzostaÅĤo": 2388,
      "Ġpolity": 2389,
      "gram": 2390,
      "Ġzam": 2391,
      "ĠHo": 2392,
      "Ġha": 2393,
      "Ġ2003": 2394,
      "ĠsporzÄħ": 2395,
      "ĠwaÅ¼": 2396,
      "va": 2397,
      "kacji": 2398,
      "siÅĤ": 2399,
      "ĠSP": 2400,
      "Ġpowodu": 2401,
      "wanych": 2402,
      "ĠInforma": 2403,
      "Ġwybra": 2404,
      "codaw": 2405,
      "ĠudostÄĻp": 2406,
      "czki": 2407,
      "ĠTy": 2408,
      "26": 2409,
      "Ġzostanie": 2410,
      "jskiej": 2411,
      "KO": 2412,
      "Ġakt": 2413,
      "Ġprzestrze": 2414,
      "Ġ2000": 2415,
      "Ġadres": 2416,
      "Ġodniesie": 2417,
      "ĠCzy": 2418,
      "rÃ³Å¼": 2419,
      "ura": 2420,
      "Ġ)": 2421,
      "ĠwyÅĤÄħcznie": 2422,
      "Ġzabezpie": 2423,
      "ĠGa": 2424,
      "RE": 2425,
      "03": 2426,
      "âĢ¦âĢ¦": 2427,
      "Ġmet": 2428,
      "Ġuzyskania": 2429,
      "mentÃ³w": 2430,
      "rozu": 2431,
      "04": 2432,
      "nnego": 2433,
      "tym": 2434,
      "Ġterenie": 2435,
      "Ġkoszty": 2436,
      "Ġbank": 2437,
      "Ãª": 2438,
      "ĠksiÄĻ": 2439,
      "Ġhi": 2440,
      "Ġwobec": 2441,
      "Ġcent": 2442,
      "Ġjeden": 2443,
      "Ġeksp": 2444,
      "ĠskÅĤadania": 2445,
      "czegÃ³l": 2446,
      "fek": 2447,
      "ke": 2448,
      "kÅĤadu": 2449,
      "ĠpracÄĻ": 2450,
      "Ġ:": 2451,
      "ono": 2452,
      "ĠSpo": 2453,
      "leg": 2454,
      "Ġzdrowo": 2455,
      "nes": 2456,
      "cjach": 2457,
      "niÄĻÅ¼": 2458,
      "mentu": 2459,
      "Ġopi": 2460,
      "pisu": 2461,
      "ĠdziaÅĤ": 2462,
      "ĠZosta": 2463,
      "ĠpoÅĤudni": 2464,
      "pospoli": 2465,
      "ĠpaÅĦstw": 2466,
      "ĠpoÅ¼y": 2467,
      "bÃ³": 2468,
      "cjon": 2469,
      "Ġpara": 2470,
      "ĠSu": 2471,
      "stÃ³w": 2472,
      "Do": 2473,
      "ÅĦskiego": 2474,
      "Ġgminy": 2475,
      "ĠSzko": 2476,
      "ĠzgÅĤo": 2477,
      "Ġspor": 2478,
      "Ġkieru": 2479,
      "minu": 2480,
      "ĠnastÄĻpnie": 2481,
      "ÂŃ": 2482,
      "czaj": 2483,
      "nien": 2484,
      "Ġmedy": 2485,
      "Nie": 2486,
      "ĠzadaÅĦ": 2487,
      "Ġdom": 2488,
      "Ġzadania": 2489,
      "sem": 2490,
      "Ġopodatkowa": 2491,
      "ĠUnii": 2492,
      "Ġup": 2493,
      "ĠzwiÄħzanych": 2494,
      "ĠSIWZ": 2495,
      "Ġznajdu": 2496,
      "OWE": 2497,
      "Ġlata": 2498,
      "Ġruch": 2499,
      "ĠNA": 2500,
      "Ġprowadzenia": 2501,
      "nnych": 2502,
      "ĠHa": 2503,
      "ĠÅ¼Äħ": 2504,
      "Ġmuzy": 2505,
      "Ġnadz": 2506,
      "ĠNarod": 2507,
      "ĠPoli": 2508,
      "ĠczÅĤonkow": 2509,
      "Ġregu": 2510,
      "28": 2511,
      "Ġpowia": 2512,
      "Ġudziela": 2513,
      "WE": 2514,
      "ÅģA": 2515,
      "Ġubezpieczenia": 2516,
      "ĠzarÃ³wno": 2517,
      "Ġws": 2518,
      "Ġorgan": 2519,
      "rek": 2520,
      "ĠBe": 2521,
      "ĠMinistra": 2522,
      "tory": 2523,
      "ĠwÅĤaÅĽcicie": 2524,
      "Ġdrog": 2525,
      "Ġpotrzeb": 2526,
      "ĠwartoÅĽÄĩ": 2527,
      "Ġwyniku": 2528,
      "Ġpodob": 2529,
      "liczenia": 2530,
      "âĢŀ": 2531,
      "Ġkierow": 2532,
      "rÄĻg": 2533,
      "tnej": 2534,
      "Ġkobie": 2535,
      "ĠmÃ³w": 2536,
      "Ġzaj": 2537,
      "ĠAdministra": 2538,
      "Ġwielu": 2539,
      "Ġkul": 2540,
      "mowy": 2541,
      "wach": 2542,
      "Ġzwie": 2543,
      "Ġwarunki": 2544,
      "Ġwia": 2545,
      "iÄĻk": 2546,
      "zacjÄĻ": 2547,
      "szcz": 2548,
      "ĠdzieÅĦ": 2549,
      "----": 2550,
      "ĠIN": 2551,
      "ĠzewnÄĻtrz": 2552,
      "Ġsamym": 2553,
      "mon": 2554,
      "jskich": 2555,
      "Ġsieci": 2556,
      "Pa": 2557,
      "Ġtry": 2558,
      "ĠprzysÅĤugu": 2559,
      "ts": 2560,
      "Ġostatni": 2561,
      "nty": 2562,
      "rzu": 2563,
      "Ġpodatkowego": 2564,
      "ĠjÄħ": 2565,
      "Ġrozumieniu": 2566,
      "cyjna": 2567,
      "kol": 2568,
      "ÅĤowa": 2569,
      "Ġwiele": 2570,
      "ĠbezpoÅĽredni": 2571,
      "cyjnym": 2572,
      "ZP": 2573,
      "ĠwÅĤaÅĽciwy": 2574,
      "ĠprzychodÃ³w": 2575,
      "Ġanali": 2576,
      "Ġwyzna": 2577,
      "ĠJeÅĽli": 2578,
      "Ġdalej": 2579,
      "nij": 2580,
      "ĠÅ¼ad": 2581,
      "ĠzaÅĤo": 2582,
      "ĠksztaÅĤ": 2583,
      "Ġfizycznych": 2584,
      "__": 2585,
      "CI": 2586,
      "owiem": 2587,
      "Ġdowod": 2588,
      "stawia": 2589,
      "zm": 2590,
      "Ġwykonywania": 2591,
      "ĠDzie": 2592,
      "Ġzmian": 2593,
      "ĠKraj": 2594,
      "ĠwiÄĻksz": 2595,
      "szczegÃ³l": 2596,
      "Bi": 2597,
      "nione": 2598,
      "ĠmiesiÄħ": 2599,
      "ryty": 2600,
      "dzony": 2601,
      "nne": 2602,
      "Ġprzeka": 2603,
      "ria": 2604,
      "ĠÐ": 2605,
      "ĠÅ¼": 2606,
      "Ġnawet": 2607,
      "twie": 2608,
      "ĠDO": 2609,
      "orz": 2610,
      "qu": 2611,
      "szel": 2612,
      "owÄĻ": 2613,
      "Ġprzedmiotu": 2614,
      "finans": 2615,
      "ĠKomisji": 2616,
      "dowa": 2617,
      "ĠwyÅ¼": 2618,
      "ĠXX": 2619,
      "Ġchoro": 2620,
      "Ġudzielenie": 2621,
      "Ġgrupy": 2622,
      "cenie": 2623,
      "Ġdwu": 2624,
      "Ġotwar": 2625,
      "try": 2626,
      "45": 2627,
      "Ġoprac": 2628,
      "Ġrodzaj": 2629,
      "ĠniektÃ³rych": 2630,
      "ĠpoÅĤoÅ¼": 2631,
      "ĠuwzglÄĻ": 2632,
      "ĠÅ¼ycia": 2633,
      "ĠNR": 2634,
      "Ġkilka": 2635,
      "Ġosoba": 2636,
      "29": 2637,
      "CZE": 2638,
      "Ġmiejsca": 2639,
      "ĠÅĽwiadczeÅĦ": 2640,
      "ĠmiesiÄĻcy": 2641,
      "osen": 2642,
      "Ġsprawoz": 2643,
      "Ġwyja": 2644,
      "Ġ2002": 2645,
      "ĠWiel": 2646,
      "Ġpart": 2647,
      "Ġsko": 2648,
      "Ġzatem": 2649,
      "Ġkwe": 2650,
      "ĠpiÅĤkar": 2651,
      "wodnicz": 2652,
      "ĠBu": 2653,
      "ĠprawidÅĤ": 2654,
      "szczenie": 2655,
      "bÃ³t": 2656,
      "mii": 2657,
      "Ġjednostki": 2658,
      "ĠĊĠĊ": 2659,
      "Ġauto": 2660,
      "wiÄĻk": 2661,
      "Ġczym": 2662,
      "ĠsiedzibÄħ": 2663,
      "dra": 2664,
      "Ġwynagrodzenia": 2665,
      "Ġdostar": 2666,
      "STA": 2667,
      "ĠPoz": 2668,
      "ĠMiasta": 2669,
      "ĠPolskiej": 2670,
      "chody": 2671,
      "ĠrobÃ³t": 2672,
      "Ġtranspor": 2673,
      "Ġpowszech": 2674,
      "kali": 2675,
      "Ġgwaran": 2676,
      "ĠmiaÅĤ": 2677,
      "spe": 2678,
      "czeÅĽnie": 2679,
      "ĠmÅĤo": 2680,
      "ĠuwaÅ¼a": 2681,
      "inte": 2682,
      "logii": 2683,
      "ĠpoÅĤÄħ": 2684,
      "ĠkwotÄĻ": 2685,
      "Ġ1997": 2686,
      "onego": 2687,
      "Ġzby": 2688,
      "jski": 2689,
      "dr": 2690,
      "ĠodpowiedzialnoÅĽci": 2691,
      "Ġpotwierdza": 2692,
      "racji": 2693,
      "czym": 2694,
      "02": 2695,
      "CE": 2696,
      "ĠpomiÄĻdzy": 2697,
      "ĠEuropejskiej": 2698,
      "Ġpublicznej": 2699,
      "Ġpracodaw": 2700,
      "rzenie": 2701,
      "ĠumoÅ¼li": 2702,
      "Ġkur": 2703,
      "Ġbraku": 2704,
      "ĠWojewÃ³dz": 2705,
      "ĠpoÅĽredni": 2706,
      "Ġoby": 2707,
      "SA": 2708,
      "III": 2709,
      "Ġewiden": 2710,
      "Ġgro": 2711,
      "tto": 2712,
      "Ġzastrze": 2713,
      "wiek": 2714,
      "Ġdoda": 2715,
      "rÃ³ci": 2716,
      "naj": 2717,
      "Ġutw": 2718,
      "ĠkaÅ¼de": 2719,
      "kÅĤada": 2720,
      "es": 2721,
      "Ġzdoby": 2722,
      "ĠmaÅĤ": 2723,
      "ĠWarszawie": 2724,
      "les": 2725,
      "Ġjedynie": 2726,
      "MA": 2727,
      "cent": 2728,
      "Ġniego": 2729,
      "ĠmÃ³wi": 2730,
      "bardziej": 2731,
      "kowego": 2732,
      "ĠRO": 2733,
      "Ġmiejscu": 2734,
      "ĠMu": 2735,
      "Ġnumer": 2736,
      "ĠWal": 2737,
      "Ġwypad": 2738,
      "tery": 2739,
      "Ġjednym": 2740,
      "ctwa": 2741,
      "kreÅĽ": 2742,
      "OWY": 2743,
      "ĠprÃ³": 2744,
      "pol": 2745,
      "199": 2746,
      "kolwiek": 2747,
      "kwi": 2748,
      "40": 2749,
      "Ġforma": 2750,
      "Ġrodzaju": 2751,
      "Ġ2001": 2752,
      "ĠpieniÄĻÅ¼": 2753,
      "ksztaÅĤ": 2754,
      "jekt": 2755,
      "jaw": 2756,
      "Ġodpowiada": 2757,
      "ĠprzyjÄĻ": 2758,
      "Ġodniesieniu": 2759,
      "iera": 2760,
      "ĠciÄħgu": 2761,
      "Ġspad": 2762,
      "Ġpowierzchni": 2763,
      "ĠokreÅĽlone": 2764,
      "sach": 2765,
      "Ġpopu": 2766,
      "Ġsposob": 2767,
      "feren": 2768,
      "Ġopisa": 2769,
      "dro": 2770,
      "arz": 2771,
      "oba": 2772,
      "czona": 2773,
      "Ġwzro": 2774,
      "ĠJed": 2775,
      "Ġpew": 2776,
      "ĠMinister": 2777,
      "Ġprowadzo": 2778,
      "ĠzaÅĤÄħcz": 2779,
      "ĠÅĽredni": 2780,
      "nosz": 2781,
      "ntu": 2782,
      "ĠzostaÄĩ": 2783,
      "ĠwÄħ": 2784,
      "biega": 2785,
      "EK": 2786,
      "cznoÅĽÄĩ": 2787,
      "ĠmoÅ¼liwoÅĽÄĩ": 2788,
      "tkÃ³w": 2789,
      "dyna": 2790,
      "gna": 2791,
      "Ġzap": 2792,
      "spraw": 2793,
      "ksy": 2794,
      "ĠpodmiotÃ³w": 2795,
      "Ġprocedu": 2796,
      "Ġotrzy": 2797,
      "SP": 2798,
      "ĠodrÄĻb": 2799,
      "ĠUniwersyte": 2800,
      "ĠrÃ³Å¼nych": 2801,
      "Ġkan": 2802,
      "Ġdowo": 2803,
      "ĠmÃ³": 2804,
      "ĠÅºrÃ³d": 2805,
      "Ġfaktycz": 2806,
      "ĠRegula": 2807,
      "fo": 2808,
      "sek": 2809,
      "ĠwyjÄħ": 2810,
      "ÅĽciach": 2811,
      "ĠGo": 2812,
      "Ġzamieszka": 2813,
      "ĠWykonawcy": 2814,
      "Ġstatu": 2815,
      "tr": 2816,
      "KI": 2817,
      "ĠZamawiajÄħcego": 2818,
      "Ġdrodze": 2819,
      "ckim": 2820,
      "towi": 2821,
      "nim": 2822,
      "ya": 2823,
      "IT": 2824,
      "ĠFa": 2825,
      "EN": 2826,
      "Ġmomen": 2827,
      "ĠodwoÅĤa": 2828,
      "ĠAn": 2829,
      "zupeÅĤ": 2830,
      "ego": 2831,
      "Ġ2019": 2832,
      "2015": 2833,
      "gina": 2834,
      "Ġdochodowym": 2835,
      "Ġpomoc": 2836,
      "ĠprzestÄĻp": 2837,
      "pospolitej": 2838,
      "unek": 2839,
      "Ġnp": 2840,
      "Ġpoja": 2841,
      "ĠÅĽmier": 2842,
      "Ġge": 2843,
      "Pro": 2844,
      "ĠuchwaÅĤy": 2845,
      "Ġcharakter": 2846,
      "Ġpsy": 2847,
      "Ġsamochod": 2848,
      "lim": 2849,
      "gÃ³w": 2850,
      "Ġwykaza": 2851,
      "ord": 2852,
      "ĠSkarb": 2853,
      "Ġspowod": 2854,
      "wencji": 2855,
      "ĠpowoÅĤa": 2856,
      "Ġusu": 2857,
      "Ġbardziej": 2858,
      "ciem": 2859,
      "Ġeko": 2860,
      "pen": 2861,
      "dzone": 2862,
      "Ġkonta": 2863,
      "ĠRzeczy": 2864,
      "Ġsub": 2865,
      "Re": 2866,
      "Â¹": 2867,
      "Ġponow": 2868,
      "glÄħ": 2869,
      "ĠwiÄĻk": 2870,
      "Ġodpowiednio": 2871,
      "Ġprywa": 2872,
      "Ġzdrowia": 2873,
      "ĠwÅĤasnoÅĽci": 2874,
      "Ġstanowisko": 2875,
      "Ro": 2876,
      "ĠâĢĶ": 2877,
      "ĠmieszkaÅĦcÃ³w": 2878,
      "mar": 2879,
      "Ġautor": 2880,
      "ĠksiÄħ": 2881,
      "ĠHi": 2882,
      "Ġbowiem": 2883,
      "Ġtemat": 2884,
      "Ġorganizacji": 2885,
      "Ġobejmu": 2886,
      "niesienia": 2887,
      "onal": 2888,
      "Ġzle": 2889,
      "Ġproble": 2890,
      "Ġinstru": 2891,
      "Ġobejmuje": 2892,
      "Ġhandl": 2893,
      "Ġwyd": 2894,
      "Ġsobie": 2895,
      "Äħc": 2896,
      "Ġstosuje": 2897,
      "Ġryzy": 2898,
      "Ġzapa": 2899,
      "43": 2900,
      "Ġsztu": 2901,
      "nomoc": 2902,
      "wÅĤa": 2903,
      "orga": 2904,
      "Äħcym": 2905,
      "Ġobecnie": 2906,
      "Ġponi": 2907,
      "Ġhistor": 2908,
      "ĠOs": 2909,
      "zwa": 2910,
      "Ġprzyj": 2911,
      "Ġwielo": 2912,
      "dzeniem": 2913,
      "2013": 2914,
      "ĠWil": 2915,
      "ÅĽmy": 2916,
      "Ġ60": 2917,
      "liÄĩ": 2918,
      "Ġzwa": 2919,
      "Ġmocy": 2920,
      "Ġzbior": 2921,
      "Ġtermin": 2922,
      "Ġang": 2923,
      "Å¼one": 2924,
      "Ġmor": 2925,
      "Ġustala": 2926,
      "Ġwal": 2927,
      "daniem": 2928,
      "Ġprawnej": 2929,
      "2014": 2930,
      "Ġtw": 2931,
      "Ġprzej": 2932,
      "miar": 2933,
      "Ġustawie": 2934,
      "Ġmili": 2935,
      "tow": 2936,
      "ĠSer": 2937,
      "TY": 2938,
      "ĠrozpoczÄĻ": 2939,
      "ĠmieÄĩ": 2940,
      "Ġfirmy": 2941,
      "Ġjednego": 2942,
      "onej": 2943,
      "tkiem": 2944,
      "Ma": 2945,
      "Ġwyroku": 2946,
      "lach": 2947,
      "iaÅĤa": 2948,
      "ĠSpÃ³ÅĤka": 2949,
      "Å¼eÅĦ": 2950,
      "ĠÅĽwie": 2951,
      "mer": 2952,
      "Ġpostaci": 2953,
      "ĠmiÄĻdzynarod": 2954,
      "ĠGra": 2955,
      "Ġprogramu": 2956,
      "Ġrynku": 2957,
      "zer": 2958,
      "all": 2959,
      "pozy": 2960,
      "ĠJeÅ¼eli": 2961,
      "wÄĻ": 2962,
      "ÅĽrÃ³d": 2963,
      "nowi": 2964,
      "Ġklu": 2965,
      "Äħcej": 2966,
      "chodniej": 2967,
      "Ġjakie": 2968,
      "owoÅĽÄĩ": 2969,
      "ĠPe": 2970,
      "ĠobowiÄħzek": 2971,
      "ĠcaÅĤkowi": 2972,
      "Ġkonkur": 2973,
      "Ġbudynku": 2974,
      "strzo": 2975,
      "Ġzamawia": 2976,
      "ĠnastÄħpi": 2977,
      "lizacji": 2978,
      "Ġplanu": 2979,
      "ĠmoÅ¼li": 2980,
      "ĠKar": 2981,
      "Ġartyku": 2982,
      "Ġaktyw": 2983,
      "Ġutrzyma": 2984,
      "ĠPaÅĦstwa": 2985,
      "Ġnauczycie": 2986,
      "Ġswoich": 2987,
      "Ġpowinien": 2988,
      "ĠwypÅĤa": 2989,
      "tyfika": 2990,
      "Ġtelewi": 2991,
      "raca": 2992,
      "towania": 2993,
      "ces": 2994,
      "Ġ40": 2995,
      "ĠUbezpie": 2996,
      "niony": 2997,
      "Å¼yÅĤ": 2998,
      "lony": 2999,
      "jest": 3000,
      "ĠWnioskodawcy": 3001,
      "taj": 3002,
      "Ġwierzy": 3003,
      "ĠtÄĻ": 3004,
      "OWA": 3005,
      "ĠwyÅĤÄħ": 3006,
      "ĠuwagÄĻ": 3007,
      "ĠRzeczypospolitej": 3008,
      "Ġmin": 3009,
      "Ġfundu": 3010,
      "Ġdokony": 3011,
      "dziaÅĤa": 3012,
      "nar": 3013,
      "In": 3014,
      "Ġpreze": 3015,
      "Ġpodpisa": 3016,
      "datkowania": 3017,
      "twier": 3018,
      "Ġofi": 3019,
      "cjami": 3020,
      "Ġnim": 3021,
      "Ġkli": 3022,
      "Ġone": 3023,
      "Ġinterpretacji": 3024,
      "kazu": 3025,
      "czno": 3026,
      "ĠwspÃ³ÅĤpra": 3027,
      "ĠposzczegÃ³l": 3028,
      "ĠFinans": 3029,
      "dzeni": 3030,
      "ĠAng": 3031,
      "Ġprakty": 3032,
      "ĠUrzÄĻdu": 3033,
      "maty": 3034,
      "Ġorganu": 3035,
      "Ġstop": 3036,
      "ĠPolski": 3037,
      "Ġtwo": 3038,
      "ĠszkoÅĤy": 3039,
      "ph": 3040,
      "ĠSpoÅĤe": 3041,
      "Ġtech": 3042,
      "ĠprzesÅĤa": 3043,
      "ĠuzupeÅĤ": 3044,
      "Ġzapewnia": 3045,
      "Ġnajlep": 3046,
      "lone": 3047,
      "ĠPowia": 3048,
      "ĠKonstytu": 3049,
      "Ġprowi": 3050,
      "NO": 3051,
      "Ġniniejszej": 3052,
      "Ġprzewidzia": 3053,
      "Ġdziedzi": 3054,
      "ĠFor": 3055,
      "ckiej": 3056,
      "wÄħ": 3057,
      "ĠczÅĤonkÃ³w": 3058,
      "ĠOrga": 3059,
      "met": 3060,
      "ĠwieÅĽ": 3061,
      "Ġjeszcze": 3062,
      "ĠdoÅĽwiad": 3063,
      "pitaÅĤ": 3064,
      "Ġstru": 3065,
      "ÅĤow": 3066,
      "Ġterytorium": 3067,
      "Ġchwi": 3068,
      "Ġnieu": 3069,
      "waniu": 3070,
      "Ġtek": 3071,
      "nnej": 3072,
      "ĠzaleÅ¼": 3073,
      "ĠRE": 3074,
      "Ġpacje": 3075,
      "rzÄĻd": 3076,
      "ler": 3077,
      "Ġinternetowej": 3078,
      "ĠZostaÅĤ": 3079,
      "lno": 3080,
      "mite": 3081,
      "Ġprzysz": 3082,
      "Ġzwol": 3083,
      "Ġzdol": 3084,
      "lia": 3085,
      "ZY": 3086,
      "owaniem": 3087,
      "Ġobywa": 3088,
      "Ġpisem": 3089,
      "pon": 3090,
      "bur": 3091,
      "dli": 3092,
      "ĠwewnÄĻtrz": 3093,
      "SKIE": 3094,
      "âĢĭ": 3095,
      "niesi": 3096,
      "ĠprzykÅĤad": 3097,
      "Ġbadania": 3098,
      "ĠokolicznoÅĽci": 3099,
      "ĠdziaÅĤaÅĦ": 3100,
      "tny": 3101,
      "Ġwojs": 3102,
      "ĠobowiÄħzku": 3103,
      "miany": 3104,
      "ĠWykonaw": 3105,
      "wyczaj": 3106,
      "Ġkilku": 3107,
      "ĠHe": 3108,
      "Ġwszel": 3109,
      "Ġswojej": 3110,
      ".),": 3111,
      "cer": 3112,
      "Ġdostaw": 3113,
      "Ġprzepisami": 3114,
      "ĠumÃ³w": 3115,
      "Ġrozpozna": 3116,
      "ĠpomocÄħ": 3117,
      "ĠZgodnie": 3118,
      "ĠSA": 3119,
      "son": 3120,
      "ĠKO": 3121,
      "Ġrealizowa": 3122,
      "fra": 3123,
      "ĠCi": 3124,
      "Ġeta": 3125,
      "Ġklie": 3126,
      "ĠGe": 3127,
      "Ġprzeciwko": 3128,
      "rad": 3129,
      "Ġwykorzysty": 3130,
      "Ġeuro": 3131,
      "Ġfaktu": 3132,
      "jÄħcymi": 3133,
      "gospodar": 3134,
      "Ġopodatkowania": 3135,
      "Ġszyb": 3136,
      "bum": 3137,
      "Ġdomu": 3138,
      "mular": 3139,
      "ĠRy": 3140,
      "Ġand": 3141,
      "dawca": 3142,
      "Å¼eniem": 3143,
      "set": 3144,
      "ĠIV": 3145,
      "Ġudzia": 3146,
      "ĠzastÄĻp": 3147,
      "ĠÃ": 3148,
      "robi": 3149,
      "Ġnatomiast": 3150,
      "ĠzakÅĤad": 3151,
      "Pod": 3152,
      "ĠÅĽrodki": 3153,
      "Ġzakres": 3154,
      "terze": 3155,
      "ĠAle": 3156,
      "Ġ36": 3157,
      "ckie": 3158,
      "Ġnajbardziej": 3159,
      "ĠâĢĭ": 3160,
      "Od": 3161,
      "ciaÅ¼": 3162,
      "Czy": 3163,
      "br": 3164,
      "ĠniepeÅĤ": 3165,
      "kowy": 3166,
      "mienie": 3167,
      ");": 3168,
      "Ġpierwszej": 3169,
      "Ġtypu": 3170,
      "Ġ45": 3171,
      "CJA": 3172,
      "Ġtrak": 3173,
      "Ġjaki": 3174,
      "ĠâĢĭâĢĭ": 3175,
      "ĠFunduszu": 3176,
      "Ġpracownika": 3177,
      "ZA": 3178,
      "nizowa": 3179,
      "Ġopieki": 3180,
      "ĠniezaleÅ¼": 3181,
      "Ġinsta": 3182,
      "ĠzwiÄĻk": 3183,
      "Ja": 3184,
      "Ġznany": 3185,
      ".:": 3186,
      "Ġprowadzi": 3187,
      "Ġkr": 3188,
      "Ġnowe": 3189,
      "Ġkompu": 3190,
      "nospraw": 3191,
      "Ġfilm": 3192,
      "nictwo": 3193,
      "ĠSi": 3194,
      "ĠbezpieczeÅĦstwa": 3195,
      "Ġlotni": 3196,
      "cych": 3197,
      "gno": 3198,
      "wienie": 3199,
      "ĠCe": 3200,
      "Ġ35": 3201,
      "Ġustalenia": 3202,
      "Ġinnymi": 3203,
      "ĠkrÃ³t": 3204,
      "zja": 3205,
      "ĠUchwa": 3206,
      "stancji": 3207,
      "ĠWnioskodawca": 3208,
      "ÅĦskiej": 3209,
      "ĠcelÃ³w": 3210,
      "Ġrzeczywi": 3211,
      "unda": 3212,
      "sÅĤaw": 3213,
      "Ġtransa": 3214,
      "kura": 3215,
      "Ġopis": 3216,
      "Ġdokumenty": 3217,
      "spÃ³l": 3218,
      "omo": 3219,
      "ĠpowyÅ¼ej": 3220,
      "Ġdniem": 3221,
      "Ġzmianie": 3222,
      "ĠcaÅĤoÅĽci": 3223,
      "Ġpe": 3224,
      "rybuna": 3225,
      "ĠNajwyÅ¼": 3226,
      "czyÅĤa": 3227,
      "lin": 3228,
      "Ġwody": 3229,
      "Ġcia": 3230,
      "WI": 3231,
      "Ġtru": 3232,
      "ÄħdÅº": 3233,
      "ang": 3234,
      "zw": 3235,
      "onÃ³w": 3236,
      "ĠKu": 3237,
      "Ġzdarze": 3238,
      "Ġbrak": 3239,
      "Ġdopuszcza": 3240,
      "Ġelektry": 3241,
      "35": 3242,
      "dow": 3243,
      "ĠdruÅ¼y": 3244,
      "Ġodpowiedzi": 3245,
      "ĠTwo": 3246,
      "Ġprawie": 3247,
      "Ġkole": 3248,
      "Ġwyklu": 3249,
      "Ð°": 3250,
      "Ġangiel": 3251,
      "menty": 3252,
      "Ġwej": 3253,
      "rami": 3254,
      "Ġwych": 3255,
      "Ġczyli": 3256,
      "ĠPla": 3257,
      "niÄĻcia": 3258,
      "Ġsil": 3259,
      "ĠwydatkÃ³w": 3260,
      "czyna": 3261,
      "ujÄħ": 3262,
      "Ġniemie": 3263,
      "ciÄĻ": 3264,
      "gÅĤ": 3265,
      "ĠKomis": 3266,
      "ros": 3267,
      "zenia": 3268,
      "Ġludzi": 3269,
      "Ġzarzu": 3270,
      ".).": 3271,
      "Ġwykonanie": 3272,
      "ĠStanach": 3273,
      "Ġwers": 3274,
      "Å¼ony": 3275,
      "Ġzagro": 3276,
      "ĠktÃ³rÄħ": 3277,
      "Ġdokumentu": 3278,
      "ĠNor": 3279,
      "Ġzre": 3280,
      "rygina": 3281,
      "spek": 3282,
      "glÄħd": 3283,
      "Ġszero": 3284,
      "ĠkaÅ¼dego": 3285,
      "IP": 3286,
      "zÄĻ": 3287,
      "ote": 3288,
      "Ġfirm": 3289,
      "Ġzau": 3290,
      "Ġuchy": 3291,
      "ĠbudÅ¼etu": 3292,
      "ownie": 3293,
      "niÅĤ": 3294,
      "Ġkatego": 3295,
      "Â§": 3296,
      "Ġfran": 3297,
      "Ġwykonu": 3298,
      "ĠmajÄħtk": 3299,
      "48": 3300,
      "ĠOk": 3301,
      "ot": 3302,
      "Ġpapie": 3303,
      "Ġrozstrzy": 3304,
      "stry": 3305,
      "ĠUSA": 3306,
      "ld": 3307,
      "ĠukoÅĦ": 3308,
      "Ġrozwoju": 3309,
      "Ġzak": 3310,
      "Ġpowinny": 3311,
      "Ġjednostek": 3312,
      "ĠQ": 3313,
      "ĠChi": 3314,
      "Ġakcji": 3315,
      "Ġpocz": 3316,
      "Ġnazwi": 3317,
      "ĠPreze": 3318,
      "Ġprogram": 3319,
      "Ġj": 3320,
      "spon": 3321,
      "Ġzastosowanie": 3322,
      "Ġdrugi": 3323,
      "ĠnastÄĻpujÄħce": 3324,
      "dar": 3325,
      "Ġtam": 3326,
      "Ġzamieszkania": 3327,
      "padÃ³w": 3328,
      "Ġzy": 3329,
      "Ġzmieni": 3330,
      "Ġodbior": 3331,
      "TU": 3332,
      "cyjnÄħ": 3333,
      "Ġedu": 3334,
      "cÅĤa": 3335,
      "ÄĦD": 3336,
      "eli": 3337,
      "ĠJego": 3338,
      "ĠÅĤÄħ": 3339,
      "limpi": 3340,
      "ĠrÄĻ": 3341,
      "Ġwielko": 3342,
      "nica": 3343,
      "dziel": 3344,
      "jskim": 3345,
      "ĠJu": 3346,
      "Ġprzedmiotem": 3347,
      "ger": 3348,
      "Ġv": 3349,
      "Ġinnego": 3350,
      "Ġmil": 3351,
      "Ġzmienia": 3352,
      "budowa": 3353,
      "dniej": 3354,
      "KU": 3355,
      "ĠroÅĽli": 3356,
      "Ġzmniej": 3357,
      "kowania": 3358,
      "leÅ¼y": 3359,
      "ĠAnd": 3360,
      "Ġzde": 3361,
      "posa": 3362,
      "ĠbezpoÅĽrednio": 3363,
      "ĠopÅĤaty": 3364,
      "pia": 3365,
      "rok": 3366,
      "towym": 3367,
      "ciel": 3368,
      "Ġtrzech": 3369,
      "Ġodda": 3370,
      "ĠsÄħdu": 3371,
      "osp": 3372,
      "ĠStro": 3373,
      "ĠJoh": 3374,
      "Ġrazie": 3375,
      "ĠIzby": 3376,
      "Ġproces": 3377,
      "tycznej": 3378,
      "publikowa": 3379,
      "ĠzarzÄħdza": 3380,
      "33": 3381,
      "Ã¡": 3382,
      "interes": 3383,
      "leÅĦ": 3384,
      "ĠNe": 3385,
      "ĠjednÄħ": 3386,
      "Ġpor": 3387,
      "ĠPRZE": 3388,
      "Ġkwest": 3389,
      "Ġru": 3390,
      "ĠupowaÅ¼": 3391,
      "Ġobszar": 3392,
      "Ġnapisa": 3393,
      "Ġplan": 3394,
      "gar": 3395,
      "ckich": 3396,
      "zywa": 3397,
      "Ġwiadom": 3398,
      "ĠSpe": 3399,
      "Ġopa": 3400,
      "Ġdal": 3401,
      "dÄħ": 3402,
      "ZENIE": 3403,
      "Ġwojny": 3404,
      "Ġzwykle": 3405,
      "gniÄĻcia": 3406,
      "ografia": 3407,
      "IN": 3408,
      "ĠwpÅĤyw": 3409,
      "ĠzespoÅĤu": 3410,
      "Ġskute": 3411,
      "wej": 3412,
      "Ġuwagi": 3413,
      "Ġrejestru": 3414,
      "ĠskÅĤadni": 3415,
      "tur": 3416,
      "Ġfunkcjon": 3417,
      "ĠuÅ¼ytkow": 3418,
      "ĠdÅĤuÅ¼": 3419,
      "ĠZgroma": 3420,
      "Ġstar": 3421,
      "ĠwzglÄĻd": 3422,
      "Ġpiosen": 3423,
      "dopod": 3424,
      "ĠbÄħdÅº": 3425,
      "ĠGru": 3426,
      "ĠBar": 3427,
      "ĠKom": 3428,
      "US": 3429,
      "rew": 3430,
      "grzy": 3431,
      "ĠokrÄĻ": 3432,
      "kracza": 3433,
      "ÅĦska": 3434,
      "owaÅĤa": 3435,
      "tna": 3436,
      "riu": 3437,
      "Ġzapro": 3438,
      "ospodar": 3439,
      "Ġinfor": 3440,
      "sor": 3441,
      "2016": 3442,
      "Ð¾": 3443,
      "Ġgrup": 3444,
      "ron": 3445,
      "Ġska": 3446,
      "ĠSan": 3447,
      "ĠPier": 3448,
      "tan": 3449,
      "let": 3450,
      "Ġpodatnika": 3451,
      "Ġprzech": 3452,
      "iÃ³w": 3453,
      "ĠUE": 3454,
      "kcja": 3455,
      "jskiego": 3456,
      "Ġliczby": 3457,
      "tual": 3458,
      "ion": 3459,
      "//": 3460,
      "ĠswojÄħ": 3461,
      "ĠupÅĤywem": 3462,
      "nÄħÄĩ": 3463,
      "Ġorygina": 3464,
      "2012": 3465,
      "Ġdyrekty": 3466,
      "Ġnowo": 3467,
      "Ġhrabstwie": 3468,
      "ĠsprzÄĻ": 3469,
      "kowie": 3470,
      "ADY": 3471,
      "Ġwez": 3472,
      "ĠÅĽre": 3473,
      "ĠpeÅĤnomoc": 3474,
      "Ġpotrzeby": 3475,
      "Ġgenera": 3476,
      "Ġrozpa": 3477,
      "46": 3478,
      "Ġodci": 3479,
      "ĠTrybuna": 3480,
      "Ġpozwo": 3481,
      "ĠNew": 3482,
      "ĠproduktÃ³w": 3483,
      "ĠnajwiÄĻk": 3484,
      "owanego": 3485,
      "Ġper": 3486,
      "Ġile": 3487,
      "ĠZamÃ³wie": 3488,
      "ĠniepeÅĤnospraw": 3489,
      "czek": 3490,
      "port": 3491,
      "ĠÅĽwiet": 3492,
      "Ġenergii": 3493,
      "nÄħÅĤ": 3494,
      "prawy": 3495,
      "Ġtaki": 3496,
      "Ġuczni": 3497,
      "tychczas": 3498,
      "Ġubiega": 3499,
      "Ġkontra": 3500,
      "frastru": 3501,
      "Ġjednej": 3502,
      "ĠkomÃ³r": 3503,
      "Ġsprawach": 3504,
      "ĠCho": 3505,
      "ĠBry": 3506,
      "ÅĦskim": 3507,
      "ĠzÅĤoÅ¼enia": 3508,
      "Ġruchu": 3509,
      "ww": 3510,
      "Ġinwestycji": 3511,
      "ĠrzÄħd": 3512,
      "Å¼onego": 3513,
      "ĠPubli": 3514,
      "ĠEuropejskiego": 3515,
      "emi": 3516,
      "ill": 3517,
      "rum": 3518,
      "36": 3519,
      "OS": 3520,
      "ĠtÅĤu": 3521,
      "Ġur": 3522,
      "Ġzagospodar": 3523,
      "Ġkonsek": 3524,
      "Ġprowin": 3525,
      "ĠPL": 3526,
      "Ġprzetar": 3527,
      "Ġarchi": 3528,
      "ÄĻÅ¼czy": 3529,
      "ĠJednak": 3530,
      "len": 3531,
      "miast": 3532,
      "ĠpowÃ³d": 3533,
      "ĠPan": 3534,
      "Ġdwie": 3535,
      "dera": 3536,
      "zp": 3537,
      "Ġlokalu": 3538,
      "Ġochronie": 3539,
      "Ġbieg": 3540,
      "31": 3541,
      "ff": 3542,
      "ĠRos": 3543,
      "bro": 3544,
      "ĠgÃ³r": 3545,
      "ll": 3546,
      "2018": 3547,
      "ĠDla": 3548,
      "Ġstosowania": 3549,
      "Ġban": 3550,
      "Ġpan": 3551,
      "Ġkrwi": 3552,
      "wych": 3553,
      "ĠprzysÅĤuguje": 3554,
      "Ġkapita": 3555,
      "ttp": 3556,
      "kcie": 3557,
      "Ġtem": 3558,
      "70": 3559,
      "Ġdzi": 3560,
      "Ġdrogi": 3561,
      "ĠwÅĤaÅĽciwego": 3562,
      "ĠPÃ³ÅĤ": 3563,
      "glÄĻdnia": 3564,
      "Ġcharak": 3565,
      "Ġ39": 3566,
      "Ġkwa": 3567,
      "ĠÅĽrodowiska": 3568,
      "Ġwspar": 3569,
      "Ġsystemie": 3570,
      "ĠwÅĤo": 3571,
      "Ġzapo": 3572,
      "Ġsek": 3573,
      "Ġnag": 3574,
      "Ġprzewo": 3575,
      "ĠÅĤÄħcz": 3576,
      "Ġcu": 3577,
      "Ġpu": 3578,
      "ĠudostÄĻpnia": 3579,
      "ĠzajÄĻ": 3580,
      "stÄħpienia": 3581,
      "ĠurzÄħdzeÅĦ": 3582,
      "ĠdotyczÄħ": 3583,
      "Ġznale": 3584,
      "Ġtrybie": 3585,
      "nieÅĦ": 3586,
      "Ġlinii": 3587,
      "Ġrozumie": 3588,
      "ĠumoÅ¼liwia": 3589,
      "Ġokresu": 3590,
      "iÄĻki": 3591,
      "UN": 3592,
      "ĠkapitaÅĤ": 3593,
      "Ġnieo": 3594,
      "ekla": 3595,
      "ĠoÅĽwiadczenia": 3596,
      "rÃ³wna": 3597,
      "Ġzasadach": 3598,
      "Ġiden": 3599,
      "czyn": 3600,
      "Ġwww": 3601,
      "twÃ³r": 3602,
      "Ġstron": 3603,
      "Ġpowinna": 3604,
      "Ġrekla": 3605,
      "ĠFo": 3606,
      "Ġpochod": 3607,
      "Ġaktual": 3608,
      "Ð¸": 3609,
      "Ã³dz": 3610,
      "godni": 3611,
      "Ġkana": 3612,
      "ĠÅĽci": 3613,
      "Ġswoim": 3614,
      "Ġ38": 3615,
      "Ġwydanie": 3616,
      "Ġbudowlane": 3617,
      "cami": 3618,
      "Ġspecjali": 3619,
      "owÃ³d": 3620,
      "Ġspis": 3621,
      "menta": 3622,
      "Ġuz": 3623,
      "ina": 3624,
      "Ġoczy": 3625,
      "ĠjakoÅĽci": 3626,
      "Ġprofe": 3627,
      "ĠpÅĤatnoÅĽci": 3628,
      "Ġpierwsze": 3629,
      "Ġpierwszym": 3630,
      "tt": 3631,
      "://": 3632,
      "unkÃ³w": 3633,
      "Ġuli": 3634,
      "Ġwystawi": 3635,
      "Ġkorzy": 3636,
      "ĠGospodar": 3637,
      "ĠPRO": 3638,
      "parta": 3639,
      "ĠJak": 3640,
      "Ġgodzin": 3641,
      "ĠodpadÃ³w": 3642,
      "Ġwszystkim": 3643,
      "................................": 3644,
      "Ġzali": 3645,
      "wykona": 3646,
      "ologi": 3647,
      "CHWA": 3648,
      "ĠzaÅĽ": 3649,
      "ĠwiÄħ": 3650,
      "75": 3651,
      "Ġkomunika": 3652,
      "ĠogÅĤoszenia": 3653,
      "ĠKodeksu": 3654,
      "szpa": 3655,
      "ĠprzedsiÄĻbiorstwa": 3656,
      "Ġprawem": 3657,
      "ĠiloÅĽci": 3658,
      "ctwem": 3659,
      "Ġona": 3660,
      "obnie": 3661,
      "Ġsygn": 3662,
      "lend": 3663,
      "trum": 3664,
      "Ġcharakterze": 3665,
      "Ġkandy": 3666,
      "zn": 3667,
      "Ġobli": 3668,
      "Ġprodukcji": 3669,
      "UE": 3670,
      "ĠNo": 3671,
      "legÅĤo": 3672,
      "Ġostate": 3673,
      "dniego": 3674,
      "ĠNadz": 3675,
      "Ġbryty": 3676,
      "ĠPonad": 3677,
      "ĠPracy": 3678,
      "omie": 3679,
      "ĠSej": 3680,
      "Ġzgody": 3681,
      "Ġprzypadkach": 3682,
      "49": 3683,
      "ĠrealizacjÄĻ": 3684,
      "Ġfinansowych": 3685,
      "ĠRob": 3686,
      "Ġswojego": 3687,
      "nnym": 3688,
      "ĠobowiÄħzkÃ³w": 3689,
      "ĠKrÃ³": 3690,
      "Bibli": 3691,
      "Ġgmina": 3692,
      "ĠRu": 3693,
      "Ġoddzia": 3694,
      "Ġmiasto": 3695,
      "Ġpozwala": 3696,
      "ĠbadaÅĦ": 3697,
      "Ġpodmiot": 3698,
      "Ġ90": 3699,
      "38": 3700,
      "Ġmieszkani": 3701,
      "ĠFe": 3702,
      "ĠzamÃ³wieÅĦ": 3703,
      "ĠzobowiÄħzany": 3704,
      "ĠÅļrod": 3705,
      "landii": 3706,
      "chani": 3707,
      "Ġkonkuren": 3708,
      "Ġobni": 3709,
      "jÄħÅĤ": 3710,
      "Ġwprowadza": 3711,
      "ĠST": 3712,
      "tycznego": 3713,
      "Ġtrakcie": 3714,
      "rea": 3715,
      "tkowa": 3716,
      "39": 3717,
      "CA": 3718,
      "Ġustawa": 3719,
      "mysÅĤ": 3720,
      "Ġpom": 3721,
      "liÅĤ": 3722,
      "Ġalbum": 3723,
      "Ġumowa": 3724,
      "Ġpodzie": 3725,
      "Ġimieniu": 3726,
      "Ġzezwo": 3727,
      "Ġprzedstawia": 3728,
      "Ġprawne": 3729,
      "Ġutra": 3730,
      "ĠpoczÄħtku": 3731,
      "stoÅĽci": 3732,
      "ĠwysokoÅĽÄĩ": 3733,
      "Ġtakiej": 3734,
      "2011": 3735,
      "szczÄĻ": 3736,
      "ĠÅĽwiadczenie": 3737,
      "ĠStra": 3738,
      "ZÄĦD": 3739,
      "ĠgÅĤÃ³wnie": 3740,
      "ĠPozna": 3741,
      "ley": 3742,
      "Ġsame": 3743,
      "ĠopÅĤat": 3744,
      "ĠkoÅĽci": 3745,
      "ÅĽni": 3746,
      "Ġdefini": 3747,
      "czonej": 3748,
      "ĠÅĽwiecie": 3749,
      "lacja": 3750,
      "Ġoparciu": 3751,
      "ĠmoÅ¼esz": 3752,
      "Ġds": 3753,
      "ĠposzczegÃ³lnych": 3754,
      "Ġzmie": 3755,
      "Ġ80": 3756,
      "dnoÅĽci": 3757,
      "2017": 3758,
      "daÄĩ": 3759,
      "Ġpodmiotu": 3760,
      "Ġproto": 3761,
      "ĠwystÄħpi": 3762,
      "Ġekonomi": 3763,
      "rysty": 3764,
      "Co": 3765,
      "regu": 3766,
      "ĠciÄĻÅ¼": 3767,
      "Ġkonkre": 3768,
      "Ġdaw": 3769,
      "it": 3770,
      "Ġpobiera": 3771,
      "Ġor": 3772,
      "tysty": 3773,
      "Ġseria": 3774,
      "Ġbudowlanych": 3775,
      "Ġgminie": 3776,
      "Ġab": 3777,
      "rocÅĤa": 3778,
      "Ġdotychczas": 3779,
      "Ġpostanowienia": 3780,
      "ĠCom": 3781,
      "Ġodszko": 3782,
      "Zgodnie": 3783,
      "kres": 3784,
      "czka": 3785,
      "ĠPor": 3786,
      "Ġrozli": 3787,
      "Ġwydania": 3788,
      "ĠBra": 3789,
      "Ġskarb": 3790,
      "ĠSte": 3791,
      "ĠByÅĤ": 3792,
      "Ġbru": 3793,
      "Ġnowych": 3794,
      "ĠmuszÄħ": 3795,
      "ĠKrzy": 3796,
      "Ġfrancu": 3797,
      "Ġzare": 3798,
      "str": 3799,
      "lona": 3800,
      "serwa": 3801,
      "taria": 3802,
      "ÅĽciami": 3803,
      "Ġwymo": 3804,
      "nny": 3805,
      "Ġzatwier": 3806,
      "Ġsposobu": 3807,
      "Ġadministracji": 3808,
      "Ġzastosowania": 3809,
      "Ġinnym": 3810,
      "Ka": 3811,
      "gÄħ": 3812,
      "ĠplacÃ³w": 3813,
      "37": 3814,
      "przy": 3815,
      "ĠXI": 3816,
      "koÅĽci": 3817,
      "ĠSh": 3818,
      "dzonych": 3819,
      "ĠoÅĽwiadczenie": 3820,
      "Ġzasob": 3821,
      "Ġnarod": 3822,
      "Ġzwrotu": 3823,
      "WO": 3824,
      "ĠmyÅĽ": 3825,
      "Ġpowiecie": 3826,
      "nawia": 3827,
      "Ġuczestni": 3828,
      "Ġwykonawcy": 3829,
      "Bibliografia": 3830,
      "Ġtechno": 3831,
      "sia": 3832,
      "ĠzÅĤotych": 3833,
      "Ã³sÅĤ": 3834,
      "Ġ1998": 3835,
      "dnienie": 3836,
      "Ġdia": 3837,
      "syÅĤa": 3838,
      "Åĥ": 3839,
      "60": 3840,
      "np": 3841,
      "jska": 3842,
      "tarz": 3843,
      "kon": 3844,
      "ĠAmery": 3845,
      "ĠnastÄĻpuje": 3846,
      "ÅĽrod": 3847,
      "plo": 3848,
      "Ġoj": 3849,
      "tyka": 3850,
      "ĠwypeÅĤ": 3851,
      "ÅļCI": 3852,
      "laz": 3853,
      "kuje": 3854,
      "Ġunie": 3855,
      "prawie": 3856,
      "dzieÄĩ": 3857,
      "ens": 3858,
      "tyki": 3859,
      "ĠRP": 3860,
      "ĠogÃ³lne": 3861,
      "Ġ00": 3862,
      "ĠWedÅĤug": 3863,
      "Ġam": 3864,
      "id": 3865,
      "Ġuzasadni": 3866,
      "ĠRozdziaÅĤ": 3867,
      "47": 3868,
      "ĠCzÄĻ": 3869,
      "Ġnazwa": 3870,
      "MIN": 3871,
      "Ã³wczas": 3872,
      "Ġpok": 3873,
      "ÅĤasza": 3874,
      "Ġzagrani": 3875,
      "tional": 3876,
      "Ġwadium": 3877,
      "Ġkomple": 3878,
      "cko": 3879,
      "ĠBur": 3880,
      "ĠuwzglÄĻdnia": 3881,
      "Âł": 3882,
      "tali": 3883,
      "NYCH": 3884,
      "ĠzewnÄĻtrzne": 3885,
      "Ġ189": 3886,
      "Ġuprawnienia": 3887,
      "ĠCar": 3888,
      "Ġtrzeci": 3889,
      "ĠmiaÅĤa": 3890,
      "owanej": 3891,
      "Ġ1991": 3892,
      "Ġ%": 3893,
      "Ġdziecka": 3894,
      "rzyw": 3895,
      "ĠĠ": 3896,
      "ĠCentrum": 3897,
      "ĠmÄĻÅ¼czy": 3898,
      "owski": 3899,
      "Ġwarunkach": 3900,
      "IS": 3901,
      "Ġwydatki": 3902,
      "Ġceny": 3903,
      "tal": 3904,
      "CHWAÅģA": 3905,
      "dae": 3906,
      "Ġdokumentacji": 3907,
      "leniu": 3908,
      "Ġreprezenta": 3909,
      "Ġoskar": 3910,
      "Ġlikwi": 3911,
      "ĠmajÄħtku": 3912,
      "Ġzainteres": 3913,
      "ciela": 3914,
      "ĠBank": 3915,
      "gÃ³l": 3916,
      "Ġpierwo": 3917,
      "lum": 3918,
      "Ġwyposa": 3919,
      "torÃ³w": 3920,
      "ĠPonadto": 3921,
      "Ġdzien": 3922,
      "ĠRADY": 3923,
      "Ġnadal": 3924,
      "Ġterytoria": 3925,
      "Ġjednoli": 3926,
      "Ġ1999": 3927,
      "ĠÅĽcie": 3928,
      "Ġreprezent": 3929,
      "Ġprzepisach": 3930,
      "oria": 3931,
      "Ġtelewizyj": 3932,
      "tencja": 3933,
      "Ġwyrok": 3934,
      "cem": 3935,
      "Ġdostawy": 3936,
      "Ġopinii": 3937,
      "lta": 3938,
      "Ġzu": 3939,
      "Ġ=": 3940,
      "Ġlicen": 3941,
      "nic": 3942,
      "ĠurzÄĻdu": 3943,
      "kade": 3944,
      "ÅĤoÅĽÄĩ": 3945,
      "ĠzapÅĤa": 3946,
      "Ġwypowie": 3947,
      "Ġwydany": 3948,
      "ksyma": 3949,
      "Ġfina": 3950,
      "niach": 3951,
      "ĠKlie": 3952,
      "ANIE": 3953,
      "Ġodno": 3954,
      "Ġlokali": 3955,
      "ĠBud": 3956,
      "gramu": 3957,
      "Ġewidencji": 3958,
      "GU": 3959,
      "ĠCon": 3960,
      "ĠPÃ³ÅĤnoc": 3961,
      "ĠFinansÃ³w": 3962,
      "ĠPRA": 3963,
      "Ġzatrudnienia": 3964,
      "bÃ³w": 3965,
      "ĠspÅĤa": 3966,
      "Ġrejestra": 3967,
      "sami": 3968,
      "nich": 3969,
      "Ġdokonu": 3970,
      "stawa": 3971,
      "Ġfunkcji": 3972,
      "ĠXV": 3973,
      "Ġmnie": 3974,
      "toli": 3975,
      "ĠzapÅĤaty": 3976,
      "towany": 3977,
      "Ġbudowy": 3978,
      "budowy": 3979,
      "Ko": 3980,
      "Ġ1990": 3981,
      "Ġliczba": 3982,
      "Ġkoniec": 3983,
      "Da": 3984,
      "Ġporozu": 3985,
      "Ġskie": 3986,
      "Ġzawarcia": 3987,
      "fii": 3988,
      "dej": 3989,
      "cena": 3990,
      "Ġniniejszego": 3991,
      "ĠGÅĤÃ³w": 3992,
      "ĠspoÅĤecznej": 3993,
      "torem": 3994,
      "Ġdrugiej": 3995,
      "80": 3996,
      "Ġkorzystania": 3997,
      "ĠDu": 3998,
      "szaÅĤ": 3999,
      "onta": 4000,
      "shi": 4001,
      "Ġniej": 4002,
      "jestrowa": 4003,
      "ÅĤowy": 4004,
      "ĠuzyskaÄĩ": 4005,
      "Ġrozwi": 4006,
      "32": 4007,
      "car": 4008,
      "].": 4009,
      "Ġprezyden": 4010,
      "ĠponiÅ¼ej": 4011,
      "79": 4012,
      "Ġcentra": 4013,
      "Ġprzepisu": 4014,
      "bili": 4015,
      "strÃ³w": 4016,
      "mowania": 4017,
      "ĠOchro": 4018,
      "czonym": 4019,
      "ĠbieÅ¼": 4020,
      "zmu": 4021,
      "ĠROD": 4022,
      "pela": 4023,
      "ĠPraw": 4024,
      "ĠWspÃ³l": 4025,
      "gue": 4026,
      "ÅĽwiadczenie": 4027,
      "Ġopodatkowaniu": 4028,
      "PP": 4029,
      "chu": 4030,
      "LNE": 4031,
      "Ġprzechowy": 4032,
      "Ġdyrektywy": 4033,
      "iÄħ": 4034,
      "ĠosobÄĻ": 4035,
      "koÅĽÄĩ": 4036,
      "Jak": 4037,
      "Li": 4038,
      "onym": 4039,
      "ĠNau": 4040,
      "ĠDi": 4041,
      "ĠGu": 4042,
      "ĠobsÅĤugi": 4043,
      "ĠGre": 4044,
      "ĠwpÅĤywu": 4045,
      "cjonariu": 4046,
      "ĠPolska": 4047,
      "ĠOkrÄĻg": 4048,
      "Ġen": 4049,
      "gach": 4050,
      "ĠPani": 4051,
      "Ġhistory": 4052,
      "Ġpodatek": 4053,
      "stwem": 4054,
      "FOR": 4055,
      "Ġtakiego": 4056,
      "Ġjakim": 4057,
      "OWIE": 4058,
      "Ġprzetwarzania": 4059,
      "Ġstuden": 4060,
      "ork": 4061,
      "ĠgÅĤos": 4062,
      "Ġkonty": 4063,
      "Ġprzekracza": 4064,
      "szczy": 4065,
      "CJI": 4066,
      "ham": 4067,
      "34": 4068,
      "ĠczÄĻÅĽciÄħ": 4069,
      "Ġwyboru": 4070,
      "ĠdoÅĤÄħ": 4071,
      "wentual": 4072,
      "ĠPoÅĤudni": 4073,
      "lew": 4074,
      "Ġnali": 4075,
      "ĠmateriaÅĤÃ³w": 4076,
      "ĠZarzÄħdu": 4077,
      "produ": 4078,
      "Ġefek": 4079,
      "Ðµ": 4080,
      "iu": 4081,
      "55": 4082,
      "Ġprawnego": 4083,
      "piÄĻ": 4084,
      "szczeÅĦ": 4085,
      "rom": 4086,
      "ĠnaleÅ¼noÅĽci": 4087,
      "Ġinnej": 4088,
      "):": 4089,
      "zaleÅ¼": 4090,
      "'s": 4091,
      "Ġspecy": 4092,
      "ĠsamorzÄħdu": 4093,
      "ÄĻdzi": 4094,
      "Ġform": 4095,
      "ĠpoÅĽrednictwem": 4096,
      "Ġzwolnienia": 4097,
      "stych": 4098,
      "cznymi": 4099,
      "Å¼yser": 4100,
      "wodniczÄħcy": 4101,
      "Uro": 4102,
      "ĠKodeks": 4103,
      "Ġpobli": 4104,
      "Ġwykonawca": 4105,
      "Ġspotka": 4106,
      "giem": 4107,
      "ĠPart": 4108,
      "ĠpowiÄħza": 4109,
      "Ġchce": 4110,
      "ĠJedno": 4111,
      "kup": 4112,
      "ĠzaÅĤÄħcznik": 4113,
      "Ġniedo": 4114,
      "ĠwyjÄħtkiem": 4115,
      "Lin": 4116,
      "Ġminima": 4117,
      "Ġy": 4118,
      "ĠÅĽmierci": 4119,
      "ĠmÃ³gÅĤ": 4120,
      "Ġ70": 4121,
      "ĠÅ¼o": 4122,
      "Ġkto": 4123,
      "ĠczÅĤowie": 4124,
      "Ġzrobi": 4125,
      "ĠwnioskÃ³w": 4126,
      "pii": 4127,
      "roz": 4128,
      "Ġformular": 4129,
      "ille": 4130,
      "ĠPzp": 4131,
      "ĠStanÃ³w": 4132,
      "ĠStu": 4133,
      "Ġinny": 4134,
      "ĠZaÅĤÄħcznik": 4135,
      "chodzÄħ": 4136,
      "Ġpodatkiem": 4137,
      "ĠuÅ¼ywa": 4138,
      "ĠzaleÅ¼noÅĽci": 4139,
      "unki": 4140,
      "ÅĤej": 4141,
      "ĠBryta": 4142,
      "][": 4143,
      "Ġskrzy": 4144,
      "Ġzao": 4145,
      "ĠBer": 4146,
      "row": 4147,
      "ĠCy": 4148,
      "Ġ32": 4149,
      "ĠwspÃ³ÅĤpracy": 4150,
      "ĠPaÅĦstw": 4151,
      "towÄħ": 4152,
      "noÅĽciÄħ": 4153,
      "ĠorganÃ³w": 4154,
      "gania": 4155,
      "wziÄĻ": 4156,
      "ĠUÅ¼y": 4157,
      "ted": 4158,
      "letni": 4159,
      "ian": 4160,
      "dziale": 4161,
      "ĠksiÄħÅ¼": 4162,
      "Ġsamodzie": 4163,
      "44": 4164,
      "towaÄĩ": 4165,
      "Ġpokry": 4166,
      "dzÄħ": 4167,
      "liÅĽmy": 4168,
      "Ġ1994": 4169,
      "ÅĤach": 4170,
      "Ġzamk": 4171,
      "**": 4172,
      "ĠzostanÄħ": 4173,
      "Ġpojazdu": 4174,
      "ĠwyÅ¼ej": 4175,
      "Ġustawo": 4176,
      "ĊĊ": 4177,
      "niÃ³sÅĤ": 4178,
      "ĠurzÄħdzenia": 4179,
      "ĠHar": 4180,
      "Ġszcze": 4181,
      "wnÄħ": 4182,
      "czania": 4183,
      "iÅĤ": 4184,
      "dliwoÅĽci": 4185,
      "Ġbli": 4186,
      "ĠKali": 4187,
      "Ġkol": 4188,
      "Ġmechani": 4189,
      "Å¼onej": 4190,
      "Ġdofinans": 4191,
      "Ġprawdopod": 4192,
      "nitor": 4193,
      "ĠpostÄĻpowanie": 4194,
      "Ġproduk": 4195,
      "ĠsÅĤo": 4196,
      "iÄĻksz": 4197,
      "Ġfe": 4198,
      "ĠczÅĤonkiem": 4199,
      "Ġsiebie": 4200,
      "rÃ³g": 4201,
      "SN": 4202,
      "Ġopro": 4203,
      "ĠInstytu": 4204,
      "ĠTen": 4205,
      "Ġegza": 4206,
      "Ġpodstawy": 4207,
      "ĠRej": 4208,
      "ĠwiÄĻkszoÅĽÄĩ": 4209,
      "ĠWrocÅĤa": 4210,
      "Ġwymi": 4211,
      "ciÄĩ": 4212,
      "ĠZie": 4213,
      "rÃ³t": 4214,
      "Ġchi": 4215,
      "Ġkoszt": 4216,
      "Ġnorma": 4217,
      "ĠwzglÄĻdem": 4218,
      "Ġrolni": 4219,
      "Ġtrans": 4220,
      "Ġprowincji": 4221,
      "Mo": 4222,
      "ĠNiem": 4223,
      "Pra": 4224,
      "Ġnatura": 4225,
      "Ġczte": 4226,
      "gia": 4227,
      "owanym": 4228,
      "Ġupad": 4229,
      "78": 4230,
      "ĠwÃ³wczas": 4231,
      "Ġserii": 4232,
      "Ġkos": 4233,
      "ZaÅĤÄħcznik": 4234,
      "Ġtro": 4235,
      "Ġstre": 4236,
      "Ġopublikowa": 4237,
      "ance": 4238,
      "towane": 4239,
      "kowym": 4240,
      "Ġhistorii": 4241,
      "dzono": 4242,
      "Ġgatunek": 4243,
      "ĠobciÄħ": 4244,
      "Ġdanego": 4245,
      "waÅ¼a": 4246,
      "Ġkredytu": 4247,
      "Ġpli": 4248,
      "Ã³ry": 4249,
      "ĠokreÅĽlonym": 4250,
      "ĠswÃ³j": 4251,
      "ĠTu": 4252,
      "Ġpozba": 4253,
      "ĠkaÅ¼dym": 4254,
      "Ġzawsze": 4255,
      "Ġpoziomie": 4256,
      "Ġteren": 4257,
      "Ġ+": 4258,
      "Ġ2020": 4259,
      "ĠpeÅĤni": 4260,
      "nka": 4261,
      "skach": 4262,
      "2019": 4263,
      "ĠBan": 4264,
      "Ġdokument": 4265,
      "ĠAustra": 4266,
      "ĠprzeksztaÅĤ": 4267,
      "\",": 4268,
      "ĠobowiÄħza": 4269,
      "Ġtakim": 4270,
      "ÅĽmie": 4271,
      "obi": 4272,
      "Ġrad": 4273,
      "ĠAgen": 4274,
      "rzÄħt": 4275,
      "ris": 4276,
      "Ġtempera": 4277,
      "Ġstanowiska": 4278,
      "ĠdochodÃ³w": 4279,
      "Ġobrotu": 4280,
      "TE": 4281,
      "szty": 4282,
      "Ġlek": 4283,
      "Ġkore": 4284,
      "nera": 4285,
      "Ġwnioskodaw": 4286,
      "Ġstr": 4287,
      "Ġlikwida": 4288,
      "ĠLea": 4289,
      "tnym": 4290,
      "zywania": 4291,
      "szÄĻ": 4292,
      "ÅĤoby": 4293,
      "Ġ46": 4294,
      "Ġdar": 4295,
      "ĠsÅĤuÅ¼by": 4296,
      "ĠporzÄħd": 4297,
      "ĠCol": 4298,
      "ĠSkarbowej": 4299,
      "ĠmoÅ¼liwe": 4300,
      "ĠwÄħtp": 4301,
      "Ġki": 4302,
      "puszcza": 4303,
      "ĠtytuÅĤ": 4304,
      "data": 4305,
      "ĠgdyÅ¼": 4306,
      "ĠRepubli": 4307,
      "gnie": 4308,
      "Ġtzw": 4309,
      "net": 4310,
      "lonych": 4311,
      "bor": 4312,
      "Ġniewy": 4313,
      "ĠwstÄĻp": 4314,
      "85": 4315,
      "Ġtwier": 4316,
      "ĠParla": 4317,
      "Ġzapobie": 4318,
      "zeku": 4319,
      "tyczny": 4320,
      "Ġwystar": 4321,
      "Ġnaruszenia": 4322,
      "jona": 4323,
      "jach": 4324,
      "Ġpotencja": 4325,
      "Ġubezpieczeni": 4326,
      "Ġcen": 4327,
      "szuki": 4328,
      "ostanowie": 4329,
      "dnieniem": 4330,
      "Ġtrady": 4331,
      "ĠprÃ³b": 4332,
      "Ġwiel": 4333,
      "ong": 4334,
      "Ġbada": 4335,
      "âĢĿ)": 4336,
      "Ġcelem": 4337,
      "ĠRegi": 4338,
      "Ġzakup": 4339,
      "Ġponownie": 4340,
      "2010": 4341,
      "Ġdolar": 4342,
      "Ġkobiet": 4343,
      "Å¼eniu": 4344,
      "Ġaktor": 4345,
      "wod": 4346,
      "ven": 4347,
      "fry": 4348,
      "76": 4349,
      "Ġ43": 4350,
      "Ġpodatkowych": 4351,
      "ĠKana": 4352,
      "Ġprocesu": 4353,
      "Ġlecz": 4354,
      "Ġpoko": 4355,
      "myÅĽ": 4356,
      "ĠSystem": 4357,
      "ĠUmowy": 4358,
      "Ġstand": 4359,
      "Ġkomputer": 4360,
      "ĠNazwa": 4361,
      "ĠdotyczÄħcej": 4362,
      "><": 4363,
      "strza": 4364,
      "ĠduÅ¼y": 4365,
      "ĠIndia": 4366,
      "Ġopieku": 4367,
      "Ġinstytucji": 4368,
      "jÄħÄĩ": 4369,
      "Ġocenie": 4370,
      "ĠuczniÃ³w": 4371,
      "Ġznaczenie": 4372,
      "ĠRozporzÄħ": 4373,
      "ĠJan": 4374,
      "Ġzorga": 4375,
      "Ġx": 4376,
      "59": 4377,
      "sji": 4378,
      "wiÄĩ": 4379,
      "Ġwin": 4380,
      "ĠumowÄĻ": 4381,
      "blem": 4382,
      "nikowi": 4383,
      "Ġwspiera": 4384,
      "Ġszkole": 4385,
      "ĠSie": 4386,
      "ĠwolnoÅĽci": 4387,
      "Ġczego": 4388,
      "\".": 4389,
      "Ð½": 4390,
      "Ġprocent": 4391,
      "ĠodpÅĤa": 4392,
      "Ġewentual": 4393,
      "ĠUstawy": 4394,
      "towanie": 4395,
      "ĠzarzÄħdzania": 4396,
      "ÅĤÃ³": 4397,
      "tacjÄĻ": 4398,
      "nieniu": 4399,
      "syw": 4400,
      "dzna": 4401,
      "ĠzwiÄħz": 4402,
      "ĠOrgani": 4403,
      "Ġuprze": 4404,
      "Ġtrzecie": 4405,
      "cone": 4406,
      "ĠprzedsiÄĻwziÄĻ": 4407,
      "Ġrachunk": 4408,
      "yba": 4409,
      "ĠzespÃ³ÅĤ": 4410,
      "ĠPierw": 4411,
      "ĠMan": 4412,
      "Ġpierwszego": 4413,
      "ĠzobowiÄħzania": 4414,
      "Ġobszarze": 4415,
      "Ġgry": 4416,
      "Ġkryter": 4417,
      "bywa": 4418,
      "ĠRozwoju": 4419,
      "Ġprzedszko": 4420,
      "nionych": 4421,
      "Linki": 4422,
      "Ġpowinno": 4423,
      "Ġskierowa": 4424,
      "Ġpodmioty": 4425,
      "ĠwyjaÅĽ": 4426,
      "Ġkonstru": 4427,
      "Ġ&": 4428,
      "ue": 4429,
      "âĢĶ": 4430,
      "Ġzarejestrowa": 4431,
      "Ġkategorii": 4432,
      "ĠsprzedaÅ¼": 4433,
      "Ġwybor": 4434,
      "gan": 4435,
      "Ġzaskar": 4436,
      "mentar": 4437,
      "dowania": 4438,
      "Ġtransakcji": 4439,
      "Ġprowadzenie": 4440,
      "ĠÅļwia": 4441,
      "biu": 4442,
      "Ġ49": 4443,
      "ĠRejon": 4444,
      "korzy": 4445,
      "ĠzwierzÄħt": 4446,
      "versi": 4447,
      "Ġchwili": 4448,
      "Ġprzyczyn": 4449,
      "ĠzaÅĤoÅ¼": 4450,
      "âĢĻ": 4451,
      "iedy": 4452,
      "Ġcywilnego": 4453,
      "owano": 4454,
      "gdy": 4455,
      "Roz": 4456,
      "ĠRi": 4457,
      "Ġtys": 4458,
      "dio": 4459,
      "ĠamerykaÅĦski": 4460,
      "42": 4461,
      "szeniu": 4462,
      "Ġ33": 4463,
      "ĠWÅĤo": 4464,
      "ktura": 4465,
      "Ġroboty": 4466,
      "ĠMoÅ¼e": 4467,
      "EW": 4468,
      "dyn": 4469,
      "ĠWielkiej": 4470,
      "58": 4471,
      "ĠpojazdÃ³w": 4472,
      "Ġcer": 4473,
      "ĠszkÃ³ÅĤ": 4474,
      "Ġnabycia": 4475,
      "tuje": 4476,
      "âĢ¦âĢ¦âĢ¦âĢ¦": 4477,
      "ĠsÅĤuÅ¼b": 4478,
      "ĠEl": 4479,
      "ĠspoÅ¼y": 4480,
      "ĠUstawa": 4481,
      "jnych": 4482,
      "zj": 4483,
      "Åĵ": 4484,
      "ĠporÃ³wna": 4485,
      "Ġcele": 4486,
      "mail": 4487,
      "Ġegzeku": 4488,
      "rie": 4489,
      "Ġterenu": 4490,
      "obacz": 4491,
      "ĠDyrektor": 4492,
      "Ġmeto": 4493,
      "Ġwygra": 4494,
      "Ġ48": 4495,
      "ĠkaÅ¼dej": 4496,
      "dal": 4497,
      "Ġnieod": 4498,
      "Ġponiesi": 4499,
      "ĠDziaÅĤa": 4500,
      "ÅĤnie": 4501,
      "Ġprzychodu": 4502,
      "Ġwpisa": 4503,
      "ĠPodstaw": 4504,
      "miana": 4505,
      "Ġwyka": 4506,
      "ĠwystÄĻpuje": 4507,
      "Ġeduka": 4508,
      "Ġrek": 4509,
      "41": 4510,
      "GA": 4511,
      "ĠpoÅĽ": 4512,
      "spozy": 4513,
      "Ġpunk": 4514,
      "Ġtelef": 4515,
      "owaÅĦ": 4516,
      "SO": 4517,
      "ĠwiÄĻkszoÅĽci": 4518,
      "ĠznajdujÄħ": 4519,
      "Ġzatrudni": 4520,
      "ĠdolarÃ³w": 4521,
      "Ġinfrastru": 4522,
      "Ch": 4523,
      "Ġzanie": 4524,
      "Ġwoje": 4525,
      "Ġtransportu": 4526,
      "ÑĢ": 4527,
      "Ġzagospodarowania": 4528,
      "56": 4529,
      "ĠpamiÄĻ": 4530,
      "Mi": 4531,
      "form": 4532,
      "ĠudziaÅĤÃ³w": 4533,
      "Ġ1996": 4534,
      "Å¼onych": 4535,
      "ĠokreÅĽlonej": 4536,
      "telnoÅĽci": 4537,
      "Ġtemu": 4538,
      "czÄħÅĤ": 4539,
      "niejsze": 4540,
      "Ġstandard": 4541,
      "RU": 4542,
      "Ġzabezpieczenia": 4543,
      "--------": 4544,
      "Ġwybo": 4545,
      "Ġjaz": 4546,
      "ĠimiÄĻ": 4547,
      "Ġspa": 4548,
      "Ġwywo": 4549,
      "ĠgospodarczÄħ": 4550,
      "The": 4551,
      "Ġelektronicznej": 4552,
      "ĠzwrÃ³ci": 4553,
      "bia": 4554,
      "alizowa": 4555,
      "Ġotrzymuje": 4556,
      "siÄĻbior": 4557,
      "Ġorzeczenia": 4558,
      "Ġobu": 4559,
      "Ġodbywa": 4560,
      "ĠIgrzy": 4561,
      "ĠWin": 4562,
      "Ġwymienionych": 4563,
      "Ġalko": 4564,
      "Ġniewie": 4565,
      "ielÄĻg": 4566,
      "tkow": 4567,
      "Ġmaksyma": 4568,
      "Ġdekla": 4569,
      "Ġodnosi": 4570,
      "ĠÄĩ": 4571,
      "Ġdaty": 4572,
      "tedy": 4573,
      "Ġwniesienia": 4574,
      "Ġodset": 4575,
      "ĠVi": 4576,
      "ÄĨ": 4577,
      "Ġobywate": 4578,
      "Ġitp": 4579,
      "Ġinstancji": 4580,
      "Ġzg": 4581,
      "regul": 4582,
      "ĠrozwiÄħzania": 4583,
      "Ob": 4584,
      "portu": 4585,
      "Ġkod": 4586,
      "Urodzeni": 4587,
      "niesienie": 4588,
      "Ġwymagania": 4589,
      "Ġosobi": 4590,
      "Ġsocja": 4591,
      "resu": 4592,
      "rÃ³j": 4593,
      "Ġstawki": 4594,
      "Ġan": 4595,
      "Ġ37": 4596,
      "ln": 4597,
      "To": 4598,
      "Ġistnieje": 4599,
      "ĠjednoczeÅĽnie": 4600,
      "und": 4601,
      "ĠOG": 4602,
      "ĠrÃ³Å¼ne": 4603,
      "ose": 4604,
      "mbo": 4605,
      "Ġpopular": 4606,
      "gazy": 4607,
      "Ġtur": 4608,
      "2009": 4609,
      "niÄĻcie": 4610,
      "ft": 4611,
      "Ġtyp": 4612,
      "Ġsamej": 4613,
      "54": 4614,
      "68": 4615,
      "Ġeuropej": 4616,
      "cego": 4617,
      "Ġgodz": 4618,
      "Ġwypadku": 4619,
      "dzona": 4620,
      "deÅĤ": 4621,
      "Ġdzielni": 4622,
      "ĠdziÄĻki": 4623,
      "ĠoÅĽwia": 4624,
      "czono": 4625,
      "lnia": 4626,
      "Ġzamiesz": 4627,
      "Ġwydaje": 4628,
      "MO": 4629,
      "Ġchyba": 4630,
      "ĠProgramu": 4631,
      "ĠokreÅĽlony": 4632,
      "ÅĤaszcza": 4633,
      "prawidÅĤ": 4634,
      "Ġbyli": 4635,
      "Ġcharaktery": 4636,
      "Ġzgroma": 4637,
      "ĠaÅ¼": 4638,
      "bry": 4639,
      "ĠAk": 4640,
      "ĠAby": 4641,
      "Ġformy": 4642,
      "ĠnajwyÅ¼": 4643,
      "ĠkoÅĦca": 4644,
      "Ġ>": 4645,
      "limpijskich": 4646,
      "ĠÅĽwiata": 4647,
      "GULA": 4648,
      "Ġszpita": 4649,
      "ĠKomisja": 4650,
      "ĠiloÅĽÄĩ": 4651,
      "ĠpunktÃ³w": 4652,
      "ÃĵÅģ": 4653,
      "Ġpole": 4654,
      "Ġorgany": 4655,
      "Ġcentrum": 4656,
      "ĠFrancji": 4657,
      "ĠwiadomoÅĽci": 4658,
      "Ġhttp": 4659,
      "ÃŃ": 4660,
      "cieli": 4661,
      "Ġznacznie": 4662,
      "Ġstopnia": 4663,
      "Ġfakt": 4664,
      "ĠZdr": 4665,
      "ĠpobliÅ¼u": 4666,
      "ĠwojewÃ³dztwa": 4667,
      "Ġzezna": 4668,
      "bel": 4669,
      "pisÃ³w": 4670,
      "Ġdrze": 4671,
      "89": 4672,
      "SI": 4673,
      "ĠsiedzibÄĻ": 4674,
      "Ġ;": 4675,
      "ling": 4676,
      "ĠzwÅĤaszcza": 4677,
      "ĠMor": 4678,
      "ĠbudynkÃ³w": 4679,
      "Ġposie": 4680,
      "ĠuznaÄĩ": 4681,
      "ĠKrak": 4682,
      "tycznie": 4683,
      "Ġpomie": 4684,
      "ĠOrdyna": 4685,
      "Ġsob": 4686,
      "iÄĻdzy": 4687,
      "umer": 4688,
      "Ġpopraw": 4689,
      "Ġkomuna": 4690,
      "ou": 4691,
      "pyta": 4692,
      "siÄħce": 4693,
      "SKIEJ": 4694,
      "Wi": 4695,
      "ĠfunkcjÄĻ": 4696,
      "ÅĽciej": 4697,
      "zd": 4698,
      "ĠdÅĤugoÅĽci": 4699,
      "Ġdotacji": 4700,
      "sady": 4701,
      "wnÄħtrz": 4702,
      "artoÅĽÄĩ": 4703,
      "72": 4704,
      "Ġrozg": 4705,
      "ktorem": 4706,
      "Ġfinansowe": 4707,
      "DA": 4708,
      "Ġagen": 4709,
      "ĠÅĤÄħcznie": 4710,
      "ĠRol": 4711,
      "ĠpodjÄĻ": 4712,
      "Ġkwota": 4713,
      "Ġmomencie": 4714,
      "Ġdem": 4715,
      "Ġmistrzo": 4716,
      "Ġdie": 4717,
      "turze": 4718,
      "71": 4719,
      "Ġogro": 4720,
      "ĠwÄĻ": 4721,
      "Ġdra": 4722,
      "51": 4723,
      "Ġstwierdza": 4724,
      "99": 4725,
      "Ġbiz": 4726,
      "Ġkary": 4727,
      "MÃĵW": 4728,
      "Ġzmar": 4729,
      "tm": 4730,
      "pieÅĦ": 4731,
      "Ġdokonania": 4732,
      "ĠwynikajÄħcych": 4733,
      "Ġprzewiduje": 4734,
      "Ġstrona": 4735,
      "wczych": 4736,
      "Lu": 4737,
      "Ġinteres": 4738,
      "ĠRzecz": 4739,
      "jsc": 4740,
      "Ġapli": 4741,
      "nom": 4742,
      "ciÄħg": 4743,
      "Ġkart": 4744,
      "ĠjÄĻzyku": 4745,
      "Ġwskazuje": 4746,
      "Ġ500": 4747,
      "loa": 4748,
      "ĠspÃ³ÅĤek": 4749,
      "ĠWÅĤa": 4750,
      "ĠzastrzeÅ¼eniem": 4751,
      "ower": 4752,
      "ĠwielkoÅĽci": 4753,
      "ĠoddziaÅĤy": 4754,
      "ĠOpera": 4755,
      "ĠTra": 4756,
      "czyni": 4757,
      "ĠLud": 4758,
      "CZY": 4759,
      "ĠcaÅĤym": 4760,
      "krotnie": 4761,
      "Ġwysp": 4762,
      "Ġlitera": 4763,
      "Ġ...": 4764,
      "ĠniezbÄĻdne": 4765,
      "Ġinstalacji": 4766,
      "Ġwytwarza": 4767,
      "mes": 4768,
      "piej": 4769,
      "piero": 4770,
      "ĠZwiÄħ": 4771,
      "ght": 4772,
      "ĠznaleÅº": 4773,
      "Ġskargi": 4774,
      "Ãł": 4775,
      "Ġpolski": 4776,
      "RS": 4777,
      "dawcy": 4778,
      "Ġtowarzy": 4779,
      "We": 4780,
      "ĠPie": 4781,
      "nna": 4782,
      "ĠokreÅĽlenia": 4783,
      "ĠStowarzy": 4784,
      "arza": 4785,
      "ode": 4786,
      "ĠKoÅĽci": 4787,
      "ĠustawÄħ": 4788,
      "Å¼ynie": 4789,
      "trzeb": 4790,
      "ĠuprawnieÅĦ": 4791,
      "ine": 4792,
      "terna": 4793,
      "gÅĤoszenie": 4794,
      "88": 4795,
      "Ġdobrze": 4796,
      "ĠpieniÄħ": 4797,
      "ĠwschÃ³d": 4798,
      "GULAMIN": 4799,
      "Ġfo": 4800,
      "Ġpobra": 4801,
      "lina": 4802,
      "ĠÅĽwiatowej": 4803,
      "tyku": 4804,
      "Ġkonstytu": 4805,
      "Ġrachunku": 4806,
      "waj": 4807,
      "lizowa": 4808,
      "Ġprzede": 4809,
      "OWI": 4810,
      "zacjÄħ": 4811,
      "lonej": 4812,
      "Ġosie": 4813,
      "ĠdostÄĻpu": 4814,
      "imna": 4815,
      "Ġsuk": 4816,
      "ĠwystÄĻpu": 4817,
      "ica": 4818,
      "De": 4819,
      "Ġpoje": 4820,
      "Ġostatnich": 4821,
      "Ġdochodowego": 4822,
      "Ġwieczy": 4823,
      "ĠwÄħtpliwoÅĽci": 4824,
      "CYJ": 4825,
      "ĠBrytanii": 4826,
      "au": 4827,
      "ĠWAR": 4828,
      "Å¼ar": 4829,
      "Ã¼": 4830,
      "ĠUniversi": 4831,
      "ĠokreÅĽlonego": 4832,
      "Ġniema": 4833,
      "____": 4834,
      "Ġtrakt": 4835,
      "ĠTran": 4836,
      "Ġzorganizowa": 4837,
      "66": 4838,
      "rodzi": 4839,
      "Te": 4840,
      "Ġpsycho": 4841,
      "ĠzasiÅĤ": 4842,
      "fy": 4843,
      "Pol": 4844,
      "Ġregiona": 4845,
      "Ġuszko": 4846,
      "tnÄħ": 4847,
      "Ġremon": 4848,
      "ĠTi": 4849,
      "Ġryn": 4850,
      "ĠprojektÃ³w": 4851,
      "Ġwynagrodzenie": 4852,
      "Ġnas": 4853,
      "szone": 4854,
      "Ġnowego": 4855,
      "Ġprzekro": 4856,
      "NIK": 4857,
      "ĠwÅĽrÃ³d": 4858,
      "ĠLeague": 4859,
      "ĠObec": 4860,
      "ĠpopeÅĤ": 4861,
      "Ra": 4862,
      "wÅĤo": 4863,
      "las": 4864,
      "Sy": 4865,
      "line": 4866,
      "PB": 4867,
      "Ġszkolenia": 4868,
      "ĠEU": 4869,
      "ĠRada": 4870,
      "Ġoka": 4871,
      "Ġteraz": 4872,
      "Ġpromo": 4873,
      "up": 4874,
      "ball": 4875,
      "Ġwalu": 4876,
      "ĠzachÃ³d": 4877,
      "Ġpoby": 4878,
      "jskie": 4879,
      "ĠOchrony": 4880,
      "Ġkwocie": 4881,
      "ĠUniwersytetu": 4882,
      "Ġsamego": 4883,
      "wiadomie": 4884,
      "Ġzmiana": 4885,
      "Ġbrutto": 4886,
      "Ġemeryta": 4887,
      "ciÅĤ": 4888,
      "logia": 4889,
      "Ġujaw": 4890,
      "Ġmoc": 4891,
      "Ġszkody": 4892,
      "Sz": 4893,
      "ÅĽciu": 4894,
      "ĠÅĽwietle": 4895,
      "Ġpozycji": 4896,
      "Ġenerge": 4897,
      "ĠMicha": 4898,
      "ĠÅģo": 4899,
      "ĠStar": 4900,
      "ĠSto": 4901,
      "dzielni": 4902,
      "Ġuni": 4903,
      "ĠokreÅĽlenie": 4904,
      "Ġtel": 4905,
      "Ġpodatkowe": 4906,
      "Ġchroni": 4907,
      "CZNE": 4908,
      "ĠSprze": 4909,
      "ĠTwoje": 4910,
      "Ġurlo": 4911,
      "erni": 4912,
      "ĠTak": 4913,
      "Ġskorzysta": 4914,
      "ĠmiaÅĤy": 4915,
      "Ġograniczenia": 4916,
      "woÅĽci": 4917,
      "ĠmiejscowoÅĽci": 4918,
      "ĠdecyzjÄĻ": 4919,
      "ent": 4920,
      "Ġho": 4921,
      "ĠMon": 4922,
      "ÅĦskie": 4923,
      "Ġnazwisko": 4924,
      "ĠZamÃ³wienia": 4925,
      "kÅĤady": 4926,
      "69": 4927,
      "Ġ34": 4928,
      "Ġpali": 4929,
      "ĠciaÅĤa": 4930,
      "UB": 4931,
      "Ġbrzmieniu": 4932,
      "Ġprotoko": 4933,
      "ĠchÅĤo": 4934,
      "ĠWykonawcÄĻ": 4935,
      "Ġterytorialnego": 4936,
      "rob": 4937,
      "ws": 4938,
      "ĠskÅĤadek": 4939,
      "pla": 4940,
      "Ã³p": 4941,
      "biÃ³r": 4942,
      "ĠpodlegajÄħ": 4943,
      "ĠMinistrÃ³w": 4944,
      "rzej": 4945,
      "vis": 4946,
      "Ġprofi": 4947,
      "ĠdrÃ³g": 4948,
      "Ġpodatkowej": 4949,
      "Ġpubliczne": 4950,
      "Ġproduce": 4951,
      "ĠbiaÅĤ": 4952,
      "ĠwspÃ³lnie": 4953,
      "Ġmetod": 4954,
      "ĠOgÃ³l": 4955,
      "wym": 4956,
      "nitar": 4957,
      "jÄħcemu": 4958,
      "Ġgroma": 4959,
      "77": 4960,
      "gle": 4961,
      "Ġumowie": 4962,
      "Ġzapewnienia": 4963,
      "ĠdorÄĻ": 4964,
      "Ġnadzoru": 4965,
      "ĠmÄĻ": 4966,
      "Ġ1992": 4967,
      "Ø§": 4968,
      "FI": 4969,
      "ĠNacze": 4970,
      "Ġzwolni": 4971,
      "ĠwskaÅº": 4972,
      "ĠnieprawidÅĤ": 4973,
      "Ġprace": 4974,
      "Ġzawarte": 4975,
      "korzyst": 4976,
      "ĠRODO": 4977,
      "ĠpoÅĤu": 4978,
      "Ġklub": 4979,
      "ĠnazwÄĻ": 4980,
      "Ġkata": 4981,
      "Ġstw": 4982,
      "Ġosobowe": 4983,
      "trwa": 4984,
      "Ġkomisji": 4985,
      "Ġzbud": 4986,
      "ĠPomo": 4987,
      "Ġpowoda": 4988,
      "ĠZnaj": 4989,
      "Ġcztery": 4990,
      "prawa": 4991,
      "52": 4992,
      "ĠAnglii": 4993,
      "Ġrej": 4994,
      "ĠotrzymaÅĤ": 4995,
      "scypli": 4996,
      "Ġodrzu": 4997,
      "ĠLon": 4998,
      "ĠuÅ¼ytkowania": 4999,
      "ed": 5000,
      "RY": 5001,
      "ĠMy": 5002,
      "czonÄħ": 5003,
      "Ġjedna": 5004,
      "ÅĤat": 5005,
      "Ġpoprzedni": 5006,
      "Ġszac": 5007,
      "ĠpielÄĻg": 5008,
      "OT": 5009,
      "Ġzajmu": 5010,
      "Ġsezonie": 5011,
      "ĠVI": 5012,
      "Sta": 5013,
      "ĠspoÅĤeczne": 5014,
      "Ġzawodowych": 5015,
      "kowÄħ": 5016,
      "kowane": 5017,
      "Ġkonsekwencji": 5018,
      "ĠGro": 5019,
      "Ġkro": 5020,
      "niona": 5021,
      "ĠGdaÅĦ": 5022,
      "Ġkierowa": 5023,
      "ĠcaÅĤy": 5024,
      "anga": 5025,
      "ĠPrezyden": 5026,
      "Ġdr": 5027,
      "Ġministra": 5028,
      "ermin": 5029,
      "szedÅĤ": 5030,
      "Ġchoroby": 5031,
      "ĠobiektÃ³w": 5032,
      "ĠPOD": 5033,
      "Ġ41": 5034,
      "Ġkomen": 5035,
      "Ġlista": 5036,
      "Ġserwi": 5037,
      "dla": 5038,
      "Ġzebra": 5039,
      "ĠpiÄĻÄĩ": 5040,
      "Ġdoprowa": 5041,
      "Ġanty": 5042,
      "ĠstÃ³p": 5043,
      "Ġprzygotowa": 5044,
      "ĠGenera": 5045,
      "ĠchociaÅ¼": 5046,
      "Ġspisu": 5047,
      "ĠDru": 5048,
      "Ġ42": 5049,
      "Ġpowoduje": 5050,
      "ĠPrawa": 5051,
      "ĠoÅĽrod": 5052,
      "stego": 5053,
      "Ġobraz": 5054,
      "tarza": 5055,
      "Ta": 5056,
      "Å¼on": 5057,
      "Ġstrate": 5058,
      "nisty": 5059,
      "Ġwtedy": 5060,
      "Ġutrzy": 5061,
      "ĠMI": 5062,
      "Ð²": 5063,
      "Ġwydane": 5064,
      "Ġzasadni": 5065,
      "WIE": 5066,
      "stawienia": 5067,
      "rech": 5068,
      "Ġzaka": 5069,
      "Ġzdrowotnej": 5070,
      "ĠGMI": 5071,
      "ĠpodstawÄĻ": 5072,
      "ĠÅºrÃ³dÅĤa": 5073,
      "ĠamerykaÅĦskim": 5074,
      "lety": 5075,
      "Ġkontynu": 5076,
      "Ġwymienione": 5077,
      "Ġrachunek": 5078,
      "2006": 5079,
      "ĠGdy": 5080,
      "War": 5081,
      "ĠSk": 5082,
      "65": 5083,
      "Ġfirma": 5084,
      "mian": 5085,
      "wicz": 5086,
      "ĠKatowi": 5087,
      "Ġbe": 5088,
      "ĠHu": 5089,
      "Ġgospodarki": 5090,
      "Ġplanowa": 5091,
      "dol": 5092,
      "2008": 5093,
      "Ġpytania": 5094,
      "ĠniektÃ³re": 5095,
      "ĠINFOR": 5096,
      "ĠprzyjÄĻcia": 5097,
      "ĠÅĽwiat": 5098,
      "Ġnar": 5099,
      "wczy": 5100,
      "Ġsyn": 5101,
      "ĠParlamentu": 5102,
      "ĠznaleÅºÄĩ": 5103,
      "Ã¶": 5104,
      "ĠnastÄĻpujÄħcych": 5105,
      "ĠpoÅĤo": 5106,
      "ĠszczegÃ³lnie": 5107,
      "bal": 5108,
      "ĠzÅĤoÅ¼yÄĩ": 5109,
      "ĠMiÄĻdzy": 5110,
      "ĠrozporzÄħdzenie": 5111,
      "67": 5112,
      "Ġwiedzy": 5113,
      "Ġmoje": 5114,
      "Ġ<": 5115,
      "Ġnagra": 5116,
      "ĠUniversity": 5117,
      "skry": 5118,
      "Ġpytanie": 5119,
      "MÃĵWIE": 5120,
      "ĠPOL": 5121,
      "owiska": 5122,
      "Ġmagazy": 5123,
      "Ġsing": 5124,
      "Ġfaktury": 5125,
      "Ġstaro": 5126,
      "nikami": 5127,
      "Ġrazem": 5128,
      "grody": 5129,
      "Ġdanej": 5130,
      "ĠrÃ³wnowa": 5131,
      "Ġpoziomu": 5132,
      "ĠtreÅĽÄĩ": 5133,
      "Ġprowadzonej": 5134,
      "Ġzaby": 5135,
      "ĠFil": 5136,
      "Ġdodatkowe": 5137,
      "Ġtechnicznych": 5138,
      "lek": 5139,
      "ĠdowÃ³d": 5140,
      "ĠÅ¼yw": 5141,
      "NIU": 5142,
      "ĠKonstytucji": 5143,
      "ĠKalifor": 5144,
      "Ġmm": 5145,
      "Ġproblem": 5146,
      "Ġpochodzi": 5147,
      "Ġpracodawcy": 5148,
      "Ġpojawi": 5149,
      "Ġutwo": 5150,
      "dziÅĤa": 5151,
      "kowany": 5152,
      "Ġnaliczonego": 5153,
      "ĠZAMÃĵWIE": 5154,
      "Ġpoin": 5155,
      "ĠPrzedmio": 5156,
      "Ġpunktu": 5157,
      "ĠStrona": 5158,
      "Ġbior": 5159,
      "arzÄħd": 5160,
      "ĠUrz": 5161,
      "ĠrÃ³Å¼ni": 5162,
      "Ġzdarzenia": 5163,
      "ĠprogramÃ³w": 5164,
      "ĠPostanowie": 5165,
      "Ġkierunku": 5166,
      "zio": 5167,
      "ĠÅ»y": 5168,
      "57": 5169,
      "zÃ³w": 5170,
      "Ġnapraw": 5171,
      "ryw": 5172,
      "ĠliczbÄĻ": 5173,
      "zujÄħ": 5174,
      "Ġniepo": 5175,
      "87": 5176,
      "DU": 5177,
      "ĠpoczÄħtk": 5178,
      "eksy": 5179,
      "ĠkoniecznoÅĽci": 5180,
      "ĠMiejskiej": 5181,
      "Ġwykonane": 5182,
      "ĠCentra": 5183,
      "Ġczar": 5184,
      "Ġwprowadzenia": 5185,
      "ĠzwyciÄĻ": 5186,
      "ĠwÅĤÄħ": 5187,
      "Ġrozsze": 5188,
      "Ġosa": 5189,
      "ĠKe": 5190,
      "ĠPana": 5191,
      "ĠCze": 5192,
      "ÅĦskich": 5193,
      "Ġkor": 5194,
      "dzieÅ¼y": 5195,
      "ĠgraÅĤ": 5196,
      "Ġryzyka": 5197,
      "Ġzachowania": 5198,
      "jne": 5199,
      "Ġustanowi": 5200,
      "ĠsÅĤowa": 5201,
      "mem": 5202,
      "ell": 5203,
      "ĠMc": 5204,
      "ĠTowarzy": 5205,
      "cin": 5206,
      "ĠwspÃ³lno": 5207,
      "Ġtr": 5208,
      "ĠOÅĽrod": 5209,
      "ĠDom": 5210,
      "Ar": 5211,
      "Ġiz": 5212,
      "ĠdziaÅĤki": 5213,
      "Ġotrzymania": 5214,
      "Ġprawna": 5215,
      "ON": 5216,
      "Ġmasz": 5217,
      "rus": 5218,
      "ĠSZ": 5219,
      "ĠCie": 5220,
      "wÃ³d": 5221,
      "Ġgu": 5222,
      "ĠPK": 5223,
      "Ġprzyro": 5224,
      "Ġdata": 5225,
      "ĠpoÅĤoÅ¼ona": 5226,
      "ĠPrezesa": 5227,
      "ĠprawnÄħ": 5228,
      "szystkie": 5229,
      "Ġpowszechnie": 5230,
      "83": 5231,
      "ĠpowaÅ¼": 5232,
      "Ġbia": 5233,
      "ĠIsto": 5234,
      "ĠzarzÄħdu": 5235,
      "ĠSam": 5236,
      "Ġgrupa": 5237,
      "ĠwyraÅº": 5238,
      "lnymi": 5239,
      "Ġkwalifika": 5240,
      "Ġindywidualna": 5241,
      "kreÅĽli": 5242,
      "ĠskarÅ¼": 5243,
      "ĠPos": 5244,
      "oÅĤa": 5245,
      "jÃ³w": 5246,
      "strybu": 5247,
      "kowo": 5248,
      "Ġ1995": 5249,
      "ctwo": 5250,
      "ĠwojewÃ³dztwie": 5251,
      "lami": 5252,
      "ID": 5253,
      "Ġwydarze": 5254,
      "ÅĤki": 5255,
      "jny": 5256,
      "Ġimpre": 5257,
      "ĠÅ¼oÅĤnie": 5258,
      "ĠNaleÅ¼y": 5259,
      "ies": 5260,
      "Ġeksploa": 5261,
      "ĠniezwÅĤo": 5262,
      "para": 5263,
      "Ġâ": 5264,
      "Ġ*": 5265,
      "fr": 5266,
      "ĠzamawiajÄħcego": 5267,
      "ĠOfer": 5268,
      "Ġocze": 5269,
      "tniego": 5270,
      "ĠDzien": 5271,
      "Ġzi": 5272,
      "Ġuda": 5273,
      "pretacja": 5274,
      "Ġprokura": 5275,
      "ĠProdu": 5276,
      "Ġzawartych": 5277,
      "Ġalbu": 5278,
      "Ġzni": 5279,
      "ĠHen": 5280,
      "ĠpozostaÅĤych": 5281,
      "ĠMistrzo": 5282,
      "ĠDZ": 5283,
      "ĠReje": 5284,
      "siÄĻg": 5285,
      "ĠzobowiÄħzaÅĦ": 5286,
      "ĠInformacje": 5287,
      "100": 5288,
      "Ġ59": 5289,
      "Å¼er": 5290,
      "Ġkolei": 5291,
      "Ġwsi": 5292,
      "ĠUrzÄħd": 5293,
      "ĠtworzÄħ": 5294,
      "ĠspoÅĤecznych": 5295,
      "ĠPio": 5296,
      "Ġwarunkiem": 5297,
      "Ġudzielenia": 5298,
      "sin": 5299,
      "Ġludz": 5300,
      "Ġstosow": 5301,
      "Ġpartner": 5302,
      "tycznym": 5303,
      "BC": 5304,
      "dnieniu": 5305,
      "Ġzab": 5306,
      "RZ": 5307,
      "Ġkultury": 5308,
      "Ġuzy": 5309,
      "ĠSpraw": 5310,
      "ÅĽre": 5311,
      "Ġblo": 5312,
      "Ġbrzmienie": 5313,
      "ĠTh": 5314,
      "czaÅĤ": 5315,
      "Ġdyspon": 5316,
      "Ġoficja": 5317,
      "stnie": 5318,
      "Ġwchodzi": 5319,
      "Ġpojawia": 5320,
      "Ġtygodni": 5321,
      "ĠProgram": 5322,
      "ĠspoÅĤecznoÅĽci": 5323,
      "ĠwymagaÅĦ": 5324,
      "mowanie": 5325,
      "ĠstudiÃ³w": 5326,
      "86": 5327,
      "Ġprocedury": 5328,
      "ktual": 5329,
      "Ġniezgod": 5330,
      "ĠGmina": 5331,
      "ĠpoÅĤudniowo": 5332,
      "Ġwystarcza": 5333,
      "Ġpracowni": 5334,
      "Ġnume": 5335,
      "Ġsprawozdania": 5336,
      "ville": 5337,
      "Ġ86": 5338,
      "wski": 5339,
      "bieg": 5340,
      "Ġleczni": 5341,
      "Ġlekarza": 5342,
      "53": 5343,
      "ĠTur": 5344,
      "ĠPrzepisy": 5345,
      "ĠpÅĤat": 5346,
      "stki": 5347,
      "ografi": 5348,
      "ĠniÄħ": 5349,
      "Ġrazy": 5350,
      "Ġodkry": 5351,
      "Ġregionie": 5352,
      "uka": 5353,
      "Å¼nej": 5354,
      "niania": 5355,
      "stka": 5356,
      "Ġjakich": 5357,
      "ĠEd": 5358,
      "ĠIs": 5359,
      "kowanie": 5360,
      "ĠÅĽw": 5361,
      "Ġpolityki": 5362,
      "cow": 5363,
      "IAÅģ": 5364,
      "Ġpasa": 5365,
      "stym": 5366,
      "Ġhipo": 5367,
      "fie": 5368,
      "Ġpodatkowy": 5369,
      "Ġkodek": 5370,
      "ÅĤonek": 5371,
      "ps": 5372,
      "ĠzwierzÄĻ": 5373,
      "ĠubezpieczeÅĦ": 5374,
      "ĠPu": 5375,
      "ĠUSTA": 5376,
      "ĠSzcze": 5377,
      "Ġumo": 5378,
      "towaÅĤ": 5379,
      "ĠosiÄħg": 5380,
      "ĠwÅĤasnych": 5381,
      "Ġprzeprowadza": 5382,
      "ĠpowyÅ¼sze": 5383,
      "Ġpochodz": 5384,
      "ĠpiÅĽmie": 5385,
      "ĠBro": 5386,
      "woka": 5387,
      "ĠOP": 5388,
      "karze": 5389,
      "mpa": 5390,
      "Ġdodat": 5391,
      "ĠporÄĻ": 5392,
      "robo": 5393,
      "Ġ01": 5394,
      "Ġpochodzenia": 5395,
      "own": 5396,
      "Ġdostarcza": 5397,
      "Ġprzetargu": 5398,
      "ĠspÃ³ÅĤka": 5399,
      "ĠKaÅ¼": 5400,
      "kÅĤadzie": 5401,
      "dek": 5402,
      "Ġodliczenia": 5403,
      "setek": 5404,
      "Ġucze": 5405,
      "Ġprostu": 5406,
      "Ġdochodu": 5407,
      "Ġchodzi": 5408,
      "ĠnaleÅ¼a": 5409,
      "Ġmonitor": 5410,
      "ĠobejmujÄħ": 5411,
      "ĠRegulamin": 5412,
      "ĠpacjentÃ³w": 5413,
      "Ġwg": 5414,
      "hol": 5415,
      "ĠMIE": 5416,
      "Ã¦": 5417,
      "ĠksiÄĻg": 5418,
      "Ġtwar": 5419,
      "ĠuwzglÄĻdnieniem": 5420,
      "Ġminut": 5421,
      "Ġpora": 5422,
      "ĠrolÄĻ": 5423,
      "ĠOD": 5424,
      "zwo": 5425,
      "int": 5426,
      "ĠsprzÄĻtu": 5427,
      "ĠmyÅĽl": 5428,
      "Ġchemi": 5429,
      "Ġreli": 5430,
      "ĠGMINY": 5431,
      "peten": 5432,
      "szeÅĦ": 5433,
      "Ġpodatkowa": 5434,
      "Ġtar": 5435,
      "pom": 5436,
      "74": 5437,
      "ĠEuropy": 5438,
      "Ġturysty": 5439,
      "Äģ": 5440,
      "jskÄħ": 5441,
      "Ġpodatnik": 5442,
      "Ġcm": 5443,
      "dago": 5444,
      "ĠurzÄĻd": 5445,
      "ĠWor": 5446,
      "Ġnaruszenie": 5447,
      "Ġnetto": 5448,
      "Ġprzeprowadzenia": 5449,
      "czoÅĽci": 5450,
      "Ġstu": 5451,
      "ĠNastÄĻp": 5452,
      "ĠczÅĤowieka": 5453,
      "Å¼ona": 5454,
      "ĠPOST": 5455,
      "Ġgi": 5456,
      "ĠZgromadzenia": 5457,
      "dzÄĻ": 5458,
      "okra": 5459,
      "ĠSpecy": 5460,
      "ĠbudowÄĻ": 5461,
      "ĠkoÅĦc": 5462,
      "ĠpostanowieÅĦ": 5463,
      "ĠMary": 5464,
      "ĠUchwaÅĤa": 5465,
      "Ġmedia": 5466,
      "Ġfar": 5467,
      "bliote": 5468,
      "Ġposia": 5469,
      "Ġdystry": 5470,
      "Ġwsparcia": 5471,
      "ĠurzÄĻ": 5472,
      "pier": 5473,
      "Ġstudia": 5474,
      "are": 5475,
      "Ġpowierzch": 5476,
      "Ġtworzy": 5477,
      "sjona": 5478,
      "ĠKrakowie": 5479,
      "tekst": 5480,
      "ĠpiÅĤkarz": 5481,
      "ujÄħc": 5482,
      "ĠEx": 5483,
      "Ġpowstania": 5484,
      "2020": 5485,
      "Ġnazwy": 5486,
      "ĠJor": 5487,
      "dzonego": 5488,
      "ĠPer": 5489,
      "61": 5490,
      "ï¿½ï¿½": 5491,
      "Ġuregul": 5492,
      "ĠCha": 5493,
      "Ġ1993": 5494,
      "ĠProjekt": 5495,
      "ĠwierzytelnoÅĽci": 5496,
      "Ġwios": 5497,
      "ĠsÄĻdzi": 5498,
      "Ġzachod": 5499,
      "Ġdostos": 5500,
      "ĠGeor": 5501,
      "tyczna": 5502,
      "Ġzakupu": 5503,
      "ĠosiÄħgniÄĻ": 5504,
      "uzu": 5505,
      "Ġklucz": 5506,
      "ĠInwe": 5507,
      "Le": 5508,
      "ĠSejmu": 5509,
      "ĠodlegÅĤo": 5510,
      "ĠNIE": 5511,
      "stej": 5512,
      "Ġtrwania": 5513,
      "Ba": 5514,
      "turÄĻ": 5515,
      "ĠStan": 5516,
      "ĠwpÅĤa": 5517,
      "ED": 5518,
      "rÃ³cz": 5519,
      "ĠDyrektora": 5520,
      "nicja": 5521,
      "ĠPow": 5522,
      "Ġpodwykona": 5523,
      "ĠobowiÄħzki": 5524,
      "Ġczwar": 5525,
      "ktÃ³re": 5526,
      "ĠmiesiÄħca": 5527,
      "Ġdopiero": 5528,
      "gre": 5529,
      "Ġdziecko": 5530,
      "Ġ44": 5531,
      "ĠdÅº": 5532,
      "Ġuwadze": 5533,
      "way": 5534,
      "sen": 5535,
      "mowaÄĩ": 5536,
      "Ġkalend": 5537,
      "Ġzawarta": 5538,
      "Ġziemi": 5539,
      "OWEGO": 5540,
      "ĠliÅĽcie": 5541,
      "ĠokrÄĻgu": 5542,
      "lus": 5543,
      "ZÄĦDZENIE": 5544,
      "Ġsymbo": 5545,
      "ĠWojewÃ³dztwa": 5546,
      "Ġfinansowej": 5547,
      "Ġzoba": 5548,
      "ĠwyÅĽci": 5549,
      "ĠsystemÃ³w": 5550,
      "ĠPÃ³ÅĤnocnej": 5551,
      "wro": 5552,
      "Ġkonieczne": 5553,
      "Ġwyprodu": 5554,
      "Ġzawodni": 5555,
      "Ġkolo": 5556,
      "Ġzauwa": 5557,
      "84": 5558,
      "ĠwÄĻg": 5559,
      "Ġindywidualnej": 5560,
      "rÃ³deÅĤ": 5561,
      "MU": 5562,
      "del": 5563,
      "ĠZespo": 5564,
      "ĠspÃ³ÅĤdziel": 5565,
      "wal": 5566,
      "ĠmieÅĽcie": 5567,
      "ĠzarzÄħd": 5568,
      "ĠÅļwiÄĻ": 5569,
      "ĠdowodÃ³w": 5570,
      "Ġleczenia": 5571,
      "zach": 5572,
      "ĠwszczÄĻ": 5573,
      "Ġorzecz": 5574,
      "Ġmln": 5575,
      "Ġponosi": 5576,
      "Ġwszelkie": 5577,
      "ĠÂ»": 5578,
      "Ġziem": 5579,
      "64": 5580,
      "ĠosobÄħ": 5581,
      "glÄħda": 5582,
      "mencie": 5583,
      "sol": 5584,
      "ĠniezbÄĻdnych": 5585,
      "Ġgene": 5586,
      "ĠodpowiedzialnoÅĽÄĩ": 5587,
      "ĠzaÅĤÄħ": 5588,
      "ĠPrzedsiÄĻbior": 5589,
      "Ġtutaj": 5590,
      "ĠCO": 5591,
      "zny": 5592,
      "82": 5593,
      "Ġkal": 5594,
      "ward": 5595,
      "ĠuÅ¼ywany": 5596,
      "EL": 5597,
      "DZIE": 5598,
      "armo": 5599,
      "Ġgwarancji": 5600,
      "ĠOB": 5601,
      "cony": 5602,
      "Ġakty": 5603,
      "Ġodsetek": 5604,
      "ĠÅ¼adnych": 5605,
      "Ġnieprze": 5606,
      "jazd": 5607,
      "zwyczaj": 5608,
      "ĠMis": 5609,
      "termin": 5610,
      "wor": 5611,
      "ĠScho": 5612,
      "Ġprzedmiot": 5613,
      "ĠmÄĻÅ¼czyzn": 5614,
      "Ġprzekazy": 5615,
      "ction": 5616,
      "Ġkwalifikacji": 5617,
      "ĠPIT": 5618,
      "ĠÅļlÄħ": 5619,
      "ĠZarzÄħd": 5620,
      "kur": 5621,
      "Ġcywilnej": 5622,
      "ĠWol": 5623,
      "arto": 5624,
      "Ġosobist": 5625,
      "ĠGÃ³r": 5626,
      "vo": 5627,
      "ĠCzÅĤon": 5628,
      "ÅĦca": 5629,
      "ĠÅºrÃ³deÅĤ": 5630,
      "stwach": 5631,
      "JÄĦ": 5632,
      "ĠRegiona": 5633,
      "artoÅĽci": 5634,
      "Ġstopniu": 5635,
      "Ġpodstawowych": 5636,
      "62": 5637,
      "ĠnajczÄĻ": 5638,
      "Ġgodziny": 5639,
      "Ġnowy": 5640,
      "ĠKomen": 5641,
      "ÅĽle": 5642,
      "komu": 5643,
      "ĠpiÄħ": 5644,
      "ĠTar": 5645,
      "ĠwynosiÅĤa": 5646,
      "ÅĤeÅĽ": 5647,
      "ĠelementÃ³w": 5648,
      "ĠDokumen": 5649,
      "fikacja": 5650,
      "Mie": 5651,
      "ĠciÄħg": 5652,
      "Ġwczes": 5653,
      "lege": 5654,
      "ĠUczest": 5655,
      "ĠpÃ³ÅĤnocno": 5656,
      "Ġznalaz": 5657,
      "Ġoprogram": 5658,
      "tak": 5659,
      "deo": 5660,
      "Ġbran": 5661,
      "ÅĽwiadczenia": 5662,
      "Ġprojek": 5663,
      "Ġobszaru": 5664,
      "Ġkwar": 5665,
      "Ġemi": 5666,
      "Ġzwyk": 5667,
      "Ġkwestii": 5668,
      "ĠNowy": 5669,
      "ĠPodczas": 5670,
      "wszy": 5671,
      "Ġpropor": 5672,
      "Ġzawartej": 5673,
      "ĠczÅĤonkowskie": 5674,
      "kan": 5675,
      "90": 5676,
      "ĠJapo": 5677,
      "ĠBia": 5678,
      "Ġrzeki": 5679,
      "Ġkonkurencji": 5680,
      ".âĢĿ": 5681,
      "Ġzdecy": 5682,
      "Å¼sze": 5683,
      "dowanie": 5684,
      "ĠAustralii": 5685,
      "Ġnarusza": 5686,
      "czem": 5687,
      "ĠNajwyÅ¼szego": 5688,
      "ĠEn": 5689,
      "ÅĤam": 5690,
      "81": 5691,
      "Ġkontrol": 5692,
      "2007": 5693,
      "ĠprzemysÅĤ": 5694,
      "Kon": 5695,
      "ĠTek": 5696,
      "73": 5697,
      "ĠzasobÃ³w": 5698,
      "Ġdokonuje": 5699,
      "cal": 5700,
      "Al": 5701,
      "tes": 5702,
      "Ġobywatel": 5703,
      "gami": 5704,
      "ĠmaÅĤÅ¼on": 5705,
      "Ġoperacji": 5706,
      "ĠKiedy": 5707,
      "ĠgÅĤÄĻ": 5708,
      "Ġmaszy": 5709,
      "Ġwyco": 5710,
      "ning": 5711,
      "naleÅ¼": 5712,
      "naliza": 5713,
      "Ġrosy": 5714,
      "ĠXIX": 5715,
      "Ġwpis": 5716,
      "ĠPark": 5717,
      "ĠwejÅĽcia": 5718,
      "Ñģ": 5719,
      "ĠPoÅĤudniowej": 5720,
      "UM": 5721,
      "ĠzamkniÄĻ": 5722,
      "Ġwido": 5723,
      "Ġregulacji": 5724,
      "Ġbiznes": 5725,
      "ĠAda": 5726,
      "ĠdrogÄħ": 5727,
      "noszÄħ": 5728,
      "Ġoferta": 5729,
      "Ġradi": 5730,
      "Ġfinansowego": 5731,
      "Ġkonkursu": 5732,
      "Ġrobi": 5733,
      "ther": 5734,
      "Ġosobom": 5735,
      "ert": 5736,
      "ĠUÅ¼ytkow": 5737,
      "uri": 5738,
      "ĠÅĤo": 5739,
      "Ġnadzor": 5740,
      "Ġdanym": 5741,
      "Ġare": 5742,
      "ĠStre": 5743,
      "lik": 5744,
      "Ġdecy": 5745,
      "ĠJer": 5746,
      "ĠOF": 5747,
      "ĠOlimpijskich": 5748,
      "ĠUCHWAÅģA": 5749,
      "szta": 5750,
      "PS": 5751,
      "ĠprzepÅĤy": 5752,
      "Ġpozytyw": 5753,
      "ĠwysÅĤa": 5754,
      "ĠzaÅĤÄħczniku": 5755,
      "Ġniewiel": 5756,
      "orty": 5757,
      "waniem": 5758,
      "ĠzmianÄĻ": 5759,
      "Ġudzielania": 5760,
      "ĠstronÄĻ": 5761,
      "ĠCor": 5762,
      "Przed": 5763,
      "Ġwskazane": 5764,
      "Ġregulu": 5765,
      "Ġznana": 5766,
      "ĠwynikajÄħce": 5767,
      "IV": 5768,
      "ĠKaro": 5769,
      "ome": 5770,
      "Ġlimi": 5771,
      "ĠrÃ³wno": 5772,
      "Ð»": 5773,
      "Ġwychowa": 5774,
      "tacje": 5775,
      "chwaÅĤa": 5776,
      "Ġinnowa": 5777,
      "BA": 5778,
      "dne": 5779,
      "ĠudziaÅĤem": 5780,
      "Ġ1989": 5781,
      "szyscy": 5782,
      "miu": 5783,
      "Ġwymagane": 5784,
      "ES": 5785,
      "Ġprawny": 5786,
      "ĠwskazaÅĤ": 5787,
      "ĠskrÃ³": 5788,
      "nieÅĽÄĩ": 5789,
      "ĠporzÄħdku": 5790,
      "ĠWÃ³j": 5791,
      "Ġreprezentu": 5792,
      "Ġlisty": 5793,
      "tywy": 5794,
      "ĠskÅĤadzie": 5795,
      "trza": 5796,
      "ĠWnioskodawcÄĻ": 5797,
      "tyfikowa": 5798,
      "hu": 5799,
      "Ġubezpieczenie": 5800,
      "ĠChar": 5801,
      "Ġnowej": 5802,
      "Å¼sa": 5803,
      "ĠZdrowia": 5804,
      "ĠpodziaÅĤu": 5805,
      "Ġner": 5806,
      "Å¼em": 5807,
      "cio": 5808,
      "nin": 5809,
      "Ġkontakt": 5810,
      "Ġwszystko": 5811,
      "ĠmiaÅĤo": 5812,
      "tos": 5813,
      "ĠWspÃ³lno": 5814,
      "ĠwystÄħpienia": 5815,
      "Ġniebezpie": 5816,
      "Ã±": 5817,
      "ĠuzaleÅ¼": 5818,
      "szÅĤo": 5819,
      "Ġode": 5820,
      "ĠpodrÃ³": 5821,
      "listy": 5822,
      "szeniem": 5823,
      "dÅĤuÅ¼": 5824,
      "Ġjeste": 5825,
      "SKI": 5826,
      "gatyw": 5827,
      "ĠinformacjÄĻ": 5828,
      "Ġzwraca": 5829,
      "Ġkwalifikowa": 5830,
      "Ġdziedzinie": 5831,
      "rzeniu": 5832,
      "à¤": 5833,
      "ĠmiesiÄħce": 5834,
      "ĠAdres": 5835,
      "ĠwskazaÄĩ": 5836,
      "Ġnieograni": 5837,
      "kÅĤadni": 5838,
      "owanÄħ": 5839,
      "ĠskÅĤadnikÃ³w": 5840,
      "ford": 5841,
      "Ġwspom": 5842,
      "ĠObecnie": 5843,
      "Ġwynik": 5844,
      "Ġnigdy": 5845,
      "ĠInterne": 5846,
      "ĠLet": 5847,
      "Ġstrze": 5848,
      "Ġsprzeci": 5849,
      "ĠmaÅĤÅ¼eÅĦ": 5850,
      "Ġkompeten": 5851,
      "ĠKomite": 5852,
      "niewaÅ¼": 5853,
      "dale": 5854,
      "Ġnimi": 5855,
      "ĠkorzyÅĽci": 5856,
      "Ġwyraz": 5857,
      "ĠtytuÅĤem": 5858,
      "ĠtwÃ³r": 5859,
      "ĠData": 5860,
      "Ġminister": 5861,
      "ciÄħga": 5862,
      "ĠEle": 5863,
      "ĠPowiatu": 5864,
      "ĠÅļwiata": 5865,
      "ĠnieodpÅĤa": 5866,
      "angaÅ¼": 5867,
      "hen": 5868,
      "owali": 5869,
      "Ġwyniki": 5870,
      "Ġzamierza": 5871,
      "www": 5872,
      "Ġadministracyjnego": 5873,
      "pora": 5874,
      "zad": 5875,
      "ĠNowej": 5876,
      "Ġprawdopodobnie": 5877,
      "DF": 5878,
      "Ġ120": 5879,
      "Ġciep": 5880,
      "Wnios": 5881,
      "istoria": 5882,
      "wans": 5883,
      "wolu": 5884,
      "Ġdlatego": 5885,
      "dalej": 5886,
      "Ġrady": 5887,
      "mujÄħ": 5888,
      "cel": 5889,
      "ĠSprawie": 5890,
      "tri": 5891,
      "Ġnauki": 5892,
      "ĠPLN": 5893,
      "ĠuwzglÄĻdni": 5894,
      "Ġmas": 5895,
      "Ġrent": 5896,
      "Ġbroni": 5897,
      "Ġanalizy": 5898,
      "ĠzajÄĻÄĩ": 5899,
      "Ġtymczas": 5900,
      "Ġpisemnej": 5901,
      "ket": 5902,
      "ĠroÅĽlin": 5903,
      "ĠzuÅ¼y": 5904,
      "ĠStatu": 5905,
      "ĠSSN": 5906,
      "ĠPolskiego": 5907,
      "Ġtaka": 5908,
      "ĠPri": 5909,
      "Ġcena": 5910,
      "Ġwzrost": 5911,
      "Ġdobre": 5912,
      "ĠzamÃ³wieniu": 5913,
      "Ðº": 5914,
      "ĠwÅĤasne": 5915,
      "Ġdzis": 5916,
      "Ġoczywi": 5917,
      "lono": 5918,
      "wskiego": 5919,
      "Ġczterech": 5920,
      "Ġ52": 5921,
      "Ġwykorzystania": 5922,
      "Ġjas": 5923,
      "ĠCoun": 5924,
      "ĠobjÄĻtych": 5925,
      "ĠtÅĤuma": 5926,
      "ĠsamorzÄħd": 5927,
      "ĠAs": 5928,
      "ĠSchool": 5929,
      "ĠniezwÅĤocznie": 5930,
      "ÅĽwiet": 5931,
      "ĠchoÄĩ": 5932,
      "ĠÅĽrodowisko": 5933,
      "NIST": 5934,
      "ĠduÅ¼e": 5935,
      "Ġzawodowego": 5936,
      "Ġdodatkowych": 5937,
      "PA": 5938,
      "Ġkandydat": 5939,
      "ĠFundusz": 5940,
      "ĠumiejÄĻ": 5941,
      "znacza": 5942,
      "Ġautoma": 5943,
      "ĠCity": 5944,
      "Ad": 5945,
      "ĠofertÄĻ": 5946,
      "ingu": 5947,
      "Ġnajmu": 5948,
      "63": 5949,
      "czeÅĦstwo": 5950,
      "ĠjÄĻzyka": 5951,
      "wcze": 5952,
      "2004": 5953,
      "ĠÅĽcia": 5954,
      "ĠUsÅĤu": 5955,
      "ĠSpoÅĤecznej": 5956,
      "Ġzda": 5957,
      "Ġhipote": 5958,
      "ĠwÅĤaÅĽnie": 5959,
      "Ġelektro": 5960,
      "Ġwery": 5961,
      "Ġprzestrzennego": 5962,
      "Ġdrew": 5963,
      "Ġzbycia": 5964,
      "Ġoba": 5965,
      "JeÅĽli": 5966,
      "Ġlikwidacji": 5967,
      "Ġsamochodu": 5968,
      "ston": 5969,
      "Ġpolskiego": 5970,
      "dencji": 5971,
      "ĠBel": 5972,
      "ĠWO": 5973,
      "chÄĻ": 5974,
      "Ġhandlowych": 5975,
      "ĠTym": 5976,
      "Ġrozwija": 5977,
      "Ġskle": 5978,
      "krai": 5979,
      "zajem": 5980,
      "enefi": 5981,
      "dzanie": 5982,
      "Ġwskazanych": 5983,
      "Ġpostanowienie": 5984,
      "liczania": 5985,
      "szony": 5986,
      "dniu": 5987,
      "ĠniezaleÅ¼nie": 5988,
      "ĠPen": 5989,
      "ĠwÅĤadzy": 5990,
      "ĠbezpÅĤa": 5991,
      "KÃĵW": 5992,
      "Ġludzie": 5993,
      "ĠSza": 5994,
      "ĠskutkÃ³w": 5995,
      "Ã¤": 5996,
      "Ġporu": 5997,
      "ĠludnoÅĽci": 5998,
      "szymi": 5999,
      "ĠksztaÅĤcenia": 6000,
      "!!": 6001,
      "ĠZna": 6002,
      "ĠgruntÃ³w": 6003,
      "fikacjÄĻ": 6004,
      "Ġchor": 6005,
      "df": 6006,
      "ĠdochÃ³d": 6007,
      "gru": 6008,
      "GRA": 6009,
      "zowie": 6010,
      "Ġtoku": 6011,
      "ĠrodzicÃ³w": 6012,
      "ĠzgÅĤoszenia": 6013,
      "Ġfunkcjonowania": 6014,
      "SKA": 6015,
      "Ġmikro": 6016,
      "Ġpodpis": 6017,
      "Ġple": 6018,
      "wÅĤaÅĽci": 6019,
      "czer": 6020,
      "Ġpozostaje": 6021,
      "szyÄĩ": 6022,
      "Â°": 6023,
      "as": 6024,
      "arÃ³w": 6025,
      "ĠBanku": 6026,
      "Ġpodda": 6027,
      "JA": 6028,
      "ĠÅģodzi": 6029,
      "ĠreÅ¼yser": 6030,
      "Ġ75": 6031,
      "niego": 6032,
      "iÄĩ": 6033,
      "ĠÅĽwiÄĻ": 6034,
      "WY": 6035,
      "ĠstanowiÄĩ": 6036,
      "stion": 6037,
      "ĠKul": 6038,
      "ĠkÄħ": 6039,
      "Ġzabudowy": 6040,
      "ĠczÅĤonkowskich": 6041,
      "czba": 6042,
      "ĠRegulaminu": 6043,
      "Ġcertyfika": 6044,
      "Ġobja": 6045,
      "nce": 6046,
      "conych": 6047,
      "lak": 6048,
      "ĠbezpoÅĽre": 6049,
      "wczego": 6050,
      "zowania": 6051,
      "tarzy": 6052,
      "ĠSch": 6053,
      "Sa": 6054,
      "ĠNational": 6055,
      "ĠzgÅĤasza": 6056,
      "Ġdyrektora": 6057,
      "niar": 6058,
      "Ġinfrastruktury": 6059,
      "ĠinÅ¼ynie": 6060,
      "Ġarchite": 6061,
      "Ġ47": 6062,
      "ĠcaÅĤej": 6063,
      "ĠTrybunaÅĤu": 6064,
      "towanych": 6065,
      "ĠNumer": 6066,
      "dle": 6067,
      "tycznÄħ": 6068,
      "Mar": 6069,
      "ĠprzestÄĻpstwa": 6070,
      "ĠzdolnoÅĽci": 6071,
      "ĠokrÄĻg": 6072,
      "ĠsÅĤuÅ¼y": 6073,
      "liam": 6074,
      "Ġzawiadomie": 6075,
      "Ġmam": 6076,
      "ĠgÅĤÃ³wnym": 6077,
      "owaÅĤy": 6078,
      "Ġintegra": 6079,
      "ĠrozwÃ³j": 6080,
      "Ġproduktu": 6081,
      "Ġlep": 6082,
      "Ġdystrybu": 6083,
      "ĠPoznaniu": 6084,
      "Ġwydzie": 6085,
      "ĠwypÅĤaty": 6086,
      "ĠSena": 6087,
      "ĠjakÄħ": 6088,
      "red": 6089,
      "Ġniniejszym": 6090,
      "DO": 6091,
      "ĠpoÅ¼yczki": 6092,
      "ĠzdobyÅĤ": 6093,
      "ĠSpÃ³ÅĤkÄĻ": 6094,
      "Ġdyplo": 6095,
      "Ġnazy": 6096,
      "rÃ³b": 6097,
      "ĠnaleÅ¼nego": 6098,
      "Ġ300": 6099,
      "Ġdrugim": 6100,
      "torium": 6101,
      "ĠÅĤ": 6102,
      "ĠJej": 6103,
      "strali": 6104,
      "habili": 6105,
      "ĠzgodnoÅĽci": 6106,
      "ĠMarszaÅĤ": 6107,
      "ĠpodwyÅ¼": 6108,
      "PE": 6109,
      "Ġnegatyw": 6110,
      "dzonej": 6111,
      "Ġzezwolenia": 6112,
      "Ġdyspozy": 6113,
      "Ġ55": 6114,
      "strzyma": 6115,
      "Ġ53": 6116,
      "ĠwypÅĤaca": 6117,
      "lonego": 6118,
      "Ġsezon": 6119,
      "ĠzawieraÄĩ": 6120,
      "Ġodbioru": 6121,
      "Äħcymi": 6122,
      "ĠkapitaÅĤu": 6123,
      "ĠupadÅĤoÅĽci": 6124,
      "ĠZnajduje": 6125,
      "Ġjazdy": 6126,
      "Ġ65": 6127,
      "ĠInspe": 6128,
      "ĠpowyÅ¼szego": 6129,
      "zeum": 6130,
      "ĠNowym": 6131,
      "ÅĤami": 6132,
      "togra": 6133,
      "RZE": 6134,
      "pÄĻ": 6135,
      "],": 6136,
      "Ġbezrobo": 6137,
      "Ġprzesy": 6138,
      "Me": 6139,
      "ĠEdu": 6140,
      "Ġdyscypli": 6141,
      "Ġoddzie": 6142,
      "ĠodpowiedÅº": 6143,
      "zenie": 6144,
      "szem": 6145,
      "Ġina": 6146,
      "Ġskaza": 6147,
      "Ġkomis": 6148,
      "cyjnymi": 6149,
      "ĠpowyÅ¼szym": 6150,
      "TO": 6151,
      "ĠBurmi": 6152,
      "Naj": 6153,
      "Ġpowiatu": 6154,
      "Ca": 6155,
      "orii": 6156,
      "ĠpaÅĦstwo": 6157,
      "Ġodszkodowania": 6158,
      "ĠTermin": 6159,
      "ĠUM": 6160,
      "Ġgre": 6161,
      "ĠIr": 6162,
      "owaÅĤo": 6163,
      "ĠmÃ³z": 6164,
      "Ġczerwo": 6165,
      "merica": 6166,
      "ĠosiÄħga": 6167,
      "UD": 6168,
      "ĠdziaÅĤalnoÅĽciÄħ": 6169,
      "ËĿ": 6170,
      "ĠobowiÄħzujÄħcych": 6171,
      "ĠDosta": 6172,
      "mini": 6173,
      "Ġzamiast": 6174,
      "Ġmetody": 6175,
      "Å¼ek": 6176,
      "Ġsur": 6177,
      "ĠzaangaÅ¼": 6178,
      "ĠÅĽrodka": 6179,
      "ĠKrajowej": 6180,
      "BI": 6181,
      "wrÃ³": 6182,
      "Ġjakiej": 6183,
      "Ġstacji": 6184,
      "ĠPuch": 6185,
      "Ġpotwierdzenia": 6186,
      "ĠAm": 6187,
      "ĠFir": 6188,
      "ĠsobÄħ": 6189,
      "Ġwersji": 6190,
      "Ġdarowi": 6191,
      "ÑĤ": 6192,
      "wska": 6193,
      "spi": 6194,
      "Ġ89": 6195,
      "kreÅĽla": 6196,
      "Ġprawdzi": 6197,
      "Ġstatysty": 6198,
      "gis": 6199,
      "Ġtrzeba": 6200,
      "ield": 6201,
      "ĠNarodowej": 6202,
      "ĠAdministracyjnego": 6203,
      "Ġodpowiednie": 6204,
      "ĠsÅĤa": 6205,
      "Ġzim": 6206,
      "Ġ54": 6207,
      "bio": 6208,
      "ĠmaÅĤo": 6209,
      "ÅĤÄĻd": 6210,
      "tj": 6211,
      "Ġdochody": 6212,
      "stawienie": 6213,
      "Ġpozwanego": 6214,
      "Ġwier": 6215,
      "Ġ99": 6216,
      "Ġprak": 6217,
      "Ġinformuje": 6218,
      "lasy": 6219,
      "cyjno": 6220,
      "ĠUniwersytecie": 6221,
      "ĠobowiÄħzany": 6222,
      "Ġumow": 6223,
      "ĠZakÅĤad": 6224,
      "Ġman": 6225,
      "Ġali": 6226,
      "ĠOl": 6227,
      "ĠdostÄĻpne": 6228,
      "ÅĤuje": 6229,
      "Ġkarty": 6230,
      "ĠstwierdziÅĤ": 6231,
      "Ġwycofa": 6232,
      "ncie": 6233,
      "lokali": 6234,
      "Ġgaz": 6235,
      "Ġobiektu": 6236,
      "ĠpozarzÄħd": 6237,
      "ĠzakoÅĦczeniu": 6238,
      "Ã³rek": 6239,
      "ĠOrdynacja": 6240,
      "Ġdzier": 6241,
      "ĠgÅĤÃ³wnych": 6242,
      "ĠwaÅ¼ne": 6243,
      "landz": 6244,
      "linie": 6245,
      "ĠKi": 6246,
      "ĠwynikÃ³w": 6247,
      "bod": 6248,
      "UchwaÅĤa": 6249,
      "Ġwniesi": 6250,
      "Ġud": 6251,
      "dziesiÄħ": 6252,
      "ĠczÅĤonka": 6253,
      "Ġfinansowania": 6254,
      "Ġzapyta": 6255,
      "Ġzaczyna": 6256,
      "ĠrozumieÄĩ": 6257,
      "Ġtowaru": 6258,
      "lnopraw": 6259,
      "siÄĻcy": 6260,
      "czyk": 6261,
      "Ġefektyw": 6262,
      "Ġkonserwa": 6263,
      "Ġter": 6264,
      "ĠpieniÄĻÅ¼nych": 6265,
      "ys": 6266,
      "Ġdyrektor": 6267,
      "ĠWs": 6268,
      "ĠuzupeÅĤnia": 6269,
      "prawia": 6270,
      "Ġpisa": 6271,
      "Ġposiadania": 6272,
      "Ġprofesjona": 6273,
      "Ġpracownik": 6274,
      "ĠMA": 6275,
      "Ġzatrzyma": 6276,
      "jnej": 6277,
      "nictwie": 6278,
      "ĠWz": 6279,
      "cyk": 6280,
      "Ġskutek": 6281,
      "2005": 6282,
      "Ġpojem": 6283,
      "Ġpers": 6284,
      "ĠWarunkÃ³w": 6285,
      "nci": 6286,
      "ĠNajwyÅ¼szy": 6287,
      "ĠpÄĻ": 6288,
      "Ludzie": 6289,
      "Ġzaga": 6290,
      "Ġotw": 6291,
      "owiec": 6292,
      "Ġfun": 6293,
      "ĠNadzor": 6294,
      "Ġpublikacji": 6295,
      "Ġgwia": 6296,
      "Ġpogo": 6297,
      "ĠskÅĤadki": 6298,
      "Ġfunkcjona": 6299,
      "ĠKrajowego": 6300,
      "ĠuznaÅĤ": 6301,
      "Ġpojedyn": 6302,
      "Zobacz": 6303,
      "ĠJana": 6304,
      "ĠKalifornii": 6305,
      "reg": 6306,
      "Ġgmin": 6307,
      "Ġzostaje": 6308,
      "Ġpunkt": 6309,
      "czegÃ³ÅĤ": 6310,
      "ĠIgrzyskach": 6311,
      "ĠwÅĤaÅĽciwym": 6312,
      "chodzie": 6313,
      "Ġwykluczenia": 6314,
      "lla": 6315,
      "Ġwydana": 6316,
      "eneficje": 6317,
      "Ġmis": 6318,
      "Ġus": 6319,
      "ĠprzedsiÄĻbiorcy": 6320,
      "Ġobo": 6321,
      "Ġzapisa": 6322,
      "iÄĻkszoÅĽÄĩ": 6323,
      "bl": 6324,
      "Ġnomina": 6325,
      "ĠprzychÃ³d": 6326,
      "Ġprzesz": 6327,
      "ĠBie": 6328,
      "ĠÅ¼Äħdanie": 6329,
      "ĠdoÅĽwiadczenia": 6330,
      "waÅĤa": 6331,
      "nionego": 6332,
      "ĠFilm": 6333,
      "ĠLin": 6334,
      "ĠAt": 6335,
      "Ġniepod": 6336,
      "EM": 6337,
      "Ġzawodowej": 6338,
      "Ġwykonywanie": 6339,
      "brze": 6340,
      "Ġdeklaracji": 6341,
      "wieÅĦ": 6342,
      "ĠInformacji": 6343,
      "styczne": 6344,
      "ĠtysiÄĻcy": 6345,
      "ĠzÅĤoÅ¼one": 6346,
      "Å¼onym": 6347,
      "datki": 6348,
      "lania": 6349,
      "ĠprzedsiÄĻwziÄĻcia": 6350,
      "ĠSprawiedliwoÅĽci": 6351,
      "kademi": 6352,
      "ĠRodzi": 6353,
      "Ġosobie": 6354,
      "ĠÅ¼ywnoÅĽci": 6355,
      "Ġtera": 6356,
      "ĠINFORMA": 6357,
      "dak": 6358,
      "Ġfunduszu": 6359,
      "Ġmode": 6360,
      "Ġocenia": 6361,
      "ĠÅļwiad": 6362,
      "Ġkwadra": 6363,
      "ĠPolicji": 6364,
      "Ġrejestracji": 6365,
      "Ġutrzymania": 6366,
      "Ġsezonu": 6367,
      "Ġargu": 6368,
      "Ġ69": 6369,
      "Ġzapozna": 6370,
      "wanej": 6371,
      "Ġkalendarz": 6372,
      "Ġpomaga": 6373,
      "Ġuznania": 6374,
      "komunika": 6375,
      "ĠspÃ³ÅĤce": 6376,
      "Ġalkoho": 6377,
      "ĠwyrobÃ³w": 6378,
      "ĠwewnÄħtrz": 6379,
      "ĠWoj": 6380,
      "Ġpieni": 6381,
      "ĠHer": 6382,
      "Ġ09": 6383,
      "sÅĤawa": 6384,
      "Ġobra": 6385,
      "Ġ1982": 6386,
      "ĠRec": 6387,
      "odu": 6388,
      "ĠspeÅĤnienia": 6389,
      "Ġtymi": 6390,
      "Ġdofinansowanie": 6391,
      "Ġbis": 6392,
      "ĠzapewniÄĩ": 6393,
      "Ġparla": 6394,
      "Ġwyga": 6395,
      "Ġnacze": 6396,
      "Ġnauczycieli": 6397,
      "ĠzakoÅĦczenia": 6398,
      "Ġkontek": 6399,
      "ĠszeÅĽÄĩ": 6400,
      "niejszych": 6401,
      "Ġwdro": 6402,
      "Ġsztuki": 6403,
      "cona": 6404,
      "SKIEGO": 6405,
      "ĠmetrÃ³w": 6406,
      "Ġ64": 6407,
      "ĠKomu": 6408,
      "Ġzbiera": 6409,
      "Ġelementy": 6410,
      "Ġzaist": 6411,
      "Ġryzyko": 6412,
      "Ġwice": 6413,
      "ĠwspÃ³lnego": 6414,
      "Ġgdyby": 6415,
      "ĠprzedsiÄĻbiorcÃ³w": 6416,
      "miec": 6417,
      "Ġwschod": 6418,
      "ĠSkarbu": 6419,
      "ĠAK": 6420,
      "Ġdecyzja": 6421,
      "Ġistotne": 6422,
      "Ġfilmu": 6423,
      "Ġustalenie": 6424,
      "Ġdrugiego": 6425,
      "ĠzakÅĤadu": 6426,
      "ĠprÄĻd": 6427,
      "ĠHiszpa": 6428,
      "GI": 6429,
      "Ġhy": 6430,
      "owskiego": 6431,
      "ĠosiÄħgniÄĻcia": 6432,
      "ĠwpÅĤywa": 6433,
      "Ġaktuali": 6434,
      "ĠStani": 6435,
      "stycznych": 6436,
      "Ġparamet": 6437,
      "tykuÅĤ": 6438,
      "ung": 6439,
      "cznik": 6440,
      "strzega": 6441,
      "ĠNastÄĻpnie": 6442,
      "lli": 6443,
      "Ġistotnych": 6444,
      "ĠcaÅĤkowicie": 6445,
      "Ġorzeka": 6446,
      "ĠmilionÃ³w": 6447,
      "ĠzrobiÄĩ": 6448,
      "Ġide": 6449,
      "szczÄĻd": 6450,
      "Ã³ra": 6451,
      "ĠÅĽle": 6452,
      "Ġreprezentacji": 6453,
      "Ġpolskim": 6454,
      "Ġchcia": 6455,
      "Ġprzychody": 6456,
      "ĠstwierdziÄĩ": 6457,
      "bora": 6458,
      "kowski": 6459,
      "ĠSK": 6460,
      "ĠUchwaÅĤy": 6461,
      "ĠOp": 6462,
      "Ġdniach": 6463,
      "Ġsygna": 6464,
      "ĠniewaÅ¼": 6465,
      "ĠwykonawcÃ³w": 6466,
      "ĠusuniÄĻcia": 6467,
      "ĠMiÄĻdzynarod": 6468,
      "ĠzamÃ³wienie": 6469,
      "ĠNatomiast": 6470,
      "Wa": 6471,
      "Ġklienta": 6472,
      "Ġstowarzy": 6473,
      "Ġwpisu": 6474,
      "Ġidentyfika": 6475,
      "Ġdysku": 6476,
      "biegu": 6477,
      "ĠpiÄĻciu": 6478,
      "ĠgÅĤosÃ³w": 6479,
      "Ġbudynek": 6480,
      "Ġreferen": 6481,
      "ĠspoÅĤecznego": 6482,
      "%.": 6483,
      "ĠpowÃ³dz": 6484,
      "ĠÅĽwiade": 6485,
      "Ġinicja": 6486,
      "ĠWydziaÅĤ": 6487,
      "Ġwszelkich": 6488,
      "ĠuÅ¼yciu": 6489,
      "Ġfaktycznego": 6490,
      "Ġjednolity": 6491,
      "Ġdos": 6492,
      "use": 6493,
      "ĠrozstrzygniÄĻcia": 6494,
      "Ġprowadzone": 6495,
      "ĠIm": 6496,
      "rzym": 6497,
      "Ġogranicza": 6498,
      "szawa": 6499,
      "ĠrozpoczÄħÅĤ": 6500,
      "woj": 6501,
      "Ġzdaniem": 6502,
      "ĠâĢ¢": 6503,
      "ĠROZ": 6504,
      "ĠdziaÅĤanie": 6505,
      "Ġmimo": 6506,
      "ĠupÅĤywie": 6507,
      "Ġzwrot": 6508,
      "Ġsamolo": 6509,
      "ĠwystÄĻpujÄħ": 6510,
      "ÅĤoÅ¼enie": 6511,
      "mentem": 6512,
      "Ġkarnego": 6513,
      "ĠosobowoÅĽci": 6514,
      "Ġui": 6515,
      "ĠogÃ³lno": 6516,
      "ĠdokÅĤad": 6517,
      "Ġroszczenia": 6518,
      "Ġpolskich": 6519,
      "cjonariuszy": 6520,
      "ĠCollege": 6521,
      "ĠwywoÅĤa": 6522,
      "ĠkoniecznoÅĽÄĩ": 6523,
      "ĠnarzÄĻ": 6524,
      "nemu": 6525,
      "ĠPowie": 6526,
      "Ġstoli": 6527,
      "ĠproblemÃ³w": 6528,
      "OWYCH": 6529,
      "Ġjapo": 6530,
      "Ġ1964": 6531,
      "Ġmg": 6532,
      "ĠFl": 6533,
      "Ġokaza": 6534,
      "ancelar": 6535,
      "ĠCzÄĻÅĽÄĩ": 6536,
      "zujÄħc": 6537,
      "ĠzasÄħ": 6538,
      "fiku": 6539,
      "ĠTrybunaÅĤ": 6540,
      "Ġedy": 6541,
      "ĠBru": 6542,
      "ĠroszczeÅĦ": 6543,
      "Ġpropon": 6544,
      "Ġprzyczyny": 6545,
      "ĠJohn": 6546,
      "Ġustanowie": 6547,
      "Ġzaprojekt": 6548,
      "Ġtekst": 6549,
      "ranie": 6550,
      "ĠSN": 6551,
      "OWEJ": 6552,
      "osob": 6553,
      "ÅĤÄħd": 6554,
      "cro": 6555,
      "Ġcyk": 6556,
      "Ġmonta": 6557,
      "nkiem": 6558,
      "ĠukÅĤad": 6559,
      "uth": 6560,
      "Ġsekre": 6561,
      "ĠdzierÅ¼a": 6562,
      "ĠliczyÅĤa": 6563,
      "LO": 6564,
      "Ġpodatkowym": 6565,
      "sion": 6566,
      "walifikowa": 6567,
      "Ġprzedstawione": 6568,
      "Ġwymiaru": 6569,
      "liny": 6570,
      "Ġstruktu": 6571,
      "niczych": 6572,
      "ĠuÅ¼ywane": 6573,
      "Å¼d": 6574,
      "Ġprodukty": 6575,
      "gne": 6576,
      "ĠcÃ³r": 6577,
      "ĠcoÅĽ": 6578,
      "ĠWyso": 6579,
      "cyjnie": 6580,
      "ĠDane": 6581,
      "Ġprodukt": 6582,
      "Ġulicy": 6583,
      "Ġmacie": 6584,
      "ĠSze": 6585,
      "Ã³ze": 6586,
      "ĠPlan": 6587,
      "ĠToma": 6588,
      "Ġtechniczne": 6589,
      "Ġodpada": 6590,
      "dali": 6591,
      "bar": 6592,
      "ĠprowadziÄĩ": 6593,
      "ĠuczestnikÃ³w": 6594,
      "Ġprzyja": 6595,
      "ĠStaro": 6596,
      "SR": 6597,
      "Ġdoros": 6598,
      "Å»y": 6599,
      "ĠDar": 6600,
      "ĠbÅĤÄĻd": 6601,
      "czech": 6602,
      "mana": 6603,
      "Ġ1975": 6604,
      "Ġhe": 6605,
      "ĠWojewÃ³dzkiego": 6606,
      "Ġbur": 6607,
      "ĠZUS": 6608,
      "Ġpowro": 6609,
      "ĠzaÅĤÄħcznika": 6610,
      "ĠAfry": 6611,
      "dagogi": 6612,
      "Ġzbyt": 6613,
      "ĊĠ": 6614,
      "ĠuniemoÅ¼li": 6615,
      "ternatyw": 6616,
      "ĠUmowa": 6617,
      "leniem": 6618,
      "rÄħz": 6619,
      "ĠTre": 6620,
      "ĠuzyskaÅĤ": 6621,
      "ĠUrzÄĻd": 6622,
      "Ġprote": 6623,
      "lokalizowa": 6624,
      "ĠKON": 6625,
      "ĠDeparta": 6626,
      "Ġznak": 6627,
      "Ã³Åºniej": 6628,
      "solwen": 6629,
      "ĠUbezpieczeÅĦ": 6630,
      "ÅĦcu": 6631,
      "Ġkanady": 6632,
      "ÅĽciÄĩ": 6633,
      "Ġorganem": 6634,
      "Ġelektrycznej": 6635,
      "Ġdiagno": 6636,
      "Ġlokalnych": 6637,
      "Ġturniej": 6638,
      "ĠGran": 6639,
      "Ġdeparta": 6640,
      "ĠmajÄħtkowych": 6641,
      "ĠwÅĤasnoÅĽÄĩ": 6642,
      "cym": 6643,
      "mami": 6644,
      "Ġstopni": 6645,
      "Ġdi": 6646,
      "ANOWIE": 6647,
      "Ġpierwszych": 6648,
      "Ġznaczenia": 6649,
      "Ġkolejnych": 6650,
      "Ġpowietrz": 6651,
      "ĠwspÃ³ÅĤczes": 6652,
      "Ġrodzinie": 6653,
      "Å¼na": 6654,
      "Ġmomentu": 6655,
      "Ġserialu": 6656,
      "Ġopu": 6657,
      "ĠWszystkie": 6658,
      "Ġzain": 6659,
      "Ġakcep": 6660,
      "Ġsen": 6661,
      "ceny": 6662,
      "Ġoto": 6663,
      "Dla": 6664,
      "Ġszybko": 6665,
      "Ġmody": 6666,
      "ĠzwiÄħzek": 6667,
      "ĠpodwÃ³j": 6668,
      "tta": 6669,
      "ĠpodjÄĻcia": 6670,
      "ĠobsÅĤu": 6671,
      "die": 6672,
      "Ġkrzy": 6673,
      "Ġreak": 6674,
      "ĠtoÅ¼sa": 6675,
      "ĠWojs": 6676,
      "ĠNiemczech": 6677,
      "ĠwokÃ³ÅĤ": 6678,
      "king": 6679,
      "ĠPostanowienia": 6680,
      "Ġ95": 6681,
      "con": 6682,
      "bach": 6683,
      "ĠstaÅĤ": 6684,
      "Ġmeta": 6685,
      "Ġzanim": 6686,
      "Ġklauzu": 6687,
      "ĠKsiÄĻ": 6688,
      "Ġ?": 6689,
      "ĠKontro": 6690,
      "ĠspÃ³ÅĤkÄĻ": 6691,
      "Ġwzajem": 6692,
      "Ġodwie": 6693,
      "ĠOFER": 6694,
      "que": 6695,
      "Ã³g": 6696,
      "ye": 6697,
      "ĠodwoÅĤania": 6698,
      "Ġoczeki": 6699,
      "Ġpoprzedza": 6700,
      "Ġ'": 6701,
      "ĠwÅĤaÅĽciwoÅĽci": 6702,
      "ĠtakÄħ": 6703,
      "ĠPeÅĤ": 6704,
      "Ġsubstancji": 6705,
      "Ġwarunku": 6706,
      "Ġjednozna": 6707,
      "Sp": 6708,
      "ĠopÃ³Åº": 6709,
      "ĠzaÅĤoÅ¼y": 6710,
      "Ġzrealizowa": 6711,
      "Dzie": 6712,
      "Warszawa": 6713,
      "ĠÅ¼eby": 6714,
      "noszenia": 6715,
      "ĠProje": 6716,
      "czyli": 6717,
      "Ġprzekazania": 6718,
      "stÄĻpuje": 6719,
      "homa": 6720,
      "Ġnabycie": 6721,
      "gacji": 6722,
      "ale": 6723,
      "ĠpodkreÅĽli": 6724,
      "Ġkonsul": 6725,
      "95": 6726,
      "leni": 6727,
      "Ġono": 6728,
      "han": 6729,
      "ĠcaÅĤego": 6730,
      "TER": 6731,
      "ĠobjÄĻte": 6732,
      "ls": 6733,
      "Ġopisu": 6734,
      "mum": 6735,
      "ĠpowiedziaÅĤ": 6736,
      "ĠCel": 6737,
      "ĠdziesiÄĻ": 6738,
      "ĠKry": 6739,
      "Ġ1988": 6740,
      "rid": 6741,
      "ore": 6742,
      "ÅģU": 6743,
      "ĠIstotnych": 6744,
      "ĠPara": 6745,
      "MS": 6746,
      "Ġlokalizacji": 6747,
      "ĠurzÄĻdni": 6748,
      "ÄĻdzia": 6749,
      "Ġzrozu": 6750,
      "Ġmamy": 6751,
      "dgo": 6752,
      "ĠporÃ³wnaniu": 6753,
      "Ġrodzin": 6754,
      "Ġemisji": 6755,
      "Ġwykazu": 6756,
      "ĠmateriaÅĤu": 6757,
      "cti": 6758,
      "wodniczÄħcego": 6759,
      "Ġnajkorzyst": 6760,
      "ĠzobowiÄħ": 6761,
      "Ġ1985": 6762,
      "Ġstara": 6763,
      "Ġbadaw": 6764,
      "Ġodwo": 6765,
      "Ġzdrowotne": 6766,
      "ĠChociaÅ¼": 6767,
      "Ġchcesz": 6768,
      "rin": 6769,
      "ĠWest": 6770,
      "ĠCza": 6771,
      "ĠWARUN": 6772,
      "ĠgatunkÃ³w": 6773,
      "Ġunika": 6774,
      "ĠmajÄħcych": 6775,
      "Ġbio": 6776,
      "ĠPrezes": 6777,
      "Ġzwolnienie": 6778,
      "ĠrodzajÃ³w": 6779,
      "nieniem": 6780,
      "Ġpremie": 6781,
      "ĠsÄħdÃ³w": 6782,
      "Ġana": 6783,
      "Ġcywilnopraw": 6784,
      "Ġnam": 6785,
      "Ġgrunt": 6786,
      "ĠzamawiajÄħcy": 6787,
      "ĠprzedÅĤu": 6788,
      "Ġgimna": 6789,
      "Ġmiesza": 6790,
      "Ġaustrali": 6791,
      "obior": 6792,
      "Ġzaa": 6793,
      "ĠbÄĻdÄħcych": 6794,
      "Ġrzym": 6795,
      "ela": 6796,
      "pach": 6797,
      "Ġustanawia": 6798,
      "lonÄħ": 6799,
      "ĠÅģa": 6800,
      "Ġdowie": 6801,
      "Ġrozliczenia": 6802,
      "ĠpoÅĤudnie": 6803,
      "Ġjednostka": 6804,
      "cs": 6805,
      "Ġroze": 6806,
      "Ġkryterium": 6807,
      "graÅĤ": 6808,
      "Ġadwoka": 6809,
      "Ġ1974": 6810,
      "Ġstanowisku": 6811,
      "Ġstypen": 6812,
      "Ġdaje": 6813,
      "Ġzlokalizowa": 6814,
      "Ġ1984": 6815,
      "Ġszczy": 6816,
      "ĠDol": 6817,
      "owla": 6818,
      "Ty": 6819,
      "ÅļÄĨ": 6820,
      "ĠMieszka": 6821,
      "ĠumiejÄĻtnoÅĽci": 6822,
      "owska": 6823,
      "ĠzajÄĻcia": 6824,
      "ĠAgencji": 6825,
      "Ġinwest": 6826,
      "Ġkasa": 6827,
      "BE": 6828,
      "Ã¢": 6829,
      "ast": 6830,
      "Ġznane": 6831,
      "Ġrozpat": 6832,
      "stÄħpienie": 6833,
      "ĠzÅĤoÅ¼y": 6834,
      "tyfikacji": 6835,
      "ĠPiotr": 6836,
      "ĠØ": 6837,
      "Ġzazwyczaj": 6838,
      "Ġhiszpa": 6839,
      "ĠKlienta": 6840,
      "ĠgÅĤÄĻbo": 6841,
      "ĠRA": 6842,
      "dzieÅ¼": 6843,
      "Ġprawnym": 6844,
      "ĠczÅĤonek": 6845,
      "Ġbanku": 6846,
      "gal": 6847,
      "ĠLondy": 6848,
      "ĠzgodÄĻ": 6849,
      "Ġwykonywane": 6850,
      "sÄħ": 6851,
      "krzy": 6852,
      "rowo": 6853,
      "Ġnorm": 6854,
      "ĠBla": 6855,
      "ĠHenry": 6856,
      "Ġdoj": 6857,
      "Ġ67": 6858,
      "ÅĤowi": 6859,
      "ĠrealizacjÄħ": 6860,
      "Ġzabu": 6861,
      "Ġtajem": 6862,
      "ĠwyrÃ³Å¼": 6863,
      "dzieÅĦ": 6864,
      "Ġmodel": 6865,
      "Ġduch": 6866,
      "ĠKor": 6867,
      "Ġ56": 6868,
      "Ġdoskona": 6869,
      "ĠHol": 6870,
      "ĠklientÃ³w": 6871,
      "ÅĤby": 6872,
      "ĠpierwszÄħ": 6873,
      "Ġ(âĢŀ": 6874,
      "ĠpieniÄĻdzy": 6875,
      "ĠDob": 6876,
      "ÅĤowe": 6877,
      "Ġnazywa": 6878,
      "mujÄħc": 6879,
      "ena": 6880,
      "dan": 6881,
      "Ġbudowlanego": 6882,
      "Ġnieruchomo": 6883,
      "Ġnaszej": 6884,
      "tle": 6885,
      "ĠProkura": 6886,
      "ĠnaleÅ¼Äħ": 6887,
      "Ġfaktur": 6888,
      "ĠspeÅĤniania": 6889,
      "ords": 6890,
      "Ġwzoru": 6891,
      "Ġ150": 6892,
      "ĠLetnich": 6893,
      "ĠukÅĤadu": 6894,
      "Ġepi": 6895,
      "ĠFranci": 6896,
      "udo": 6897,
      "ksand": 6898,
      "Ġosobami": 6899,
      "Ġspadku": 6900,
      "ĠwyraÅ¼a": 6901,
      "niom": 6902,
      "98": 6903,
      "ĠprawidÅĤowe": 6904,
      "ĠJorku": 6905,
      "kowaÄĩ": 6906,
      "ĠZAMÃĵWIENIA": 6907,
      "ĠREGULAMIN": 6908,
      "ĠGi": 6909,
      "ĠPA": 6910,
      "gon": 6911,
      "Ġstylu": 6912,
      "Ġskutki": 6913,
      "Ġzapotrzeb": 6914,
      "Ġref": 6915,
      "lima": 6916,
      "mp": 6917,
      "Ġzalicza": 6918,
      "ĠwykonawcÄĻ": 6919,
      "ĠrzeczywistoÅĽci": 6920,
      "orzo": 6921,
      "ĠCzer": 6922,
      "tychmiast": 6923,
      "giÄĻ": 6924,
      "ĠprzeglÄħd": 6925,
      "ĠprzyjÄĻcie": 6926,
      "Ġwidzenia": 6927,
      "ĠdziÅĽ": 6928,
      "ĠopÅĤaca": 6929,
      "Ġamorty": 6930,
      "ĠJÃ³ze": 6931,
      "Ġmus": 6932,
      "ATU": 6933,
      "Ġumiesz": 6934,
      "Ġwzrostu": 6935,
      "ĠzÅĤa": 6936,
      "Ġkory": 6937,
      "Ġproblemy": 6938,
      "Ġnajkorzystniej": 6939,
      "Ġunij": 6940,
      "ĠwkÅĤad": 6941,
      "Ġpropozy": 6942,
      "Ġnic": 6943,
      "ĠDziaÅĤ": 6944,
      "Ġroli": 6945,
      "Ġgranicy": 6946,
      "LNO": 6947,
      "Ġfedera": 6948,
      "Ġ1945": 6949,
      "ĠOsta": 6950,
      "Ġorganizowa": 6951,
      "jazdu": 6952,
      "cle": 6953,
      "Ġwyj": 6954,
      "Ġtryb": 6955,
      "RES": 6956,
      "ĠusÅĤugÄĻ": 6957,
      "nis": 6958,
      "Ġkarie": 6959,
      "Ġserca": 6960,
      "ĠpoÅĽwiÄĻ": 6961,
      "ĠkapitaÅĤowej": 6962,
      "ĠSpoÅĤecznych": 6963,
      "ĠKrakÃ³w": 6964,
      "Ġpn": 6965,
      "ĠInterpretacja": 6966,
      "zowanie": 6967,
      "karz": 6968,
      "Informa": 6969,
      "ĠpomÃ³": 6970,
      "Åºni": 6971,
      "Ġwiru": 6972,
      "ĠWorld": 6973,
      "ĠpodatkÃ³w": 6974,
      "des": 6975,
      "mieÅĦ": 6976,
      "Ġcyfr": 6977,
      "ori": 6978,
      "ĠtÄħ": 6979,
      "Ġinten": 6980,
      "szto": 6981,
      "ĠniepeÅĤnosprawnych": 6982,
      "tariu": 6983,
      "Ġinaczej": 6984,
      "Ġkompozy": 6985,
      "kazuje": 6986,
      "ĠmiesiÄħc": 6987,
      "ĠMIEJ": 6988,
      "Ġwprowadzenie": 6989,
      "ĠÅ¼Ã³ÅĤ": 6990,
      "lis": 6991,
      "pierw": 6992,
      "ĠprzesyÅĤa": 6993,
      "ĠsiÅĤy": 6994,
      "Ġczasami": 6995,
      "Ġkryteria": 6996,
      "ĠNarodowego": 6997,
      "wiu": 6998,
      "DZIAÅģ": 6999,
      "bii": 7000,
      "ÅĦstwa": 7001,
      "Ġustawodaw": 7002,
      "ĠprowadzÄħ": 7003,
      "Ġtechnologii": 7004,
      "ĠLubli": 7005,
      "Ġwodo": 7006,
      "Ġpsychi": 7007,
      "ANY": 7008,
      "CT": 7009,
      "Ġowo": 7010,
      "ĠczÄħ": 7011,
      "ĠpÅĤ": 7012,
      "ĠRZE": 7013,
      "ĠOdpowie": 7014,
      "onem": 7015,
      "ĠustawÄĻ": 7016,
      "kreÅĽlenie": 7017,
      "Ġzatrudnia": 7018,
      "Ġtor": 7019,
      "van": 7020,
      "Ġnajbli": 7021,
      "Ġrol": 7022,
      "Ġboga": 7023,
      "ĠÎ": 7024,
      "Ġdystrykcie": 7025,
      "Ġharmo": 7026,
      "Ġzapobiega": 7027,
      "wajcar": 7028,
      "Â²": 7029,
      "PiÅĤ": 7030,
      "ĠWoje": 7031,
      "ĠmyÅĽli": 7032,
      "CO": 7033,
      "ĠoÅĽwiadczeÅĦ": 7034,
      "owcÃ³w": 7035,
      "ĠmiejscowoÅĽÄĩ": 7036,
      "PK": 7037,
      "Ġ61": 7038,
      "lonym": 7039,
      "Ġrzu": 7040,
      "formu": 7041,
      "jo": 7042,
      "Ġtle": 7043,
      "mandy": 7044,
      "Ġwnioski": 7045,
      "Ġtka": 7046,
      "ĠwzÃ³r": 7047,
      "ANS": 7048,
      "foni": 7049,
      "Ġdora": 7050,
      "prowadzenie": 7051,
      "ĠZachod": 7052,
      "ĠsprawÄĻ": 7053,
      "ãĥ": 7054,
      ".\"": 7055,
      "Ni": 7056,
      "ĠIstnie": 7057,
      "ĠInwesty": 7058,
      "ĠpÅĤu": 7059,
      "lanie": 7060,
      "boru": 7061,
      "ĠMin": 7062,
      "ĠprzypadkÃ³w": 7063,
      "ĠIndiach": 7064,
      "Ġsanitar": 7065,
      "ĠkomÃ³rki": 7066,
      "Ġetapie": 7067,
      "nice": 7068,
      "CIE": 7069,
      "ĠAb": 7070,
      "Ġuniwersyte": 7071,
      "ĠsamochodÃ³w": 7072,
      "Ġprzyjmuje": 7073,
      "ĠwykÅĤadni": 7074,
      "Ġnotaria": 7075,
      "Ġzaspo": 7076,
      "pÃ³w": 7077,
      "Ġ1000": 7078,
      "Ġwymiany": 7079,
      "Ġdorad": 7080,
      "ĠpÅĤatni": 7081,
      "Ġobwo": 7082,
      "Ġprzewidy": 7083,
      "Ġzwolnie": 7084,
      "Ġodpowiednich": 7085,
      "ĠPozosta": 7086,
      "Ġprzedmiotowej": 7087,
      "Ġpodobnie": 7088,
      "Ġostatecznie": 7089,
      "ĠduÅ¼ej": 7090,
      "Ġczu": 7091,
      "ĠkoÅĦcu": 7092,
      "Ġwydanych": 7093,
      "Ġnajem": 7094,
      "ĠamerykaÅĦskiego": 7095,
      "Ġtabli": 7096,
      "Ġdwo": 7097,
      "ĠPomocy": 7098,
      "Ġprzedmiocie": 7099,
      "unt": 7100,
      "ĠObsz": 7101,
      "Ġ1986": 7102,
      "ÅĤaby": 7103,
      "tymi": 7104,
      "Ġwystawia": 7105,
      "roma": 7106,
      "Ġtest": 7107,
      "Dy": 7108,
      "hy": 7109,
      "ĠobszarÃ³w": 7110,
      "Ġwykonuje": 7111,
      "Ġ400": 7112,
      "ĠnazwÄħ": 7113,
      "ĠwÅĤaÅĽciciel": 7114,
      "ĠTele": 7115,
      "91": 7116,
      "odrÄĻb": 7117,
      "Ġwizy": 7118,
      "ĠJako": 7119,
      "Ġ1983": 7120,
      "ĠGar": 7121,
      "ĠAkade": 7122,
      "Ġzabi": 7123,
      "ĠaktÃ³w": 7124,
      "ĠrzÄħdu": 7125,
      "stal": 7126,
      "skiem": 7127,
      "cielem": 7128,
      "ENT": 7129,
      "ĠzastÄħpi": 7130,
      "Ġjezio": 7131,
      "doÅĽÄĩ": 7132,
      "onymi": 7133,
      "ĠAD": 7134,
      "Ġdobry": 7135,
      "Ġregular": 7136,
      "irgi": 7137,
      "pdf": 7138,
      "Zmar": 7139,
      "Ġutworz": 7140,
      "wan": 7141,
      "ĠÅ¼Äħdania": 7142,
      "Ġmiejscowego": 7143,
      "Ġprzedaw": 7144,
      "Ġkomunikacji": 7145,
      "ĠPom": 7146,
      "ĠkomÃ³rek": 7147,
      "ĠWniosek": 7148,
      "Ġrzad": 7149,
      "ĠkaÅ¼da": 7150,
      "Ġkara": 7151,
      "Å¡": 7152,
      "ĠSzkoÅĤy": 7153,
      "niami": 7154,
      "Ġhrabstwa": 7155,
      "ĠQu": 7156,
      "ĠzwrÃ³ciÄĩ": 7157,
      "Ġszt": 7158,
      "ĠwzdÅĤuÅ¼": 7159,
      "Ġata": 7160,
      "Ġzawodu": 7161,
      "ĠwymagajÄħ": 7162,
      "ĠSamo": 7163,
      "ĠÅļrodowiska": 7164,
      "ĠkontekÅĽcie": 7165,
      "koÅĤa": 7166,
      "kcje": 7167,
      "ĠÅĽciekÃ³w": 7168,
      "gres": 7169,
      "wykle": 7170,
      "tywa": 7171,
      "Ġopiera": 7172,
      "Ġjaw": 7173,
      "illa": 7174,
      "oli": 7175,
      "ANE": 7176,
      "Ġ58": 7177,
      "ĠHigh": 7178,
      "ĠwytwÃ³r": 7179,
      "Ġpozna": 7180,
      "Ġwypo": 7181,
      "ĠmogÅĤy": 7182,
      "nor": 7183,
      "Ġtechnicznej": 7184,
      "Ġkoncep": 7185,
      "Ġkoszy": 7186,
      "glÄħdu": 7187,
      "powszech": 7188,
      "ĠÅĽredniej": 7189,
      "Ġzazna": 7190,
      "PR": 7191,
      "ÅģOS": 7192,
      "Ġpacjenta": 7193,
      "ĠWykonawcÃ³w": 7194,
      "ĠspoÅĤeczeÅĦstwa": 7195,
      "Ġakademi": 7196,
      "niowych": 7197,
      "For": 7198,
      "Ġnagrody": 7199,
      "ĠopiekuÅĦ": 7200,
      "ĠsÅĤy": 7201,
      "ĠZwiÄħzku": 7202,
      "Ġcharakteru": 7203,
      "ĠLek": 7204,
      "Ġsoli": 7205,
      "ĠwyksztaÅĤ": 7206,
      "ĠzagroÅ¼enia": 7207,
      "ĢÂ": 7208,
      "ĠstopieÅĦ": 7209,
      "ĠHan": 7210,
      "ĠEuropie": 7211,
      "Lo": 7212,
      "jnego": 7213,
      "ntro": 7214,
      "dob": 7215,
      "ĠbÅĤÄĻ": 7216,
      "IO": 7217,
      "tnia": 7218,
      "Ġpodstawowe": 7219,
      "ĠogÃ³": 7220,
      "ziem": 7221,
      "ĠKonsu": 7222,
      "Ġmieszkalnego": 7223,
      "Ġnosi": 7224,
      "Odzna": 7225,
      "Ġprocesie": 7226,
      "onor": 7227,
      "rag": 7228,
      "Ġwoli": 7229,
      "Ġrezer": 7230,
      "Ġ51": 7231,
      "ĠszczegÃ³lnych": 7232,
      "Ġotrzymy": 7233,
      "ĠnajczÄĻÅĽciej": 7234,
      "taÄĩ": 7235,
      "Ġ62": 7236,
      "ĠAmerica": 7237,
      "dows": 7238,
      "miona": 7239,
      "ĠzaleÅ¼y": 7240,
      "ĠMeksy": 7241,
      "dto": 7242,
      "ĠZespÃ³ÅĤ": 7243,
      "ĠfinansÃ³w": 7244,
      "niejszy": 7245,
      "sten": 7246,
      "ĠstanowiÄħcych": 7247,
      "Ġpodejm": 7248,
      "Ġzba": 7249,
      "Ġmle": 7250,
      "Ġswobod": 7251,
      "Ġ[...": 7252,
      "nnie": 7253,
      "wÃ³w": 7254,
      "ĠHand": 7255,
      "lam": 7256,
      "bierz": 7257,
      "Ġ1987": 7258,
      "Ġ1980": 7259,
      "Ġinfek": 7260,
      "ĠpodrÃ³Å¼y": 7261,
      "ĠApela": 7262,
      "tre": 7263,
      "waÅĤo": 7264,
      "fu": 7265,
      "Ġkonferen": 7266,
      "Ġ98": 7267,
      "MP": 7268,
      "ĠnajwaÅ¼": 7269,
      "Kar": 7270,
      "IB": 7271,
      "ĠpoÅĤowie": 7272,
      "Ġrodzaje": 7273,
      "Ġ87": 7274,
      "Ġproducenta": 7275,
      "NEGO": 7276,
      "Ġzaopa": 7277,
      "Ġulega": 7278,
      "Ġwszyscy": 7279,
      "Ġpobytu": 7280,
      "Ġzada": 7281,
      "kacja": 7282,
      "ĠuÅ¼ytku": 7283,
      "rzego": 7284,
      "ĠUsÅĤugi": 7285,
      "Ġdopuszczenie": 7286,
      "¹rÃ³d": 7287,
      "Ġtrybu": 7288,
      "ĠujÄĻ": 7289,
      "ĠdruÅ¼yny": 7290,
      "Ġnatychmiast": 7291,
      "Ġwspomnia": 7292,
      "Ġsukce": 7293,
      "niÅ¼": 7294,
      "dii": 7295,
      "Ġangielskim": 7296,
      "Ġprzygotowania": 7297,
      "Ġwykorzystywane": 7298,
      "tyma": 7299,
      "Ġstwierdzenia": 7300,
      "ĠcenÄĻ": 7301,
      "Ġszk": 7302,
      "tuÅĤ": 7303,
      "Ġfaktycznie": 7304,
      "Cz": 7305,
      "ĠrachunkowoÅĽci": 7306,
      "ĠDem": 7307,
      "lom": 7308,
      "zjum": 7309,
      "Ġzapewnienie": 7310,
      "Ġaut": 7311,
      "Ġgruntu": 7312,
      "ĠPOSTANOWIE": 7313,
      "Åį": 7314,
      "Ġorganizacyjnych": 7315,
      "Ġrehabili": 7316,
      "ĠSprzeda": 7317,
      "ĠÅ¼Äħda": 7318,
      "Ġkompleks": 7319,
      "prost": 7320,
      "Ġfinan": 7321,
      "diÃ³w": 7322,
      "grywa": 7323,
      "Ġmacierzy": 7324,
      "Sza": 7325,
      "ĠuÅ¼ytkowa": 7326,
      "NISTRA": 7327,
      "%,": 7328,
      "ĠgÅĤÃ³wnego": 7329,
      "czÄħc": 7330,
      "Ġkwot": 7331,
      "ĠKatowicach": 7332,
      "riusz": 7333,
      "Ġklasyfikacji": 7334,
      "stawy": 7335,
      "Ġgruncie": 7336,
      "Ġzasadami": 7337,
      "ĠzgodnoÅĽÄĩ": 7338,
      "ĠRejestru": 7339,
      "Ġlos": 7340,
      "Ġ1960": 7341,
      "Ġwnosi": 7342,
      "ĠJaponii": 7343,
      "tz": 7344,
      "Ġsiedziby": 7345,
      "Ġomawia": 7346,
      "ĠKan": 7347,
      "Ġalbumu": 7348,
      "Ġeli": 7349,
      "Ġofercie": 7350,
      "Ġtworzenia": 7351,
      "dry": 7352,
      "Ġrocznie": 7353,
      "PiÅĤkarze": 7354,
      "ĠBez": 7355,
      "ĠPrzez": 7356,
      "Ġkonsekwen": 7357,
      "Ġwarto": 7358,
      "ĠkrÄĻ": 7359,
      "Ġprzekona": 7360,
      "Ġnapo": 7361,
      "POS": 7362,
      "ĠNieruchom": 7363,
      "zerwa": 7364,
      "ceÅĦ": 7365,
      "Ġpia": 7366,
      "ĠZespoÅĤu": 7367,
      "logiczne": 7368,
      "Ġbrze": 7369,
      "ĠPracow": 7370,
      "Ġoprogramowania": 7371,
      "Jo": 7372,
      "Ġdokonywania": 7373,
      "ĠzwiÄĻksza": 7374,
      "bela": 7375,
      "Ġaresz": 7376,
      "Ġsektora": 7377,
      "âĢ¢": 7378,
      "skÃ³w": 7379,
      "Ġstosowanie": 7380,
      "niosÅĤa": 7381,
      "Ġkasy": 7382,
      "Ġfizycznej": 7383,
      "ĠoszczÄĻd": 7384,
      "Ġsyste": 7385,
      "UCHWAÅģA": 7386,
      "stre": 7387,
      "ĠpodstawÄħ": 7388,
      "ĠAnt": 7389,
      "ĠuÅ¼ytkownika": 7390,
      "ĠMiasto": 7391,
      "pady": 7392,
      "Ġutrzymy": 7393,
      "STY": 7394,
      "ĠVII": 7395,
      "stek": 7396,
      "Ġzgodne": 7397,
      "ĠWska": 7398,
      "sual": 7399,
      "Ġkatoli": 7400,
      "przed": 7401,
      "ĠtreÅĽciÄħ": 7402,
      "Ġkrajowych": 7403,
      "logicznych": 7404,
      "ĠpoÅĤÄħczenia": 7405,
      "Ġzawodowe": 7406,
      "ĠupowaÅ¼nienia": 7407,
      "ĠMos": 7408,
      "ake": 7409,
      "Ġkorzystanie": 7410,
      "ĠrÃ³wnowaÅ¼": 7411,
      "Ġwypowiedzenia": 7412,
      "Ġrealizowane": 7413,
      "nionym": 7414,
      "rzeÅĽci": 7415,
      "rabia": 7416,
      "ĠspÃ³ÅĤdzielni": 7417,
      "96": 7418,
      "ĠPrezydenta": 7419,
      "nicze": 7420,
      "rzeÅĽcija": 7421,
      "ĠZmiany": 7422,
      "rona": 7423,
      "ciec": 7424,
      "oryte": 7425,
      "ĠodrÄĻbnych": 7426,
      "Ġprzewodni": 7427,
      "Ġ85": 7428,
      "ĠUstaw": 7429,
      "ĠkrajÃ³w": 7430,
      "Ġmedycznych": 7431,
      "Pos": 7432,
      "ĠpodziaÅĤ": 7433,
      "cea": 7434,
      "czkÄĻ": 7435,
      "Ġkolejne": 7436,
      "ĠrozwiÄħzaÅĦ": 7437,
      "Ġap": 7438,
      "Ġkodeksu": 7439,
      "Ġrezu": 7440,
      "Ġwybiera": 7441,
      "Ġkrajach": 7442,
      "Ġmecz": 7443,
      "ĠprotokoÅĤu": 7444,
      "ĠGospodarki": 7445,
      "ĠBen": 7446,
      "ĠSha": 7447,
      "Ġokoliczno": 7448,
      "ĠprzynaleÅ¼": 7449,
      "undacji": 7450,
      "ÅĿe": 7451,
      "92": 7452,
      "Ġstacja": 7453,
      "szan": 7454,
      "KIE": 7455,
      "ĠWiÄĻkszoÅĽÄĩ": 7456,
      "Ġopisany": 7457,
      "ĠdokonaÄĩ": 7458,
      "Ġkoor": 7459,
      "Ġnego": 7460,
      "ĠtrwaÅĤych": 7461,
      "Ġpozbawienia": 7462,
      "ĠCam": 7463,
      "ĠPaÅĦstwo": 7464,
      "Ġurodzeni": 7465,
      "Ġmoderni": 7466,
      "Ġkredyt": 7467,
      "ĠobrÄĻ": 7468,
      "ĠnoÅ¼nej": 7469,
      "Ġinspe": 7470,
      "Ġwnioskiem": 7471,
      "Ġobsza": 7472,
      "Ġwspo": 7473,
      "rony": 7474,
      "ĠstaÅĤa": 7475,
      "ĠBydgo": 7476,
      "ĠPrzewodniczÄħcy": 7477,
      "Ġznacz": 7478,
      "Ġrezulta": 7479,
      "czci": 7480,
      "kimi": 7481,
      "Ġurlopu": 7482,
      "lec": 7483,
      "Ġjednoraz": 7484,
      "iusz": 7485,
      "fery": 7486,
      "Ġport": 7487,
      "span": 7488,
      "Ġwybrany": 7489,
      "CJE": 7490,
      "Ġedukacji": 7491,
      "ĠTeksa": 7492,
      "Ġzysku": 7493,
      "ĠRich": 7494,
      "Ġrozpoczyna": 7495,
      "gov": 7496,
      "ĠNSA": 7497,
      "Ġnara": 7498,
      "datek": 7499,
      "ĠCIT": 7500,
      "ĠmajÄħce": 7501,
      "Ġtelekomunika": 7502,
      "Ġdrz": 7503,
      "osa": 7504,
      "Ġregionu": 7505,
      "prawoz": 7506,
      "ĠzwiÄħzany": 7507,
      "ĠzakÅĤada": 7508,
      "Ġmieszkania": 7509,
      "ĠoÅĽwiaty": 7510,
      "sÅĤo": 7511,
      "ĠÅºrÃ³dÅĤo": 7512,
      "ÅĤowo": 7513,
      "ET": 7514,
      "niowej": 7515,
      "Ġdowodu": 7516,
      "Bo": 7517,
      "ĠAkademii": 7518,
      "ĠpowodÃ³w": 7519,
      "tus": 7520,
      "owisko": 7521,
      "lozo": 7522,
      "ĠpoÅ¼ytku": 7523,
      "pomina": 7524,
      "Ġprezydenta": 7525,
      "ĠdoszÅĤo": 7526,
      "Ġkoncent": 7527,
      "La": 7528,
      "Ġprzewidziane": 7529,
      "ĠNIP": 7530,
      "ĠsamorzÄħdzie": 7531,
      "Ġkomandy": 7532,
      "ĠjesteÅĽ": 7533,
      "ĠprzesÅĤanki": 7534,
      "ĠleÅĽ": 7535,
      "raj": 7536,
      "ĠWilliam": 7537,
      "ĠrozstrzygniÄĻ": 7538,
      "pion": 7539,
      "ĠpieniÄħdze": 7540,
      "Ġrekru": 7541,
      "ieÅĤ": 7542,
      "Ġprawomoc": 7543,
      "jÄħco": 7544,
      "Ġkonkurs": 7545,
      "Ġinstala": 7546,
      "iej": 7547,
      "Ġmuzyki": 7548,
      "Ġkilo": 7549,
      "ĠEurope": 7550,
      "ĠniebÄĻd": 7551,
      "ĠzaczÄĻ": 7552,
      "ĠMIA": 7553,
      ".;": 7554,
      "ĠmiesiÄħcu": 7555,
      "ĠpodrÃ³Å¼": 7556,
      "Ġobywateli": 7557,
      "Ġ66": 7558,
      "Ġskali": 7559,
      "Ġgranicach": 7560,
      "POLI": 7561,
      "Pier": 7562,
      "Ġpierwotnie": 7563,
      "Ġprzetarg": 7564,
      "Ġnaszych": 7565,
      "Ġuczelni": 7566,
      "ĠDodatk": 7567,
      "ĠMod": 7568,
      "ĠdatÄĻ": 7569,
      "Ġfilmie": 7570,
      "dap": 7571,
      "Ġzja": 7572,
      "Ġzaba": 7573,
      "stawie": 7574,
      "ĠIzba": 7575,
      "Ġprzypada": 7576,
      "Ġape": 7577,
      "ĠobsÅĤugu": 7578,
      "Ġreklam": 7579,
      "ĠoddziaÅĤywania": 7580,
      "ĠpodatnikÃ³w": 7581,
      "Ġeksper": 7582,
      "ĠKen": 7583,
      "Ġgrze": 7584,
      "Ġcech": 7585,
      "wcÃ³w": 7586,
      "ĠZÅĤo": 7587,
      "bez": 7588,
      "Ġfunduszy": 7589,
      "ĠchorÃ³b": 7590,
      "lepiej": 7591,
      "Ġprzypisa": 7592,
      "Ġpodstawowej": 7593,
      "ĠwÅĤaÅĽciciela": 7594,
      "Ġemerytury": 7595,
      "Ġprzetwarzanie": 7596,
      "wki": 7597,
      "fli": 7598,
      "Ġnoc": 7599,
      "ĠPartii": 7600,
      "Ġwykaz": 7601,
      "Ġzajmuje": 7602,
      "Ġuzasadnia": 7603,
      "Ġ08": 7604,
      "Ġwydawania": 7605,
      "ĠpomÃ³c": 7606,
      "ĠzÅĤoÅ¼ony": 7607,
      "ĠprzyÅĤÄħ": 7608,
      "Ġdostawa": 7609,
      "ĠSÅĤuÅ¼": 7610,
      "ĠZasady": 7611,
      "Ġtema": 7612,
      "anta": 7613,
      "Ġtyle": 7614,
      "âĢİ": 7615,
      "PL": 7616,
      "Ġpowietrza": 7617,
      "ĠAleksand": 7618,
      "ĠkolejnoÅĽci": 7619,
      "Ġalternatyw": 7620,
      "Ġponadto": 7621,
      "Ġ93": 7622,
      "ĠprzestÄĻpstwo": 7623,
      "ĠNowa": 7624,
      "ĠkandydatÃ³w": 7625,
      "Ġsytuacja": 7626,
      "ĠWrocÅĤaw": 7627,
      "Ġdzienni": 7628,
      "ĠpÃ³ÅĤnocny": 7629,
      "Ġodsetkami": 7630,
      "à¸": 7631,
      "Ã³rze": 7632,
      "ĠWindows": 7633,
      "raÅ¼": 7634,
      "Ġskutku": 7635,
      "nagro": 7636,
      "Ġsal": 7637,
      "Ġrozliczeni": 7638,
      "ĠdziewiÄĻ": 7639,
      "koj": 7640,
      "ĠMusi": 7641,
      "burg": 7642,
      "najmniej": 7643,
      "chÃ³w": 7644,
      "mierz": 7645,
      "Wie": 7646,
      "Ã§": 7647,
      "Zmarli": 7648,
      "Ġpisma": 7649,
      "ciej": 7650,
      "Ġstosowane": 7651,
      "sÅĤownie": 7652,
      "win": 7653,
      "Ġautostra": 7654,
      "ĠRozporzÄħdzenie": 7655,
      "ĠZjednoczone": 7656,
      "Ġprzeznaczonych": 7657,
      "ĠOkrÄĻgowy": 7658,
      "ĠogÅĤoszenie": 7659,
      "ĠprzedsiÄĻbiorstw": 7660,
      "Ġwynaj": 7661,
      "ĠstudentÃ³w": 7662,
      "ĠwyÅĽwiet": 7663,
      "Ġzapis": 7664,
      "Ġkobiety": 7665,
      "ĠDlatego": 7666,
      "ĠumowÄħ": 7667,
      "Ġher": 7668,
      "SÄħd": 7669,
      "Ġcodzie": 7670,
      "Ġkampa": 7671,
      "lon": 7672,
      "ciele": 7673,
      "don": 7674,
      "ĠWOJ": 7675,
      "ĠRecords": 7676,
      "97": 7677,
      "ĠWspÃ³ÅĤ": 7678,
      "mna": 7679,
      "ĠpaÅĦstwie": 7680,
      "JeÅ¼eli": 7681,
      "Ġasy": 7682,
      "posiada": 7683,
      "kredy": 7684,
      "Ġscena": 7685,
      "dzonym": 7686,
      "ĠObowiÄħ": 7687,
      "Se": 7688,
      "ĠciÄħÅ¼y": 7689,
      "Ġrea": 7690,
      "ogle": 7691,
      "Ġprowadzonych": 7692,
      "93": 7693,
      "ĠWyrok": 7694,
      "Ġsprawa": 7695,
      "ĠWielko": 7696,
      "uma": 7697,
      "ĠBezpie": 7698,
      "ĠÅ¼yciu": 7699,
      "ĠProto": 7700,
      "ĠNadzorczej": 7701,
      "WIAD": 7702,
      "Ġzdrowotnych": 7703,
      "Ġszereg": 7704,
      "ĠXXX": 7705,
      "ĠmajÄħc": 7706,
      "Ġadministracyjnych": 7707,
      "ĠRadzie": 7708,
      "ĠZAR": 7709,
      "dzaj": 7710,
      "szek": 7711,
      "ĠOR": 7712,
      "Ga": 7713,
      "Ġprojekcie": 7714,
      "ĠprzyszÅĤoÅĽci": 7715,
      "Ġrecep": 7716,
      "zÅĤ": 7717,
      "ĠwydaÅĤ": 7718,
      "Au": 7719,
      "lot": 7720,
      "ĠAndrzej": 7721,
      "etro": 7722,
      "ĠprzeciwdziaÅĤa": 7723,
      "RAZ": 7724,
      "Ġprzeznaczone": 7725,
      "Ġprzekazuje": 7726,
      "Ġ57": 7727,
      "Ġpri": 7728,
      "kowanych": 7729,
      "Ġdodaje": 7730,
      "Historia": 7731,
      "Ġodprowa": 7732,
      "INANS": 7733,
      "lakty": 7734,
      "ĠInne": 7735,
      "ĠZgromadzenie": 7736,
      "iska": 7737,
      "ĠlekÃ³w": 7738,
      "ADA": 7739,
      "Ġpakie": 7740,
      "Ġ1981": 7741,
      "arzy": 7742,
      "ĠuÅ¼ytkownikÃ³w": 7743,
      "ĠwyÅĤÄħczeniem": 7744,
      "ĠFre": 7745,
      "ĠSPÃĵÅģ": 7746,
      "cher": 7747,
      "ĠLiczba": 7748,
      "ĠterenÃ³w": 7749,
      "ĠgodzinÄĻ": 7750,
      "WedÅĤug": 7751,
      "ĠnieruchomoÅĽÄĩ": 7752,
      "ĠwyodrÄĻb": 7753,
      "Ġpunkcie": 7754,
      "Ġniena": 7755,
      "ĠQue": 7756,
      "Ġkomer": 7757,
      "teryna": 7758,
      "td": 7759,
      "Ġwykro": 7760,
      "ĠwÃ³d": 7761,
      "ĠwyjaÅĽnia": 7762,
      "ĠInformacja": 7763,
      "serw": 7764,
      "Ġtelefonu": 7765,
      "ĠCer": 7766,
      "Ġ96": 7767,
      "Ġstatus": 7768,
      "Ìģ": 7769,
      "Ġfizyczne": 7770,
      "ĠStraÅ¼y": 7771,
      "ĠnastÄħpiÅĤo": 7772,
      "ĠsporzÄħdza": 7773,
      "Ġpoinform": 7774,
      "CZENIE": 7775,
      "Ġalkoholu": 7776,
      "Ġnajlepszych": 7777,
      "ĠwÅĤaÅĽcicieli": 7778,
      "ĠÅĤu": 7779,
      "Ġï¿½": 7780,
      "erytory": 7781,
      "Ġlega": 7782,
      "torzy": 7783,
      "ĠPoniewaÅ¼": 7784,
      "Ġgrzyw": 7785,
      "Ġsma": 7786,
      "Ġbro": 7787,
      "FA": 7788,
      "stÄĻpowanie": 7789,
      "OWANIA": 7790,
      "nÄĻÅĤa": 7791,
      "ĠOznacza": 7792,
      "ĠSzpita": 7793,
      "Ġpracodawca": 7794,
      "Ġpomimo": 7795,
      "prasza": 7796,
      "Ġmalar": 7797,
      "ĠMoÅ¼esz": 7798,
      "ĠobniÅ¼enia": 7799,
      "Ġsiedem": 7800,
      "Ġprzele": 7801,
      "ĠpoÅĤudniowy": 7802,
      "ĠczÄĻÅĽciowo": 7803,
      "ĠfirmÄĻ": 7804,
      "ĠÅĽwiadom": 7805,
      "ĠMaria": 7806,
      "ĠgÄĻ": 7807,
      "plar": 7808,
      "ĠnaprawdÄĻ": 7809,
      "Ġwybu": 7810,
      "Ġ63": 7811,
      "km": 7812,
      "ĠĠĠĠ": 7813,
      "Ġzasadzie": 7814,
      "Ġplat": 7815,
      "ĠMinisterstwo": 7816,
      "Ġpas": 7817,
      "Ġuznaje": 7818,
      "Ġ1939": 7819,
      "Ġuprawniony": 7820,
      "ĠÅĽrednio": 7821,
      "Ġdzielnicy": 7822,
      "CZENIA": 7823,
      "Ġobrony": 7824,
      "Ġzasi": 7825,
      "Ġwnioskodawcy": 7826,
      "Ġgen": 7827,
      "Ġprzyznanie": 7828,
      "Ġadresem": 7829,
      "Ġpodpisania": 7830,
      "ĠAp": 7831,
      "ĠVe": 7832,
      "towana": 7833,
      "ĠpeÅĤnomocnika": 7834,
      "stanie": 7835,
      "orzyÄĩ": 7836,
      "kacje": 7837,
      "tyczy": 7838,
      "DY": 7839,
      "ĠodmÃ³w": 7840,
      "Ġkopii": 7841,
      "ĠkryteriÃ³w": 7842,
      "ĠStos": 7843,
      "Ġwideo": 7844,
      "ckÄħ": 7845,
      "Ġwstrzyma": 7846,
      "owuje": 7847,
      "Ġregul": 7848,
      "ĠelektronicznÄħ": 7849,
      "ĠBiu": 7850,
      "ĠWalnego": 7851,
      "ĠKultury": 7852,
      "ciw": 7853,
      "Ġkomunalnych": 7854,
      "Ġzbli": 7855,
      "artÄħ": 7856,
      "rur": 7857,
      "Ġbakt": 7858,
      "Ġgrafi": 7859,
      "krea": 7860,
      "Ġbram": 7861,
      "Ġwil": 7862,
      "ĠlistÄĻ": 7863,
      "Ġstudy": 7864,
      "anu": 7865,
      "ĠspÅĤaty": 7866,
      "Ġdyspozycji": 7867,
      "ĠWiÄĻ": 7868,
      "Ġodli": 7869,
      "ĠwspÃ³lnikÃ³w": 7870,
      "Ġinteresu": 7871,
      "Ġlekarz": 7872,
      "Ġindywidualnych": 7873,
      "ĠPRZED": 7874,
      "Ġmusisz": 7875,
      "ĠEk": 7876,
      "ĠDLA": 7877,
      "Ġautob": 7878,
      "ĠLos": 7879,
      "nel": 7880,
      "Ġpozwolenia": 7881,
      "ĠwyraÅºnie": 7882,
      "ĠprzedÅĤo": 7883,
      "ĠogÃ³ÅĤ": 7884,
      "ĠjÄĻzyk": 7885,
      "Ġpta": 7886,
      "wcÄĻ": 7887,
      "Ġmerytory": 7888,
      "Ġlea": 7889,
      "Ġwiary": 7890,
      "Ġpolitykiem": 7891,
      "ĠStreet": 7892,
      "logu": 7893,
      "kodawca": 7894,
      "Ġreligi": 7895,
      "Ġzlecenia": 7896,
      "Ġintere": 7897,
      "Ġaudy": 7898,
      "ĠktÃ³rymi": 7899,
      "nianie": 7900,
      "Ġbadanie": 7901,
      "ĠSÅĤu": 7902,
      "ĠOGÃĵ": 7903,
      "nan": 7904,
      "Ġkurs": 7905,
      "Ġodro": 7906,
      "bin": 7907,
      "czycy": 7908,
      "ĠszczegÃ³ÅĤowe": 7909,
      "ĠrozpoczÄĻcia": 7910,
      "kowana": 7911,
      "Ġmate": 7912,
      "Ġpotwierdzenie": 7913,
      "ZPIE": 7914,
      "ĠuÅ¼yte": 7915,
      "Ġprofeso": 7916,
      "ĠHist": 7917,
      "ĠinnÄħ": 7918,
      "ĠtoÅ¼samo": 7919,
      "Ġ1972": 7920,
      "ĠzobowiÄħzanie": 7921,
      "ĠRejonowy": 7922,
      "dzoziem": 7923,
      "ĠzawierajÄħ": 7924,
      "ĠrozwiÄħzanie": 7925,
      "Ġwybrze": 7926,
      "stria": 7927,
      "UR": 7928,
      "ĠMart": 7929,
      "ĠAla": 7930,
      "Ġprogramie": 7931,
      "Ġram": 7932,
      "rodÄĻ": 7933,
      "ĠWydziaÅĤu": 7934,
      "ĠpojÄĻcie": 7935,
      "ĠmaÅĤych": 7936,
      "Ġtekstu": 7937,
      "Ġklik": 7938,
      "Ġminimum": 7939,
      "Ustawa": 7940,
      "Ġwyborach": 7941,
      "Ġkorespon": 7942,
      "ram": 7943,
      "Ġpraktyce": 7944,
      "Ġzachowanie": 7945,
      "Ġnazwie": 7946,
      "szÅĤa": 7947,
      "ĠmateriaÅĤy": 7948,
      "wagi": 7949,
      "wale": 7950,
      "ZPOR": 7951,
      "wierz": 7952,
      "Ġucznia": 7953,
      "ĠwÅĤasnym": 7954,
      "ĠwewnÄĻtrznych": 7955,
      "ĠPRZY": 7956,
      "Ġprzechowywania": 7957,
      "Ġodde": 7958,
      "ĠzÅĤoÅ¼enie": 7959,
      "nkach": 7960,
      "Ġfunkcje": 7961,
      "Ġkonto": 7962,
      "ĠSzkÃ³ÅĤ": 7963,
      "ĠmÅĤodzieÅ¼y": 7964,
      "ish": 7965,
      "ownik": 7966,
      "Ġsia": 7967,
      "ĠOdwoÅĤa": 7968,
      "Ġegzaminu": 7969,
      "formy": 7970,
      "ĠSpecyfikacjÄĻ": 7971,
      "Ġ1976": 7972,
      "ĠpoÅĽwiad": 7973,
      "grze": 7974,
      "dor": 7975,
      "ĠogÃ³lnej": 7976,
      "Pona": 7977,
      "uk": 7978,
      "Ġmeczu": 7979,
      "fil": 7980,
      "Ġpopulacji": 7981,
      "ĠwysyÅĤa": 7982,
      "porzÄħd": 7983,
      "otball": 7984,
      "Å¼ki": 7985,
      "ĠSzy": 7986,
      "ĠgÃ³ry": 7987,
      "Ġreklama": 7988,
      "noÅĽ": 7989,
      "Ġ88": 7990,
      "ĠÅĤÄħcznej": 7991,
      "owiada": 7992,
      "ĠwspÃ³ÅĤprac": 7993,
      "Ġmienia": 7994,
      "POSPOLI": 7995,
      "ĠMinisterstwa": 7996,
      "ĠnastÄħpiÄĩ": 7997,
      "Ġwolon": 7998,
      "Ġmasy": 7999,
      "Ġkupi": 8000,
      "Ġkomor": 8001,
      "sÅĤucha": 8002,
      "ĠWystÄĻpuje": 8003,
      "op": 8004,
      "niec": 8005,
      "informa": 8006,
      "ĠGeorge": 8007,
      "Ġhandlu": 8008,
      "Ġliczy": 8009,
      "wiera": 8010,
      "Ġbiur": 8011,
      "ĠMIASTA": 8012,
      "ĠWarunki": 8013,
      "ĠgÅĤowy": 8014,
      "rebr": 8015,
      "Ġrapor": 8016,
      "ĠzdolnoÅĽÄĩ": 8017,
      "ĠpojÄĻcia": 8018,
      "orys": 8019,
      "Ġrolnych": 8020,
      "Ġnieco": 8021,
      "ÄĺP": 8022,
      "ĠMedy": 8023,
      "towo": 8024,
      "Ġpracownicy": 8025,
      "ĠOgÅĤoszenie": 8026,
      "pkt": 8027,
      "Ġ77": 8028,
      "MIE": 8029,
      "Ġdobra": 8030,
      "Ġdobrowo": 8031,
      "ĠbÃ³l": 8032,
      "ĠNorth": 8033,
      "siÄĩ": 8034,
      "Ġ[...]": 8035,
      "ĠbyÅĤoby": 8036,
      "ĠzaÅĤoÅ¼ona": 8037,
      "Ġwezwanie": 8038,
      "ĠMer": 8039,
      "Ġaplikacji": 8040,
      "ĠSuper": 8041,
      "ĠKrzyszto": 8042,
      "Ġrezy": 8043,
      "Ġkolor": 8044,
      "jor": 8045,
      "ire": 8046,
      "ĠpozostaÅĤe": 8047,
      "ĠdoÅĽwiadczenie": 8048,
      "Ġskon": 8049,
      "ĠDavi": 8050,
      "rzeÅĦ": 8051,
      "nionej": 8052,
      "ĠWysp": 8053,
      "ĠJez": 8054,
      "Ġpolskiej": 8055,
      "Ġspecyfi": 8056,
      "Ġzwal": 8057,
      "Ġster": 8058,
      "pienia": 8059,
      "kin": 8060,
      "ĠwyjÄħtk": 8061,
      "ĠzasiÅĤku": 8062,
      "zemplar": 8063,
      "Ġocena": 8064,
      "Ze": 8065,
      "nos": 8066,
      "sey": 8067,
      "ĠskÃ³ry": 8068,
      "Ġwojnie": 8069,
      "ĠwodÄĻ": 8070,
      "beli": 8071,
      "Ġwyre": 8072,
      "ĠKanadzie": 8073,
      "ĠwÅĤaÅĽciwe": 8074,
      "ĠSpecja": 8075,
      "ĠWarszawy": 8076,
      "ĠmÅĤody": 8077,
      "Ġpersone": 8078,
      "rost": 8079,
      "draÅ¼a": 8080,
      "Ġ1973": 8081,
      "2003": 8082,
      "ĠwynagrodzeÅĦ": 8083,
      "ÃĵDZ": 8084,
      "ĠograniczonÄħ": 8085,
      "Å¼onÄħ": 8086,
      "ceniu": 8087,
      "Ġopowiada": 8088,
      "ĠSerwi": 8089,
      "ĠduÅ¼o": 8090,
      "ĠÅĽrednia": 8091,
      "Ġkursu": 8092,
      "ĠpracowaÅĤ": 8093,
      "Ġpana": 8094,
      "Ġpodmiotami": 8095,
      "ĠCounty": 8096,
      "Ġstosownie": 8097,
      "Ġmedal": 8098,
      "Ġcon": 8099,
      "Ġuwar": 8100,
      "Ġkg": 8101,
      "Ġsum": 8102,
      "Ġwykonywaniu": 8103,
      "Ġzmianami": 8104,
      "Ġstwo": 8105,
      "ĠAnna": 8106,
      "Ġwykonaniu": 8107,
      "ĠOpis": 8108,
      "ĠkrÃ³tszy": 8109,
      "Ġreda": 8110,
      "ĠocenÄĻ": 8111,
      "ney": 8112,
      "ĠpieniÄĻÅ¼ne": 8113,
      "sopis": 8114,
      "ĠmiÄĻdzynarodowych": 8115,
      "ĠogÅĤasza": 8116,
      "94": 8117,
      "Ġtrzecich": 8118,
      "ntem": 8119,
      "mera": 8120,
      "ĠkonsumentÃ³w": 8121,
      "Ġodnosz": 8122,
      "bina": 8123,
      "Ġwersja": 8124,
      "ĠDis": 8125,
      "ĠochronÄĻ": 8126,
      "ĠÅĽwiÄħ": 8127,
      "ĠRosji": 8128,
      "Ġros": 8129,
      "Ġstaje": 8130,
      "ZarzÄħ": 8131,
      "ĠofertÄħ": 8132,
      "Ġzarob": 8133,
      "Ġklini": 8134,
      "ĠnakÅĤada": 8135,
      "Ġniemateria": 8136,
      "stoÅĽÄĩ": 8137,
      "CP": 8138,
      "skimi": 8139,
      "Ġmieli": 8140,
      "ĠodpowiedzialnoÅĽciÄħ": 8141,
      "Ġrela": 8142,
      "ĠaktywÃ³w": 8143,
      "ĠUSTAWA": 8144,
      "strowa": 8145,
      "ÅĽciÅĤ": 8146,
      "koma": 8147,
      "ĠSPRA": 8148,
      "Ġï": 8149,
      "Ġobok": 8150,
      "ĠKancelar": 8151,
      "ĠDro": 8152,
      "ĠVer": 8153,
      "Å¼ka": 8154,
      "ĠzauwaÅ¼yÄĩ": 8155,
      "ĠdÅºwiÄĻ": 8156,
      "ÅĦstwo": 8157,
      "ĠWnioskodawczyni": 8158,
      "Ġdokonanie": 8159,
      "ewnÄĻtrz": 8160,
      "ĠSzczegÃ³ÅĤ": 8161,
      "dwie": 8162,
      "ĠpotwierdzajÄħce": 8163,
      "ĠInterna": 8164,
      "debiu": 8165,
      "=\"": 8166,
      "ĠmogÄĻ": 8167,
      "ĠwziÄĻ": 8168,
      "ĠoszczÄĻdnoÅĽci": 8169,
      "oÅĤ": 8170,
      "ĠnajbliÅ¼": 8171,
      "ĠNiektÃ³re": 8172,
      "ĠsÄħsie": 8173,
      "ĠpowieÅĽci": 8174,
      "Ġcharakterysty": 8175,
      "pany": 8176,
      "lowej": 8177,
      "ĠAnto": 8178,
      "berna": 8179,
      "Ġszeroko": 8180,
      "Ġkup": 8181,
      "ĠwÅĤasnoÅĽciÄħ": 8182,
      "rys": 8183,
      "ĠKonkur": 8184,
      "Ġdrogowego": 8185,
      "Ġprzestrzeni": 8186,
      "Ġdot": 8187,
      "lip": 8188,
      "rÄħg": 8189,
      "ĠRzy": 8190,
      "Ġzapropon": 8191,
      "ĠprawidÅĤowo": 8192,
      "ĠGO": 8193,
      "Ġnauczyciel": 8194,
      "ĠpÃ³ÅĤnocnej": 8195,
      "Ġprogno": 8196,
      "tary": 8197,
      "Ġzostali": 8198,
      "Ġudokumen": 8199,
      "ĠprzeciÄĻ": 8200,
      "ĠOrganiza": 8201,
      "Ġcoraz": 8202,
      "ĠokreÅĽliÄĩ": 8203,
      "Ġdefinicji": 8204,
      "ĠTech": 8205,
      "tnoÅĽÄĩ": 8206,
      "ĠwziÄħ": 8207,
      "ĠpielÄĻgniar": 8208,
      "Ġuzyski": 8209,
      "Ġdepartamencie": 8210,
      "Ġinwestycyjnych": 8211,
      "Ġ02": 8212,
      "Ġdowody": 8213,
      "Ġuczestnictwa": 8214,
      "waÅĤy": 8215,
      "Ġonline": 8216,
      "Ġzagranicznych": 8217,
      "Ġat": 8218,
      "ĠÅĽlima": 8219,
      "krÃ³t": 8220,
      "</": 8221,
      "Ġsamodzielnie": 8222,
      "sja": 8223,
      "ĠCzar": 8224,
      "ĠbiorÄħc": 8225,
      "ĠszkoÅĤa": 8226,
      "Ġpolityk": 8227,
      "ĠstaÅĤy": 8228,
      "Ġprzewidzianych": 8229,
      "Ġ1979": 8230,
      "Ġegzemplar": 8231,
      "Ġpost": 8232,
      "Ġpotem": 8233,
      "Ġkultura": 8234,
      "ĠAR": 8235,
      "Zamawia": 8236,
      "Ġstart": 8237,
      "tent": 8238,
      "Ġstawek": 8239,
      "ĠÅĽrodowisku": 8240,
      "ĠMal": 8241,
      "szczu": 8242,
      "Ġlogi": 8243,
      "Ø§Ù": 8244,
      "ĠWrocÅĤawiu": 8245,
      "owemu": 8246,
      "SZA": 8247,
      "Ġuru": 8248,
      "Ġtowary": 8249,
      "Ġmarket": 8250,
      "Ġkoncer": 8251,
      "ĠKole": 8252,
      "ÅģO": 8253,
      "Ġ91": 8254,
      "ĠUro": 8255,
      "tykÃ³w": 8256,
      "gÃ³r": 8257,
      "Ġporusza": 8258,
      "ĠdoÅĽÄĩ": 8259,
      "http": 8260,
      "ĠZiemi": 8261,
      "Ġwykonywanych": 8262,
      "krew": 8263,
      "Ġole": 8264,
      "Ġ68": 8265,
      "Ġposzuki": 8266,
      "ĠVIII": 8267,
      "Ġrun": 8268,
      "Ġreprezentowania": 8269,
      "Ġtelefoni": 8270,
      "Ġnap": 8271,
      "Ġorzeczenie": 8272,
      "Ġpokona": 8273,
      "mysÅĤu": 8274,
      "Ġotwarcia": 8275,
      "Ġjestem": 8276,
      "Ġfarma": 8277,
      "ĠbÃ³": 8278,
      "zami": 8279,
      "Odznaczeni": 8280,
      "ĠRepubliki": 8281,
      "Ġzdefini": 8282,
      "Ġwykazania": 8283,
      "chia": 8284,
      "Ġobszarach": 8285,
      "owice": 8286,
      "ĠLE": 8287,
      "ktry": 8288,
      "ĠKrÃ³le": 8289,
      "tch": 8290,
      "Ġdany": 8291,
      "Ġuzyskanie": 8292,
      "ĠkontrolÄĻ": 8293,
      "mocy": 8294,
      "nalizacji": 8295,
      "Ponadto": 8296,
      "ĠCZ": 8297,
      "Ġpierwsza": 8298,
      "Ġkomi": 8299,
      "ktywa": 8300,
      "Ġproporcjona": 8301,
      "tacjÄħ": 8302,
      "ĠwyjaÅĽnienia": 8303,
      "Ġpens": 8304,
      "ĠwymogÃ³w": 8305,
      "ECY": 8306,
      "cisk": 8307,
      "Ġis": 8308,
      "nowe": 8309,
      "tions": 8310,
      "ĠwÅĤadz": 8311,
      "Ġwymia": 8312,
      "Ġprogramy": 8313,
      "ĠSzkoÅĤa": 8314,
      "wizji": 8315,
      "ĠWykaz": 8316,
      "uczy": 8317,
      "noszone": 8318,
      "ĠHam": 8319,
      "ĠSÅĤo": 8320,
      "Ġrywali": 8321,
      "ĠposiÅĤ": 8322,
      "mow": 8323,
      "growa": 8324,
      "niczy": 8325,
      "Ġkrze": 8326,
      "Ġwchodz": 8327,
      "ĠsÄħdowych": 8328,
      "szona": 8329,
      "techni": 8330,
      "Ġpartii": 8331,
      "Ġregulaminu": 8332,
      "Ġwitry": 8333,
      "prezenta": 8334,
      "Ġartysty": 8335,
      "ĠWis": 8336,
      "Ġniezdol": 8337,
      "Ġtrud": 8338,
      "ĠdorÄĻczenia": 8339,
      "ĠZd": 8340,
      "ĠChri": 8341,
      "Ġhod": 8342,
      "ĠFootball": 8343,
      "ĠkorzystaÄĩ": 8344,
      "niczego": 8345,
      "Ġudowod": 8346,
      "rakta": 8347,
      "Ġunik": 8348,
      "wedz": 8349,
      "Ġnadzie": 8350,
      "==": 8351,
      "ĠPOLSKIEJ": 8352,
      "towanym": 8353,
      "----------------": 8354,
      "Ġwsparcie": 8355,
      "415": 8356,
      "Ġkompetencji": 8357,
      "ĠBal": 8358,
      "Ġperspek": 8359,
      "Ġuzasadnieniu": 8360,
      "ĠodlegÅĤoÅĽci": 8361,
      "Ġlabora": 8362,
      "Ġorganizacyjnej": 8363,
      "Ġsama": 8364,
      "Ġ92": 8365,
      "ĪĴ": 8366,
      "ctor": 8367,
      "lobal": 8368,
      "ĠSal": 8369,
      "Ġfotogra": 8370,
      "Ġlod": 8371,
      "ĠmaÅĤe": 8372,
      "Ġorganizacja": 8373,
      "Ġ1978": 8374,
      "usza": 8375,
      "ĠczÅĤonkowie": 8376,
      "twy": 8377,
      "nerge": 8378,
      "ridge": 8379,
      "skutek": 8380,
      "ĠAnge": 8381,
      "TEJ": 8382,
      "Ã³z": 8383,
      "ĠpuÅĤ": 8384,
      "Ġsformu": 8385,
      "Ġrejonie": 8386,
      "Ġakcyz": 8387,
      "Ġdefi": 8388,
      "miot": 8389,
      "Ġzapotrzebowania": 8390,
      "ujesz": 8391,
      "ĠCzÄĻsto": 8392,
      "szÄħc": 8393,
      "nr": 8394,
      "ĠnowÄħ": 8395,
      "sada": 8396,
      "ĠWsp": 8397,
      "ciorys": 8398,
      "ĠpowodowaÄĩ": 8399,
      "ĠwÅĤasny": 8400,
      "mieniem": 8401,
      "ĠKre": 8402,
      "ĠStowarzyszenia": 8403,
      "ĠnapisaÅĤ": 8404,
      "ĠRzÄħ": 8405,
      "Ġklubu": 8406,
      "Ġustalania": 8407,
      "shire": 8408,
      "ĠState": 8409,
      "ĠpasaÅ¼er": 8410,
      "Ġdodatkowo": 8411,
      "val": 8412,
      "kÅĤ": 8413,
      "Ġsuger": 8414,
      "Ġprzeprowadzenie": 8415,
      "ĠÄĩwi": 8416,
      "bami": 8417,
      "mus": 8418,
      "wood": 8419,
      "hn": 8420,
      "ÅģOSZENIE": 8421,
      "ĠgÅĤÃ³wnej": 8422,
      "Ġzaufa": 8423,
      "ĠAdam": 8424,
      "ĠinstrumentÃ³w": 8425,
      "ĠRZECZY": 8426,
      "ĠzadoÅĽÄĩ": 8427,
      "ĠJednoczeÅĽnie": 8428,
      "ĠposÅĤa": 8429,
      "VI": 8430,
      "Ġkwarta": 8431,
      "Ġniezna": 8432,
      "Ġczasem": 8433,
      "eks": 8434,
      "ĠuÅĤat": 8435,
      "ĠOpie": 8436,
      "ĠPary": 8437,
      "choty": 8438,
      "Ġuzgodnie": 8439,
      "nal": 8440,
      "ĠPola": 8441,
      "ĠchwilÄħ": 8442,
      "Ġ78": 8443,
      "ĠPolityki": 8444,
      "szonych": 8445,
      "ĠobrÄĻbie": 8446,
      "ĠAmeryki": 8447,
      "Ġzmu": 8448,
      "niczej": 8449,
      "Ġrozpoznania": 8450,
      "Ġczynu": 8451,
      "pas": 8452,
      "sing": 8453,
      "Ġpraktyki": 8454,
      "ĠpÅĤci": 8455,
      "ĠBiaÅĤ": 8456,
      "ĠuniemoÅ¼liwia": 8457,
      "Ġ94": 8458,
      "ĠrozwiÄħ": 8459,
      "Ġ1977": 8460,
      "weÅĤ": 8461,
      "pÅĤata": 8462,
      "Ġspecyfikacji": 8463,
      "ĠÅĤatwo": 8464,
      "szt": 8465,
      "ĠBiura": 8466,
      "ĠwÅĤaÅĽcicielem": 8467,
      "Ġszans": 8468,
      "ding": 8469,
      "Ġmagi": 8470,
      "Ġskom": 8471,
      "ĠRozporzÄħdzenia": 8472,
      "Ġpiosenkar": 8473,
      "Ġoferuje": 8474,
      "enty": 8475,
      "ĠdostawÄĻ": 8476,
      "ctwie": 8477,
      "ĠgÅĤÃ³wne": 8478,
      "ĠgranicÄħ": 8479,
      "Ġwskazany": 8480,
      "ĠObywa": 8481,
      "Ġpraca": 8482,
      "ĠYou": 8483,
      "Ġzakaz": 8484,
      "Prawo": 8485,
      "bis": 8486,
      "Ġ72": 8487,
      "owca": 8488,
      "Ġzmierza": 8489,
      "ĠAmeryce": 8490,
      "Ġkadencji": 8491,
      "Ġodpadami": 8492,
      "dÅĤa": 8493,
      "ĠwÅĤasnego": 8494,
      "ĠFlory": 8495,
      "ĠprzyjÄħÄĩ": 8496,
      "Ġubo": 8497,
      "ĠwiÄħza": 8498,
      "Ġsena": 8499,
      "Ġponownego": 8500,
      "Ġgier": 8501,
      "ĠWOJEW": 8502,
      "POSPOLITEJ": 8503,
      "ierÄĻ": 8504,
      "ĠRad": 8505,
      "Ġgor": 8506,
      "wczej": 8507,
      "Ġbibliote": 8508,
      "ĠWYKO": 8509,
      "Ġodzna": 8510,
      "ĠTrze": 8511,
      "Stro": 8512,
      "ĠDziennik": 8513,
      "Ġpomniej": 8514,
      "ĠSZKO": 8515,
      "niÄĻte": 8516,
      "Polscy": 8517,
      "ciÄħÅ¼": 8518,
      "ĠczÅĤonkowskiego": 8519,
      "ĠwyposaÅ¼enia": 8520,
      "Ġ1970": 8521,
      "Ġnormy": 8522,
      "ĠCywi": 8523,
      "prezent": 8524,
      "zon": 8525,
      "wol": 8526,
      "ĠAir": 8527,
      "ĠZakres": 8528,
      "ĠKlient": 8529,
      "Ġustawodawca": 8530,
      "har": 8531,
      "ĠFINANS": 8532,
      "Ġwystawione": 8533,
      "443": 8534,
      "Ġnajlepiej": 8535,
      "Ġ1968": 8536,
      "âĢĤ": 8537,
      "ĠFC": 8538,
      "Ġzaprze": 8539,
      "ĠuÅ¼ywania": 8540,
      "Ġarmii": 8541,
      "oty": 8542,
      "Ġostatnim": 8543,
      "Ġmiejscem": 8544,
      "ĠWSA": 8545,
      "ĠFer": 8546,
      "ĠrozporzÄħdzeniu": 8547,
      "ĠoddziaÅĤu": 8548,
      "Wykona": 8549,
      "ĠIP": 8550,
      "Tu": 8551,
      "ĠsamochÃ³d": 8552,
      "ÅĽnienia": 8553,
      "ĠRZECZYPOSPOLITEJ": 8554,
      "ĠzaÅĽwiadczenie": 8555,
      "ĠBryty": 8556,
      "ĠMazowie": 8557,
      "Ġfrag": 8558,
      "ĠUkrai": 8559,
      "ĠOrze": 8560,
      "ĠPanie": 8561,
      "Ġrozgryw": 8562,
      "ĠÅĽpie": 8563,
      "ĠwiÄĻzie": 8564,
      "ĠFar": 8565,
      "ĠprzedsiÄĻbiorstwo": 8566,
      "Ġgrupie": 8567,
      "ĠSko": 8568,
      "Ġpani": 8569,
      "Ġsiedzibie": 8570,
      "ĠHiszpanii": 8571,
      "ĠNF": 8572,
      "Ġzadanie": 8573,
      "ĠkrÃ³tko": 8574,
      "tniej": 8575,
      "ĠSzczeci": 8576,
      "niowe": 8577,
      "Ġjakiego": 8578,
      "berg": 8579,
      "ĠdÅĤugi": 8580,
      "Ġzanieczy": 8581,
      "Ġgospodarstwa": 8582,
      "vel": 8583,
      "EC": 8584,
      "ĠmajÄħtkowe": 8585,
      "Å¼Äħda": 8586,
      "organi": 8587,
      "ĠMas": 8588,
      "ĠKierow": 8589,
      "Ġdrzwi": 8590,
      "ĠCD": 8591,
      "ĠStowarzyszenie": 8592,
      "Ġnaukowych": 8593,
      "ĠPDF": 8594,
      "Ġex": 8595,
      "Ġprzeszko": 8596,
      "Ġliczbie": 8597,
      "ĠBurmistrza": 8598,
      "KS": 8599,
      "nogra": 8600,
      "Ġ1944": 8601,
      "ĠStany": 8602,
      "Ġuleg": 8603,
      "ceu": 8604,
      "Ġpokrzyw": 8605,
      "Ġwymiarze": 8606,
      "ÅĤymi": 8607,
      "ĠdÅĤuÅ¼ej": 8608,
      "Ġuprzedni": 8609,
      "ĠBor": 8610,
      "Ġpou": 8611,
      "Fa": 8612,
      "sf": 8613,
      "ĠCham": 8614,
      "Ġbeneficje": 8615,
      "dostÄĻp": 8616,
      "rÃ³ciÅĤ": 8617,
      "gene": 8618,
      "ĠnieruchomoÅĽciami": 8619,
      "Data": 8620,
      "Å»yciorys": 8621,
      "ĠGol": 8622,
      "Ġ97": 8623,
      "Ġprzynajmniej": 8624,
      "kÅĤadnie": 8625,
      "Ġprzer": 8626,
      "Ġ1971": 8627,
      "Ġcudzoziem": 8628,
      "Ġ74": 8629,
      "Ġpopra": 8630,
      "ĠpostaÄĩ": 8631,
      "ĠLan": 8632,
      "Ġdzisiej": 8633,
      "Ġbazy": 8634,
      "ROD": 8635,
      "ĠstaÅĤo": 8636,
      "ĠTom": 8637,
      "arÄĻ": 8638,
      "ĠwÄĻgla": 8639,
      "Ġuzasadnienia": 8640,
      "ĠLou": 8641,
      "Ġsio": 8642,
      "ĠDist": 8643,
      "IL": 8644,
      "rzÄĻdzie": 8645,
      "ĠCH": 8646,
      "Ġponiesione": 8647,
      "Ġdrzew": 8648,
      "ĠKomisjÄĻ": 8649,
      "Fran": 8650,
      "Ġolimpi": 8651,
      "Ġobiektyw": 8652,
      "dop": 8653,
      "Ġwzor": 8654,
      "koje": 8655,
      "Ġodz": 8656,
      "noÅĽciach": 8657,
      "ĠdÅĤuÅ¼nika": 8658,
      "ĠÅĽrodek": 8659,
      "Ġporozumienia": 8660,
      "KD": 8661,
      "Ġzestaw": 8662,
      "ĠBlu": 8663,
      "Ġwykry": 8664,
      "ĠuwzglÄĻdniajÄħc": 8665,
      "ĠzasiÄĻ": 8666,
      "Ġeksploatacji": 8667,
      "By": 8668,
      "ĠdÅĤugoÅĽÄĩ": 8669,
      "dziesiÄħt": 8670,
      "Ġojca": 8671,
      "ĠgÅĤosowania": 8672,
      "ĠKolej": 8673,
      "ĠnakÅĤad": 8674,
      "Ġinformacja": 8675,
      "okie": 8676,
      "RZÄĺ": 8677,
      "Pre": 8678,
      "Ġgodzinach": 8679,
      "ĠartykuÅĤu": 8680,
      "czyÅĤy": 8681,
      "Ġfilozo": 8682,
      "Wo": 8683,
      "Ġ),": 8684,
      "liza": 8685,
      "Pi": 8686,
      "ĠBri": 8687,
      "ĠWÃ³jta": 8688,
      "ĠNiemiec": 8689,
      "Ġrozgrywa": 8690,
      "czywi": 8691,
      "ĠÅ¼adnego": 8692,
      "Ġkryzy": 8693,
      "Ġlicencji": 8694,
      "tona": 8695,
      "ĠKRS": 8696,
      "ĠmÃ³zgu": 8697,
      "ĠinteresÃ³w": 8698,
      "polskiego": 8699,
      "ĠOpo": 8700,
      "Ġmiast": 8701,
      "ĠpowyÅ¼szych": 8702,
      "Ġburmi": 8703,
      "Ġ1954": 8704,
      "Ġinternetowych": 8705,
      "ĠArmii": 8706,
      "ĠbÄĻdÄħce": 8707,
      "ĠdorosÅĤych": 8708,
      "ture": 8709,
      "ZENIA": 8710,
      "NaleÅ¼y": 8711,
      "ĠbrÄħz": 8712,
      "Ġbankowych": 8713,
      "ĠsporzÄħdzenia": 8714,
      "ĠpoglÄħd": 8715,
      "ĠKoÅĽcioÅĤa": 8716,
      "Ġbiegu": 8717,
      "ĠEURO": 8718,
      "Ġorganizacje": 8719,
      "wiercie": 8720,
      "Ġwydaw": 8721,
      "ĠGrupy": 8722,
      "Ġraty": 8723,
      "Regula": 8724,
      "Ġogrom": 8725,
      "ĠArchi": 8726,
      "ĠPrzepis": 8727,
      "ĠIrlandii": 8728,
      "tmos": 8729,
      "ĠsÄħdowego": 8730,
      "Ġrynek": 8731,
      "âĢ¦âĢ¦âĢ¦âĢ¦âĢ¦âĢ¦âĢ¦âĢ¦": 8732,
      "unkowo": 8733,
      "lizacja": 8734,
      "Ġ).": 8735,
      "dowaÅĤ": 8736,
      "ĠwyjaÅĽnie": 8737,
      "ĠwyreÅ¼yser": 8738,
      "arzem": 8739,
      "Ġnumerem": 8740,
      "szyng": 8741,
      "ÅĿy": 8742,
      "ĠRzesz": 8743,
      "ĠdostÄĻpnych": 8744,
      "Ġprzysp": 8745,
      "rent": 8746,
      "ĠKaÅ¼dy": 8747,
      "ey": 8748,
      "ĠzÅĤoÅ¼yÅĤ": 8749,
      "ĠbudÅ¼etowej": 8750,
      "ĠMaÅĤ": 8751,
      "SpÃ³ÅĤ": 8752,
      "Ġplane": 8753,
      "Ġpowstanie": 8754,
      "uj": 8755,
      "ĠpiÄĻk": 8756,
      "Pana": 8757,
      "Jedno": 8758,
      "ĠtrÃ³j": 8759,
      "ĠTrakta": 8760,
      "jecha": 8761,
      "Ġseksual": 8762,
      "Ġdebiu": 8763,
      "ĠwyÅ¼sze": 8764,
      "ĠEdukacji": 8765,
      "Ġochrona": 8766,
      "ĠmusiaÅĤ": 8767,
      "ĠkredytÃ³w": 8768,
      "Ġpodobne": 8769,
      "Ġ76": 8770,
      "walu": 8771,
      "ZamawiajÄħcy": 8772,
      "Ġrys": 8773,
      "nnoÅĽci": 8774,
      "Ġwiny": 8775,
      "gium": 8776,
      "ĠdziaÅĤek": 8777,
      "ĠodrÄĻbne": 8778,
      "âĢĿ).": 8779,
      "ĠVa": 8780,
      "oke": 8781,
      "Ġzakupi": 8782,
      "Ġ1969": 8783,
      "ĠMil": 8784,
      "ĠdotyczÄħcego": 8785,
      "Ġlepiej": 8786,
      "staura": 8787,
      "ĠogÃ³lnych": 8788,
      "Ġwiek": 8789,
      "Ġzagra": 8790,
      "2000": 8791,
      "ĠogÃ³le": 8792,
      "ĠGoogle": 8793,
      "Ġdecyzje": 8794,
      "Ġpiersi": 8795,
      "ĠÅĤy": 8796,
      "ĠTri": 8797,
      "ĠutworÃ³w": 8798,
      "stuje": 8799,
      "ĠokolicznoÅĽciach": 8800,
      "Ġprawach": 8801,
      "nikach": 8802,
      "ÙĬ": 8803,
      "Ġ112": 8804,
      "ĠduÅ¼Äħ": 8805,
      "ĠOsoby": 8806,
      "Ġkp": 8807,
      "twiera": 8808,
      "Å»Y": 8809,
      "arki": 8810,
      "jmie": 8811,
      "Szanow": 8812,
      "chowa": 8813,
      "Ġstruktury": 8814,
      "Ġzwyczaj": 8815,
      "ĠMuzeum": 8816,
      "krÄĻ": 8817,
      "ĠDia": 8818,
      "Åĵci": 8819,
      "towanego": 8820,
      "finicja": 8821,
      "dowaÄĩ": 8822,
      "ĠwÅĤasnej": 8823,
      "Ġtwoje": 8824,
      "konomi": 8825,
      "alizacja": 8826,
      "Ġzbro": 8827,
      "bÃ³r": 8828,
      "Ġpokar": 8829,
      "Ġobserwa": 8830,
      "usa": 8831,
      "ÅĦskÄħ": 8832,
      "ĠzajÄħÅĤ": 8833,
      "ĠÅ¼ÄħdaÄĩ": 8834,
      "Ġgazu": 8835,
      "ug": 8836,
      "Ġprzyrody": 8837,
      "Ġpostanowi": 8838,
      "ĠfilmÃ³w": 8839,
      "Ġ07": 8840,
      "Fi": 8841,
      "ĠmogÅĤa": 8842,
      "ĠpodkreÅĽliÄĩ": 8843,
      "ĠprzeciwieÅĦ": 8844,
      "wÅĤas": 8845,
      "ters": 8846,
      "ĠszeÅĽciu": 8847,
      "Ġprzebiegu": 8848,
      "Ġpunkty": 8849,
      "Ġutrzymanie": 8850,
      "ĠmiÄĻÅĽni": 8851,
      "Ġgospodarczego": 8852,
      "Ġodsetki": 8853,
      "ĠpowstaÅĤ": 8854,
      "Ġklas": 8855,
      "Ġutru": 8856,
      "ĠroÅĽliny": 8857,
      "Ġszuka": 8858,
      "Ġsied": 8859,
      "Ġefe": 8860,
      "ĠStatutu": 8861,
      "Ġnauczania": 8862,
      "Ġtea": 8863,
      "ĠAngeles": 8864,
      "liwi": 8865,
      "orskiego": 8866,
      "ĠsÅĤow": 8867,
      "ĠpodjÄĻcie": 8868,
      "ciÄħgniÄĻ": 8869,
      "Ġnaszego": 8870,
      "Ġsprawozdanie": 8871,
      "CZA": 8872,
      "ĠproszÄĻ": 8873,
      "ĠKur": 8874,
      "Ġzapisy": 8875,
      "Ġstopy": 8876,
      "Ġgospodarczych": 8877,
      "ĠwdraÅ¼a": 8878,
      "Ġskarbowego": 8879,
      "syl": 8880,
      "Ġkonsumen": 8881,
      "ĠMÅĤo": 8882,
      "Ġwymaganych": 8883,
      "ĠpapierÃ³w": 8884,
      "ĠSejm": 8885,
      "owicz": 8886,
      "lor": 8887,
      "Ġwojskowej": 8888,
      "lans": 8889,
      "ĠbranÅ¼y": 8890,
      "obraz": 8891,
      "ĠsÄĻdziÃ³w": 8892,
      "Ø±": 8893,
      "ĠÅ¼oÅĤnierzy": 8894,
      "Ġponiesionych": 8895,
      "Ġwskazano": 8896,
      "Ġkontrahen": 8897,
      "ĠPZP": 8898,
      "ĠwartoÅĽciowych": 8899,
      "ĠprÄĻdkoÅĽci": 8900,
      "ĠOddziaÅĤ": 8901,
      "Ġczyta": 8902,
      "szac": 8903,
      "ĠzobowiÄħzuje": 8904,
      "Ġsingiel": 8905,
      "tain": 8906,
      "ĠKlu": 8907,
      "ZPORZÄĦDZENIE": 8908,
      "ĠwiÄĻkszej": 8909,
      "Ġucie": 8910,
      "ĠTru": 8911,
      "socia": 8912,
      "Zdaniem": 8913,
      "Ġpaliwa": 8914,
      "ĠInfrastru": 8915,
      "isa": 8916,
      "Ġatra": 8917,
      "ĠWOJEWÃĵDZ": 8918,
      "Ġkierownika": 8919,
      "Ġwskutek": 8920,
      "ĠduÅ¼ych": 8921,
      "ĠDie": 8922,
      "ĠrozwaÅ¼a": 8923,
      "ĠJork": 8924,
      "inter": 8925,
      "minie": 8926,
      "ZD": 8927,
      "ĠchrzeÅĽcija": 8928,
      "Ġformu": 8929,
      "katoli": 8930,
      "Ġbankowego": 8931,
      "Ġ71": 8932,
      "ĠistniejÄħ": 8933,
      "Ġcechy": 8934,
      "JEK": 8935,
      "ĠzadoÅĽÄĩuczy": 8936,
      "ĠDnia": 8937,
      "Ġzmniejsza": 8938,
      "ĠÅ¼yci": 8939,
      "bert": 8940,
      "Ġgminnym": 8941,
      "ĠPowy": 8942,
      "ĠbÄĻdziesz": 8943,
      "ĠRegionalnego": 8944,
      "ĠMINISTRA": 8945,
      "Ġautorstwa": 8946,
      "Ġprzypomina": 8947,
      "dzu": 8948,
      "ĠWE": 8949,
      "zywaÄĩ": 8950,
      "ĠwiÄħÅ¼e": 8951,
      "Pla": 8952,
      "ĠformÄĻ": 8953,
      "ĠpoÅ¼yczek": 8954,
      "Ġpowstaje": 8955,
      "pensa": 8956,
      "Ġzaniecha": 8957,
      "ĠJohna": 8958,
      "ĠLondynie": 8959,
      "Ġzbudowany": 8960,
      "ĠskargÄĻ": 8961,
      "ida": 8962,
      "ĠCre": 8963,
      "ĠDecyz": 8964,
      "ĠInspektora": 8965,
      "Ġuprawnia": 8966,
      "ÅĦsko": 8967,
      "Ġbet": 8968,
      "Ġsubstan": 8969,
      "Ġgwiaz": 8970,
      "Ġ800": 8971,
      "ĠWaszyng": 8972,
      "ĠposiadajÄħ": 8973,
      "ĠSPO": 8974,
      "ĠszczÄĻ": 8975,
      "kula": 8976,
      "ĠlÄħd": 8977,
      "ĠczynnoÅĽÄĩ": 8978,
      "Ġ83": 8979,
      "Ġturnieju": 8980,
      "ring": 8981,
      "Ġzabra": 8982,
      "Ġneuro": 8983,
      "ĠprzeÅĤo": 8984,
      "wanego": 8985,
      "ĠÅĤÄħczy": 8986,
      "Ġopracowania": 8987,
      "Ġ119": 8988,
      "Ġskoro": 8989,
      "Ġrozum": 8990,
      "ĠJack": 8991,
      "Ġnauczyciela": 8992,
      "tha": 8993,
      "Ġpozwanej": 8994,
      "ĠleÅ¼y": 8995,
      "Ġstandar": 8996,
      "Jest": 8997,
      "Ġkilomet": 8998,
      "nina": 8999,
      "ÅĽciem": 9000,
      "EWG": 9001,
      "ĠoÅĽwiet": 9002,
      "letniego": 9003,
      "ĠstaroÅ¼y": 9004,
      "ĠwkÅĤadu": 9005,
      "Ġpoch": 9006,
      "ĠZatem": 9007,
      "Ġmary": 9008,
      "Ġkolum": 9009,
      "Ġ106": 9010,
      "kiewicz": 9011,
      "Ġwprost": 9012,
      "Ġpapier": 9013,
      "Ð´": 9014,
      "Ġ#": 9015,
      "bier": 9016,
      "Ġwarunek": 9017,
      "Ġposiadanie": 9018,
      "ĠPC": 9019,
      "Ġdrob": 9020,
      "ĠplacÃ³wki": 9021,
      "ĠartykuÅĤ": 9022,
      "struktury": 9023,
      "Ð¾Ð²": 9024,
      "Ġces": 9025,
      "obil": 9026,
      "ĠwybÃ³r": 9027,
      "Ġnowym": 9028,
      "ĠTranspor": 9029,
      "Ġzjawi": 9030,
      "Ġpismo": 9031,
      "wody": 9032,
      "Ġodcinku": 9033,
      "Ġproducent": 9034,
      "Ġrower": 9035,
      "Ale": 9036,
      "Ġwynikiem": 9037,
      "Ġprzeniesi": 9038,
      "ĠWalne": 9039,
      "ĠustaleÅĦ": 9040,
      "IAÅģA": 9041,
      "SS": 9042,
      "Ġparafii": 9043,
      "ĠwyglÄħda": 9044,
      "ker": 9045,
      "ĠDistri": 9046,
      "ĠprzedmiotÃ³w": 9047,
      "ĠBiuro": 9048,
      "cku": 9049,
      "Ġ113": 9050,
      "ĠWewnÄĻtrz": 9051,
      "ĠOfi": 9052,
      "ĠspÄĻ": 9053,
      "ÅĽwia": 9054,
      "Ġtygod": 9055,
      "daj": 9056,
      "Projekt": 9057,
      "anÄħ": 9058,
      "Ġposzko": 9059,
      "waga": 9060,
      "Ġnawierz": 9061,
      "Ġ1967": 9062,
      "Ġpaliw": 9063,
      "szono": 9064,
      "ÄħÅ¼": 9065,
      "Ġmogli": 9066,
      "Jed": 9067,
      "Ġprz": 9068,
      "ĠbyÅĤym": 9069,
      "nnÄħ": 9070,
      "Ġatmos": 9071,
      "ĠKos": 9072,
      "ĠNet": 9073,
      "ĠpowÃ³dki": 9074,
      "Ð¸Ñ": 9075,
      "czach": 9076,
      "Ġznanym": 9077,
      "ĠzapisÃ³w": 9078,
      "ĠpoÅĤudniowej": 9079,
      "dziÅĤo": 9080,
      "vin": 9081,
      "ĠSouth": 9082,
      "Ġawar": 9083,
      "ĠfuntÃ³w": 9084,
      "gisla": 9085,
      "Ġzag": 9086,
      "Ġdziennie": 9087,
      "AK": 9088,
      "Ġnaszym": 9089,
      "bera": 9090,
      "ĠuchwaÅĤ": 9091,
      "ĠszczegÃ³ÅĤowych": 9092,
      "ĠcaÅĤÄħ": 9093,
      "Ġistnienia": 9094,
      "ĠChe": 9095,
      "ĠWNI": 9096,
      "przez": 9097,
      "vy": 9098,
      "ugh": 9099,
      "Ġgle": 9100,
      "ĠZamÃ³wieÅĦ": 9101,
      "ĠZmiana": 9102,
      "ĠodbyÅĤy": 9103,
      "Ġgeografi": 9104,
      "Ġdrama": 9105,
      "BS": 9106,
      "ĠZakÅĤadu": 9107,
      "ĠBrak": 9108,
      "czyciela": 9109,
      "Ġnowoczes": 9110,
      "ĠpÅĤo": 9111,
      "ĠÃ³w": 9112,
      "Ġ600": 9113,
      "Ġobrocie": 9114,
      "ĠAzji": 9115,
      "ĠÅģÄħ": 9116,
      "jÄĻÄĩ": 9117,
      "szki": 9118,
      "Ġpal": 9119,
      "Ġodpor": 9120,
      "Ġjaj": 9121,
      "ĠczynnikÃ³w": 9122,
      "ĠBUD": 9123,
      "Ġtelewizji": 9124,
      "Ġintensyw": 9125,
      "ĠuniewaÅ¼": 9126,
      "ĠsiÃª": 9127,
      "ĠVal": 9128,
      "ĠâĢ¦": 9129,
      "ĠzaÅĽwiadczenia": 9130,
      "ĠpoÅĤoÅ¼ony": 9131,
      "mowaÅĤ": 9132,
      "Ġorganizacjami": 9133,
      "Ġzakazu": 9134,
      "ĠMO": 9135,
      "Ġsystemem": 9136,
      "ĠORAZ": 9137,
      "ĠprowadzÄħcy": 9138,
      "Ġoni": 9139,
      "ĠIT": 9140,
      "Ġzamian": 9141,
      "bet": 9142,
      "Ġdlaczego": 9143,
      "ĠSub": 9144,
      "Ġobjawy": 9145,
      "ĠDra": 9146,
[...]
