<pad>	0
<unk>	0
<s>	0
</s>	0
,	-2.55426
.	-3.29737
▁i	-3.89798
▁się	-4.02897
▁—	-4.10951
▁w	-4.12635
▁nie	-4.36788
▁z	-4.40054
▁na	-4.43078
a	-4.75308
▁do	-4.79723
▁to	-5.00602
▁że	-5.03516
!	-5.17766
y	-5.18839
m	-5.32823
▁a	-5.35209
▁o	-5.3715
▁za	-5.46521
?	-5.47456
▁po	-5.51802
;	-5.55087
:	-5.55521
▁jak	-5.5767
...	-5.69272
em	-5.71
e	-5.7625
▁co	-5.76376
▁jest	-5.79952
ch	-5.80774
▁od	-5.8253
▁tak	-5.84862
o	-6.06498
u	-6.07469
▁go	-6.0756
ą	-6.09113
▁mnie	-6.11323
▁mi	-6.12415
▁ale	-6.12543
▁już	-6.14964
▁A	-6.15813
j	-6.17244
▁Nie	-6.22654
▁„	-6.25983
▁jego	-6.26133
▁jej	-6.26481
▁mu	-6.26542
▁tylko	-6.3052
▁	-6.31045
▁W	-6.3245
▁u	-6.34502
i	-6.36716
mi	-6.37436
▁tym	-6.38083
▁I	-6.38253
▁tego	-6.40516
ów	-6.42167
ć	-6.42197
▁dla	-6.44608
▁sobie	-6.47167
▁przez	-6.47511
▁przy	-6.4851
li	-6.49147
▁było	-6.53369
▁jeszcze	-6.554
▁był	-6.5699
▁pod	-6.58233
▁ze	-6.605
▁który	-6.63553
▁ma	-6.66181
ę	-6.66845
▁ich	-6.69814
go	-6.69931
▁gdy	-6.706
▁ten	-6.71252
▁pan	-6.71464
▁ja	-6.72322
▁bo	-6.72404
▁wy	-6.74774
▁by	-6.78545
▁może	-6.79208
▁ją	-6.80713
▁aby	-6.83709
▁czy	-6.85198
▁które	-6.85256
▁Ale	-6.85722
sz	-6.85761
▁tu	-6.86253
ie	-6.89463
▁tej	-6.89703
▁przed	-6.90577
▁*	-6.90806
▁Z	-6.90955
▁Na	-6.91544
ami	-6.94913
nie	-6.96126
▁nim	-6.97338
▁nad	-6.9822
ł	-6.9892
▁bez	-6.98957
▁ci	-7.01024
▁Po	-7.01909
▁tam	-7.02058
ach	-7.02157
▁on	-7.03429
ego	-7.04952
▁nawet	-7.05647
▁To	-7.05721
▁bardzo	-7.06902
▁być	-7.07286
na	-7.0934
▁O	-7.11185
ka	-7.11187
▁pani	-7.11639
▁ani	-7.11734
▁będzie	-7.12581
ej	-7.1363
cie	-7.13775
▁wszystko	-7.13884
▁też	-7.14932
▁nic	-7.15027
▁iż	-7.15101
my	-7.16325
▁była	-7.1644
▁są	-7.16558
▁te	-7.18258
ki	-7.19656
▁tych	-7.19682
owi	-7.2121
▁sam	-7.22315
▁więc	-7.24914
▁je	-7.25053
▁rzekł	-7.25417
ją	-7.26074
▁jako	-7.28267
▁nas	-7.28405
ła	-7.28427
▁siebie	-7.28579
▁prze	-7.28618
▁kiedy	-7.2974
▁miał	-7.29876
▁lub	-7.30082
▁teraz	-7.30588
▁gdzie	-7.31057
”	-7.31155
▁/	-7.32133
▁(	-7.3268
▁jednak	-7.34255
▁Co	-7.35731
-	-7.35911
▁ku	-7.36221
ych	-7.3638
by	-7.37852
▁ta	-7.3789
▁która	-7.41017
▁Za	-7.4149
▁Tak	-7.42976
▁nich	-7.433
▁ty	-7.44262
▁niego	-7.45463
▁zaś	-7.45712
▁niej	-7.46906
▁niż	-7.47568
▁lecz	-7.4757
”.	-7.48912
▁roz	-7.49182
▁oczy	-7.49672
nia	-7.49711
*	-7.51507
om	-7.53185
ne	-7.53544
▁zawsze	-7.53877
▁chwili	-7.54323
▁coś	-7.54829
▁jakby	-7.54932
ny	-7.55709
no	-7.56031
▁cię	-7.56536
▁których	-7.56709
▁Czy	-7.56725
▁albo	-7.58039
▁domu	-7.591
▁raz	-7.59129
▁aż	-7.60313
ło	-7.60848
▁ludzi	-7.62147
ły	-7.63419
▁więcej	-7.63964
▁Ja	-7.65217
▁mój	-7.6532
z	-7.66171
ym	-7.66302
▁nigdy	-7.67055
w	-7.67661
▁pana	-7.6826
ek	-7.68802
▁którego	-7.68921
▁można	-7.69276
▁Jak	-7.69812
▁de	-7.70016
▁wszystkie	-7.70152
▁nią	-7.70324
s	-7.70933
▁dobrze	-7.71948
▁której	-7.72009
▁im	-7.72015
▁tę	-7.72311
▁Bo	-7.73579
▁mógł	-7.74602
▁żeby	-7.74769
▁we	-7.74927
ną	-7.74969
!...	-7.74983
▁ona	-7.75118
▁potem	-7.75293
ni	-7.76536
▁wszystkich	-7.76905
▁gdyby	-7.78295
▁Do	-7.78397
ż	-7.78687
▁nam	-7.7916
▁kto	-7.7923
ce	-7.80026
▁sobą	-7.80659
▁rzeczy	-7.80945
▁człowiek	-7.81478
▁trzeba	-7.82801
▁były	-7.83971
▁którym	-7.84181
▁którzy	-7.84651
▁jeden	-7.8538
▁swego	-7.85785
▁życia	-7.86248
t	-7.87082
▁mam	-7.88443
▁właśnie	-7.89341
▁między	-7.90001
▁Gdy	-7.90913
▁myśli	-7.9286
▁którą	-7.93331
ś	-7.93487
▁znowu	-7.94138
▁moje	-7.9486
▁sposób	-7.95941
▁jeśli	-7.95947
▁jestem	-7.95967
▁ziemi	-7.96672
▁życie	-7.96958
▁U	-7.97877
▁czas	-7.9815
▁s	-7.98352
)	-7.98352
▁czasu	-8.00747
▁Od	-8.02032
▁ludzie	-8.02056
k	-8.02283
▁także	-8.02369
▁słowa	-8.02701
▁dziś	-8.02772
▁lat	-8.03118
▁wszyscy	-8.04529
▁Lecz	-8.05339
▁ręce	-8.06285
kę	-8.07647
▁Wy	-8.07876
jąc	-8.07966
▁dalej	-8.07984
▁panie	-8.08248
▁cały	-8.08677
▁Pan	-8.0876
▁swoje	-8.08875
?...	-8.08899
▁człowieka	-8.09035
▁choć	-8.09115
▁mówił	-8.09291
▁dzień	-8.09883
▁wiem	-8.1047
▁ciebie	-8.1053
▁czym	-8.11322
▁kilka	-8.13274
▁samo	-8.13411
▁tyle	-8.13864
▁wiele	-8.14229
▁jakie	-8.14574
▁dwa	-8.15123
ku	-8.15417
▁dzieci	-8.15472
▁razem	-8.16507
▁Więc	-8.17135
▁zaraz	-8.17232
▁głowę	-8.17361
▁chciał	-8.178
▁jeżeli	-8.18399
▁prawie	-8.18682
eś	-8.1876
mu	-8.20232
▁was	-8.2036
▁zupełnie	-8.21015
▁dnia	-8.21813
▁Przy	-8.21859
▁bowiem	-8.22016
▁miała	-8.22293
▁Bóg	-8.22558
cy	-8.22918
▁świat	-8.23387
▁taki	-8.23449
▁swej	-8.23656
▁ile	-8.23831
c	-8.23857
▁drzwi	-8.24136
▁bardziej	-8.2427
▁No	-8.25155
­	-8.25513
▁coraz	-8.25702
▁rękę	-8.25828
▁rzecz	-8.25829
▁serce	-8.26768
▁chce	-8.27211
▁moja	-8.27456
▁myśl	-8.27626
▁musi	-8.27782
ta	-8.2807
▁innych	-8.28335
ką	-8.28425
▁czego	-8.28531
▁twarz	-8.29054
▁»	-8.29112
▁nagle	-8.29568
▁jakiś	-8.30124
▁takie	-8.30139
”,	-8.30633
▁chwilę	-8.30681
▁całą	-8.31057
▁Niech	-8.31523
▁strony	-8.31696
▁swoich	-8.32205
▁mogę	-8.32338
że	-8.32659
▁nikt	-8.32741
▁mówi	-8.32865
▁gdyż	-8.32885
▁wie	-8.33501
▁wtedy	-8.3372
▁długo	-8.34497
▁mną	-8.34878
▁wśród	-8.35151
nych	-8.35154
▁dopiero	-8.3523
▁świecie	-8.35242
▁znów	-8.36157
▁głos	-8.3618
▁dni	-8.3642
▁niech	-8.36511
▁wcale	-8.36619
▁powiedział	-8.36866
▁wszystkim	-8.37299
▁S	-8.37389
ty	-8.37426
▁będę	-8.37656
▁swoją	-8.37661
▁trochę	-8.37844
▁wam	-8.39049
▁duszy	-8.39421
'	-8.39631
▁nimi	-8.39735
▁każdy	-8.39813
▁sama	-8.41242
▁wreszcie	-8.41527
am	-8.41664
owa	-8.41923
ko	-8.42655
▁mają	-8.43007
▁pokoju	-8.4319
▁serca	-8.43536
iem	-8.43875
▁ob	-8.43886
▁Że	-8.43981
niu	-8.44034
n	-8.44225
▁temu	-8.44959
▁jaki	-8.45184
▁jedno	-8.45212
ze	-8.45264
▁twarzy	-8.45331
ować	-8.45509
▁mieć	-8.45549
▁trzy	-8.45637
▁Kiedy	-8.45914
▁Już	-8.46115
▁jednego	-8.46129
▁drogi	-8.46502
le	-8.46597
▁przecież	-8.46691
▁swoim	-8.47256
▁powiedzieć	-8.47354
▁dość	-8.47485
▁my	-8.47663
▁nocy	-8.4774
▁panu	-8.48099
▁świata	-8.48457
liśmy	-8.48777
▁cóż	-8.48934
p	-8.49112
▁mego	-8.492
▁król	-8.49275
▁niby	-8.4939
enia	-8.49526
▁byli	-8.49601
▁mówić	-8.49691
▁razy	-8.50038
▁dlatego	-8.50118
▁rzekła	-8.50162
▁Tu	-8.50229
łem	-8.50315
▁ojca	-8.5163
▁głowy	-8.52856
▁stał	-8.52865
*,	-8.53541
▁jedynie	-8.5363
bym	-8.53758
▁On	-8.53761
▁Jest	-8.53778
▁śmierci	-8.53811
▁całe	-8.53937
owe	-8.53983
▁drugi	-8.54443
to	-8.54471
▁często	-8.54613
▁swój	-8.54664
kiem	-8.55084
ona	-8.55453
▁pierwszy	-8.55702
d	-8.55874
▁oto	-8.56275
▁tedy	-8.56281
▁mogła	-8.56323
▁Ten	-8.56358
▁zawołał	-8.56385
ń	-8.56557
po	-8.56634
▁swą	-8.56723
▁mimo	-8.56817
▁tem	-8.57016
▁masz	-8.57066
▁zaczął	-8.57191
uje	-8.57312
▁mniej	-8.57595
▁swe	-8.57621
▁zbyt	-8.58064
▁swych	-8.58072
▁miłości	-8.58111
▁ojciec	-8.58317
▁pół	-8.5832
za	-8.58324
▁kobiety	-8.58804
ci	-8.58867
▁roku	-8.58912
zy	-8.59187
▁należy	-8.59523
szy	-8.59625
▁inne	-8.59636
▁Prze	-8.60011
▁miłość	-8.60028
nej	-8.60234
▁lepiej	-8.60402
wszy	-8.60865
▁jednej	-8.60945
▁Może	-8.61011
▁Cóż	-8.61166
▁oni	-8.61474
▁wówczas	-8.61597
▁mojej	-8.62001
owej	-8.62162
▁dwóch	-8.62377
▁Boga	-8.62527
▁stary	-8.62586
▁odparł	-8.62774
nym	-8.629
▁będą	-8.6304
▁jaką	-8.63275
wa	-8.63312
▁głową	-8.64189
▁nieco	-8.64318
one	-8.64408
▁jednym	-8.64439
▁ktoś	-8.645
owie	-8.65172
▁swojej	-8.6522
ków	-8.65903
▁noc	-8.66239
ca	-8.66601
▁Ty	-8.66886
),	-8.67007
nego	-8.67077
▁stało	-8.67201
▁czasem	-8.67586
▁Teraz	-8.68047
ową	-8.68093
▁prawo	-8.68182
▁później	-8.68264
▁dwie	-8.69073
▁głosem	-8.69109
▁króla	-8.6935
▁samego	-8.69829
▁jakieś	-8.69903
▁Kto	-8.70108
▁Jeżeli	-8.7031
▁Jeśli	-8.70555
▁ni	-8.70567
▁Boże	-8.70785
l	-8.70841
▁kilku	-8.71004
▁miejsce	-8.71123
▁odpowiedział	-8.71807
▁śmierć	-8.71857
▁jesteś	-8.72077
ście	-8.72133
▁Był	-8.72517
▁każdym	-8.72611
▁również	-8.72629
▁wielkie	-8.72702
▁takim	-8.73025
▁mało	-8.73106
▁nasze	-8.7311
▁jeno	-8.73161
▁przeciw	-8.73321
▁moim	-8.73696
▁góry	-8.73746
!”	-8.73847
la	-8.7391
*.	-8.73927
▁stanie	-8.74063
enie	-8.74255
▁wielki	-8.74335
▁samym	-8.74453
ał	-8.74563
▁drogę	-8.74655
śmy	-8.74677
▁Ta	-8.74696
owych	-8.74751
▁prawa	-8.75029
ość	-8.75142
▁dał	-8.75264
wi	-8.75877
▁raczej	-8.75896
▁ziemię	-8.76589
----------------	-8.76614
▁«	-8.76648
▁czasie	-8.76796
▁ów	-8.76894
▁miasta	-8.76902
ści	-8.77268
▁chyba	-8.77371
▁natychmiast	-8.77479
▁razie	-8.77635
▁moją	-8.77655
je	-8.77853
ony	-8.78039
▁Pani	-8.78401
▁chcę	-8.78434
▁woli	-8.78511
▁piersi	-8.78856
▁prawda	-8.78887
▁widział	-8.78999
▁oczach	-8.79413
▁Pod	-8.79512
▁wciąż	-8.79758
▁tutaj	-8.79844
▁innego	-8.79946
▁miejscu	-8.8017
▁skoro	-8.80228
▁dać	-8.80472
ował	-8.80801
▁jedną	-8.81304
▁pracy	-8.81409
▁końcu	-8.81737
▁takiego	-8.82083
▁tą	-8.82106
▁życiu	-8.82179
▁usta	-8.82216
▁mogą	-8.82266
▁mieli	-8.82397
▁takich	-8.82552
▁list	-8.82644
▁wielką	-8.82662
ska	-8.83106
ać	-8.83252
▁wiedział	-8.83291
▁całej	-8.83772
ia	-8.83782
wy	-8.83904
▁poza	-8.84026
▁naszych	-8.84046
▁musiał	-8.84172
▁wielu	-8.842
▁Oto	-8.84379
▁Ach	-8.84475
si	-8.8485
▁ponieważ	-8.84962
▁one	-8.84982
▁obok	-8.85229
▁siły	-8.85747
▁moich	-8.8579
owy	-8.85898
▁tobie	-8.86061
▁daleko	-8.86123
▁swym	-8.86461
▁wobec	-8.86538
▁zresztą	-8.86731
▁miejsca	-8.86946
▁dziecko	-8.86955
▁zdaje	-8.87106
▁parę	-8.87869
▁bym	-8.8808
▁taką	-8.88111
▁no	-8.88272
ść	-8.88505
▁inaczej	-8.88595
▁oczu	-8.8862
▁mówiąc	-8.89227
▁wody	-8.89313
▁zapytał	-8.89365
▁da	-8.89457
▁stronę	-8.89502
▁widać	-8.89571
▁p	-8.89579
▁jedna	-8.89644
▁oczyma	-8.89744
▁ręką	-8.89878
▁idzie	-8.89938
▁Przez	-8.90192
▁matka	-8.90768
▁drugiej	-8.90949
kami	-8.91211
▁drodze	-8.91395
▁słowo	-8.91551
▁Roz	-8.91863
▁ciągle	-8.91899
▁r	-8.92079
▁znaczy	-8.92106
▁wraz	-8.92456
▁głowie	-8.92472
g	-8.92523
▁Potem	-8.92604
sza	-8.92714
▁chociaż	-8.92771
te	-8.93173
▁Wszystko	-8.93353
▁kraju	-8.93376
nę	-8.93405
b	-8.93512
▁proszę	-8.93535
▁bądź	-8.94095
▁kobieta	-8.94426
▁koło	-8.95084
▁książę	-8.95432
▁samej	-8.95591
▁oraz	-8.95645
dy	-8.95687
▁powiada	-8.96075
▁nogi	-8.96179
▁d	-8.96642
▁słów	-8.9708
▁mię	-8.97349
r	-8.97523
▁został	-8.98192
ga	-8.98198
▁koniec	-8.98733
▁szczęście	-8.9879
▁cała	-8.99004
éj	-8.99086
▁Tam	-8.99108
▁Ci	-8.99308
▁nasz	-8.99461
▁razu	-8.99472
▁Gdyby	-8.99661
▁choćby	-8.99809
▁Nic	-8.99812
▁me	-9.00465
▁iść	-9.00497
▁P	-9.00797
▁naj	-9.00945
owego	-9.01054
▁byłem	-9.01075
▁podczas	-9.01206
niem	-9.01299
emu	-9.01441
▁Gdzie	-9.01627
rze	-9.01635
▁jakim	-9.02111
▁widzę	-9.02304
A	-9.02306
ma	-9.02358
▁matki	-9.02588
▁Ma	-9.03328
▁wiesz	-9.03601
ja	-9.03784
bo	-9.04209
▁naszej	-9.0447
▁Tylko	-9.04535
▁począł	-9.04716
▁sercu	-9.05097
▁wolno	-9.05201
▁kazał	-9.05312
▁przecie	-9.05756
oną	-9.06318
▁syn	-9.06343
gi	-9.06475
▁ust	-9.06635
▁krew	-9.06763
▁cicho	-9.06875
▁stąd	-9.06964
▁chcesz	-9.07068
ości	-9.07127
czy	-9.07211
▁panią	-9.07223
▁szybko	-9.0728
sa	-9.07363
▁męża	-9.07482
▁naszego	-9.07698
▁będziesz	-9.07845
ra	-9.07877
).	-9.08006
▁nowe	-9.08024
▁sto	-9.08054
ono	-9.08412
▁wielkim	-9.08471
▁mamy	-9.08528
ry	-9.08581
▁naprzód	-9.08815
▁powodu	-9.08858
▁ręku	-9.08895
▁widok	-9.09315
▁żadnej	-9.09345
▁ciała	-9.0941
▁pomiędzy	-9.09418
▁niemal	-9.0945
eniu	-9.09748
▁rodzaju	-9.10717
▁sprawy	-9.10779
▁tysięcy	-9.10904
sze	-9.10934
▁dotąd	-9.10935
▁młody	-9.10963
▁całym	-9.11096
wie	-9.11141
▁chodzi	-9.11255
▁jakąś	-9.1138
▁żadnego	-9.11713
▁przynajmniej	-9.11726
▁praw	-9.1182
▁Trzeba	-9.11863
▁widzi	-9.11934
▁syna	-9.12056
▁dlaczego	-9.12101
▁panna	-9.12503
▁części	-9.12534
▁sami	-9.12737
da	-9.1277
do	-9.12968
▁wiedzieć	-9.1306
▁dobry	-9.13079
▁ciało	-9.13173
▁twoje	-9.13176
▁krwi	-9.13195
▁nieraz	-9.13244
▁wszystkiego	-9.1335
▁nami	-9.13982
tu	-9.14005
▁mówiła	-9.14064
▁przykład	-9.14084
▁inny	-9.14314
▁górę	-9.14428
▁wziął	-9.14455
owym	-9.14551
▁miałem	-9.1474
▁zatem	-9.14833
dzie	-9.15194
jących	-9.15235
sta	-9.15262
▁muszę	-9.1563
▁dużo	-9.15842
▁Te	-9.1607
▁spytał	-9.16292
▁spokojnie	-9.16513
▁Panie	-9.1668
▁dzieje	-9.16951
▁dobre	-9.17008
▁lud	-9.1712
zie	-9.17155
▁ducha	-9.17221
cz	-9.17222
▁dobra	-9.17354
▁kiedyś	-9.17366
▁potrzeba	-9.17491
▁innym	-9.17543
▁byłoby	-9.17602
ują	-9.17777
▁twój	-9.17792
us	-9.17899
▁lata	-9.17945
ymi	-9.18122
▁widzieć	-9.18181
st	-9.18556
▁widząc	-9.18693
▁natury	-9.18711
▁duszę	-9.1884
▁stała	-9.19033
▁tobą	-9.19067
▁Dla	-9.19156
▁zaczęła	-9.19658
re	-9.19741
▁mogło	-9.19744
▁znalazł	-9.19983
ić	-9.20037
▁mówię	-9.20203
▁la	-9.20244
▁Jeszcze	-9.20306
▁wedle	-9.20604
▁celu	-9.20753
▁zrobić	-9.20832
▁ażeby	-9.2091
▁słońce	-9.21025
▁wieku	-9.21025
▁wprost	-9.21082
▁stoi	-9.21088
▁mąż	-9.21116
▁imię	-9.21132
▁dodał	-9.21181
▁kobiet	-9.21267
▁rozum	-9.21375
▁patrząc	-9.21419
▁robić	-9.21429
▁jutro	-9.21433
ność	-9.21507
▁Była	-9.21509
▁same	-9.21523
▁daje	-9.21766
▁całkiem	-9.21918
▁myślał	-9.22112
▁pieniądze	-9.22302
▁łatwo	-9.22306
▁głębi	-9.22333
▁zwykle	-9.22364
▁konia	-9.22394
▁gdzieś	-9.22501
▁ogóle	-9.22534
▁Ha	-9.22579
▁obu	-9.22668
▁wielkiego	-9.22687
▁dzisiaj	-9.22752
szą	-9.23091
▁żyć	-9.23296
▁tymczasem	-9.23454
▁chciała	-9.23568
▁szczęścia	-9.23975
S	-9.24003
▁dom	-9.24004
▁zwłaszcza	-9.2419
▁równie	-9.24224
▁źle	-9.24384
er	-9.2444
▁trzech	-9.24466
▁nikogo	-9.24644
▁zapewne	-9.24654
▁miasto	-9.24758
▁część	-9.25058
▁końca	-9.25108
▁niebo	-9.25213
▁łzy	-9.25364
▁mej	-9.25373
▁spod	-9.25384
▁trudno	-9.25516
▁najbardziej	-9.25518
▁inni	-9.2605
▁rąk	-9.26223
▁dosyć	-9.26224
▁mogli	-9.26235
▁chwila	-9.26251
▁Tymczasem	-9.26289
▁drzewa	-9.26391
▁taka	-9.26425
▁wszędzie	-9.26555
▁chcąc	-9.26589
▁takiej	-9.27186
is	-9.27201
▁wyszedł	-9.27444
▁jéj	-9.27558
▁wielkiej	-9.27649
▁mogłem	-9.27762
▁godziny	-9.27767
▁wrażenie	-9.27905
cą	-9.28154
▁zna	-9.28154
▁ręki	-9.28548
▁powoli	-9.28921
▁K	-9.29179
▁Ba	-9.29437
▁jakiegoś	-9.29458
▁dusza	-9.29554
▁czyli	-9.29605
W	-9.29613
▁zamiast	-9.29774
▁drugiego	-9.29887
▁robi	-9.29969
▁prostu	-9.30309
f	-9.30518
▁Otóż	-9.30769
▁słońca	-9.30847
▁rad	-9.31133
▁zarazem	-9.31269
▁cztery	-9.31493
▁M	-9.31517
▁ulicy	-9.31695
▁mocno	-9.31778
▁nieba	-9.31827
od	-9.31878
▁niczym	-9.31927
ję	-9.32204
▁poszedł	-9.32288
▁skąd	-9.32675
▁istocie	-9.32871
▁pierwsze	-9.33016
▁Przed	-9.33391
▁konie	-9.33479
O	-9.33548
▁Jego	-9.33748
▁prędko	-9.3382
▁początku	-9.34202
▁kogo	-9.3421
▁włosy	-9.34293
▁naprawdę	-9.34332
▁wieczór	-9.34346
▁ode	-9.34365
ro	-9.34413
▁sen	-9.34475
▁Było	-9.3449
▁sił	-9.34596
▁rzucił	-9.34654
▁odezwał	-9.34734
▁czuł	-9.34852
on	-9.35026
▁zamku	-9.35027
▁Zresztą	-9.35091
cze	-9.35209
sie	-9.35558
▁jakaś	-9.35579
▁Jan	-9.35681
I	-9.35754
▁szedł	-9.35823
▁przede	-9.35892
▁E	-9.35952
▁Sam	-9.35998
▁samą	-9.36005
▁każdej	-9.36018
▁pomocą	-9.36111
▁drugim	-9.36194
▁Mój	-9.36246
▁pewnego	-9.36406
▁każdego	-9.3643
▁spojrzał	-9.36462
▁Ze	-9.36598
▁zdawało	-9.36735
▁Mam	-9.36766
kach	-9.37114
▁siedział	-9.37498
Z	-9.37511
▁[	-9.37748
▁całego	-9.3777
▁staje	-9.37789
en	-9.3779
mo	-9.37807
▁pewien	-9.37834
▁ono	-9.37852
▁różne	-9.37879
▁powiem	-9.37964
jące	-9.38049
▁względem	-9.38058
▁człowiekiem	-9.3819
▁Wszyscy	-9.38209
▁stara	-9.38303
▁wsi	-9.38437
co	-9.3856
▁głośno	-9.38656
▁pewnie	-9.38796
▁okna	-9.3884
▁obraz	-9.3894
▁niegdyś	-9.39032
▁panowie	-9.39139
▁Jestem	-9.39143
owania	-9.39331
▁wielkich	-9.39349
▁żaden	-9.39385
▁Bogu	-9.39396
▁uśmiechem	-9.39655
▁Ona	-9.39704
▁byłby	-9.3972
▁przyszedł	-9.39731
▁widziałem	-9.39743
ba	-9.39937
byś	-9.40083
▁Dobrze	-9.40237
▁wydaje	-9.40251
pa	-9.40255
▁wzrok	-9.4037
▁ha	-9.404
▁dzięki	-9.40434
owali	-9.40479
▁mały	-9.40492
nik	-9.40524
▁czoło	-9.40525
ży	-9.40526
ski	-9.40552
ując	-9.40867
▁pięć	-9.40881
▁rano	-9.41356
▁księcia	-9.41371
▁długie	-9.41572
▁sie	-9.41639
▁panem	-9.41648
▁dokoła	-9.41811
▁jakoś	-9.41907
▁żyje	-9.4205
▁droga	-9.42379
▁mieście	-9.42389
▁oko	-9.42547
▁wyraz	-9.42666
▁ciągu	-9.4272
▁drugą	-9.42874
▁uczynić	-9.43001
▁wiatr	-9.43118
▁pełne	-9.43237
▁kocha	-9.43292
▁rok	-9.43316
cza	-9.43325
▁stóp	-9.43371
▁podniósł	-9.43444
▁drugie	-9.43474
▁brak	-9.43509
▁pierwszej	-9.43548
▁los	-9.43555
▁ledwie	-9.43581
▁piękne	-9.43731
▁około	-9.43879
▁in	-9.44077
▁pewno	-9.44127
▁Ani	-9.44192
▁któremu	-9.44305
▁naszym	-9.44314
▁ogień	-9.4432
▁własnej	-9.44379
▁sprawę	-9.44384
▁żony	-9.44391
▁zawołała	-9.44524
ali	-9.44636
▁Czyż	-9.4472
▁drogą	-9.44825
▁znaleźć	-9.44905
▁światło	-9.44936
▁przyjdzie	-9.45066
lo	-9.45097
▁uczucia	-9.45461
ąc	-9.45469
sy	-9.45517
▁Proszę	-9.45769
▁wprawdzie	-9.45841
▁zrobił	-9.45909
▁dawno	-9.45923
cia	-9.46149
▁Ależ	-9.46176
▁powinien	-9.4629
▁wkrótce	-9.46353
▁wielka	-9.46466
dzi	-9.46511
wo	-9.47084
▁nań	-9.47092
ią	-9.47193
▁tuż	-9.47293
▁stole	-9.47424
▁ostatni	-9.4743
▁gdybym	-9.47489
▁stronie	-9.4773
▁miały	-9.47757
▁Wtedy	-9.47851
▁różnych	-9.47878
▁wszedł	-9.47951
▁kraj	-9.47998
▁niczego	-9.48282
in	-9.48415
▁Jakże	-9.48622
▁drzew	-9.48807
▁starego	-9.48891
▁słowem	-9.48973
▁Nigdy	-9.49128
▁mając	-9.49269
▁Król	-9.49384
▁wczoraj	-9.49461
▁moc	-9.49493
▁uwagę	-9.49497
Nie	-9.49508
▁umiał	-9.49658
▁żona	-9.49789
▁państwa	-9.4986
▁wszelkie	-9.49992
onych	-9.50009
▁miało	-9.50028
▁znak	-9.50301
▁cel	-9.50304
▁Dlaczego	-9.50416
▁Wreszcie	-9.50464
▁tłum	-9.50469
▁postać	-9.50584
jcie	-9.50615
▁powiedziała	-9.50659
▁dziesięć	-9.5069
▁sali	-9.50771
łam	-9.50896
▁według	-9.50915
jący	-9.50977
▁możesz	-9.5103
▁stanął	-9.51057
▁stron	-9.51277
▁pieniędzy	-9.51341
▁stać	-9.51513
▁czeka	-9.51575
▁jakiejś	-9.51608
▁stan	-9.51757
▁Don	-9.51762
▁brata	-9.51784
▁żal	-9.51904
ała	-9.51942
▁ponad	-9.52109
▁zanim	-9.52297
▁spraw	-9.52364
▁własne	-9.52384
uję	-9.52553
▁prócz	-9.52689
▁mówią	-9.5272
▁morze	-9.52837
▁radości	-9.52877
▁widocznie	-9.52903
▁sztuki	-9.53017
▁patrzy	-9.53036
▁panny	-9.53115
▁jakże	-9.53235
▁pokój	-9.53299
▁czegoś	-9.53364
▁podobne	-9.5342
▁morza	-9.53511
▁brat	-9.53547
?”	-9.53629
▁piękna	-9.53644
▁koni	-9.53757
▁prawdę	-9.53903
▁wojny	-9.5397
▁zaczyna	-9.53984
▁wnet	-9.54064
▁prędzej	-9.54113
▁póki	-9.54259
de	-9.54281
▁wieczorem	-9.543
▁światła	-9.54302
▁Le	-9.54407
aś	-9.54425
▁wzrokiem	-9.54425
▁pewnością	-9.5448
▁brzegu	-9.54528
▁małe	-9.54813
▁18	-9.55099
▁tymi	-9.55125
▁dawna	-9.55171
bi	-9.55303
▁nowo	-9.55328
▁odrzekł	-9.55347
pie	-9.5537
▁Aż	-9.55445
sko	-9.55706
pi	-9.5578
▁pierwszym	-9.55821
▁jakimś	-9.55883
▁Sokrates	-9.56115
▁gości	-9.5613
h	-9.56253
▁rozmowy	-9.56353
▁powie	-9.56615
▁szukać	-9.56646
▁białe	-9.56659
▁La	-9.56734
▁ludźmi	-9.56831
tą	-9.56866
▁zaledwie	-9.56891
▁pewne	-9.57231
▁czyni	-9.57427
▁Są	-9.57533
▁jakiego	-9.57572
▁wrócił	-9.5758
▁Nagle	-9.57597
▁pamięci	-9.57873
▁długi	-9.58074
▁istotnie	-9.58105
▁ruch	-9.58175
▁uczynił	-9.58365
▁krzyknął	-9.58383
▁Dziś	-9.58412
▁ramiona	-9.58449
▁jakoby	-9.58613
eń	-9.58814
▁byle	-9.58851
▁jesteśmy	-9.58979
▁śmiał	-9.58994
▁Nawet	-9.59054
▁znać	-9.59138
▁Nikt	-9.59212
▁osób	-9.59251
▁jakiej	-9.59342
▁wiary	-9.5956
▁duch	-9.59731
▁leży	-9.59884
▁którymi	-9.59953
▁obie	-9.59972
ię	-9.6016
▁ksiądz	-9.60189
▁myśleć	-9.60334
zi	-9.60342
kom	-9.60359
▁przyszło	-9.60377
▁słyszał	-9.60388
▁rozumu	-9.60456
lu	-9.6074
▁prawdy	-9.60871
▁przyjaciół	-9.61088
▁pomocy	-9.61131
▁powietrze	-9.61339
▁oka	-9.61381
▁mojego	-9.61396
▁Dlatego	-9.61442
▁re	-9.61709
▁twoja	-9.61722
▁Jeden	-9.61848
▁Nad	-9.6204
▁wina	-9.62053
▁samych	-9.621
]	-9.62184
▁niekiedy	-9.6221
▁myślę	-9.62213
ności	-9.62237
▁tysiąc	-9.62395
▁par	-9.62526
▁bywa	-9.62605
▁dwadzieścia	-9.6264
▁abym	-9.62678
▁znam	-9.6282
▁złego	-9.62904
▁Przecież	-9.62919
▁czemu	-9.62923
▁stołu	-9.62937
▁gniew	-9.63083
▁wiadomo	-9.63086
▁rady	-9.63214
▁została	-9.63229
▁przyczyny	-9.6328
▁ludu	-9.633
tę	-9.63327
▁posiada	-9.63358
nu	-9.63598
▁myślą	-9.63617
▁wziąć	-9.63631
▁zwrócił	-9.6376
▁zgoła	-9.63775
▁mogły	-9.63874
▁czarne	-9.63924
we	-9.63966
▁dobrego	-9.63988
▁stały	-9.64018
nął	-9.64044
▁D	-9.64083
wał	-9.64103
▁złe	-9.64212
D	-9.64384
▁G	-9.64486
es	-9.64579
▁nowy	-9.64594
▁czasów	-9.64609
▁głęboko	-9.64678
▁będziemy	-9.64694
▁siłą	-9.64714
▁roboty	-9.64724
▁pomoc	-9.6475
▁poznać	-9.6476
▁Bardzo	-9.64765
▁okiem	-9.64799
▁zostać	-9.64957
▁dziewczyna	-9.65066
▁kroków	-9.6509
▁spokój	-9.65154
▁ludziom	-9.65211
▁postaci	-9.65299
▁sposobem	-9.65353
▁Każdy	-9.65448
rzy	-9.6548
».	-9.65627
sty	-9.65637
eni	-9.65672
▁nasza	-9.65701
▁nadziei	-9.66014
▁kości	-9.66037
anie	-9.66087
▁doskonale	-9.66103
▁wolna	-9.66153
▁dół	-9.66172
ania	-9.6623
▁jakich	-9.66319
▁uwagi	-9.66331
▁przyszła	-9.6634
▁powrotem	-9.66432
▁umie	-9.66497
▁Wszystkie	-9.66499
▁żadnych	-9.66566
▁niebie	-9.66612
▁dam	-9.6663
▁pola	-9.66698
▁Bez	-9.66759
▁dłużej	-9.67009
▁My	-9.67315
▁czymś	-9.67415
▁pierwszego	-9.67569
▁nóg	-9.67735
▁dawniej	-9.67744
nicy	-9.6802
▁przeto	-9.6803
▁żonę	-9.68032
▁ciężko	-9.68159
▁widzisz	-9.68182
▁godzin	-9.68222
▁odpowiedzi	-9.68291
▁dziecka	-9.68436
▁pomyślał	-9.68473
▁hrabia	-9.68635
▁pole	-9.68783
owanie	-9.68841
▁kształt	-9.68851
▁własną	-9.68942
ii	-9.68942
▁las	-9.6903
▁snu	-9.6907
▁chwilą	-9.69157
▁powietrzu	-9.69179
▁podróży	-9.69193
▁k	-9.6939
▁swojego	-9.69552
▁wyraźnie	-9.69603
▁Albo	-9.69695
▁milczeniu	-9.6976
▁mocy	-9.69818
▁ramię	-9.69863
▁broni	-9.69965
▁przerwał	-9.69987
▁pytanie	-9.69996
▁Jako	-9.70022
▁Skoro	-9.70212
▁odpowiedziała	-9.70271
ru	-9.70298
▁okno	-9.70308
▁właściwie	-9.70347
▁gra	-9.70486
▁nazywa	-9.70511
▁następnie	-9.70548
▁owe	-9.70588
▁ściany	-9.70635
▁znał	-9.7072
▁B	-9.70722
▁obiad	-9.70771
▁musiała	-9.70806
os	-9.70873
owała	-9.7104
▁żem	-9.71041
zna	-9.71065
▁By	-9.71125
▁kocham	-9.71434
▁uczucie	-9.71519
▁osoby	-9.7176
▁wodę	-9.71939
▁Wiem	-9.72061
▁ba	-9.72073
▁słychać	-9.72144
▁chłop	-9.72203
▁przedtem	-9.72287
▁Mar	-9.72332
▁rzeki	-9.72543
▁znajduje	-9.7259
▁uczuć	-9.726
▁rodziny	-9.72639
▁gór	-9.7265
▁pewnym	-9.72698
▁ognia	-9.7272
▁rana	-9.72769
▁pałacu	-9.72847
▁rozkaz	-9.72873
▁przeciwko	-9.72905
cę	-9.72996
ały	-9.72997
▁wojska	-9.73024
▁nowego	-9.73334
▁dwu	-9.73337
▁mo	-9.73434
▁Aby	-9.73488
▁Ponieważ	-9.73591
▁Pi	-9.73623
▁pojęcia	-9.73702
▁blisko	-9.73713
um	-9.73724
▁nadzieję	-9.73778
▁będąc	-9.7384
▁szepnął	-9.73874
▁mogąc	-9.74005
▁żywo	-9.7405
▁dnie	-9.74059
▁kon	-9.74376
ił	-9.74391
▁istnieje	-9.74408
▁chcą	-9.74426
▁jemu	-9.7458
▁Och	-9.74725
▁twarzą	-9.74806
▁Mimo	-9.74808
▁se	-9.74826
▁gotów	-9.7483
▁patrzeć	-9.7486
owo	-9.75036
▁owych	-9.76288
▁chętnie	-9.76323
▁mianowicie	-9.76359
▁głowa	-9.76365
▁izby	-9.76574
ter	-9.76748
▁patrzył	-9.76785
▁rzeczą	-9.76836
▁owego	-9.76901
▁chcieli	-9.76928
▁złota	-9.77092
▁mógłby	-9.77232
▁chleba	-9.77245
▁ostatnie	-9.77332
ur	-9.77396
▁walki	-9.77685
▁wysoko	-9.77719
▁ujrzał	-9.77843
▁twego	-9.7786
▁każda	-9.77943
▁niemu	-9.77971
▁bierze	-9.78043
▁książki	-9.78243
▁stu	-9.78317
▁pieśni	-9.78383
▁ludzkie	-9.78417
▁ustach	-9.78458
▁nieszczęście	-9.78467
▁pas	-9.78574
▁strach	-9.78777
▁młodego	-9.78835
▁We	-9.78906
▁czynić	-9.78983
▁Miał	-9.78996
prze	-9.79066
▁pa	-9.79088
▁Tym	-9.79146
▁daleka	-9.79172
▁zarówno	-9.79209
stwo	-9.79283
▁owej	-9.79296
▁możemy	-9.79308
▁innej	-9.7932
nki	-9.79349
▁siedzi	-9.79359
▁stanu	-9.79366
▁wasze	-9.79503
▁państwo	-9.79507
▁godzinę	-9.7951
▁siła	-9.79552
▁wielce	-9.79588
▁nowych	-9.79675
▁muszą	-9.80044
▁język	-9.80048
łu	-9.8025
▁radość	-9.80254
▁krzyk	-9.80278
▁zostanie	-9.80314
▁prosto	-9.80319
nąć	-9.80561
▁sprawa	-9.8061
▁uśmiech	-9.80859
▁żył	-9.80903
▁miarę	-9.81016
▁przyjaciela	-9.81025
▁piękny	-9.81044
▁Ojciec	-9.81146
im	-9.81217
▁polu	-9.81291
▁rząd	-9.8168
▁trzyma	-9.81716
▁córki	-9.81732
ską	-9.81743
▁dworze	-9.81816
▁pamięć	-9.81834
▁wpół	-9.81879
▁zdrowie	-9.81908
▁ziemia	-9.81918
▁żeś	-9.82227
▁nauki	-9.82246
▁próżno	-9.82252
▁nareszcie	-9.82259
▁sąd	-9.82293
▁byś	-9.82407
▁dworu	-9.82442
▁dała	-9.82485
▁Tego	-9.82506
▁rękach	-9.82554
▁dziwnie	-9.82615
▁umarł	-9.83025
▁oczywiście	-9.83117
▁spać	-9.83478
▁kościoła	-9.83517
▁kieszeni	-9.8361
▁wesoło	-9.8363
▁boku	-9.83634
▁innymi	-9.83678
▁Prawda	-9.8387
an	-9.83905
▁koniecznie	-9.83921
▁twojej	-9.83928
▁trzymał	-9.83929
▁Wówczas	-9.83937
▁cień	-9.83963
▁odpowiedź	-9.84029
▁Mnie	-9.8408
▁nikomu	-9.84134
▁kogoś	-9.84147
▁komu	-9.84231
▁wiedząc	-9.84263
▁sprawie	-9.84337
▁Ludzie	-9.84419
onym	-9.84625
▁Ka	-9.8467
▁spokoju	-9.84727
▁Zdaje	-9.8473
▁rozumie	-9.8478
czek	-9.8486
▁zauważył	-9.84982
ana	-9.85058
▁odparła	-9.8509
▁chciałem	-9.85456
▁pewna	-9.85484
▁znacznie	-9.85675
▁kolei	-9.85695
▁każde	-9.85717
mie	-9.85779
▁rzeczywiście	-9.85804
▁Ku	-9.8581
jącego	-9.85842
▁łóżka	-9.85845
▁ból	-9.85862
▁dzieła	-9.85951
▁szczerze	-9.86008
ź	-9.86011
▁rozpaczy	-9.86145
▁krwią	-9.86194
▁Człowiek	-9.86442
▁moi	-9.8646
▁wartości	-9.86493
▁stosunku	-9.8661
▁honor	-9.8673
▁listy	-9.86905
▁krok	-9.8694
P	-9.8725
▁oczami	-9.87261
▁De	-9.87277
▁stare	-9.87349
▁czuję	-9.87355
▁łzami	-9.87372
▁zobaczyć	-9.87409
▁sześć	-9.87421
▁pewną	-9.87422
▁panów	-9.87545
▁naszą	-9.87546
▁progu	-9.87629
▁rękami	-9.8766
▁kwiaty	-9.87726
▁Stary	-9.87789
▁przyszłość	-9.87807
▁nos	-9.8782
▁niezmiernie	-9.8783
▁lasu	-9.87842
▁np	-9.87892
▁potrafi	-9.88024
▁zatrzymał	-9.8804
▁Paweł	-9.88153
▁niepo	-9.88197
▁porządku	-9.88199
▁powtórzył	-9.8831
▁wyżej	-9.88382
▁koń	-9.88444
▁Ni	-9.88522
▁powiedz	-9.88533
▁kochany	-9.88651
▁czuje	-9.88669
▁e	-9.88678
▁mówisz	-9.8878
onego	-9.8888
▁rozumiem	-9.88969
▁uda	-9.88983
▁kierunku	-9.89281
▁wyszła	-9.89305
▁Francji	-9.8944
▁Polski	-9.89451
el	-9.89465
▁Naj	-9.89487
▁ciemności	-9.89617
▁li	-9.89756
▁stół	-9.89856
▁umysł	-9.89858
▁Re	-9.8992
▁poznał	-9.89938
▁wieczora	-9.89994
▁zdawał	-9.90075
▁pełen	-9.9015
▁ruszył	-9.90252
▁dłoni	-9.90356
▁Zaraz	-9.90431
▁znajdzie	-9.90472
der	-9.9051
▁Masz	-9.90627
▁chłopak	-9.90726
▁siłę	-9.90752
onej	-9.90813
▁spytała	-9.90888
▁obecnie	-9.90992
▁pomimo	-9.91033
▁jasno	-9.91089
▁własnym	-9.91114
eniem	-9.91176
▁ciągnął	-9.91188
▁Toteż	-9.91201
▁Ot	-9.91203
▁uszy	-9.91216
▁istoty	-9.91237
▁natomiast	-9.91243
▁druga	-9.91372
C	-9.91424
▁wszelkich	-9.91496
▁życiem	-9.91576
▁trzeci	-9.91647
▁przedmiot	-9.91675
▁podoba	-9.91682
▁si	-9.91711
▁Raz	-9.91729
▁zostało	-9.9186
ając	-9.91931
▁każe	-9.92037
▁śmiechem	-9.92168
é	-9.92229
▁strachu	-9.92343
▁wieki	-9.9255
▁mowy	-9.92555
▁twoim	-9.92578
M	-9.92637
▁poszła	-9.92668
▁mil	-9.92669
▁bodaj	-9.92689
▁środku	-9.92737
▁łez	-9.92737
▁własnego	-9.92835
▁Właśnie	-9.93038
▁szyję	-9.93172
▁pies	-9.93184
▁kim	-9.93205
▁przybył	-9.93355
▁tysiące	-9.93418
▁Wtem	-9.9346
jącą	-9.93504
▁krokiem	-9.93632
▁rozmowę	-9.93654
▁ruchu	-9.93664
▁wiadomości	-9.93785
▁natura	-9.93812
▁czyż	-9.93888
stwa	-9.93982
▁liście	-9.94024
▁wygląda	-9.94033
▁et	-9.94065
▁słuchać	-9.94091
▁Dopiero	-9.94124
▁Ko	-9.9414
nęła	-9.94155
▁nazwisko	-9.94196
▁podobny	-9.94221
▁spo	-9.94228
▁ramionami	-9.94247
▁leżał	-9.94264
▁twe	-9.9442
▁albowiem	-9.94472
▁najlepiej	-9.94558
▁dziwne	-9.94568
▁twoją	-9.9461
▁krzyż	-9.94794
▁tylu	-9.94855
ają	-9.94868
▁słuchał	-9.949
▁minut	-9.94926
▁mą	-9.94938
ji	-9.95105
▁wolę	-9.95134
ano	-9.95188
▁Powiedz	-9.95253
▁wiedzą	-9.9526
▁oboje	-9.95311
▁kochać	-9.95354
▁so	-9.95409
▁wszakże	-9.95413
▁górze	-9.95421
▁chłopca	-9.9546
▁ostatnich	-9.95475
▁cześć	-9.95484
kowi	-9.95652
▁dostał	-9.95714
▁jechać	-9.95738
▁mieszka	-9.95743
▁dokąd	-9.95806
▁woda	-9.95892
▁rodzaj	-9.95918
▁kuchni	-9.95971
▁m	-9.96226
▁Żeby	-9.96237
sku	-9.96368
▁ko	-9.964
▁niewiele	-9.96459
wą	-9.96501
▁wodą	-9.96514
▁widzenia	-9.96571
▁swymi	-9.96616
▁księżyc	-9.96965
du	-9.97132
▁czekać	-9.9716
▁stanowi	-9.97194
▁ręka	-9.9724
▁Pa	-9.97254
▁najmniej	-9.97289
▁łóżku	-9.9731
▁pytał	-9.9734
▁wierzyć	-9.97343
▁czterech	-9.97445
▁charakter	-9.97459
owane	-9.97507
▁Książę	-9.97583
▁19	-9.97641
▁Bądź	-9.97661
▁rzadko	-9.97761
▁władzy	-9.97785
▁otworzył	-9.97836
lę	-9.97925
▁bliżej	-9.97942
▁własnych	-9.98002
▁zbliżył	-9.98009
▁czasy	-9.9809
▁twoich	-9.98188
łą	-9.98237
▁Ob	-9.98339
▁szeroko	-9.98372
cki	-9.98423
▁rycerz	-9.98449
▁wołał	-9.9863
▁dłoń	-9.98633
▁byłaby	-9.98643
▁pośród	-9.98643
▁najwięcej	-9.9867
▁szła	-9.98675
▁przeciwnie	-9.98677
▁jasne	-9.98752
▁oddać	-9.98888
▁wiedzy	-9.98956
▁Któż	-9.98994
▁córka	-9.9904
▁łaski	-9.99071
▁sz	-9.99089
▁dostać	-9.99095
ed	-9.99115
śród	-9.9914
▁zrozumieć	-9.99142
▁lesie	-9.99237
▁ludzkiej	-9.9924
▁zęby	-9.99423
▁Y	-9.99458
▁mych	-9.99465
▁względu	-9.99493
▁Można	-9.99572
▁większą	-9.99585
▁drugich	-9.9961
ha	-9.99623
▁zdania	-9.99651
▁młodych	-9.99662
yć	-9.99674
▁rzuca	-9.99734
▁spojrzenie	-9.99797
▁głosu	-9.99872
▁cisza	-9.99959
dą	-10.0005
it	-10.0009
et	-10.0009
▁lada	-10.0039
▁zapytała	-10.005
czą	-10.0056
▁inną	-10.0057
bra	-10.0062
▁wydał	-10.0067
▁Choć	-10.0068
▁Ra	-10.0068
▁matkę	-10.007
▁przychodzi	-10.0071
zę	-10.0074
▁dobrą	-10.0075
▁piękną	-10.0084
▁owo	-10.0084
bie	-10.0088
▁kapitan	-10.0091
▁odpowiada	-10.0092
▁poczęła	-10.0093
▁wasza	-10.0095
▁każdą	-10.0098
▁du	-10.0099
▁pierwszych	-10.0103
▁mieszkania	-10.0105
▁dopóki	-10.0112
▁bok	-10.0114
▁dotychczas	-10.0115
▁pewnej	-10.0116
▁dawnych	-10.0118
▁wstał	-10.0121
▁słyszeć	-10.0121
▁nogami	-10.0136
fi	-10.0149
▁broń	-10.016
▁oprócz	-10.016
▁wiedziała	-10.0162
▁pro	-10.0165
▁młoda	-10.0182
▁stopnia	-10.0185
▁żoną	-10.0193
▁kolana	-10.0196
▁godzinie	-10.0213
▁rozkoszy	-10.0214
▁narodu	-10.0215
▁kochał	-10.0222
▁milczenie	-10.0224
▁doń	-10.0249
▁gwałtownie	-10.0252
▁rzecze	-10.0257
▁chleb	-10.026
▁lekko	-10.0265
▁jaka	-10.0266
▁bynajmniej	-10.0268
▁wypadku	-10.0277
▁duchu	-10.0278
▁rozkosz	-10.0284
▁dokładnie	-10.0288
▁wyda	-10.029
▁naród	-10.029
▁mówili	-10.0302
▁pi	-10.0304
▁przyjaciel	-10.0315
▁miły	-10.0317
▁jednocześnie	-10.0319
▁sądzę	-10.0338
▁niedo	-10.0339
▁ho	-10.0341
▁czasach	-10.0342
▁szczęśliwy	-10.0343
▁tydzień	-10.0344
▁czekał	-10.0348
▁lubi	-10.0354
▁czytać	-10.0354
bu	-10.0355
▁wola	-10.0376
▁śpiewa	-10.0381
▁usiadł	-10.0381
▁y	-10.0398
▁ojcu	-10.0406
ńskiego	-10.0412
▁żołnierzy	-10.0413
▁pisać	-10.0434
▁cnoty	-10.044
▁małą	-10.0444
▁pyta	-10.0448
▁per	-10.0461
▁Zdawało	-10.0471
▁św	-10.048
▁gwiazdy	-10.0487
▁wyłącznie	-10.0489
▁dali	-10.0508
▁dniu	-10.0512
▁winien	-10.052
czki	-10.052
▁śmiercią	-10.0523
▁pełni	-10.0526
▁tonem	-10.0526
▁nadto	-10.0526
▁robił	-10.0526
▁zaczęły	-10.0527
▁mężczyzna	-10.0544
▁kobietę	-10.0551
▁woła	-10.0554
...”	-10.0575
▁Sz	-10.0576
▁izbie	-10.0577
▁podróż	-10.0589
▁Warszawy	-10.0595
▁pozostał	-10.0596
▁nową	-10.0597
▁słuszność	-10.06
tka	-10.0602
ot	-10.0603
▁krótko	-10.061
▁Oczy	-10.0617
czka	-10.0621
jącym	-10.063
▁mała	-10.0634
▁chłopiec	-10.0635
▁pięknie	-10.0641
▁sercem	-10.0651
rz	-10.0655
▁ciężkie	-10.0656
▁drzwiach	-10.0656
▁braci	-10.0657
▁zrozumiał	-10.0657
▁zechce	-10.0659
Po	-10.0671
▁ciszy	-10.0672
▁potrzeby	-10.0673
ców	-10.0674
▁Wiesz	-10.0678
▁ojcze	-10.0679
▁przyszłości	-10.0683
▁nazajutrz	-10.0684
ina	-10.069
▁miecz	-10.0709
▁owym	-10.0718
▁gniewu	-10.0719
▁twej	-10.0722
▁mnóstwo	-10.0743
ut	-10.0746
ste	-10.0746
▁piersiach	-10.0747
▁późno	-10.0748
▁ludzkich	-10.0761
ém	-10.0774
▁daj	-10.0776
▁bogów	-10.0778
▁dawał	-10.0786
owany	-10.0793
▁siostry	-10.0793
▁Taki	-10.0802
▁pisze	-10.0809
▁itd	-10.0814
▁zaczęli	-10.0817
▁naprzeciw	-10.0832
▁wpadł	-10.0834
▁Coś	-10.0835
▁dobrym	-10.0835
tem	-10.0842
▁bólu	-10.0847
▁przestrzeni	-10.0858
▁rolę	-10.0861
▁g	-10.0866
fa	-10.0869
▁Wie	-10.0882
▁Mo	-10.0884
▁kamień	-10.0884
czę	-10.0888
▁Czego	-10.0894
▁stali	-10.0908
▁Bi	-10.091
▁dziw	-10.092
▁patrzał	-10.0925
acji	-10.0927
U	-10.0933
▁franków	-10.0934
ciu	-10.0939
▁księdza	-10.094
sk	-10.0943
▁żadne	-10.0944
▁prosić	-10.0951
wod	-10.0955
▁szepnęła	-10.096
▁strasznie	-10.0961
▁Nazajutrz	-10.0965
▁szkoły	-10.0965
▁niebawem	-10.0965
▁młodości	-10.0978
▁Cha	-10.098
wia	-10.0986
▁He	-10.0988
▁zda	-10.099
▁wstyd	-10.0993
▁waszej	-10.1
▁wyjść	-10.1001
▁gwiazd	-10.1009
▁głosy	-10.1009
▁Li	-10.101
▁padł	-10.1016
x	-10.102
▁wojsko	-10.1024
▁postanowił	-10.1032
▁przyjąć	-10.1032
▁przyjaźni	-10.1034
▁ot	-10.1037
▁Czemu	-10.104
▁oddał	-10.1049
▁Warszawie	-10.1052
ow	-10.1054
▁gwar	-10.1055
▁Paryżu	-10.1058
▁królowa	-10.1058
▁czar	-10.1058
▁Ro	-10.1063
rę	-10.1064
▁abyś	-10.1065
▁zobaczył	-10.1065
▁idą	-10.1076
E	-10.1082
rod	-10.1083
▁usłyszał	-10.1086
zą	-10.1089
▁okręt	-10.1093
▁udało	-10.1096
▁mów	-10.1101
▁któż	-10.1104
at	-10.1112
▁Cz	-10.1118
▁stracił	-10.1123
▁złoto	-10.1124
▁historii	-10.1125
▁brzeg	-10.113
▁brać	-10.1135
▁jeść	-10.1144
▁praca	-10.1146
win	-10.1154
▁powinna	-10.1156
▁chaty	-10.1164
owano	-10.117
▁dwór	-10.1172
▁Patrz	-10.1174
bor	-10.1179
néj	-10.1182
▁deszcz	-10.1184
▁wychodzi	-10.12
▁stosunki	-10.1202
▁zrobi	-10.1205
▁wiek	-10.1206
▁okolicy	-10.1209
▁R	-10.1211
nt	-10.1217
▁cha	-10.1231
▁zdanie	-10.1232
▁owa	-10.1234
▁położył	-10.1236
▁Paryża	-10.1237
▁niepodobna	-10.1238
wali	-10.1239
dź	-10.1242
▁wzięła	-10.1244
▁dzieło	-10.1248
▁ruchem	-10.1248
war	-10.1251
B	-10.1252
▁radością	-10.1254
me	-10.1266
▁naraz	-10.1273
▁plan	-10.1273
▁Daj	-10.1279
▁kara	-10.1285
▁widziała	-10.1286
▁łeb	-10.1291
▁kwiatów	-10.1291
▁towarzystwie	-10.1291
▁temat	-10.1296
▁złote	-10.1301
tra	-10.1307
▁chodzić	-10.1309
▁wrócić	-10.131
praw	-10.1311
▁miłością	-10.1319
▁interes	-10.132
cja	-10.132
▁spostrzegł	-10.132
▁starych	-10.1322
▁dniach	-10.1324
▁dziecię	-10.1334
▁niechaj	-10.1338
▁udał	-10.1346
▁umrzeć	-10.1354
▁córkę	-10.1355
▁pójdzie	-10.1357
nęły	-10.1359
▁obaj	-10.136
▁słowach	-10.1361
▁wiecznie	-10.1363
be	-10.1366
czu	-10.1369
▁pierwsza	-10.137
▁śmiejąc	-10.1375
▁opowiadał	-10.1376
▁księżna	-10.1381
▁dając	-10.1381
▁kwiat	-10.1385
▁miesięcy	-10.1391
▁czoła	-10.1402
▁silnie	-10.1404
or	-10.1407
▁opuścił	-10.1408
su	-10.1423
▁uważa	-10.1427
sto	-10.1434
▁żadna	-10.1437
▁bramy	-10.1441
▁sprawiedliwości	-10.1448
▁drzewo	-10.1449
▁Takie	-10.145
▁towarzystwa	-10.1452
▁rozpacz	-10.1455
▁obawy	-10.146
▁swemu	-10.147
▁Maciuś	-10.1482
▁rzekłem	-10.1484
▁Karol	-10.1488
▁zamiar	-10.1488
di	-10.1495
ością	-10.1497
nika	-10.1497
▁Jednak	-10.1515
zu	-10.1518
▁zostały	-10.1523
any	-10.1524
▁kar	-10.1529
▁mym	-10.153
▁chory	-10.1531
▁biały	-10.1533
▁prowadzi	-10.1533
zo	-10.1536
▁siedziała	-10.1537
▁głąb	-10.1541
▁otwarte	-10.1552
▁podobno	-10.1552
▁więzienia	-10.1558
▁pozwolił	-10.1565
▁pragnie	-10.1571
▁namiętności	-10.1589
▁dodała	-10.1589
▁mruknął	-10.159
▁zamek	-10.1593
▁Byłem	-10.1597
▁wzdłuż	-10.1601
▁rzeczach	-10.1602
▁uśmiechnął	-10.1602
▁okoliczności	-10.1608
▁oba	-10.161
▁pilnie	-10.1612
mę	-10.1617
▁słusznie	-10.1618
▁powiedziałem	-10.1626
▁kiedykolwiek	-10.1627
▁wodzie	-10.1627
▁Polsce	-10.1639
▁zły	-10.1642
▁wątpliwości	-10.1644
▁Pana	-10.1644
▁Pro	-10.1649
▁myślisz	-10.1651
▁baron	-10.1653
por	-10.1656
▁dwaj	-10.1658
▁prosił	-10.1659
▁pozwala	-10.1669
▁zapomniał	-10.1669
▁ostatniej	-10.1669
▁czci	-10.1674
▁pisał	-10.1675
▁uderzył	-10.1678
▁pójdę	-10.1688
▁jednakże	-10.1691
▁straszne	-10.1691
▁Czasem	-10.1695
ża	-10.1706
br	-10.1714
▁kroki	-10.1718
▁dowód	-10.1718
▁dwoma	-10.1719
▁wiarę	-10.1726
▁myśląc	-10.1728
▁śmiechu	-10.1731
▁Żyd	-10.1732
▁papier	-10.1737
▁ka	-10.1743
▁świątyni	-10.1743
▁pobliżu	-10.1748
▁pewny	-10.1769
▁c	-10.1773
▁drzwiami	-10.1787
▁Będzie	-10.1788
ar	-10.1791
▁święty	-10.1792
nymi	-10.1795
▁podobnie	-10.1798
▁nogach	-10.1799
▁dusz	-10.1799
▁Julian	-10.1802
dę	-10.1804
▁doktor	-10.1809
▁pierś	-10.1812
▁b	-10.1813
▁ogrodu	-10.1815
▁chodził	-10.1821
skiego	-10.1827
▁białych	-10.1828
▁mężczyzn	-10.1836
▁latach	-10.1841
▁koła	-10.1846
▁morzu	-10.1854
▁królem	-10.1866
▁mama	-10.1867
owski	-10.1869
▁Gdybym	-10.1875
▁człowiekowi	-10.1877
▁idąc	-10.1878
▁poważnie	-10.1882
▁ludzkości	-10.1887
▁Panna	-10.1888
▁ojcem	-10.1892
łe	-10.1893
jącej	-10.1894
▁żebym	-10.1899
▁blask	-10.1903
▁wpływ	-10.1905
▁wrażenia	-10.1908
▁kapelusz	-10.1908
▁trzymając	-10.1911
▁dziewczyny	-10.1916
▁paru	-10.1922
▁równocześnie	-10.1926
▁wskutek	-10.194
▁pora	-10.1942
▁ową	-10.1943
▁większe	-10.1945
▁Idź	-10.1948
gu	-10.1965
▁podniosła	-10.1965
▁wolności	-10.1966
▁dłonie	-10.1974
jsze	-10.1974
jąca	-10.1975
▁Saint	-10.1977
▁Który	-10.1987
▁przyjacielu	-10.1992
▁rubli	-10.1995
▁Wokulski	-10.2
!»	-10.2009
▁śmiało	-10.2017
▁zdoła	-10.2021
▁stamtąd	-10.2027
▁Oczywiście	-10.2028
▁cokolwiek	-10.2032
▁królowej	-10.2043
man	-10.2043
ane	-10.2054
▁macie	-10.2057
▁biedny	-10.206
▁Zagłoba	-10.2061
▁Du	-10.2062
cu	-10.2069
▁rodziców	-10.2069
▁formy	-10.2074
▁ludzkiego	-10.2075
▁So	-10.2077
▁powrócił	-10.2083
▁tacy	-10.2089
▁przeszedł	-10.209
▁samemu	-10.2095
wier	-10.2097
▁szuka	-10.2098
▁domów	-10.2101
▁Stefan	-10.2101
▁Me	-10.2101
▁miesiąc	-10.2101
▁zrazu	-10.2101
▁znaczenie	-10.2104
▁rozległ	-10.2114
:]	-10.2115
▁władzę	-10.2117
▁Jej	-10.2118
▁głupi	-10.2125
mar	-10.2135
▁Zawsze	-10.2138
▁przyjął	-10.2138
▁Były	-10.2141
▁czuć	-10.2143
▁powinno	-10.2148
▁t	-10.2153
▁podał	-10.216
▁szli	-10.2162
▁szukał	-10.2169
▁szereg	-10.2173
ili	-10.2177
▁każdemu	-10.2182
▁Da	-10.2183
ber	-10.2185
▁nazwiska	-10.2185
▁niedawno	-10.2193
▁fakt	-10.2195
▁przyjemność	-10.2199
▁służby	-10.2199
▁Widzę	-10.2199
▁wojnę	-10.2205
▁godzina	-10.2207
▁składa	-10.2214
▁brwi	-10.2215
▁nigdzie	-10.2216
K	-10.2217
▁granic	-10.2222
▁Sa	-10.2226
▁wykrzyknął	-10.2228
▁damy	-10.2228
eli	-10.2231
▁owszem	-10.2233
▁piękności	-10.2234
▁wieść	-10.2238
▁skarb	-10.2239
▁związku	-10.2245
▁brał	-10.2245
▁gorzej	-10.2245
▁podobnego	-10.2246
▁dobrej	-10.2246
▁Wszak	-10.2252
▁Następnie	-10.2256
▁kroku	-10.2257
▁twarze	-10.2259
▁ucha	-10.2261
▁zwierząt	-10.2263
▁śmiech	-10.2266
▁pełnym	-10.2267
▁święta	-10.2269
▁człek	-10.2274
▁słyszałem	-10.2278
▁blasku	-10.228
ks	-10.2284
▁majątek	-10.2287
▁Kar	-10.2293
gnie	-10.2299
▁le	-10.2302
▁królowi	-10.2313
▁wcześniej	-10.2315
▁wszystkimi	-10.2331
▁Widzisz	-10.2332
▁śpiew	-10.2338
▁wolność	-10.2338
▁wymaga	-10.2338
▁sztuka	-10.2343
▁Wkrótce	-10.2349
▁pieśń	-10.2349
per	-10.235
▁Go	-10.2351
▁17	-10.2355
skie	-10.2356
▁żywot	-10.2359
ich	-10.236
▁poeta	-10.2361
▁przyjść	-10.2367
▁żalu	-10.2368
▁wraca	-10.2375
▁wchodzi	-10.2382
▁wino	-10.2382
tek	-10.2384
▁myślałem	-10.2384
▁starał	-10.239
rza	-10.2392
▁hrabiego	-10.2397
stęp	-10.2406
▁należało	-10.2408
▁Słuchaj	-10.2408
▁klucz	-10.2409
▁umysłu	-10.2411
▁wszelkiego	-10.2411
▁poety	-10.2413
▁małej	-10.2415
▁północy	-10.2415
▁tj	-10.2418
▁włosów	-10.242
ik	-10.242
▁beł	-10.2421
szym	-10.2424
▁Ho	-10.2424
▁upadł	-10.2425
▁działo	-10.2434
wać	-10.2434
▁służyć	-10.2443
▁mówiłem	-10.2443
▁jedyny	-10.2452
ment	-10.2452
ob	-10.2456
▁małego	-10.2457
▁całkowicie	-10.2461
▁oświadczył	-10.2465
▁działa	-10.2466
▁dala	-10.2468
▁czarnych	-10.2481
▁resztę	-10.2491
▁słucha	-10.2495
▁czuła	-10.2496
▁płacz	-10.2497
▁zaszczyt	-10.25
▁starzec	-10.2503
▁sukni	-10.251
▁spojrzenia	-10.2515
▁wieści	-10.2517
nęło	-10.252
▁trzydzieści	-10.2532
tki	-10.2533
▁pierwszą	-10.2538
▁młodzi	-10.2541
▁uważał	-10.2551
nka	-10.2556
▁płynie	-10.2558
▁doświadczenia	-10.2562
▁tle	-10.257
▁Matka	-10.2572
▁Madzia	-10.2574
▁gorąco	-10.2582
▁mowa	-10.2583
▁Jo	-10.2583
ge	-10.2583
▁starej	-10.2586
▁zabrał	-10.2587
▁złotych	-10.2589
▁zerwał	-10.2593
▁siostra	-10.2598
▁wiadomość	-10.2601
▁niéj	-10.2605
▁Muszę	-10.2606
lą	-10.2607
▁rękoma	-10.261
▁pięciu	-10.2616
▁Józef	-10.2619
bezpieczeństwo	-10.2627
▁chłopcy	-10.2639
▁Twarz	-10.2639
▁dźwięk	-10.2639
▁małym	-10.2641
▁odwagi	-10.2643
▁dar	-10.2656
▁Skąd	-10.2659
▁powtarzał	-10.2663
▁czem	-10.2664
▁śnieg	-10.2665
▁okien	-10.2666
▁wyciągnął	-10.267
▁Oj	-10.2672
▁Andrzej	-10.2682
▁precz	-10.2689
▁jedni	-10.2697
▁psy	-10.27
▁wpływem	-10.27
▁czele	-10.2703
jmy	-10.2713
▁Wielki	-10.2714
łeś	-10.2714
▁nowej	-10.2715
▁C	-10.2717
owana	-10.2723
▁zbliża	-10.2729
▁dusze	-10.2729
▁śnie	-10.2732
▁cicha	-10.2733
▁spojrzeniem	-10.2739
lec	-10.2746
▁ciele	-10.2746
▁wyrazem	-10.2747
▁niewoli	-10.2748
▁rada	-10.2748
▁zależy	-10.2749
▁młode	-10.2757
▁Moja	-10.2764
▁pociąg	-10.2767
▁czarny	-10.277
▁czerwone	-10.2785
▁pójść	-10.2786
▁podobnych	-10.2791
▁Pewnego	-10.2795
▁ciemne	-10.2797
▁Jezus	-10.28
nem	-10.28
▁ulicę	-10.2804
▁indziej	-10.2804
▁książkę	-10.281
iąc	-10.2812
▁inna	-10.2816
▁przekonać	-10.2824
▁wartość	-10.2826
▁pytania	-10.2826
▁wypadek	-10.2829
▁rzuciła	-10.2839
▁Niechaj	-10.2851
▁serdecznie	-10.2853
▁jam	-10.2853
▁trudności	-10.2853
mierz	-10.2864
▁radę	-10.2868
▁autor	-10.2875
▁ofiary	-10.2885
al	-10.2886
▁wróci	-10.2888
▁Bar	-10.2891
▁żołnierz	-10.29
▁tył	-10.2901
▁żadnym	-10.2904
▁musieli	-10.2905
szych	-10.2906
▁kiej	-10.2914
▁potrzebne	-10.2915
▁pewnych	-10.2917
tur	-10.292
ało	-10.2922
▁drudzy	-10.2927
wal	-10.2929
▁nade	-10.2938
wę	-10.2944
▁Lud	-10.2946
dziel	-10.296
▁podobna	-10.2961
▁lewo	-10.2963
▁wieków	-10.2972
▁ogniem	-10.2982
▁su	-10.2985
▁mury	-10.2988
rzę	-10.2989
▁białą	-10.2989
▁świetle	-10.2995
▁ino	-10.2996
▁kot	-10.2997
▁godzi	-10.3
▁szyi	-10.3
▁długą	-10.3001
iej	-10.3001
▁nocą	-10.3003
▁widzieli	-10.3013
ński	-10.3013
den	-10.3015
▁zbrodni	-10.3016
ri	-10.3018
▁Mary	-10.3021
▁pięknej	-10.3026
▁laty	-10.3029
▁człowieku	-10.303
▁najpierw	-10.3034
▁nader	-10.3038
▁zła	-10.3048
▁duszą	-10.3049
*;	-10.3052
▁para	-10.3053
▁zostawił	-10.3055
▁Michał	-10.3056
▁skały	-10.3057
rad	-10.3058
▁rzeczywistości	-10.3061
▁pił	-10.3064
▁udział	-10.3074
▁kolej	-10.3081
▁wszelako	-10.3083
▁bracie	-10.3084
▁bić	-10.3087
▁bój	-10.309
▁pięćdziesiąt	-10.3096
▁Żydzi	-10.3101
▁języka	-10.3109
▁spotkał	-10.3112
▁wierzy	-10.3115
▁zazwyczaj	-10.3119
▁lubił	-10.3125
▁otrzymał	-10.3125
▁budzi	-10.314
▁spokojny	-10.314
▁Owszem	-10.3146
▁zwyczaj	-10.3146
▁Żydów	-10.3155
rów	-10.3158
▁przedstawia	-10.3165
skiej	-10.3171
▁odpowiedzieć	-10.3175
▁przyznać	-10.3176
▁klasy	-10.3176
▁możliwe	-10.3178
cka	-10.3179
▁mar	-10.3179
▁kop	-10.3182
▁l	-10.3189
Na	-10.3192
▁pozór	-10.3199
▁powstał	-10.32
▁gotowa	-10.32
▁napisał	-10.3201
▁niektóre	-10.3203
liście	-10.3203
▁Jam	-10.3209
zor	-10.3209
▁Chyba	-10.3216
▁prawdziwe	-10.3216
▁Ru	-10.322
▁ojczyzny	-10.3223
▁smutek	-10.3229
▁bronić	-10.3233
▁Oni	-10.3234
▁Mi	-10.3234
▁przyjemności	-10.3245
śli	-10.3245
▁choroby	-10.3255
▁milczał	-10.3263
▁wieś	-10.3264
▁nowym	-10.3269
▁cud	-10.3271
▁matce	-10.3272
▁nieszczęścia	-10.3279
▁myślała	-10.328
▁pokazać	-10.328
▁zimno	-10.328
▁Sancho	-10.3283
▁śród	-10.3286
▁August	-10.3295
▁palce	-10.33
▁dwoje	-10.3305
▁wręcz	-10.3314
▁bi	-10.3315
▁cierpienia	-10.3316
▁N	-10.3319
▁ks	-10.3323
▁zasady	-10.3325
▁chęć	-10.3325
▁biorąc	-10.3329
▁małych	-10.333
▁śpi	-10.3332
▁weszła	-10.3338
▁ciemno	-10.3344
▁lo	-10.3345
▁pamiętam	-10.3351
dra	-10.3351
▁dzieckiem	-10.3351
kowa	-10.3363
Co	-10.3366
▁ślady	-10.3366
▁głodu	-10.3377
▁podnosząc	-10.3378
▁żołnierze	-10.3381
niejsze	-10.3389
▁aniżeli	-10.339
▁przeszło	-10.3393
nąwszy	-10.3394
▁Tw	-10.341
▁ukazał	-10.3411
pro	-10.3414
▁he	-10.3417
jo	-10.3417
To	-10.3418
▁pojęcie	-10.3421
owaniu	-10.3423
▁nasi	-10.3425
żą	-10.3427
tor	-10.3429
vi	-10.3429
▁winy	-10.3429
▁byłbym	-10.3441
▁doprawdy	-10.3441
▁bracia	-10.3442
▁wojna	-10.3449
▁dowiedzieć	-10.3451
▁Jana	-10.3455
▁ogromne	-10.3459
▁ramieniu	-10.3462
▁dziedzic	-10.3465
▁tygodni	-10.3469
▁ostrożnie	-10.3477
▁obrazy	-10.3488
▁pełną	-10.3495
▁téj	-10.3499
przy	-10.3501
▁dobrych	-10.351
▁stanowczo	-10.3512
▁światem	-10.3519
▁mur	-10.3526
▁umiem	-10.353
▁zjawił	-10.3531
▁fa	-10.3532
▁Kmicic	-10.3532
ył	-10.3533
▁Rad	-10.3534
▁straszny	-10.3535
▁pracę	-10.3541
▁gdym	-10.3541
niec	-10.3542
▁tamten	-10.3548
▁stanęła	-10.3549
▁ro	-10.3554
▁boleści	-10.3557
▁porze	-10.356
▁pragnął	-10.356
▁Dzień	-10.3568
▁psa	-10.3569
▁Widziałem	-10.3585
▁skrzydła	-10.3586
dze	-10.3589
▁Monte	-10.359
▁dobro	-10.3598
▁czynił	-10.36
▁matką	-10.36
▁wyglądał	-10.3602
▁ucho	-10.3603
▁sądu	-10.3603
sia	-10.3607
▁Gra	-10.3613
▁pięknych	-10.3631
▁gospodarz	-10.3634
▁ozwał	-10.3638
▁ostatecznie	-10.3639
▁wargi	-10.3642
▁odwrócił	-10.3642
▁odtąd	-10.3643
▁znalazła	-10.3646
acja	-10.3646
ec	-10.3646
▁zdrowia	-10.3646
▁pokazał	-10.3646
▁dowcip	-10.3646
▁waszych	-10.3648
▁ślad	-10.3648
▁1	-10.3651
▁zapach	-10.3655
▁roślin	-10.3657
▁dają	-10.366
▁słońcu	-10.3661
▁przyjaciele	-10.3662
▁Pierwszy	-10.3663
▁statku	-10.3666
▁gdybyś	-10.3669
▁wysokości	-10.3677
▁drobne	-10.3686
▁długich	-10.3691
▁ostatnim	-10.3692
▁Jesteś	-10.3695
▁smutny	-10.3699
▁poprzez	-10.3705
▁kawałek	-10.3711
stro	-10.3712
▁żąda	-10.3718
▁środka	-10.3722
▁czytał	-10.3723
▁wspomnienie	-10.3726
▁doktora	-10.3728
▁ślub	-10.3728
▁puścił	-10.3728
▁własności	-10.373
▁szło	-10.3731
▁chcecie	-10.3733
▁stopniu	-10.3733
▁dwudziestu	-10.3737
▁profesor	-10.3737
▁wyrok	-10.3739
▁statek	-10.374
▁pełna	-10.3742
▁musisz	-10.3744
▁smutku	-10.3746
▁polega	-10.3751
men	-10.3753
▁zwierzęta	-10.3753
▁kościele	-10.3753
▁dziesięciu	-10.3755
▁przyjaźń	-10.376
▁Cały	-10.3763
▁łagodnie	-10.3764
▁Jakoż	-10.3764
▁czole	-10.3767
▁San	-10.3769
▁bar	-10.378
szcze	-10.3783
▁przyjechał	-10.3785
▁Hej	-10.379
▁dlań	-10.3795
▁lubię	-10.38
uch	-10.38
▁Rozdział	-10.3802
▁książek	-10.3802
▁świętego	-10.3805
trze	-10.3807
▁starannie	-10.3807
▁spojrzała	-10.3808
▁ryb	-10.3815
▁prawdą	-10.3821
▁słowami	-10.3827
▁etc	-10.3832
▁przeszłości	-10.3833
▁ściśle	-10.3839
▁niektórych	-10.3841
J	-10.3843
▁potrzebuje	-10.3845
dz	-10.3851
▁chwil	-10.3851
▁wiedziałem	-10.3855
▁roli	-10.386
▁zdołał	-10.3861
▁rozmowa	-10.3863
▁ciężar	-10.3867
▁obchodzi	-10.3869
▁posiadał	-10.3872
▁ostro	-10.3875
▁jechał	-10.3881
▁ogrodzie	-10.3882
się	-10.3883
▁słyszę	-10.3884
▁czyn	-10.3888
▁cichu	-10.3896
▁siedząc	-10.3899
▁mieszkanie	-10.3904
▁mości	-10.3908
>	-10.3909
▁trwa	-10.3911
▁ofiar	-10.3915
awszy	-10.3915
spo	-10.3917
▁zmiany	-10.3919
▁J	-10.3919
▁Piotr	-10.3922
▁grzech	-10.3923
▁stoją	-10.3925
▁odpowiadał	-10.3932
▁patrz	-10.3933
▁chęci	-10.3934
▁środek	-10.3943
▁Podczas	-10.3945
śnie	-10.3949
waż	-10.3949
▁własny	-10.3951
czyć	-10.3953
▁czarną	-10.3956
▁silny	-10.396
▁Nim	-10.3964
▁zwracając	-10.3967
czną	-10.397
▁gospodyni	-10.397
▁nosił	-10.3971
▁starym	-10.3972
▁spotkać	-10.3975
▁mistrz	-10.3978
▁Bogiem	-10.3984
▁chwycił	-10.3988
▁śniegu	-10.399
▁Znowu	-10.3991
▁idź	-10.3992
▁kawał	-10.3997
▁zdrów	-10.3998
sch	-10.4006
▁liczne	-10.4007
▁rodu	-10.4008
▁młodej	-10.4008
▁uciekł	-10.4012
▁prosi	-10.4019
tów	-10.402
▁Trudno	-10.4022
▁rozmaite	-10.404
aną	-10.4041
▁gruncie	-10.4047
▁wszelką	-10.4054
▁Stąd	-10.4054
▁Zatem	-10.4056
▁wypada	-10.4059
▁Dalej	-10.4063
▁większej	-10.4064
▁przyczyn	-10.4065
▁wiemy	-10.4065
ti	-10.4067
▁rzucić	-10.4073
▁obiedzie	-10.4077
ckiego	-10.4078
▁trzymać	-10.4082
▁sieni	-10.4084
▁ton	-10.4109
▁mógłbym	-10.411
▁bije	-10.4111
▁Jakby	-10.4113
szego	-10.4115
▁jedyną	-10.4116
▁jął	-10.4118
▁nauczyciel	-10.412
▁zasię	-10.4121
staw	-10.4125
▁ciałem	-10.4127
myśl	-10.413
▁złoty	-10.4131
kra	-10.4134
▁Fa	-10.4149
▁odezwała	-10.415
▁Chcę	-10.4153
▁łatwiej	-10.4155
▁czekając	-10.4159
▁dole	-10.4171
▁grunt	-10.4172
▁tyczy	-10.4172
▁dawne	-10.4173
▁piorun	-10.4173
▁przyczyną	-10.4174
▁znaleźli	-10.4178
▁T	-10.4181
▁długim	-10.4181
▁powrót	-10.4183
▁oblicze	-10.4185
▁powieści	-10.4185
▁zabić	-10.4186
▁świeżo	-10.419
▁listu	-10.4193
▁zabił	-10.4199
▁zdobyć	-10.42
▁Kor	-10.4208
▁dym	-10.4208
que	-10.4211
▁płaszcz	-10.4212
pan	-10.4219
▁Noc	-10.422
▁form	-10.4225
▁wir	-10.4229
▁dziwnego	-10.4229
dro	-10.4234
▁mieszkańców	-10.4243
▁łaskę	-10.4246
▁kamieni	-10.4247
▁istot	-10.4258
▁święte	-10.4259
sła	-10.4263
▁kącie	-10.4264
▁znajdował	-10.4265
▁pokład	-10.4273
▁rany	-10.4274
▁uważnie	-10.4275
▁żebyś	-10.4277
ve	-10.4278
gar	-10.4281
▁ran	-10.4286
▁ziemią	-10.4288
▁porwał	-10.4294
▁wielkości	-10.4298
▁stanowisko	-10.4299
▁sposobności	-10.43
▁powietrza	-10.4307
▁Kichot	-10.4309
▁zdaniem	-10.4309
▁Ch	-10.4312
tk	-10.4314
▁oddech	-10.4314
▁sprawiedliwość	-10.4318
▁kamienie	-10.4318
▁sp	-10.4321
▁wokół	-10.4328
▁Dziękuję	-10.4329
▁wbrew	-10.4338
▁wóz	-10.4339
▁umyślnie	-10.4339
▁bawi	-10.4339
▁moment	-10.4345
▁nadzieja	-10.4345
▁chmury	-10.4347
▁trudem	-10.4351
gę	-10.4357
▁darmo	-10.4362
▁zdawała	-10.4364
▁wasz	-10.4365
▁niema	-10.4367
▁robią	-10.4369
▁pracować	-10.4373
▁oknie	-10.4378
▁znasz	-10.438
▁kazała	-10.4381
▁rodzi	-10.4386
oł	-10.4395
cji	-10.4395
▁Być	-10.4398
▁miast	-10.4399
▁Lub	-10.4399
▁łodzi	-10.4399
▁Ciebie	-10.44
▁Myśl	-10.4401
▁towarzystwo	-10.4401
▁ledwo	-10.4406
▁sławy	-10.4406
łowi	-10.4407
dział	-10.4408
▁czując	-10.4408
▁zachować	-10.4409
▁Cezar	-10.4412
▁nogę	-10.4415
tyka	-10.4417
▁wszelkiej	-10.4424
▁chmur	-10.4425
▁nowa	-10.443
▁ś	-10.4435
▁szum	-10.4435
▁placu	-10.4438
▁zwierzę	-10.4439
▁Rzecz	-10.444
▁wszech	-10.4441
▁nienawiść	-10.4442
▁zło	-10.4442
▁słowy	-10.4444
▁duże	-10.4445
▁ostatniego	-10.4446
▁musimy	-10.4447
▁jesteście	-10.4449
▁szczególnie	-10.4452
dr	-10.4455
▁ki	-10.4457
▁charakteru	-10.4457
▁poznania	-10.4457
▁potrzebował	-10.4459
▁szukając	-10.4465
gra	-10.4466
ak	-10.4468
▁wydać	-10.447
▁stosunek	-10.4471
nię	-10.4473
▁losu	-10.4476
▁lasy	-10.4476
▁II	-10.4481
▁punkt	-10.4484
▁litości	-10.4484
▁pochodzi	-10.4485
▁lekarz	-10.4489
▁gałęzi	-10.4494
▁di	-10.4496
▁nędzy	-10.4496
▁wiedzieli	-10.45
▁treści	-10.4507
▁historia	-10.451
▁pannę	-10.4511
▁zewnątrz	-10.4514
ent	-10.4514
▁rychło	-10.4515
▁wewnątrz	-10.4516
▁pustyni	-10.4516
▁czyta	-10.4516
usz	-10.452
▁istnienia	-10.4522
▁pragnę	-10.4524
▁sprawia	-10.4528
fer	-10.4531
▁bohater	-10.4532
rą	-10.4536
▁idei	-10.4537
▁oku	-10.4541
▁nieustannie	-10.4544
▁litość	-10.4545
ó	-10.4546
▁przestrzeń	-10.4551
ale	-10.4553
se	-10.4553
▁wysoki	-10.4555
▁mierze	-10.456
stą	-10.4561
▁utrzymać	-10.4564
▁pozwoli	-10.4569
▁ptak	-10.457
▁schodach	-10.4575
▁powiadam	-10.4583
▁wysokie	-10.4585
ster	-10.4585
▁uważać	-10.4587
lon	-10.4588
▁niemi	-10.4591
▁rozmaitych	-10.4591
▁Szwejk	-10.4596
▁synem	-10.4597
scy	-10.4599
czyn	-10.4601
▁codziennie	-10.4602
▁dowiedział	-10.4602
lar	-10.4603
▁zdolności	-10.4609
▁musiało	-10.4612
▁gniewem	-10.4612
▁boju	-10.4614
▁plac	-10.4614
cha	-10.4618
▁wzajem	-10.4618
▁Tyle	-10.462
▁Al	-10.4623
▁liści	-10.4625
▁Witold	-10.4626
ścią	-10.4627
▁ilość	-10.4632
▁ga	-10.464
▁historię	-10.4647
▁błąd	-10.4648
▁Chrystus	-10.4649
▁przyniósł	-10.4649
ton	-10.4653
▁Chciał	-10.4654
▁stale	-10.4655
▁Gdzież	-10.4655
▁złożył	-10.4655
▁wojnie	-10.4658
▁żyją	-10.4661
▁sprawach	-10.4661
▁Rzymu	-10.4665
▁niepokój	-10.4665
▁wstręt	-10.4676
▁Serce	-10.4679
▁miesiące	-10.4682
▁głównie	-10.4683
▁zdarzyło	-10.4688
iła	-10.4689
▁reszty	-10.469
▁otwiera	-10.4693
▁zmienia	-10.4697
▁16	-10.4698
▁starszy	-10.4706
▁wierzę	-10.4714
▁prawem	-10.4719
▁dziad	-10.4721
▁H	-10.4727
▁imieniu	-10.4729
▁śladu	-10.473
▁wydawał	-10.4734
▁sąsiad	-10.4737
▁Mówił	-10.474
▁Hu	-10.4741
ff	-10.4746
▁południe	-10.4746
▁kobietą	-10.4748
▁L	-10.4748
▁chciałbym	-10.475
▁kilkanaście	-10.475
▁muzyki	-10.475
▁Je	-10.4751
▁prawdziwy	-10.4752
▁wynika	-10.4755
▁wiecie	-10.4755
▁szlachcic	-10.4756
róż	-10.4759
jak	-10.4765
▁jedzie	-10.4766
▁tyłu	-10.4767
▁żywe	-10.4769
▁wyobraźni	-10.4774
kład	-10.4775
ho	-10.4781
▁fale	-10.4784
▁jedyna	-10.4787
oby	-10.4792
tel	-10.4792
▁zostaje	-10.4795
▁sumienia	-10.4796
▁współ	-10.4797
▁spoglądał	-10.4798
▁śmiać	-10.4804
▁oddali	-10.4808
▁Niechże	-10.4809
skich	-10.4809
▁znalazłem	-10.4816
▁pozostaje	-10.4817
▁rozkazy	-10.4817
▁rzec	-10.4817
▁płci	-10.4822
▁Moje	-10.4823
▁osoba	-10.4823
▁niejako	-10.4823
▁pałac	-10.4824
–	-10.4829
▁lepsze	-10.4832
▁toteż	-10.4832
▁księżyca	-10.4835
▁sposobu	-10.4838
▁wszelki	-10.4841
roz	-10.4848
▁wtrącił	-10.4853
▁leżała	-10.4856
▁białym	-10.4859
▁synów	-10.4861
▁róż	-10.4869
▁rozumiał	-10.4873
▁bogaty	-10.4877
▁braku	-10.4877
bezpieczeństwa	-10.4878
▁podnosi	-10.488
▁widzimy	-10.4886
▁dziećmi	-10.4892
▁salonu	-10.4905
▁piasku	-10.4907
▁tém	-10.4912
▁czynią	-10.4914
▁naturze	-10.4915
bieg	-10.4917
▁koniu	-10.4919
▁przekonania	-10.4925
▁cesarz	-10.4933
▁starą	-10.4935
▁prawej	-10.4936
▁mężem	-10.4936
▁pal	-10.494
▁Toż	-10.4944
bel	-10.4953
▁wystarczy	-10.4954
▁miną	-10.4956
ng	-10.4956
/	-10.4957
niejszy	-10.4957
▁zrobiła	-10.4958
▁powiadał	-10.4962
▁ochotę	-10.4968
▁przypomniał	-10.4968
▁majątku	-10.4968
ora	-10.4971
▁burzy	-10.4974
▁Ile	-10.4976
▁Cała	-10.4982
▁obowiązek	-10.4983
▁domem	-10.4983
▁uczuł	-10.4986
▁stawia	-10.4987
pu	-10.4992
▁opowiada	-10.4998
▁15	-10.5
▁piękność	-10.5006
▁kor	-10.5006
▁wcześnie	-10.5007
▁prowadził	-10.5012
iu	-10.5017
▁Głos	-10.5022
▁wolny	-10.5027
▁milczenia	-10.5029
▁stos	-10.5031
▁weźmie	-10.5034
▁odszedł	-10.5038
▁zamknął	-10.504
▁chwile	-10.5044
▁zamknięte	-10.5049
▁ciotka	-10.5052
▁Hrabia	-10.5054
tak	-10.5055
▁swobodnie	-10.506
▁obyczaj	-10.506
▁Chociaż	-10.5062
▁pomysł	-10.5063
koj	-10.5063
▁grać	-10.5064
▁Maria	-10.5065
▁Połaniecki	-10.5066
!”.	-10.5067
▁krzesła	-10.5068
▁nogą	-10.5068
▁żywi	-10.5072
▁zabawy	-10.5076
▁tegoż	-10.5076
▁poczęli	-10.5085
▁Kazimierz	-10.5086
▁skończył	-10.5089
nek	-10.5093
▁pie	-10.5094
▁głębokie	-10.5094
▁żar	-10.5095
▁blady	-10.5097
▁2	-10.5099
▁wróciła	-10.51
▁zmienił	-10.5101
▁ogród	-10.5103
▁przypadkiem	-10.5103
▁szły	-10.5106
▁czyste	-10.5113
▁sa	-10.5116
▁wskazując	-10.5117
ran	-10.5119
▁zawiera	-10.5122
▁towarzysz	-10.5124
▁Jedna	-10.5124
emi	-10.5125
rzą	-10.5126
▁Czas	-10.513
▁Miłość	-10.513
▁siedem	-10.5138
ant	-10.5141
▁warto	-10.5141
jszy	-10.5144
▁wejść	-10.5145
▁biała	-10.5153
▁Ca	-10.5153
ns	-10.5153
▁skóry	-10.5154
ck	-10.5155
ez	-10.5161
▁czułem	-10.5162
▁równi	-10.5164
▁pada	-10.5165
▁większy	-10.5173
▁autora	-10.5181
ację	-10.5181
▁poszli	-10.5182
▁anioł	-10.5189
▁nienawiści	-10.5191
▁mózg	-10.5192
▁Wołodyjowski	-10.5197
▁pogrzeb	-10.5197
▁jakichś	-10.52
▁fal	-10.5213
▁Jedno	-10.5214
▁znaczenia	-10.5215
▁tajemnicy	-10.5215
szczę	-10.5216
▁znaki	-10.5217
▁ptaki	-10.523
▁wydała	-10.5234
▁odgłos	-10.5234
▁szczęśliwie	-10.5236
▁społeczeństwa	-10.5241
▁kościół	-10.5245
▁chwyta	-10.5245
▁kochanka	-10.5248
Za	-10.5252
▁kur	-10.5253
▁przyjacielem	-10.5254
▁nieza	-10.5257
▁lepszego	-10.5258
▁gardło	-10.5261
▁proces	-10.5262
▁obcy	-10.5265
▁przejść	-10.5268
eczki	-10.527
▁ramion	-10.5276
▁przynosi	-10.5279
▁skutek	-10.5279
▁Ar	-10.5286
▁lewej	-10.5288
▁pra	-10.5289
▁spał	-10.5289
▁przypomina	-10.5291
▁Be	-10.5293
skim	-10.5295
▁dziwny	-10.5297
▁wieży	-10.5299
▁starca	-10.531
▁pożar	-10.5315
cznie	-10.5318
▁słyszy	-10.5318
▁dniem	-10.5323
▁burza	-10.5323
▁Między	-10.5323
▁szaty	-10.5324
owały	-10.5334
as	-10.5338
▁używa	-10.5341
▁wart	-10.5344
▁spotkanie	-10.5344
▁rację	-10.5348
▁zdało	-10.5353
▁Cię	-10.5357
▁Świat	-10.5357
▁punktu	-10.5359
▁celem	-10.5359
▁nieprzyjaciół	-10.5359
▁Poza	-10.5364
▁złości	-10.5365
▁Gi	-10.5369
▁Życie	-10.5371
uj	-10.5372
▁kobiecie	-10.5374
▁zrobiło	-10.5376
ręcz	-10.5379
▁Rzymie	-10.5387
so	-10.5387
▁Or	-10.5389
▁Tra	-10.5401
▁cenę	-10.5405
▁pragnienie	-10.5408
▁sposobność	-10.541
▁Słońce	-10.5411
▁mocą	-10.5413
uś	-10.5414
▁kończy	-10.5414
▁zapomnieć	-10.5414
▁Ga	-10.5419
▁Niemcy	-10.5419
▁środków	-10.5426
byśmy	-10.5429
▁największą	-10.5434
▁płakać	-10.5434
▁wroga	-10.5434
▁okrzyk	-10.5436
▁waćpan	-10.5439
ném	-10.5442
▁chodziło	-10.5443
ńskiej	-10.545
▁krzyknęła	-10.5451
czył	-10.5451
▁rozmowie	-10.5452
ńska	-10.5455
▁sześciu	-10.5458
▁żywy	-10.546
▁obcych	-10.5466
▁wydało	-10.5485
▁walka	-10.5488
▁uciekać	-10.549
▁niewątpliwie	-10.549
▁mieszkał	-10.5493
▁fi	-10.5498
▁nóż	-10.55
▁duży	-10.5501
▁szerokie	-10.5501
▁jedynym	-10.5503
▁oknem	-10.5506
▁Filip	-10.5506
▁pot	-10.5506
▁wkoło	-10.5507
▁opuścić	-10.5513
▁Włoch	-10.5524
▁kapitana	-10.5524
ier	-10.5529
▁mężczyzny	-10.553
▁porę	-10.5532
▁wprzód	-10.5532
▁pary	-10.5532
owanych	-10.5534
▁niestety	-10.5538
▁służbę	-10.5556
▁wyrazy	-10.5557
▁przeważnie	-10.5557
▁com	-10.5559
▁kapłan	-10.5561
▁pozna	-10.5562
▁generał	-10.5565
▁silne	-10.5565
▁Często	-10.5568
▁młodzieniec	-10.557
▁młodą	-10.557
▁grobu	-10.557
▁Będę	-10.5571
▁przedmiotu	-10.5573
ota	-10.5573
▁mówiono	-10.5575
io	-10.5577
▁najlepsze	-10.5578
▁naturalnie	-10.5578
▁skład	-10.5579
▁dawać	-10.558
▁pory	-10.5582
▁Sta	-10.5585
▁pojąć	-10.5588
▁stopy	-10.5589
▁istnieją	-10.5589
ron	-10.5597
bro	-10.5599
▁Dość	-10.5604
▁jaśnie	-10.5605
kro	-10.5606
▁szczęściem	-10.5626
▁pozostać	-10.5635
▁Cicho	-10.5636
▁rozumieć	-10.5644
▁pali	-10.5652
▁Ła	-10.5653
▁hałas	-10.5654
pe	-10.5655
▁krzywdy	-10.5655
bli	-10.5658
▁początek	-10.5659
▁trwogi	-10.5659
▁wzruszenia	-10.5659
»	-10.5667
▁głód	-10.5668
▁wyobrazić	-10.567
▁prawdziwie	-10.5673
▁odrzekła	-10.5674
▁przechodzi	-10.5679
▁rękopisach	-10.568
▁twych	-10.5684
▁miano	-10.5688
▁nauczył	-10.5689
▁wszak	-10.569
▁niebios	-10.569
▁smutne	-10.5692
▁złotem	-10.5693
▁jedne	-10.57
▁Zapewne	-10.5701
▁czynienia	-10.5702
▁Jednakże	-10.5704
▁prosty	-10.5705
▁Dzieci	-10.5705
▁Murek	-10.5711
▁Lucjan	-10.5713
▁małżeństwa	-10.5716
▁przestał	-10.5716
▁bitwy	-10.5717
ud	-10.5719
▁synu	-10.572
▁cierpi	-10.5724
▁religii	-10.5725
▁wnętrza	-10.5735
▁szkoda	-10.5735
▁zamian	-10.5738
▁rządu	-10.5741
▁żywota	-10.5741
▁prawdopodobnie	-10.5742
▁des	-10.5743
ul	-10.5744
▁jakkolwiek	-10.5746
▁wiatru	-10.5747
▁plecy	-10.5751
▁Dwa	-10.576
▁konieczności	-10.576
▁III	-10.5762
▁stanowiska	-10.5762
▁kary	-10.5762
▁wyspy	-10.5765
▁królu	-10.5767
▁bu	-10.5774
▁ucieka	-10.5775
▁listów	-10.5785
▁śniadanie	-10.5787
▁wprzódy	-10.5791
▁Długo	-10.5793
▁powierzchni	-10.5796
kolwiek	-10.5806
▁cieniu	-10.581
▁czasami	-10.5812
▁muzyka	-10.5814
tom	-10.5817
▁Które	-10.5821
▁stawał	-10.5823
▁księżnej	-10.5824
▁opowiadać	-10.5824
▁umiera	-10.5831
G	-10.5836
▁treść	-10.584
▁cichy	-10.5842
▁włos	-10.5842
▁zabrać	-10.5851
lot	-10.5854
▁zemsty	-10.5858
▁musiałem	-10.5858
▁dziewczynę	-10.5859
ałem	-10.5863
▁Jutro	-10.5873
▁rycerzy	-10.5874
▁ląd	-10.5878
▁niedługo	-10.5882
▁powagą	-10.5882
niej	-10.5883
▁Ne	-10.5884
▁chowa	-10.5884
▁Ge	-10.5885
▁Anna	-10.5891
▁obecności	-10.5892
▁Miałem	-10.5897
▁gry	-10.5901
▁Mów	-10.5904
▁przedmiotem	-10.5905
▁sypialni	-10.5907
▁wydawało	-10.5907
dła	-10.5912
▁niektórzy	-10.5913
▁biskup	-10.5916
▁krzyczał	-10.5918
▁sceny	-10.5921
▁nazywał	-10.5921
▁leci	-10.5922
▁sądzić	-10.5928
▁Bu	-10.5932
▁duma	-10.594
▁diabła	-10.594
tru	-10.5941
▁spacer	-10.5947
▁zajęty	-10.5952
▁nosi	-10.5956
▁dama	-10.5959
gą	-10.5962
▁toż	-10.5968
▁straż	-10.5968
▁wspomnienia	-10.597
▁zazdrości	-10.5979
▁Anglii	-10.5982
▁byłam	-10.5982
▁ne	-10.5983
▁nazwać	-10.5986
▁lu	-10.599
▁Musi	-10.5993
▁umiała	-10.5994
▁zza	-10.5994
▁ogromny	-10.5996
kowie	-10.5997
▁blada	-10.6
▁Jakie	-10.6003
▁myślenia	-10.6003
▁wód	-10.6005
▁dy	-10.6005
▁Chodź	-10.6006
▁uczyć	-10.6011
sen	-10.6014
▁targ	-10.6017
▁Kon	-10.6018
▁idę	-10.6021
▁Ry	-10.6027
▁południu	-10.6033
▁poczęły	-10.6033
▁mowę	-10.6034
arz	-10.6037
▁biegł	-10.604
▁sprzeda	-10.604
▁Nareszcie	-10.6041
pod	-10.6048
▁cios	-10.6053
▁powrotu	-10.6055
”...	-10.6055
▁niezbyt	-10.606
▁wolą	-10.6061
▁starości	-10.6061
▁korzyści	-10.6069
▁Hi	-10.6073
▁walczyć	-10.6074
▁tłumu	-10.6075
▁wyjechał	-10.6078
▁wracał	-10.6079
▁złość	-10.6081
▁wokoło	-10.6083
▁chłopców	-10.6093
▁rycerza	-10.6093
▁mężczyźni	-10.6094
▁szczyt	-10.6098
▁stojąc	-10.6103
ńskich	-10.6104
▁pić	-10.6107
▁Sama	-10.6108
▁boi	-10.6108
▁pojechał	-10.611
bił	-10.6111
▁wami	-10.6115
▁ukryć	-10.6117
▁tamtej	-10.612
▁ogół	-10.612
▁patrzyła	-10.6121
chy	-10.6131
hi	-10.6133
▁Her	-10.6135
▁Si	-10.6135
▁tygodnie	-10.6135
▁Henryk	-10.6138
▁cienie	-10.6139
▁palcami	-10.614
▁zgodnie	-10.6141
▁Kim	-10.6144
▁podnieść	-10.6144
▁dzikie	-10.6145
▁zginął	-10.6148
▁pe	-10.615
gli	-10.6154
▁boję	-10.6154
▁stworzył	-10.6155
▁długiej	-10.6157
▁miejscach	-10.616
▁kędy	-10.6166
▁gatunku	-10.6169
ler	-10.6171
▁Trzy	-10.6177
aby	-10.618
▁doszedł	-10.618
▁serc	-10.6181
▁westchnął	-10.6186
▁źródła	-10.6186
▁znaczeniu	-10.6186
▁siedzieć	-10.6189
▁Sch	-10.6192
▁byt	-10.6193
▁obozu	-10.6199
▁spotyka	-10.6202
▁połowie	-10.6204
▁kres	-10.6206
▁godności	-10.6206
żył	-10.6207
▁straży	-10.6209
nęli	-10.6211
esz	-10.6214
▁rozumiesz	-10.6217
▁okazał	-10.622
▁nauka	-10.6223
▁Niemiec	-10.6228
▁stolicy	-10.6228
▁ludzki	-10.6228
▁łóżko	-10.6229
▁większa	-10.6237
▁modlitwy	-10.6238
▁duchy	-10.6238
stra	-10.6242
▁olbrzymie	-10.6243
▁rzucając	-10.6243
▁mogłaby	-10.6243
▁zanadto	-10.6246
▁dłonią	-10.6258
▁Drugi	-10.6265
▁grozi	-10.6268
▁oficer	-10.627
▁dr	-10.627
▁śmiała	-10.627
▁fotelu	-10.6271
▁promieni	-10.6272
▁ciężki	-10.6274
▁lekka	-10.6275
▁uczuciem	-10.6276
▁światłem	-10.6276
▁towarzyszy	-10.6281
T	-10.6284
▁uczyni	-10.6287
▁królów	-10.6289
▁Wprawdzie	-10.6289
bić	-10.6295
▁poczucie	-10.6296
stawił	-10.6297
▁istnienie	-10.6298
▁miejsc	-10.6299
naj	-10.6299
▁uszu	-10.6299
▁środki	-10.6299
wano	-10.63
fe	-10.6302
▁powiesz	-10.6303
▁działania	-10.6309
▁3	-10.6309
▁proboszcz	-10.6312
▁całości	-10.6313
▁czarnej	-10.6313
▁kupić	-10.6314
▁traci	-10.6314
▁korzyść	-10.6315
▁zatrzymać	-10.6319
▁wstydu	-10.6319
▁służy	-10.6325
▁iżby	-10.6326
▁Aha	-10.6328
▁linii	-10.6333
▁dalece	-10.6341
▁ścianę	-10.6344
▁dziewczęta	-10.6344
▁Ich	-10.6347
▁gotowe	-10.6348
▁najczęściej	-10.635
nią	-10.6354
kon	-10.6356
▁Miała	-10.6359
▁ciekawość	-10.6359
▁znieść	-10.636
▁uczyniła	-10.6373
▁niedaleko	-10.6376
▁Znam	-10.638
▁Młody	-10.6384
ten	-10.6387
▁ludzka	-10.6396
▁skoczył	-10.6396
stan	-10.6401
▁system	-10.6404
▁Fi	-10.6406
ian	-10.6414
▁Tę	-10.6419
▁brakło	-10.6422
▁prosta	-10.6423
▁skutkiem	-10.6424
▁istota	-10.6425
jsza	-10.6427
▁ciągnie	-10.643
▁Chrystusa	-10.6431
▁oglądać	-10.6433
▁walce	-10.6433
mor	-10.6434
▁Im	-10.6439
▁potrafił	-10.6439
ssa	-10.6443
▁nadal	-10.6444
▁gdzież	-10.6444
świadcz	-10.6448
▁zaczęło	-10.6455
▁przyszli	-10.6459
▁proste	-10.6459
▁pomyśleć	-10.6463
▁nosem	-10.6466
▁czynności	-10.6473
▁lot	-10.6474
▁honoru	-10.6475
▁Władysław	-10.6476
▁cz	-10.6477
▁pełno	-10.6479
era	-10.6484
▁Se	-10.6484
tego	-10.6493
▁powtarza	-10.6506
▁papieru	-10.6507
bity	-10.6509
▁zacząłem	-10.6517
kie	-10.6521
ble	-10.6535
rząd	-10.6537
▁urok	-10.6538
▁podszedł	-10.6539
▁wracać	-10.6542
▁choroba	-10.6544
▁będziecie	-10.6546
▁wiara	-10.6547
▁wieczoru	-10.6548
▁sądzi	-10.6551
▁er	-10.6552
▁sługa	-10.6552
▁ciche	-10.6554
▁nadzieje	-10.6556
▁stosunków	-10.6562
▁Dzięki	-10.6563
▁spoglądając	-10.6564
▁miłe	-10.6566
▁puste	-10.6569
▁Duch	-10.6569
▁wspólnego	-10.6577
▁szeregu	-10.6579
▁osobie	-10.658
▁obce	-10.6587
▁Dr	-10.6592
mię	-10.6593
▁uczy	-10.6596
▁obrony	-10.6598
szej	-10.6601
sły	-10.6602
dusz	-10.6603
R	-10.6604
▁spodziewał	-10.6611
▁zapałem	-10.6617
▁port	-10.6617
▁Stara	-10.6618
▁bal	-10.6618
▁Byli	-10.662
leci	-10.662
▁udać	-10.6621
*:	-10.6622
▁sztukę	-10.6625
szu	-10.6633
▁szy	-10.6639
▁znajomych	-10.6639
▁małżeństwo	-10.664
▁wskazał	-10.6641
▁głów	-10.6642
▁zasad	-10.6643
▁zamyka	-10.6644
▁ostatnią	-10.6645
▁skórę	-10.6649
▁związek	-10.6651
▁Niestety	-10.6651
▁polskich	-10.6657
▁tron	-10.6658
▁smak	-10.6659
▁Ktoś	-10.666
▁most	-10.6665
▁postawił	-10.6666
▁północ	-10.6669
▁młodzieńca	-10.6669
▁Pewnie	-10.6674
▁przedmioty	-10.6679
▁cech	-10.668
▁obudził	-10.6683
▁zmęczony	-10.6687
▁nadzwyczaj	-10.6689
▁biedna	-10.669
▁miary	-10.6695
▁Biskup	-10.6696
▁ujrzałem	-10.6705
▁częściej	-10.6707
▁wierzch	-10.6708
rb	-10.6711
▁płacze	-10.6712
ujesz	-10.6714
▁barwy	-10.672
▁głęboki	-10.6721
▁głosów	-10.6723
▁jęk	-10.6728
▁rys	-10.6728
▁towarzysza	-10.6733
Do	-10.6733
▁bywają	-10.6736
▁zdolny	-10.6737
▁zwycięstwo	-10.6738
mieni	-10.6739
▁kopalni	-10.674
▁białej	-10.6741
▁Ledwie	-10.6742
▁polskiego	-10.6743
▁tytuł	-10.6747
▁teatru	-10.6747
▁pobiegł	-10.6748
▁ścianie	-10.6751
▁zostawić	-10.6752
▁palcem	-10.6755
owaną	-10.6758
▁kolanach	-10.6761
Czy	-10.6762
▁znają	-10.6766
▁przedmiotów	-10.6767
▁Wszakże	-10.6768
▁szczęśliwa	-10.6769
▁rozsądku	-10.6769
tar	-10.6773
▁rysy	-10.6779
▁właściciel	-10.678
eć	-10.678
▁prowadzić	-10.6782
czenie	-10.6782
▁Mal	-10.6782
sław	-10.6785
nów	-10.6793
▁oglądał	-10.6794
▁Sza	-10.6795
▁mózgu	-10.6795
▁gościa	-10.6796
▁bił	-10.6797
▁In	-10.68
▁warunkach	-10.6805
▁cnota	-10.6805
stu	-10.6806
▁Doktor	-10.6807
▁karty	-10.6809
▁smaku	-10.6811
▁stajni	-10.6813
owałem	-10.6814
▁wyjścia	-10.6814
▁pojęć	-10.6815
▁zwraca	-10.6822
▁płakał	-10.683
op	-10.6831
▁ofiarę	-10.6831
▁Nu	-10.6835
▁klasztor	-10.6842
według	-10.6842
▁Twój	-10.6842
▁ryby	-10.6845
▁warunki	-10.6845
▁wystarcza	-10.6845
▁słup	-10.6846
▁spodziewać	-10.6853
▁fu	-10.6853
▁obywatel	-10.6854
▁służba	-10.6855
▁mądrości	-10.6856
▁czysto	-10.6858
▁wyrzekł	-10.6858
bar	-10.6859
▁chciało	-10.6864
▁istotę	-10.6867
▁tyś	-10.6867
▁szkole	-10.6869
▁lew	-10.6872
stwem	-10.6873
▁przyzna	-10.6873
▁głosie	-10.6875
▁narodów	-10.6879
▁zbiera	-10.6888
▁wybiera	-10.6895
▁Di	-10.6895
▁rzucał	-10.6898
▁blaskiem	-10.6898
▁nazbyt	-10.6898
nij	-10.69
▁pracował	-10.6902
▁Czemuż	-10.6912
▁stronach	-10.6913
▁nieprze	-10.6914
ące	-10.6915
▁ochoty	-10.6915
▁Tyś	-10.6918
▁ustami	-10.6919
▁słońcem	-10.6927
▁pamięta	-10.6927
▁dymu	-10.693
rządz	-10.6932
▁niźli	-10.6934
▁gada	-10.6934
▁twą	-10.6935
▁Słowa	-10.6935
un	-10.6937
▁czyniąc	-10.6937
kowski	-10.6938
▁bawić	-10.6939
▁pracą	-10.6943
▁Su	-10.6943
▁tchu	-10.6943
▁spada	-10.6944
▁stryj	-10.6948
ss	-10.6951
▁wzięli	-10.6951
▁Kapitan	-10.6952
▁Istotnie	-10.6953
▁połowy	-10.6953
str	-10.6953
est	-10.6955
▁szmer	-10.6962
▁płaczem	-10.6967
▁żonie	-10.6969
▁zapas	-10.6973
▁humor	-10.698
▁umarła	-10.6982
▁wspaniały	-10.6983
▁zębami	-10.6983
▁naukę	-10.6987
▁radzi	-10.6989
▁krótki	-10.699
▁Później	-10.699
▁tejże	-10.6991
▁uczył	-10.6994
jszego	-10.6995
▁powiadają	-10.6996
kry	-10.6997
▁Ojcze	-10.7002
▁organ	-10.7003
▁szeptał	-10.7004
▁wuj	-10.7004
▁Europy	-10.7008
▁Natomiast	-10.7008
▁grobie	-10.7008
▁Ben	-10.7009
▁śpiewać	-10.7014
▁pięknego	-10.7014
▁Zbyszko	-10.7016
▁jeziora	-10.7017
▁okrutnie	-10.7019
▁świętych	-10.7021
▁opowiedział	-10.7022
▁przyrody	-10.7023
▁świeci	-10.7029
▁cichym	-10.7029
▁młodym	-10.703
▁czarnym	-10.703
▁ważne	-10.7031
id	-10.7032
▁szkodzi	-10.7032
ników	-10.7036
▁Widać	-10.7037
▁całych	-10.704
▁projekt	-10.7041
▁pisma	-10.7043
▁liczyć	-10.7045
▁niewy	-10.7047
▁ju	-10.705
▁przemian	-10.7051
▁widzą	-10.7054
nc	-10.7054
▁możliwości	-10.7055
son	-10.7057
▁zajmuje	-10.7064
▁reszta	-10.7064
hu	-10.7066
▁hotelu	-10.7069
▁ulicach	-10.7071
▁rycerze	-10.7071
▁zacznie	-10.7072
▁jasny	-10.7073
▁spadł	-10.7074
▁językiem	-10.7074
▁ładnie	-10.7078
strze	-10.7079
taj	-10.7082
▁zmieni	-10.7088
▁wyrazu	-10.709
▁obojętnie	-10.7092
▁zwłoki	-10.7093
▁duchem	-10.7099
▁rozkoszą	-10.7099
▁pochylił	-10.71
▁naturę	-10.7105
▁gwałt	-10.7106
▁sztuce	-10.7111
▁rodzina	-10.7117
▁głowami	-10.7118
▁eks	-10.7119
▁zadowolony	-10.712
owni	-10.7122
▁zdziwiony	-10.7124
▁bytu	-10.7131
▁dało	-10.7132
▁przyszły	-10.7132
bili	-10.7133
pię	-10.7133
▁imienia	-10.7134
▁nosa	-10.7135
▁poezji	-10.7139
▁zdarza	-10.7146
▁stanąć	-10.7146
▁odpowie	-10.7147
▁Ś	-10.7149
▁boli	-10.715
▁zaszło	-10.715
ata	-10.7153
▁komnaty	-10.7155
▁przemówił	-10.7158
▁zgodził	-10.7161
▁Czarny	-10.7161
▁podstawie	-10.7166
▁płomień	-10.7168
szek	-10.7169
▁zabija	-10.717
▁olbrzymi	-10.717
▁pułkownik	-10.7173
▁biegu	-10.7175
▁pierwej	-10.7179
▁czarna	-10.7183
▁przerwała	-10.7184
Rzeczypospolitej	-10.7187
▁Antek	-10.7187
ckiej	-10.719
▁puszcza	-10.719
woj	-10.7191
▁klasztoru	-10.7192
▁mroku	-10.7196
▁dodatku	-10.7196
▁Ksiądz	-10.7196
▁wyjdzie	-10.7205
ńskie	-10.7205
▁mężów	-10.7206
▁spojrzeć	-10.7206
▁rozwoju	-10.7206
▁sumienie	-10.7207
▁ojców	-10.7215
▁Ż	-10.722
gen	-10.7221
▁kra	-10.7221
▁zmienić	-10.7222
▁filozofii	-10.7225
▁Rzym	-10.7225
ps	-10.7229
▁wierzył	-10.7232
▁dzieł	-10.7234
▁tajemnicę	-10.7234
wer	-10.7236
▁nisko	-10.7238
▁powieki	-10.7241
▁kole	-10.7246
▁smutnie	-10.7247
▁Antoni	-10.725
▁wzajemnie	-10.7256
tym	-10.7258
▁buty	-10.7259
żę	-10.7259
sunęła	-10.7263
bite	-10.7265
il	-10.7265
▁10	-10.7267
▁kark	-10.7269
▁południa	-10.7272
▁rozkazu	-10.7275
wania	-10.7282
▁Krzysztof	-10.7283
▁sekret	-10.7284
▁kat	-10.7286
▁mieści	-10.7287
▁zostali	-10.729
▁Tobie	-10.7292
▁List	-10.7294
▁czynu	-10.7298
▁tronu	-10.7299
▁otwarcie	-10.7301
▁czołem	-10.7301
▁lepszy	-10.7303
▁Pu	-10.7304
▁krótkim	-10.7305
▁str	-10.7305
▁Krakowa	-10.7308
▁poprzednio	-10.731
owskiego	-10.7311
▁błogosławieństw	-10.7311
▁znany	-10.7312
▁zrobię	-10.7318
▁opuszcza	-10.7322
▁Chcesz	-10.7329
gan	-10.7331
▁szacunku	-10.734
nd	-10.7346
wała	-10.7348
▁ciał	-10.7356
▁dawnego	-10.7356
▁otworzyć	-10.7357
▁troski	-10.7367
▁szczególniej	-10.7367
▁ludzką	-10.7369
▁ruchy	-10.7372
▁przekonany	-10.7372
▁pomyśl	-10.7374
sił	-10.7375
▁tworzy	-10.7379
▁rozmawiać	-10.7383
▁Hel	-10.7383
va	-10.7403
▁snem	-10.7403
▁zobaczy	-10.7405
▁miałam	-10.7405
▁czterdzieści	-10.7407
▁ogon	-10.7408
▁skończy	-10.7409
▁pisarz	-10.7411
▁ramionach	-10.7416
▁mistrza	-10.743
▁est	-10.7433
liwa	-10.7433
▁niżej	-10.7434
czenia	-10.7436
▁szlachty	-10.7436
▁kąt	-10.7441
ria	-10.7442
▁Ł	-10.7444
▁zegar	-10.7447
▁Platon	-10.7447
);	-10.7452
śni	-10.7452
▁powinni	-10.7453
▁niewiasty	-10.7454
▁bieg	-10.7457
▁domy	-10.7458
nce	-10.7463
▁odległości	-10.7466
▁odwagę	-10.7466
▁stają	-10.7468
łę	-10.7469
jszą	-10.7471
▁osiem	-10.7474
▁cienia	-10.7474
▁oczom	-10.7476
▁musiały	-10.7477
▁jakimi	-10.7485
▁karę	-10.7488
▁bał	-10.7489
▁gar	-10.749
▁Nieraz	-10.749
▁Jaki	-10.7492
nica	-10.7494
▁własność	-10.7495
▁grób	-10.7495
▁byśmy	-10.7496
▁typ	-10.7497
▁rozmawiał	-10.7499
▁huk	-10.7509
▁Kilka	-10.7513
▁sławę	-10.7514
▁minę	-10.7516
▁porządek	-10.7524
▁tra	-10.7525
cząc	-10.7535
▁słysząc	-10.7536
▁znane	-10.7537
▁zielone	-10.7543
▁Widząc	-10.7544
▁dojść	-10.7545
▁scenę	-10.755
▁ogromnie	-10.7552
▁wojsk	-10.7553
▁zniknął	-10.7556
▁ubranie	-10.7564
▁oprzeć	-10.7564
▁Widzi	-10.7565
▁wesoły	-10.7565
lał	-10.7567
▁Wiktor	-10.7571
▁brzegi	-10.7573
▁dostanie	-10.7576
▁napisać	-10.7584
▁filozof	-10.7584
▁ostatnia	-10.7584
▁głębokim	-10.7586
▁lasów	-10.7592
▁potrzebie	-10.7592
▁krzyża	-10.7592
▁skarby	-10.7593
BN	-10.7596
▁wyszli	-10.7596
▁pytać	-10.7596
▁pijany	-10.7601
▁Zaledwie	-10.7603
▁Vi	-10.7609
▁kochała	-10.761
▁górach	-10.7613
▁pośrodku	-10.7613
▁wytłumaczyć	-10.7616
▁uprzejmie	-10.7619
▁pilno	-10.7622
▁Europie	-10.7623
▁koron	-10.7624
▁mieszkaniu	-10.7628
▁Mości	-10.763
▁niosąc	-10.7632
▁przybywa	-10.7632
▁wrogów	-10.7633
▁mieliśmy	-10.7635
jechali	-10.7636
▁IS	-10.7637
▁panienka	-10.764
▁prawdziwą	-10.7643
▁zwycięstwa	-10.7643
▁napis	-10.7646
▁szaf	-10.7648
▁stworzenia	-10.7648
▁mądry	-10.7661
niejsza	-10.7661
▁zwróciła	-10.7666
▁Syn	-10.7667
▁gadać	-10.7671
▁sytuacji	-10.7672
▁łódź	-10.7672
▁żadną	-10.7674
▁Tutaj	-10.7675
▁losy	-10.7675
wią	-10.7675
▁salonie	-10.768
ńskim	-10.768
▁spotka	-10.768
▁nauk	-10.7682
▁osobiście	-10.7682
▁odejść	-10.7683
▁przechodząc	-10.7685
▁Roman	-10.7685
▁instynkt	-10.7685
▁zastał	-10.7689
▁siadł	-10.769
▁pięknym	-10.769
sło	-10.7691
▁okrętu	-10.7697
▁męki	-10.7697
▁Czuł	-10.7698
▁mieczem	-10.7702
▁ciepło	-10.7703
▁zrozumienia	-10.7709
▁ówdzie	-10.771
mal	-10.7711
▁Naturalnie	-10.7713
▁umieją	-10.7713
ryt	-10.7717
▁cuda	-10.7718
▁Villefort	-10.7722
▁plecami	-10.7722
▁sklep	-10.7723
▁imieniem	-10.7724
moc	-10.7726
▁Sto	-10.7729
▁sznur	-10.773
▁wybrał	-10.7731
▁grube	-10.774
▁Bra	-10.774
▁pow	-10.7741
▁połowę	-10.7742
▁Litwy	-10.7743
▁wyjątkiem	-10.7748
▁cesarza	-10.775
▁mor	-10.7753
com	-10.7758
izm	-10.776
▁począć	-10.7763
▁mal	-10.7763
jon	-10.7766
▁znajdują	-10.7768
▁bawił	-10.7769
▁Przecie	-10.7771
▁dyrektor	-10.7772
▁zmuszony	-10.7772
▁zimna	-10.7773
▁białego	-10.7773
▁zwierz	-10.7774
▁opis	-10.7775
▁scenie	-10.7779
dzą	-10.778
two	-10.7782
▁dziewcząt	-10.7783
pał	-10.7784
▁nieszczęśliwy	-10.7785
▁handlu	-10.7785
rem	-10.7786
▁Chciałem	-10.7788
grod	-10.779
▁smutno	-10.7793
rzecz	-10.7794
ujących	-10.7795
liwe	-10.7797
▁cen	-10.7799
Tak	-10.7801
▁bliska	-10.7803
▁siedzieli	-10.7803
▁ser	-10.7803
▁pismo	-10.7805
▁ścian	-10.7806
▁Dy	-10.7808
▁szacunek	-10.7813
▁rodzice	-10.7813
▁Całe	-10.7814
▁kawaler	-10.7814
▁licząc	-10.7816
▁czarno	-10.7817
▁szale	-10.7822
▁potrafię	-10.7824
▁najmniejszego	-10.7827
▁formie	-10.7828
”;	-10.7828
Ja	-10.7831
▁świętej	-10.7832
▁czapkę	-10.7835
▁ciemnych	-10.7837
▁ubrany	-10.784
▁goście	-10.7843
▁niemożliwe	-10.7843
czkę	-10.7843
▁towarzysze	-10.7844
▁sch	-10.7845
▁waszą	-10.7848
żu	-10.7849
▁obejrzał	-10.785
▁lekarza	-10.7852
ke	-10.7854
▁córką	-10.7855
nda	-10.7855
tować	-10.7856
▁zwrot	-10.7856
▁dziadek	-10.7859
▁Kry	-10.7862
▁memu	-10.7864
▁chłopa	-10.7865
▁Stał	-10.7872
▁któréj	-10.7874
▁warunków	-10.7874
▁zmysłów	-10.7875
▁potęgi	-10.7878
▁fala	-10.7882
▁Ewa	-10.7883
▁powinny	-10.7884
▁ciemność	-10.7886
▁palec	-10.7889
▁Ri	-10.7891
▁bramę	-10.7893
▁zdobył	-10.7895
▁Paryż	-10.7895
▁ge	-10.7895
słuch	-10.7896
▁odczuwa	-10.7897
▁zwrócić	-10.7899
▁pewność	-10.7899
ola	-10.7899
▁ukrywa	-10.7902
▁wodza	-10.7905
▁skłonił	-10.7907
▁podać	-10.7909
▁dołu	-10.7909
▁bywał	-10.791
▁opo	-10.7913
▁pre	-10.7917
▁grosza	-10.7922
▁Kobieta	-10.7922
▁świadomości	-10.7923
!)	-10.7925
▁grzechu	-10.7928
▁Ki	-10.7928
▁<	-10.7935
▁przeszła	-10.7935
▁suknię	-10.7936
▁wielkimi	-10.7938
▁móc	-10.7938
ol	-10.7938
▁zjawiska	-10.7943
▁Pomimo	-10.7945
niom	-10.7949
▁szczegóły	-10.7949
▁chwilach	-10.7953
▁Panu	-10.7954
▁długa	-10.7954
▁zająć	-10.7958
▁polskiej	-10.7961
▁światu	-10.7961
▁ciężarem	-10.7964
miesz	-10.7966
ujący	-10.7967
▁pu	-10.7968
dar	-10.7973
▁portret	-10.7974
▁ogniu	-10.7975
▁miasteczka	-10.7976
▁ogniska	-10.7979
▁Pal	-10.798
▁położenie	-10.798
ld	-10.7981
th	-10.7981
▁rośnie	-10.7982
▁Twoje	-10.7986
▁istnieć	-10.7986
center	-10.7986
▁jaskini	-10.7987
▁drobnych	-10.7988
ator	-10.7992
łów	-10.7992
▁opowiedzieć	-10.7993
▁gabinetu	-10.7994
nione	-10.7995
▁V	-10.8008
wład	-10.801
▁sza	-10.8015
res	-10.8017
▁Śmierć	-10.8018
▁uciec	-10.8019
▁pragnienia	-10.802
zd	-10.8021
▁4	-10.8024
▁teatr	-10.8024
▁zakład	-10.8025
▁przeszkadza	-10.8025
▁źródło	-10.8027
owymi	-10.803
▁krótkie	-10.8031
▁Wal	-10.8032
▁gość	-10.8032
tus	-10.8033
▁promienie	-10.8034
▁złym	-10.8037
▁Lu	-10.8038
▁ostre	-10.804
▁bratem	-10.8042
▁ła	-10.8043
v	-10.8044
ujemy	-10.8045
▁złych	-10.8046
▁poczuł	-10.8046
szcza	-10.8046
▁or	-10.8047
▁hetman	-10.8048
▁wicher	-10.8048
py	-10.8049
sse	-10.8054
▁zadanie	-10.8057
▁krześle	-10.8058
acje	-10.8061
▁gałęzie	-10.8061
▁zdawały	-10.8063
▁bom	-10.8066
▁sądził	-10.8067
▁służył	-10.8067
▁kup	-10.8068
▁wypadki	-10.8068
▁dwor	-10.8073
▁Fe	-10.8076
▁Adam	-10.8077
▁położeniu	-10.8079
▁robotę	-10.8081
▁pobytu	-10.8082
▁dzieciom	-10.8084
▁wziąwszy	-10.8091
▁skał	-10.8092
▁stróż	-10.8097
▁odda	-10.8097
▁usiłował	-10.8097
▁rozkazał	-10.8102
kar	-10.8107
▁Christo	-10.8108
▁wyciąga	-10.8108
bur	-10.8111
▁powód	-10.8111
▁gruntu	-10.8116
▁pomoże	-10.8119
▁stroju	-10.812
▁Lo	-10.812
▁złożyć	-10.8122
▁wspaniałe	-10.8129
▁języku	-10.8131
▁nawzajem	-10.8131
▁opowiadania	-10.8131
▁usługi	-10.8131
▁zajął	-10.8131
roż	-10.8132
czna	-10.8132
▁próbował	-10.8133
▁wołając	-10.8133
▁krzykiem	-10.8136
pła	-10.8139
▁Ducha	-10.814
▁numer	-10.8146
▁waszym	-10.8147
▁sędzia	-10.8148
▁dziki	-10.8149
▁schody	-10.8151
▁dzwon	-10.8153
ący	-10.8153
eczka	-10.8155
▁wesele	-10.8155
▁użyć	-10.8159
▁rogu	-10.8163
▁lubo	-10.8167
▁chłopów	-10.8168
▁ilości	-10.8171
▁bronił	-10.8173
▁przeszłość	-10.8175
▁Polska	-10.8175
ujące	-10.8176
▁daję	-10.8177
▁Gu	-10.8181
▁obowiązku	-10.8183
▁młodość	-10.8183
▁obyczajów	-10.8184
▁okazać	-10.8186
▁rozp	-10.8187
▁jadł	-10.819
▁krzesło	-10.8194
▁ścianach	-10.8194
▁nazwał	-10.8196
▁przyda	-10.8198
▁gwałtem	-10.8199
▁żyła	-10.8203
▁powstrzymać	-10.8209
▁wyglądała	-10.821
▁należą	-10.8211
▁chwilami	-10.8217
▁zręcznie	-10.8221
▁złodziej	-10.8222
▁Zna	-10.8223
▁słuchając	-10.8224
▁racji	-10.8224
▁przepaść	-10.8228
▁proch	-10.823
▁studni	-10.8231
▁łonie	-10.8232
▁suknie	-10.8232
▁ustawicznie	-10.8236
▁płacząc	-10.8237
▁bronią	-10.8241
▁nieprzyjaciel	-10.8242
▁Dżek	-10.8246
▁Mówię	-10.8248
▁bywało	-10.8255
czar	-10.8255
▁Iż	-10.8257
▁powiew	-10.8258
cję	-10.8258
▁epoki	-10.8262
▁trzeciej	-10.8262
▁policzki	-10.8263
▁walkę	-10.8264
▁zapał	-10.8265
▁but	-10.8268
▁war	-10.8269
czo	-10.827
▁straszna	-10.8271
▁dna	-10.8272
▁polski	-10.8274
▁leżały	-10.8275
▁stacji	-10.8278
pośród	-10.828
▁wzywa	-10.8284
▁plu	-10.8287
▁Waldemar	-10.8288
głos	-10.8288
ół	-10.8288
▁atak	-10.8292
▁największe	-10.8298
▁włożył	-10.8299
▁plecach	-10.8299
▁brodę	-10.8299
▁pióra	-10.8299
▁potężny	-10.8301
▁wzroku	-10.8302
▁drogie	-10.8302
czne	-10.8303
▁fali	-10.8303
▁miastem	-10.8306
bit	-10.8309
▁obecność	-10.831
hr	-10.8313
▁twojego	-10.8313
▁godne	-10.8313
▁sens	-10.8314
▁wali	-10.8315
▁patrzą	-10.8321
▁dano	-10.8323
▁dziewczynka	-10.8323
▁konieczne	-10.8329
▁szlachta	-10.8331
▁zwyczaju	-10.8337
▁pacierz	-10.8337
nkę	-10.8338
▁dumny	-10.8341
▁major	-10.8348
▁robotników	-10.8352
▁powszechnie	-10.8352
żyć	-10.8353
▁ex	-10.8354
sunął	-10.836
▁Kom	-10.8365
▁spełni	-10.8366
▁Wiele	-10.8368
▁skutku	-10.8373
▁cierpień	-10.8374
▁Wchodzi	-10.8375
▁bogactwa	-10.8379
▁młodzież	-10.8382
▁mundur	-10.8382
▁kielich	-10.8382
▁cy	-10.8383
▁momencie	-10.8384
▁talent	-10.8385
▁ciemną	-10.8385
▁wątpienia	-10.8385
kli	-10.8387
▁miesza	-10.8388
▁wracając	-10.8388
▁twym	-10.8389
▁sile	-10.8389
▁trudu	-10.8391
▁uważam	-10.8391
▁Ano	-10.8394
▁Ludwika	-10.8394
tro	-10.8396
rocz	-10.8403
▁pańskie	-10.8404
▁królewski	-10.8407
owska	-10.8409
▁ciemnej	-10.841
▁ukazała	-10.841
▁wrota	-10.8416
▁Sądzę	-10.8417
▁powy	-10.8423
▁akt	-10.8424
▁War	-10.8427
▁Jim	-10.8431
bija	-10.8436
▁dzikich	-10.8436
▁cieszy	-10.8437
▁sad	-10.8443
▁diabeł	-10.8448
▁prosząc	-10.8451
▁rzekłszy	-10.8452
▁oblicza	-10.8453
▁sta	-10.8456
▁rzekę	-10.8458
▁gotowi	-10.846
aty	-10.846
▁czekała	-10.8461
▁wołać	-10.8462
▁Choćby	-10.8465
▁policji	-10.847
▁rynku	-10.8471
▁be	-10.8471
▁ludziach	-10.8473
▁zajęcia	-10.8475
▁okres	-10.8477
mil	-10.8478
▁noce	-10.8478
▁dal	-10.8481
ór	-10.8487
pad	-10.8489
▁sprawą	-10.849
▁kwestii	-10.8492
▁mile	-10.8493
▁rabi	-10.85
▁znajomości	-10.8501
▁najprędzej	-10.8503
▁interesów	-10.8503
▁śni	-10.8503
▁nadzieją	-10.8504
▁przynieść	-10.8507
▁zaśmiał	-10.8507
▁panną	-10.8509
▁cofnął	-10.8513
nięcie	-10.8515
▁prezes	-10.8519
▁poprze	-10.8524
▁dachu	-10.8524
▁niecierpliwie	-10.8525
▁gniewa	-10.8526
▁ra	-10.8528
▁słyszała	-10.8529
▁byliśmy	-10.8529
▁Taka	-10.853
▁deszczu	-10.853
▁kłopot	-10.8533
▁kochasz	-10.8535
czał	-10.854
▁Francuz	-10.8541
▁przyjmuje	-10.8541
▁mądrość	-10.8546
▁dwanaście	-10.8546
▁Ludwik	-10.8548
▁zapytać	-10.8548
wol	-10.855
▁wzgórza	-10.8556
▁gatunków	-10.8557
▁Sy	-10.8558
▁12	-10.8559
▁pr	-10.8563
▁ciąg	-10.8566
▁przykrości	-10.8568
ńską	-10.8569
▁Wczoraj	-10.8578
gni	-10.8579
▁Niemców	-10.8579
▁Lepiej	-10.858
▁Przede	-10.8581
rozum	-10.8583
▁przyjemnością	-10.8584
▁rzeka	-10.8586
▁obraca	-10.8587
cież	-10.8588
▁Jakiś	-10.8589
dzić	-10.859
min	-10.8591
▁Ów	-10.8601
acją	-10.8608
▁marzenia	-10.8609
▁trafi	-10.8609
▁raczy	-10.8609
▁oparł	-10.8611
▁srodze	-10.8611
▁trafił	-10.8611
▁więzieniu	-10.8611
▁łaskaw	-10.8615
▁dzban	-10.8617
tych	-10.8618
▁powraca	-10.862
▁waszego	-10.862
▁całość	-10.8623
▁przybyli	-10.8623
nus	-10.8626
▁dno	-10.8631
nością	-10.8634
kor	-10.8642
▁kolan	-10.8647
▁siada	-10.8648
▁stopni	-10.8649
▁poczyna	-10.8654
▁ciężką	-10.8655
▁niejeden	-10.8655
▁piekła	-10.8655
ndy	-10.8661
anych	-10.8661
▁tłumy	-10.8662
▁weszli	-10.8666
</	-10.8667
▁zbroi	-10.867
▁tryumf	-10.8674
▁chorego	-10.8674
▁wychodził	-10.8675
▁różnica	-10.8676
▁Widocznie	-10.8678
▁tkwi	-10.8678
patrz	-10.8681
▁wyrwał	-10.8685
▁pracowni	-10.8686
▁panował	-10.8686
▁niezawodnie	-10.8688
▁stopniowo	-10.869
▁kolor	-10.8699
▁podłodze	-10.8699
▁liczba	-10.87
sów	-10.8701
▁dreszcz	-10.8701
▁Krakowie	-10.8702
▁celi	-10.8703
▁postęp	-10.8707
▁procent	-10.871
▁nazwa	-10.8711
▁urodził	-10.8715
▁malarz	-10.8715
▁dziwna	-10.8717
rzeć	-10.8717
▁śmieje	-10.8717
eczek	-10.8717
▁zatrzyma	-10.8721
czni	-10.8722
▁idea	-10.8724
▁Musiał	-10.8724
▁op	-10.8725
▁Stefcia	-10.8725
▁dobroci	-10.8727
▁uśmiechał	-10.8728
▁Idzie	-10.873
▁chora	-10.873
ard	-10.8731
▁przepaści	-10.8732
▁opiekę	-10.8732
▁atoli	-10.8733
▁Zamiast	-10.8733
▁nietylko	-10.8735
▁równe	-10.8736
▁Ber	-10.8741
cem	-10.8742
▁trąb	-10.8743
▁przyjęcie	-10.8744
▁mocniej	-10.8749
▁pracuje	-10.8754
owiec	-10.8756
▁jedyne	-10.8756
▁stada	-10.8757
▁przerwy	-10.8761
▁wtem	-10.8761
▁dokona	-10.8764
nder	-10.8764
les	-10.877
▁świt	-10.8773
▁ru	-10.8776
▁materii	-10.8777
▁Znów	-10.8778
▁rozmów	-10.8778
▁wagi	-10.878
▁Car	-10.8784
▁niesie	-10.8784
ger	-10.8785
now	-10.8786
▁pióro	-10.879
owicz	-10.879
▁Precz	-10.8791
▁większość	-10.8795
▁brzegiem	-10.8797
▁szeptem	-10.8798
▁Sie	-10.8798
▁mord	-10.8802
▁słaby	-10.8805
ywać	-10.8808
▁naokoło	-10.881
▁najzupełniej	-10.881
▁powrocie	-10.881
▁ciotki	-10.881
▁Obok	-10.881
liwie	-10.8814
pełni	-10.8815
▁kap	-10.8816
▁Szkoda	-10.8821
▁pozostało	-10.8822
nięcia	-10.8822
▁pytam	-10.8822
▁wściekły	-10.8824
▁czerwony	-10.8829
▁płakała	-10.8831
Bo	-10.8831
▁chwały	-10.8832
▁okropnie	-10.8833
▁ujął	-10.8837
▁murów	-10.8838
mer	-10.8841
▁hrabina	-10.8845
▁marzeń	-10.8846
▁wiersze	-10.8846
▁podjął	-10.8848
▁Janka	-10.8849
dzę	-10.8849
▁Panowie	-10.885
▁zdjął	-10.8855
▁objął	-10.8855
▁nazywają	-10.8855
isz	-10.8859
▁okazało	-10.886
▁trwała	-10.886
▁polskie	-10.8861
▁zeń	-10.8863
▁dźwięki	-10.8864
▁Mamy	-10.8866
▁dziękuję	-10.8869
▁chrześcijan	-10.8869
▁Słowem	-10.887
▁bóg	-10.887
▁pański	-10.8874
▁chociażby	-10.8874
mier	-10.8875
▁kolejno	-10.8876
owało	-10.8876
▁téż	-10.8877
▁zawżdy	-10.8877
▁sy	-10.8878
▁palcach	-10.8879
▁licha	-10.8879
▁minister	-10.8887
▁wspomnień	-10.8889
▁Doprawdy	-10.8889
▁przyczynę	-10.8889
▁ratunku	-10.8891
▁porusza	-10.8893
▁Dobry	-10.8893
baw	-10.8896
▁bur	-10.8898
▁Ży	-10.8902
▁jednemu	-10.8903
nio	-10.8904
▁stylu	-10.8908
▁błękit	-10.8909
▁posłał	-10.8911
byście	-10.8913
stwie	-10.8914
▁podobnym	-10.8916
▁anty	-10.8917
▁dziwnym	-10.8917
▁święto	-10.8918
czone	-10.8918
▁nieprzyjaciela	-10.8919
▁jegomość	-10.8923
▁ptaków	-10.8925
ary	-10.8925
▁El	-10.8929
▁obywateli	-10.8932
▁księgi	-10.8933
▁siedmiu	-10.8933
▁dawała	-10.8938
▁krzyki	-10.8943
▁Per	-10.8944
▁daleki	-10.8947
▁Par	-10.895
▁znajdziesz	-10.895
▁panuje	-10.895
ft	-10.8952
lna	-10.8956
▁widziałam	-10.8957
ckich	-10.8957
▁oddział	-10.8959
▁Rafał	-10.8961
▁Chciałbym	-10.8967
▁zajmował	-10.8967
▁zachował	-10.8967
par	-10.897
▁niedzielę	-10.8972
▁potém	-10.8972
▁cierpiał	-10.8972
▁otoczony	-10.8977
▁uderza	-10.8979
▁Zanim	-10.8979
▁obiadu	-10.898
▁kupił	-10.8981
▁biorą	-10.8981
▁grał	-10.8983
▁ści	-10.8984
▁dane	-10.8985
gła	-10.8986
▁głodny	-10.8987
▁uwagą	-10.8988
▁szkody	-10.8989
▁łączy	-10.8989
▁wydobyć	-10.899
del	-10.8992
▁niebem	-10.8994
▁wyrazić	-10.8994
▁Krew	-10.8999
▁niebieskie	-10.9
▁pozwolić	-10.9004
▁marsz	-10.9004
▁granice	-10.9007
▁dadzą	-10.9012
▁wypadkach	-10.9013
▁przyjemnie	-10.9014
▁największym	-10.9015
▁takimi	-10.9016
▁Mało	-10.902
▁Myślę	-10.9022
▁prawdziwa	-10.9024
▁pochwycił	-10.9027
▁chłopi	-10.9028
▁wpada	-10.9031
▁kart	-10.9032
tan	-10.9032
▁pragnąc	-10.9034
▁dumą	-10.9036
kla	-10.9039
▁leżą	-10.904
▁ginie	-10.9045
▁szept	-10.9045
▁obyczaje	-10.9045
▁literatury	-10.9047
▁bud	-10.9047
▁królewskiej	-10.9049
▁grzbiet	-10.9051
▁głębiej	-10.9052
▁położyć	-10.9054
▁trupa	-10.9054
▁większym	-10.9056
▁świadomość	-10.906
▁młodzieży	-10.9061
▁dowodzi	-10.9062
▁St	-10.9064
wię	-10.9065
▁skończyć	-10.9066
▁starczy	-10.907
lną	-10.907
▁łatwością	-10.9071
gna	-10.9072
▁odbywa	-10.9073
pra	-10.9074
szuka	-10.9075
▁państwie	-10.9077
pol	-10.9079
▁zmysły	-10.908
▁wzrostu	-10.9081
▁Rzymian	-10.9082
▁Jakub	-10.9086
[	-10.9086
lek	-10.9086
▁grosz	-10.9087
cką	-10.9089
▁brzuch	-10.9089
▁najmniejszej	-10.9089
nemu	-10.9089
▁dawnej	-10.9092
▁Sara	-10.9094
uf	-10.9099
▁niewiast	-10.91
▁ruszyć	-10.9104
▁potrzebuję	-10.9105
sti	-10.9106
▁zimny	-10.9106
▁prawi	-10.9111
▁Tro	-10.9113
▁ogni	-10.9114
▁ciekawie	-10.9115
▁miło	-10.9116
▁Wnet	-10.9119
▁Chce	-10.9121
▁przypomnieć	-10.9129
▁równo	-10.913
▁silniej	-10.9133
wym	-10.9133
▁Wasza	-10.9136
▁spostrzegła	-10.9137
▁cierpieć	-10.9139
▁możności	-10.9139
▁kładzie	-10.9142
▁Powiedział	-10.9151
▁ludności	-10.9152
▁mrok	-10.9152
▁mogłam	-10.9156
iel	-10.916
▁Pawła	-10.9162
▁poziom	-10.9164
▁teatrze	-10.9164
▁ujrzała	-10.9165
▁władza	-10.9169
▁matko	-10.9176
liwy	-10.9177
▁swoimi	-10.9179
▁surowo	-10.9181
▁bunt	-10.9184
▁żołnierza	-10.9185
▁papiery	-10.9186
▁żart	-10.9186
▁chacie	-10.9191
▁Albert	-10.9192
▁ce	-10.9192
jszym	-10.9197
▁swobody	-10.9197
▁prośby	-10.9198
dów	-10.9198
▁dalszych	-10.9203
▁postacie	-10.9204
▁bóstwa	-10.9207
▁ucieczki	-10.9208
dat	-10.9208
niesiono	-10.9211
▁wójt	-10.9218
▁bogowie	-10.922
▁Fabrycy	-10.922
▁pogląd	-10.9225
«	-10.9226
usa	-10.9227
star	-10.9228
▁radośnie	-10.9233
▁pań	-10.9234
▁ple	-10.9235
▁ogląda	-10.9235
świec	-10.9236
cją	-10.9238
▁stanęli	-10.9239
▁uzna	-10.9239
▁wieczne	-10.9239
pali	-10.924
▁roze	-10.9241
▁zdumiony	-10.9243
▁obowiązki	-10.9245
▁posąg	-10.9253
▁zastęp	-10.9254
▁księciu	-10.9255
▁aktor	-10.9258
▁trawie	-10.9258
▁dwieście	-10.9258
▁Dan	-10.926
▁niebu	-10.9263
▁zjawisk	-10.9267
▁groźnie	-10.9267
▁Augusta	-10.9267
▁włosach	-10.9268
śle	-10.9269
▁dział	-10.9269
▁potrzeb	-10.927
▁kom	-10.9273
▁uwierzyć	-10.9274
▁korony	-10.9274
▁Emil	-10.9275
▁dochodzi	-10.9276
▁należał	-10.9278
▁zboża	-10.9278
▁wspomina	-10.9282
▁win	-10.9283
▁Dom	-10.9288
▁przykładem	-10.9289
ckie	-10.929
▁wchodząc	-10.929
▁dzieciństwa	-10.9292
▁żeśmy	-10.9296
▁przykre	-10.9297
owca	-10.9298
▁wyprawy	-10.9299
▁trudnością	-10.9299
▁Mówi	-10.93
▁półgłosem	-10.9301
▁przebywa	-10.9303
▁ar	-10.9304
▁poczciwy	-10.9305
dni	-10.9307
aniu	-10.931
▁sztuk	-10.9311
▁wprowadził	-10.9311
▁samotności	-10.9313
▁Kur	-10.9314
▁wesołe	-10.9315
▁podobieństwo	-10.9317
▁dalszym	-10.932
▁wybiegł	-10.9321
▁smutkiem	-10.9322
rys	-10.9323
▁tamtych	-10.9323
▁poniekąd	-10.9325
▁Widział	-10.9326
▁tamtym	-10.9329
bry	-10.9329
▁dowody	-10.933
ani	-10.933
▁stanowią	-10.9332
▁chodź	-10.9332
▁niemało	-10.9335
▁szaleństwa	-10.9335
▁pomyślała	-10.9336
▁strzał	-10.9337
iny	-10.9338
▁zimne	-10.934
▁forma	-10.9341
▁najwyższym	-10.9342
poli	-10.9347
▁kol	-10.9347
▁mgły	-10.9349
▁zginąć	-10.9351
▁potrzebny	-10.9354
▁ładna	-10.9356
▁robota	-10.9356
▁staremu	-10.9358
▁znikł	-10.9358
knie	-10.936
▁kilkunastu	-10.936
▁uniknąć	-10.936
▁tysiąca	-10.9361
nosząc	-10.9362
▁biedne	-10.9363
dza	-10.9366
ll	-10.9367
▁uśmiechając	-10.9374
▁różni	-10.9375
▁przedstawił	-10.9379
ciem	-10.9379
▁podłogę	-10.9384
▁wrażeń	-10.9384
▁szatan	-10.9384
▁liczby	-10.9385
▁stojący	-10.9389
▁czynów	-10.939
▁lęk	-10.9395
tre	-10.9397
▁Dawid	-10.9398
ró	-10.9401
▁wydawała	-10.9402
▁wskroś	-10.9403
ęta	-10.9406
▁muru	-10.9407
▁don	-10.9411
▁krajach	-10.9411
▁Stanisław	-10.9412
▁mas	-10.9414
▁śmiały	-10.9416
▁pusty	-10.9417
▁zbliżał	-10.9418
▁żyw	-10.9419
▁polach	-10.9419
▁podaje	-10.9422
▁boleśnie	-10.9424
▁Mu	-10.9426
jeżdża	-10.9431
▁czyny	-10.9431
▁telefon	-10.9432
▁niechże	-10.9433
▁drugiemu	-10.9435
▁Czyżby	-10.9435
dow	-10.9436
▁oper	-10.9437
▁wierny	-10.9439
cina	-10.944
▁mili	-10.9441
yby	-10.9443
▁bieda	-10.9443
▁armii	-10.9443
▁wytwarza	-10.9443
▁świadkiem	-10.9443
▁niedoli	-10.9446
▁ukłon	-10.9446
▁ciekawe	-10.9446
▁twa	-10.9448
▁zegarek	-10.9449
▁wydobył	-10.9451
▁pociechy	-10.9452
▁szyby	-10.9453
▁obrócił	-10.9454
▁siostrę	-10.9455
▁gęsto	-10.9455
▁biednego	-10.9456
try	-10.9459
▁trzymała	-10.9459
▁widokiem	-10.9459
cami	-10.9463
nięty	-10.9465
▁wysokich	-10.9468
ver	-10.9468
ium	-10.9471
cer	-10.9471
▁nieznane	-10.9471
▁obecnych	-10.9474
«.	-10.9474
▁uczony	-10.9476
▁usiadła	-10.9476
▁sługi	-10.9479
▁nazwę	-10.9479
▁możność	-10.9479
▁pannie	-10.9481
▁mający	-10.9484
▁weź	-10.9484
lony	-10.9485
▁złą	-10.949
▁akurat	-10.9491
▁adres	-10.9494
▁ulega	-10.9496
ńca	-10.9498
rat	-10.95
▁srogi	-10.95
▁Karola	-10.9501
▁strzały	-10.9511
▁milczący	-10.9515
▁zamiaru	-10.9517
▁śpiewał	-10.9523
▁milionów	-10.9525
▁wyboru	-10.9527
▁wypadków	-10.9527
▁zrozumie	-10.9529
▁łaska	-10.9535
▁Mor	-10.9535
▁obronie	-10.9537
▁czemuż	-10.9539
ących	-10.954
rt	-10.9543
▁świeże	-10.9543
▁trwał	-10.9545
▁schodów	-10.9546
▁wdzięczność	-10.9551
▁trzeciego	-10.9551
▁głuchy	-10.9553
▁walczył	-10.9553
▁gęste	-10.9555
▁trawy	-10.9557
▁wszystkiem	-10.9557
▁trzydziestu	-10.9559
▁dach	-10.956
chodzę	-10.9561
▁skończyła	-10.9563
▁mieszkańcy	-10.9564
nes	-10.9564
▁parku	-10.9567
▁tłumaczył	-10.9568
▁Myśli	-10.9568
▁niczem	-10.9571
▁powozu	-10.9574
▁gospodarza	-10.9574
dnie	-10.9576
leciał	-10.9577
▁Spojrzał	-10.9577
▁śmie	-10.9582
▁czerwonych	-10.9583
▁winna	-10.9584
▁fotel	-10.9585
▁najwyżej	-10.9587
▁wiernie	-10.9589
▁dziwi	-10.959
▁morzem	-10.9594
▁byłeś	-10.9594
pas	-10.9595
ju	-10.9595
▁kraje	-10.9598
ory	-10.9599
▁sług	-10.9599
niejszych	-10.9604
▁pozostała	-10.9605
▁fur	-10.9605
▁boga	-10.9605
▁szał	-10.9608
▁lekki	-10.9608
▁płaczu	-10.9609
▁słodkie	-10.961
▁możecie	-10.9611
lne	-10.9614
▁uznał	-10.9615
legł	-10.9615
▁zdziwił	-10.9619
byt	-10.9619
lub	-10.9622
▁Guermantes	-10.9623
▁zechcesz	-10.9624
▁duchów	-10.9626
▁swojemu	-10.9628
▁wzruszył	-10.963
▁boleść	-10.9635
▁zgody	-10.9636
dla	-10.9637
▁Skrzetuski	-10.9638
▁kosz	-10.9645
ety	-10.9645
▁gatunki	-10.9647
▁pośredni	-10.9648
owskiej	-10.9651
▁Ileż	-10.9656
▁gromady	-10.9659
‘	-10.9659
▁kuzyn	-10.9664
▁zbliżając	-10.9668
nte	-10.9669
▁Więcej	-10.967
▁przykro	-10.9672
▁członków	-10.9672
fu	-10.9672
▁prac	-10.9674
▁zaiste	-10.9676
▁płyną	-10.9676
▁przekonał	-10.9679
▁Danglars	-10.9684
▁Latter	-10.9684
▁ogromną	-10.9686
▁łap	-10.9688
kwi	-10.9689
▁piętnaście	-10.9696
▁nagrodę	-10.9696
▁skrzydeł	-10.9698
▁wiersz	-10.9701
▁ściska	-10.9702
▁Wieczorem	-10.9703
▁nauczyć	-10.9705
▁sposoby	-10.9707
▁ludzkość	-10.9708
▁nadszedł	-10.9708
ząc	-10.9709
▁wysokim	-10.971
▁owoc	-10.9712
nice	-10.9712
pił	-10.9712
▁blade	-10.9713
▁mogłoby	-10.972
▁łoża	-10.9721
▁Polaków	-10.9721
▁Dick	-10.9722
▁szeregi	-10.9723
▁opiera	-10.9724
▁kryje	-10.9725
▁Hm	-10.9728
wic	-10.9728
▁zamierza	-10.9732
▁podobną	-10.9732
▁osobą	-10.9732
▁podług	-10.9733
▁nazwiskiem	-10.9733
kocha	-10.9734
F	-10.9734
▁szalony	-10.9734
▁Marek	-10.9737
kończ	-10.9737
▁wytrzymać	-10.974
iwszy	-10.9743
▁udaje	-10.9744
▁Prócz	-10.9745
▁jasna	-10.9745
ista	-10.9747
▁szeroki	-10.9748
▁Marta	-10.9751
▁Bur	-10.9751
▁zamknąć	-10.9756
▁osobę	-10.9757
▁obozie	-10.9758
▁che	-10.9763
▁powiedzenia	-10.9764
niejszą	-10.9765
dam	-10.9765
▁podział	-10.9766
▁uroczyście	-10.977
▁ilekroć	-10.9771
▁służący	-10.9774
▁grupy	-10.9774
▁ad	-10.9775
▁An	-10.9777
▁pasa	-10.9778
▁prowincji	-10.9781
▁Wiatr	-10.9782
▁Drogi	-10.9782
▁przerywa	-10.9784
▁kiedym	-10.9785
▁pokładzie	-10.9789
▁otrzyma	-10.9792
▁wyznać	-10.9793
▁dostatecznie	-10.9794
▁ramienia	-10.9795
wej	-10.9795
▁granicę	-10.9797
▁przysłał	-10.98
▁panowania	-10.9803
zer	-10.9806
▁snadź	-10.9806
▁nieskończenie	-10.9806
▁ofiarą	-10.981
cić	-10.981
▁niemniej	-10.9817
▁upadku	-10.9818
▁Tur	-10.9823
▁Gro	-10.9823
▁owi	-10.9824
▁liczy	-10.9824
▁przypuszczać	-10.9824
▁bogini	-10.9827
▁pozbyć	-10.9831
▁prosiła	-10.9831
▁porównaniu	-10.9832
▁gorące	-10.9832
tował	-10.9839
▁czysty	-10.984
▁star	-10.9841
▁krajów	-10.9842
▁głucho	-10.9843
▁raczył	-10.9848
czyk	-10.9851
▁trza	-10.9851
▁trwogą	-10.9855
▁przypadek	-10.9855
wiązał	-10.9857
▁znali	-10.9861
▁uśmiecha	-10.9861
▁niespokojnie	-10.9864
▁Brühl	-10.9868
des	-10.9869
▁Która	-10.9869
▁non	-10.987
▁słabe	-10.9871
▁zwykł	-10.9872
▁udziela	-10.9873
▁słuchała	-10.9874
▁Przeciwnie	-10.9875
▁termin	-10.9877
▁wpadła	-10.9881
mont	-10.9883
▁żyli	-10.9885
▁przyglądał	-10.9894
▁ładne	-10.9895
▁poznałem	-10.9895
▁zaczynał	-10.9896
rii	-10.9897
▁cmentarz	-10.9897
▁Jednego	-10.9898
▁obliczu	-10.9899
▁Leon	-10.9904
▁myślach	-10.9906
sek	-10.9906
ńczyk	-10.9908
▁płomieni	-10.9913
kowy	-10.9914
▁dziewczę	-10.9915
▁oficerów	-10.9916
▁odpowiedziałem	-10.9916
▁kos	-10.9917
▁Każda	-10.9918
ój	-10.9922
▁żywego	-10.9922
▁przyczyna	-10.9926
▁przekona	-10.9927
▁Niż	-10.993
▁Zda	-10.9932
▁wzdycha	-10.9934
▁zjadł	-10.9935
▁szczegół	-10.9941
▁klas	-10.9941
▁der	-10.9941
▁rozpoczął	-10.9944
▁wódz	-10.9945
▁sklepu	-10.9946
▁wydawać	-10.9949
szka	-10.995
▁ciągnęła	-10.9951
▁mięsa	-10.9952
▁patrzę	-10.9954
▁mniejsza	-10.9954
▁krzyczeć	-10.9955
▁karku	-10.9956
▁służbie	-10.9957
szki	-10.9958
▁dalsze	-10.9961
▁Korsarz	-10.9968
▁robiła	-10.9969
▁dostrzegł	-10.997
▁sprowadza	-10.9971
▁gruby	-10.9973
▁Myślałem	-10.9975
▁chcemy	-10.9977
▁korytarz	-10.9978
▁uśmiechu	-10.998
▁niespodzianie	-10.998
▁przygody	-10.998
▁Inni	-10.9981
▁IV	-10.9982
▁Wiedział	-10.9984
▁młyn	-10.9984
▁dalekie	-10.9991
▁sporo	-10.9991
▁znowuż	-10.9992
▁zostaw	-10.9992
▁Inaczej	-10.9993
▁ministra	-10.9993
▁dziecku	-10.9993
kać	-10.9994
▁Hanka	-10.9995
▁żółte	-10.9999
czką	-11.0005
▁pozostanie	-11.0005
czas	-11.0006
▁znajdę	-11.0006
ig	-11.0006
▁onej	-11.0011
▁Kas	-11.0011
▁drzwiom	-11.0016
▁rzeczywistość	-11.0018
▁koronę	-11.0021
▁daremnie	-11.0023
▁zgadza	-11.0024
▁znajomość	-11.003
▁żon	-11.0032
▁drży	-11.0034
▁Cezara	-11.0034
▁trwało	-11.0034
▁abyśmy	-11.0041
▁lubią	-11.0041
▁działać	-11.0041
▁kwadrans	-11.0041
▁dumnie	-11.0043
▁cieszył	-11.0045
▁stad	-11.0046
▁krewnych	-11.0046
▁Ej	-11.0047
▁wolał	-11.0048
wiesz	-11.0048
ic	-11.0049
▁ziemie	-11.0049
▁powtórzyła	-11.005
▁Niektórzy	-11.0057
▁ziem	-11.0057
▁hrabio	-11.0058
Ma	-11.0059
kować	-11.0059
ew	-11.0059
▁urzędnik	-11.0063
▁pól	-11.0065
▁ustęp	-11.0067
▁Przepraszam	-11.0068
▁rzeką	-11.0072
▁dotyczy	-11.0072
▁rodzin	-11.0073
mówił	-11.0075
▁żyję	-11.0078
▁pisarza	-11.0078
▁wyspie	-11.0079
▁łup	-11.0081
▁dobrowolnie	-11.0081
▁kolegów	-11.0081
▁dojrzał	-11.0084
nic	-11.0086
▁znając	-11.0087
ciel	-11.0088
▁wysłał	-11.0091
▁strachem	-11.0092
▁ład	-11.0093
▁epoce	-11.0094
▁kasztelan	-11.0094
bru	-11.0095
dem	-11.0096
▁panno	-11.0096
tis	-11.0099
iły	-11.0099
Jak	-11.0099
▁Zbyt	-11.0105
▁konieczność	-11.0107
▁ciemna	-11.0108
▁armat	-11.0109
▁Spo	-11.0109
eśmy	-11.0111
czyni	-11.0111
▁ciemny	-11.0114
▁bramie	-11.0116
dziw	-11.0118
▁waszmość	-11.0119
▁Wobec	-11.0119
▁doświadczenie	-11.012
▁ustaw	-11.0121
▁szczegółów	-11.0123
lla	-11.0123
▁tęsknoty	-11.0127
Artagnan	-11.0132
tuje	-11.0135
▁nosić	-11.0138
▁warunkiem	-11.014
▁Cel	-11.0141
▁nieśmiało	-11.0143
▁świętą	-11.0145
▁dziedziniec	-11.0146
▁koszuli	-11.0154
▁rusza	-11.0154
▁mat	-11.0157
▁orszak	-11.0158
▁Kobiety	-11.0159
▁straszną	-11.016
ist	-11.0164
▁Er	-11.0165
stos	-11.0167
▁dawny	-11.0167
▁Wielkie	-11.0169
▁ratunek	-11.017
▁Hiszpanii	-11.017
▁powóz	-11.017
▁Zygmunt	-11.0174
▁strój	-11.0174
▁zmiana	-11.0175
▁maszyn	-11.0178
▁żarty	-11.0179
▁sny	-11.0187
▁obrazów	-11.0188
▁pytając	-11.019
▁powagi	-11.0191
▁Ros	-11.0192
▁baba	-11.0193
▁barw	-11.0196
▁mruczał	-11.0198
prowadzono	-11.02
rach	-11.0201
ury	-11.0204
▁mgła	-11.0205
▁znała	-11.0205
▁zabaw	-11.0205
bier	-11.0207
▁sprawił	-11.0213
▁zauważyłem	-11.0213
▁losem	-11.0217
▁Verloc	-11.0221
zenia	-11.0222
▁zakon	-11.0224
▁ostrze	-11.0225
▁Pamiętam	-11.0225
▁dba	-11.0227
▁ulice	-11.0227
ele	-11.0229
dle	-11.0229
▁owoce	-11.023
▁podwórze	-11.0231
▁biel	-11.0233
▁ciężkiej	-11.0236
▁Kr	-11.0236
▁więcéj	-11.0237
▁szczęściu	-11.0237
▁»»	-11.0238
nta	-11.0238
wid	-11.0238
▁potężne	-11.024
▁strzela	-11.0241
wanie	-11.0241
▁dotarł	-11.0242
pon	-11.0244
▁dóbr	-11.0247
▁niepokoju	-11.0247
▁smutna	-11.0247
▁Mogę	-11.0248
▁rodzinie	-11.0248
▁mija	-11.0249
leje	-11.0251
▁Pra	-11.0253
kał	-11.0253
rek	-11.0255
▁opowieści	-11.0257
▁spodziewa	-11.026
▁następuje	-11.0263
▁Gdybyś	-11.0263
▁dodać	-11.0264
▁ciąży	-11.0265
▁srebra	-11.0266
▁uderzając	-11.0271
▁zazdrość	-11.0273
▁przypadku	-11.0273
▁lekkie	-11.0275
nis	-11.0277
▁straszliwe	-11.0279
gas	-11.0282
prowadzi	-11.0282
▁częścią	-11.0283
raz	-11.0284
▁niewolników	-11.0285
▁Heidi	-11.0286
▁włosami	-11.0288
▁uścisk	-11.0288
szczy	-11.029
▁wybrać	-11.0291
▁powab	-11.0293
▁Madzi	-11.0296
▁utworów	-11.0299
▁ofiarował	-11.0299
▁zdrowa	-11.0299
▁starzy	-11.0301
▁szelest	-11.0302
▁trzecie	-11.0305
▁bramą	-11.0306
▁przyjęła	-11.0309
▁wojewoda	-11.0312
▁nieroz	-11.0312
▁warte	-11.0313
▁dobroć	-11.0317
▁rozumem	-11.0321
▁świętym	-11.0323
▁Toć	-11.0324
▁Gór	-11.0324
▁Litwie	-11.0326
▁wznosi	-11.0326
syp	-11.0329
bin	-11.0331
nikiem	-11.0334
▁dumy	-11.0334
ner	-11.0336
▁bitwie	-11.0338
▁okazji	-11.0338
nny	-11.0339
▁robisz	-11.0345
▁wyrzec	-11.0346
▁Zaś	-11.0346
▁prawdziwym	-11.0348
▁hu	-11.035
▁zawczasu	-11.035
▁przedstawić	-11.0351
▁kula	-11.0352
zon	-11.0352
▁widoku	-11.0353
▁kształty	-11.0356
▁włada	-11.0357
▁grzecznie	-11.0357
▁narody	-11.0358
▁tamtego	-11.0359
▁grzmot	-11.036
▁kończył	-11.0364
pis	-11.0365
stanie	-11.0365
▁rodzinę	-11.0366
▁przerażony	-11.0368
▁ujrzawszy	-11.037
dal	-11.0372
iec	-11.0373
▁Natychmiast	-11.0377
▁prośbę	-11.0377
▁Póki	-11.0378
▁pragnęła	-11.0383
▁bogacz	-11.0385
▁pamiętać	-11.0386
▁pięścią	-11.0386
▁lokaj	-11.039
▁Grzegorz	-11.0391
▁kochana	-11.0391
▁zapyta	-11.0391
lone	-11.0394
▁X	-11.0394
▁„*	-11.0395
▁pos	-11.0396
cał	-11.0396
▁krzyczy	-11.0399
▁zapalił	-11.04
▁łąki	-11.0401
▁nieruchomo	-11.0409
▁pięści	-11.041
dom	-11.0413
▁zacny	-11.0413
▁granicy	-11.0413
▁namiętność	-11.0416
▁zawoła	-11.0418
▁wyjął	-11.0419
▁pap	-11.042
▁wstąpił	-11.042
▁skargi	-11.0423
▁obiecał	-11.0425
▁wychodząc	-11.0426
▁wtóre	-11.0427
▁spełnia	-11.0427
▁ulic	-11.0427
▁przechodził	-11.0427
▁spokojem	-11.0429
▁cierpliwie	-11.0429
▁Chłop	-11.0429
▁rozmawia	-11.043
rząc	-11.0434
▁portu	-11.0436
mawia	-11.0437
▁Tej	-11.0439
▁żywa	-11.044
▁hi	-11.0441
▁wolne	-11.0442
▁odgadnąć	-11.0442
▁doktór	-11.0442
▁czarnego	-11.0444
▁romans	-11.0444
▁chłopcze	-11.0445
▁wdzięczności	-11.0446
liwą	-11.0446
▁zwracał	-11.0447
▁słabości	-11.0447
▁6	-11.0448
służ	-11.0449
▁Patrzcie	-11.0449
▁obrazu	-11.045
▁trup	-11.0451
L	-11.0452
▁Mówiąc	-11.0453
▁miałby	-11.0456
nami	-11.0457
▁ostry	-11.0457
▁Maćko	-11.046
▁pęka	-11.0461
▁Eu	-11.0461
ecie	-11.0462
▁brzmi	-11.0462
rot	-11.0468
▁argument	-11.0468
▁czerwoną	-11.0469
▁sądząc	-11.0469
▁dziewięć	-11.0471
zona	-11.0471
▁tajemnic	-11.0472
ren	-11.0472
▁podnosił	-11.0475
▁królestwa	-11.0475
▁lasach	-11.0477
▁szare	-11.0481
▁lampy	-11.0481
▁Tomek	-11.0483
▁licho	-11.0483
wróci	-11.0487
▁dzieli	-11.0488
▁cierpienie	-11.0489
godzi	-11.0492
▁wojsku	-11.0499
▁ciemnym	-11.0501
▁komuś	-11.0504
kowe	-11.0506
▁Ameryce	-11.0508
▁Czech	-11.0508
▁5	-11.0511
▁Biedny	-11.0511
▁młot	-11.0516
▁Marcin	-11.0516
wały	-11.0518
▁prawdziwego	-11.052
iony	-11.052
▁figur	-11.0522
▁zjawisko	-11.0524
▁oddaje	-11.0525
▁dały	-11.0532
▁publiczności	-11.0534
▁chorągiew	-11.0534
▁Helena	-11.0534
▁Maciej	-11.0535
▁biada	-11.0535
▁pokryte	-11.0535
ban	-11.0536
▁powrócić	-11.0537
▁Prus	-11.0538
▁wozy	-11.0539
▁wybór	-11.054
▁licznych	-11.0541
▁szczytu	-11.0546
▁spoczynku	-11.0548
▁polsku	-11.0548
noszą	-11.0548
▁Nasz	-11.0549
▁przymus	-11.0551
▁ster	-11.0555
▁puszczy	-11.0555
▁Powiem	-11.0556
▁biało	-11.0556
▁sum	-11.0556
▁opuściła	-11.0557
con	-11.0559
▁przemawia	-11.056
cię	-11.056
▁kamienia	-11.0561
▁Laura	-11.0561
▁Dziewczyna	-11.0561
lew	-11.0561
▁wygląd	-11.0562
▁boki	-11.0563
▁Gar	-11.0568
▁Tłum	-11.0568
▁Fo	-11.0569
▁czystego	-11.0569
dia	-11.0574
▁życzy	-11.0577
?”.	-11.058
▁próby	-11.0583
▁13	-11.0585
•	-11.0587
▁ujrzeć	-11.0588
▁wioski	-11.0588
▁Ostatni	-11.0588
▁słabość	-11.0589
▁wyraża	-11.0589
▁wstała	-11.059
▁zginie	-11.0592
ser	-11.0593
mat	-11.0599
▁Albowiem	-11.0601
▁przejdzie	-11.0601
▁zacząć	-11.0601
▁ludów	-11.0601
cił	-11.0601
▁ławce	-11.0603
▁ciężkim	-11.0604
winął	-11.0605
▁posła	-11.0605
▁dłuższy	-11.0606
▁prawdzie	-11.0609
▁dziew	-11.061
ówki	-11.0611
padli	-11.0613
▁niechętnie	-11.0614
▁swobodę	-11.0614
▁szyb	-11.0622
▁zapomina	-11.0625
ywał	-11.0626
▁straszliwy	-11.063
▁kaprys	-11.0632
▁zamilkł	-11.0635
bierz	-11.0635
▁naczelnik	-11.0638
▁błękitne	-11.0639
▁Mały	-11.0642
▁gaz	-11.0642
▁Dwie	-11.0645
▁zieleni	-11.0646
▁przychodził	-11.0648
▁szerokim	-11.0649
▁oznajmił	-11.065
▁lip	-11.0652
▁Jezu	-11.0652
▁nieszczęśliwa	-11.0654
▁słuchaj	-11.0657
▁oddalił	-11.0658
▁dwiema	-11.0658
trą	-11.0658
▁ogarnia	-11.0658
▁szlachetny	-11.066
▁znosić	-11.066
dali	-11.0661
żywi	-11.0667
▁Ślimak	-11.0668
▁Zakon	-11.0668
▁otóż	-11.0668
▁brakowało	-11.0669
▁Możesz	-11.0669
▁herb	-11.0672
▁woń	-11.0672
▁miesiąca	-11.0673
▁głupie	-11.0674
różni	-11.0674
osa	-11.0678
▁czary	-11.0679
▁wtenczas	-11.0681
▁Szedł	-11.0688
▁chciałam	-11.0692
▁powróci	-11.0694
cht	-11.0696
▁wilk	-11.0698
▁ludzkim	-11.0701
śmie	-11.0703
▁złotą	-11.0704
▁lit	-11.0705
▁najlepszym	-11.0705
▁ołtarza	-11.0705
▁pięt	-11.0705
▁pierścień	-11.0708
▁powstaje	-11.0708
▁płacić	-11.071
▁barona	-11.071
▁ż	-11.0711
zony	-11.0713
▁salon	-11.0713
▁dałem	-11.0713
▁gadał	-11.0715
ple	-11.0718
▁stal	-11.0719
▁ród	-11.0722
▁wybuch	-11.0723
▁zaczynają	-11.0723
▁istotą	-11.0724
▁cechy	-11.0724
▁Kochan	-11.0728
▁książka	-11.0731
form	-11.0732
▁Ser	-11.0732
▁towarzyszył	-11.0733
▁obojętne	-11.0735
▁kultury	-11.0736
▁królowie	-11.0737
▁milcząc	-11.074
he	-11.0741
▁błysk	-11.0741
▁sięga	-11.0741
rka	-11.0745
▁Czym	-11.0745
▁oporu	-11.0745
▁objęcia	-11.0746
▁wzór	-11.0751
ndi	-11.0753
▁Ti	-11.0755
▁Słyszałem	-11.0756
▁królową	-11.0758
iona	-11.0758
▁stworzenie	-11.0761
▁2.	-11.0761
’	-11.0762
fik	-11.0762
▁wysoka	-11.0762
▁Droga	-11.0763
▁zapłacić	-11.0763
łożył	-11.0767
▁drżał	-11.077
▁układ	-11.0771
▁Kro	-11.0772
▁pokojów	-11.0773
▁sława	-11.0776
▁głupstwo	-11.0777
▁ratować	-11.0777
ckim	-11.0779
ens	-11.0781
▁towar	-11.0783
▁twarde	-11.0784
▁naturalne	-11.0784
▁srebrne	-11.0785
▁wiedzie	-11.0794
▁zaprowadził	-11.0798
▁urząd	-11.0801
▁Tuśka	-11.0803
▁gęsi	-11.0803
▁Odtąd	-11.0804
▁żalem	-11.0804
▁piętrze	-11.0805
▁płat	-11.0808
▁postąpił	-11.0809
▁gospodar	-11.081
let	-11.0811
stów	-11.0813
▁pokaże	-11.0816
nicz	-11.0817
▁znika	-11.0817
▁pieszo	-11.0818
stawia	-11.0818
▁Także	-11.0818
▁rzut	-11.0819
▁spostrzega	-11.0819
▁kul	-11.0822
▁pędził	-11.0822
▁spełnić	-11.0823
▁królewskiego	-11.0826
▁odkrył	-11.0826
▁nazwy	-11.0827
▁Mil	-11.0829
▁okazuje	-11.083
▁wieczerzy	-11.083
▁powstała	-11.0831
▁raj	-11.0832
▁największy	-11.0839
▁gromada	-11.0839
▁doznał	-11.0839
▁znikła	-11.084
set	-11.084
▁niezwykle	-11.0844
▁piekło	-11.0844
▁ścianą	-11.0848
▁siedzą	-11.0848
▁pokazuje	-11.0851
▁myślami	-11.0853
▁Drzwi	-11.0858
biec	-11.0862
och	-11.0867
mówi	-11.0868
▁głaz	-11.0869
▁gdybyśmy	-11.0871
▁przyniosła	-11.0871
▁używać	-11.0872
▁odchodzi	-11.0873
wany	-11.0875
▁związane	-11.0876
▁dotyka	-11.0876
▁postawić	-11.0878
▁zwierza	-11.088
▁łoże	-11.088
▁winem	-11.088
▁którem	-11.0883
▁zdziwieniem	-11.0883
▁głęboką	-11.0885
▁zrywa	-11.0885
▁udając	-11.0885
▁dąży	-11.0886
▁kry	-11.089
kt	-11.089
▁wierze	-11.0892
▁zbior	-11.0897
Mi	-11.0904
iego	-11.0906
▁Wziął	-11.0907
▁patrzała	-11.0907
▁oknami	-11.0911
▁zdolność	-11.0914
▁wolnym	-11.0915
▁spuścił	-11.0915
eczko	-11.0916
▁któryś	-11.0918
▁ciekawością	-11.0918
▁kręci	-11.0919
▁wieszcz	-11.0919
abym	-11.0919
▁pomóc	-11.0922
▁karmi	-11.0922
▁pożegnał	-11.0923
oty	-11.0924
▁ileż	-11.0924
▁talerz	-11.0925
><	-11.0926
▁próg	-11.0927
mon	-11.0931
▁Księżna	-11.0932
▁znamy	-11.0932
▁dostała	-11.0933
▁materiał	-11.0933
▁zabiera	-11.0936
▁równa	-11.094
▁otworzyła	-11.094
▁poruszył	-11.0941
▁błyszczące	-11.0944
▁toczy	-11.0944
▁objawia	-11.0945
Niech	-11.0945
▁Jesteśmy	-11.0947
daję	-11.0949
zką	-11.0952
▁F	-11.0953
▁znajdowała	-11.0955
▁Żal	-11.0958
▁stworzyć	-11.0958
▁łańcuch	-11.0958
▁ławie	-11.0962
▁car	-11.0963
▁abo	-11.0964
▁ut	-11.0964
▁Kle	-11.0964
▁skutki	-11.0965
▁zyskał	-11.0966
▁ogarnął	-11.0966
▁Ło	-11.0967
▁pogodzić	-11.0968
▁zdążył	-11.0968
▁wydają	-11.0968
▁moralności	-11.0971
niki	-11.0971
▁skłonności	-11.0971
▁gu	-11.0973
▁ośmielił	-11.0973
▁społeczeństwo	-11.0974
▁krzywdę	-11.0976
▁zebrał	-11.0979
▁Gould	-11.0982
▁doskonałości	-11.0982
▁jednych	-11.0982
▁wypił	-11.0982
▁dojdzie	-11.0983
▁wdzięczny	-11.0985
▁fra	-11.0985
▁14	-11.0987
▁następnego	-11.0988
ństwo	-11.0991
aż	-11.0992
▁formę	-11.0993
▁Wz	-11.0995
▁punkcie	-11.0995
▁Żaden	-11.0995
niesie	-11.0997
▁garść	-11.0997
▁rozdział	-11.0999
▁Meir	-11.0999
▁profesora	-11.1004
▁nazywać	-11.1005
▁szczycie	-11.1005
ok	-11.1006
▁przemysł	-11.1007
wych	-11.1009
kle	-11.1009
▁sztandar	-11.1009
▁naówczas	-11.101
▁Pol	-11.101
▁ryba	-11.1011
▁Jerzy	-11.1012
▁odwiedzić	-11.1013
▁potęgę	-11.1014
▁bogi	-11.1016
▁śmiertelnie	-11.1017
▁Tedy	-11.1018
▁spytałem	-11.1019
tej	-11.102
rzał	-11.1022
▁biją	-11.1022
▁trwoga	-11.1023
gór	-11.1025
▁dobrodziej	-11.1026
▁staw	-11.1028
▁ludność	-11.103
knął	-11.1031
▁wierzchu	-11.1031
▁von	-11.1031
▁spokojne	-11.1032
▁zaufanie	-11.1033
lin	-11.1033
▁Aleksander	-11.1037
▁przodków	-11.1037
▁odzywa	-11.1037
▁chłód	-11.1037
▁wszytko	-11.1037
▁Dosyć	-11.1037
▁powieść	-11.1038
▁nuż	-11.1038
▁Henryka	-11.1038
▁11	-11.104
▁zdobycz	-11.1043
ciągnął	-11.1043
▁głębokiej	-11.1045
▁sprzyja	-11.1047
▁spotkała	-11.1047
▁Stach	-11.105
▁obowiązków	-11.1051
▁zimną	-11.1051
▁geniusz	-11.1051
▁najlepszy	-11.1053
▁czekają	-11.1054
▁ciężka	-11.1054
nach	-11.1055
▁nagie	-11.1056
▁pewności	-11.1056
▁ska	-11.1057
▁sprowadził	-11.1061
▁mowie	-11.1062
▁dojrzeć	-11.1065
▁wchodził	-11.1066
▁kilkadziesiąt	-11.1067
▁drzewami	-11.1068
▁zachodzi	-11.1072
▁szczęśliwym	-11.1073
▁błaga	-11.1077
▁pokolenia	-11.1079
▁pozwól	-11.1082
▁dotknął	-11.1082
▁porządnie	-11.1082
ion	-11.1083
▁dowieść	-11.1084
▁sztab	-11.1085
▁styl	-11.1085
▁zmieniła	-11.1087
ing	-11.109
▁stracić	-11.109
▁dziwną	-11.1091
arzy	-11.1091
▁Będziesz	-11.1092
czona	-11.1093
▁Wszędzie	-11.1093
▁echo	-11.1093
▁opór	-11.1094
▁Stan	-11.1096
pat	-11.1097
▁wozu	-11.11
snął	-11.11
▁udziału	-11.1102
▁puścić	-11.1102
▁krwawe	-11.1102
lach	-11.1105
▁Klara	-11.1108
▁die	-11.1108
▁uśmiechnęła	-11.1109
▁pęk	-11.111
▁posiadają	-11.1111
▁spokojnym	-11.1111
▁czuwa	-11.1114
▁wołała	-11.1114
▁Najpierw	-11.1118
▁Van	-11.1118
cel	-11.112
▁itp	-11.1122
pust	-11.1124
▁poszło	-11.1125
cych	-11.1126
▁fe	-11.1133
▁chrześcijański	-11.1133
▁20	-11.1135
▁łożu	-11.1135
▁diabli	-11.1135
ret	-11.1136
jszych	-11.1136
▁spostrzegłem	-11.1139
▁górą	-11.1141
▁oddała	-11.1144
▁wyrwać	-11.1144
▁raju	-11.1145
▁porzucił	-11.1147
tes	-11.1148
▁insze	-11.1148
▁miła	-11.1148
▁dobrzy	-11.115
kuje	-11.1152
▁obawa	-11.1152
▁wystąpił	-11.1153
▁7	-11.1154
▁kij	-11.1154
▁wdzięku	-11.1158
▁uwierzył	-11.1158
▁bab	-11.1165
zja	-11.117
▁pusto	-11.1173
▁kłam	-11.1173
▁Mon	-11.1176
▁Winicjusz	-11.1177
▁przedpokoju	-11.1177
▁wielkość	-11.1178
▁grzechy	-11.118
▁imiona	-11.118
▁starość	-11.118
▁różnicy	-11.1181
▁maja	-11.1183
▁wątpię	-11.1188
▁trudne	-11.1189
▁tajemnica	-11.1189
▁prawą	-11.119
▁okresie	-11.1191
włos	-11.1192
à	-11.1192
nką	-11.1193
▁książąt	-11.1198
▁mniejsze	-11.12
stawić	-11.1201
▁spali	-11.1204
▁Solski	-11.1207
▁vi	-11.1208
▁liczbę	-11.1209
▁noga	-11.1213
▁łona	-11.1215
▁siostrze	-11.1219
▁miota	-11.1219
▁gotowy	-11.1219
▁opieki	-11.122
▁usłyszeć	-11.1221
▁potrzebę	-11.1221
▁szmat	-11.1222
▁wszystkiemu	-11.1222
▁Naprzód	-11.1222
szczą	-11.1223
świat	-11.1224
▁wróg	-11.1224
▁zachowa	-11.1225
▁trzecim	-11.1226
▁oznacza	-11.1226
▁zauważyła	-11.1226
▁niecierpliwości	-11.1229
▁zewsząd	-11.1234
▁pozorem	-11.1235
▁zjawia	-11.1236
▁Fr	-11.1236
▁okrzyki	-11.1236
▁słuch	-11.1236
▁wyrazów	-11.1237
▁wyobraża	-11.1242
▁Was	-11.1244
▁udawał	-11.1246
▁bram	-11.1247
▁Charlus	-11.1248
▁straszliwie	-11.1249
▁wrzask	-11.1253
▁ciężkich	-11.1255
▁końcem	-11.1257
▁nazad	-11.1257
▁kosztem	-11.1258
▁postanowienie	-11.1258
▁pamiętał	-11.126
▁podstaw	-11.126
▁niepokojem	-11.1261
▁wdzięk	-11.1261
▁ojczyźnie	-11.1263
▁zupełną	-11.1263
▁kompanii	-11.1263
▁sumę	-11.1263
▁dźwiga	-11.1268
▁mnich	-11.127
łożę	-11.127
alnie	-11.1271
ąt	-11.1273
▁kawałki	-11.1273
▁odbiera	-11.1276
▁jaw	-11.1276
▁łuk	-11.1278
▁wygodnie	-11.1279
staje	-11.128
▁żywych	-11.1281
isty	-11.1282
trzy	-11.1283
ö	-11.1284
ura	-11.1287
▁oparty	-11.129
▁przebiegł	-11.1291
▁właściwości	-11.1291
▁Niebawem	-11.1291
▁wygra	-11.1292
▁mocne	-11.1294
▁Marii	-11.1295
▁metrów	-11.1297
▁wyraził	-11.1301
▁okropne	-11.1301
▁rozmyślał	-11.1305
▁kawiarni	-11.1306
▁sprzeczności	-11.1306
▁karabin	-11.1306
sob	-11.1308
▁dziadka	-11.131
cje	-11.1311
▁powtarzam	-11.1313
▁Coraz	-11.1313
▁Mie	-11.1314
▁przerażenia	-11.1315
don	-11.1317
▁wódki	-11.132
▁nieznacznie	-11.132
▁polecił	-11.1321
▁Nieprawdaż	-11.1321
▁dziwił	-11.1322
▁coby	-11.1323
▁krąg	-11.1324
Y	-11.1324
▁Sze	-11.1325
▁spotkania	-11.1331
▁minął	-11.1331
▁łagodny	-11.1332
▁handel	-11.1334
▁dokonał	-11.1338
▁złożony	-11.1339
▁zdrowe	-11.134
▁zmysł	-11.1341
▁kładł	-11.1344
ris	-11.1346
▁zowie	-11.1346
▁szaleństwo	-11.1347
▁komedii	-11.1349
▁szkół	-11.1349
▁sześćdziesiąt	-11.1349
▁nikim	-11.135
▁patrzyli	-11.135
▁płot	-11.1353
▁niżeli	-11.1354
▁kupiec	-11.1354
▁dokonać	-11.1354
▁rogi	-11.1355
niony	-11.1359
patrywał	-11.1363
Wy	-11.1366
▁wychowanie	-11.1368
▁wrócę	-11.1369
▁poroz	-11.1369
▁charakterze	-11.137
▁Sen	-11.137
▁jadła	-11.1371
▁bezpośrednio	-11.1372
▁ciągnąc	-11.1372
▁pogan	-11.1373
▁podała	-11.1374
pt	-11.1377
▁węgla	-11.1378
▁żywności	-11.1378
▁prezent	-11.138
▁Mag	-11.1383
▁odwraca	-11.1383
▁zamiary	-11.1383
dzone	-11.1385
!...”	-11.1385
▁królewskie	-11.1386
▁chciałby	-11.1388
▁padał	-11.139
▁ukazuje	-11.139
▁królestwo	-11.1391
cisnął	-11.1391
▁piasek	-11.1392
noś	-11.1392
▁dróg	-11.1392
▁zobaczysz	-11.1393
▁wstęp	-11.1394
▁Niby	-11.1394
▁powiedzieli	-11.1402
▁bezpiecznie	-11.1403
▁uderzyła	-11.1404
▁stryja	-11.1404
▁pomyślałem	-11.1405
▁nieszczęsny	-11.1406
▁zachodu	-11.1406
▁jazdy	-11.1406
▁starszych	-11.1407
▁dokument	-11.1408
tką	-11.141
▁widzicie	-11.142
dzony	-11.142
gów	-11.142
▁nadeszła	-11.1421
▁powodów	-11.1421
sem	-11.1422
lis	-11.1424
▁wznosząc	-11.1424
robi	-11.1426
▁ładny	-11.1428
▁usług	-11.1432
▁opowiem	-11.1434
▁warg	-11.1434
▁mgnieniu	-11.1435
▁opinii	-11.1435
▁Dziecko	-11.1435
▁Pierwsze	-11.1439
alne	-11.1441
▁liczył	-11.1442
nieśli	-11.1446
?»	-11.1448
▁zdobywa	-11.1449
▁nieruchomy	-11.145
▁jutra	-11.145
▁czystym	-11.1451
▁wesołość	-11.1455
▁otacza	-11.1455
▁zdumieniem	-11.1458
▁trud	-11.1463
▁hultaj	-11.1464
▁kowal	-11.1465
▁rozpaczą	-11.1468
▁poważne	-11.1468
▁byłyby	-11.1471
jącymi	-11.1476
▁ceni	-11.1478
▁psów	-11.1481
Ch	-11.1482
▁9	-11.1485
▁ranny	-11.1487
▁potwierdził	-11.1487
▁onego	-11.1491
▁poz	-11.1492
▁względzie	-11.1493
▁żelazne	-11.1494
▁wybuchnął	-11.1495
▁rzadkie	-11.1495
▁oczów	-11.1495
▁cygan	-11.1496
▁Około	-11.1496
▁rozwija	-11.1497
▁zapadł	-11.1502
▁synowie	-11.1502
▁spogląda	-11.1503
▁pędzi	-11.1504
ód	-11.1506
▁kancelarii	-11.1508
▁koloru	-11.1509
▁płaci	-11.151
▁czerwonym	-11.151
▁podziwu	-11.151
dził	-11.1512
▁najpiękniejsze	-11.1516
▁postanowiłem	-11.1516
▁niewolę	-11.1523
▁hotel	-11.1524
▁boć	-11.1531
wki	-11.1531
▁Zosia	-11.1531
ep	-11.1538
▁Brat	-11.1539
▁soli	-11.1539
▁prąd	-11.1543
▁zrozumiała	-11.1543
▁jesieni	-11.1544
▁poznała	-11.1546
aniem	-11.1551
▁powiek	-11.1551
oni	-11.1551
▁ganku	-11.1552
▁kro	-11.1552
éć	-11.1556
art	-11.1558
roni	-11.1558
▁doszło	-11.1559
▁wspomniał	-11.156
▁Czyś	-11.1561
▁tworząc	-11.1562
zię	-11.1562
drze	-11.1563
▁przestała	-11.1564
▁synowi	-11.1565
▁plany	-11.1566
▁pełnej	-11.1566
▁gabinecie	-11.1567
▁poważny	-11.1567
szę	-11.1567
▁stokroć	-11.1567
▁niespokojny	-11.1569
▁ślepy	-11.1572
jedna	-11.1573
▁niewiasta	-11.1574
▁dziełem	-11.1575
▁zamierzał	-11.1578
▁palm	-11.1578
zka	-11.1579
Ale	-11.158
▁pociągnął	-11.1583
▁wrót	-11.1586
▁łotr	-11.159
tr	-11.1593
▁sądy	-11.1595
▁Chodzi	-11.1595
▁przytomności	-11.1596
▁obcym	-11.1597
▁uszach	-11.1598
▁Pamiętaj	-11.1599
▁Podobnie	-11.1599
▁pije	-11.16
▁pułku	-11.1601
▁odzież	-11.1602
cio	-11.1602
▁Cud	-11.1603
▁klęski	-11.1603
▁zbierał	-11.1605
stali	-11.1606
▁taj	-11.1606
▁Pie	-11.1609
▁przytomność	-11.1611
▁wejścia	-11.1611
▁stołem	-11.1612
▁domach	-11.1612
▁lament	-11.1613
▁spotkałem	-11.1618
▁pytała	-11.1622
▁czyniła	-11.1623
▁twórczości	-11.1626
▁parasol	-11.1626
▁wierszy	-11.1632
▁1.	-11.1632
▁Tomasz	-11.1633
▁tańca	-11.1633
▁znałem	-11.1635
prawił	-11.1638
▁mężowi	-11.1639
▁otchłani	-11.1639
▁zaprawdę	-11.1639
▁Inne	-11.1639
▁niesłychanie	-11.164
▁Jedni	-11.1641
▁przywiązanie	-11.1642
▁brzegów	-11.1643
▁ubrania	-11.1643
ita	-11.1649
▁uspokoić	-11.1649
tum	-11.165
▁odmawia	-11.1651
▁lasem	-11.1652
lej	-11.1653
▁skromnie	-11.1653
▁Pantagruel	-11.1655
▁wszelka	-11.1655
▁zad	-11.1656
▁Ju	-11.1657
▁Cosel	-11.1659
▁narzędzia	-11.166
iści	-11.1664
net	-11.1664
▁radził	-11.1665
▁trój	-11.1667
▁Rzekł	-11.1669
▁przyznał	-11.167
▁wybrzeża	-11.167
▁własna	-11.167
▁skrzyp	-11.167
▁Panurg	-11.1672
tyk	-11.1673
▁oddawał	-11.1675
▁grom	-11.1675
▁zachowanie	-11.1677
▁generała	-11.1679
rs	-11.168
świadom	-11.1681
▁zrobili	-11.1681
V	-11.1684
▁określa	-11.1685
▁wiosnę	-11.1685
▁wiosny	-11.1685
▁energii	-11.1685
▁obóz	-11.1686
▁Fal	-11.1687
gada	-11.1688
jem	-11.1692
owéj	-11.1694
▁chorągwi	-11.1695
▁śmieszne	-11.1697
▁potęga	-11.1698
▁Dzisiaj	-11.17
▁fabryk	-11.17
▁Bambi	-11.17
▁wzruszenie	-11.1702
end	-11.1703
▁śliczne	-11.1706
łaś	-11.1711
▁święci	-11.1711
nięte	-11.1713
▁schował	-11.1714
▁zostawi	-11.1714
▁pień	-11.1714
▁wzruszony	-11.1714
arze	-11.1717
▁Mama	-11.1717
▁miliony	-11.1719
▁Anioł	-11.1721
▁Weź	-11.1721
dzy	-11.1725
asz	-11.1729
▁księciem	-11.173
▁Wcale	-11.173
▁błota	-11.1732
▁Sokratesie	-11.1736
▁sprowadzić	-11.1737
▁szybkością	-11.1737
▁popatrzył	-11.1738
▁Liza	-11.1738
▁Dam	-11.174
zki	-11.174
▁przyjmie	-11.174
▁lądu	-11.174
▁tru	-11.1741
▁Ameryki	-11.1745
▁rzędu	-11.1745
▁naszemu	-11.1746
▁dary	-11.1747
▁Dobek	-11.1748
▁Rozumiem	-11.1748
▁porywa	-11.1749
▁tłumaczy	-11.1752
▁arcy	-11.1753
▁mięso	-11.1753
▁spadnie	-11.1754
▁gdyśmy	-11.1756
▁biegnąc	-11.1758
gno	-11.1761
▁Tych	-11.1762
czeń	-11.1768
▁godny	-11.1768
▁głuche	-11.1769
▁ptaka	-11.1773
▁spełnił	-11.1774
▁nabrał	-11.1774
▁Morrel	-11.1774
▁nieznajomy	-11.1774
▁przekonanie	-11.1778
▁Mistrz	-11.1779
▁przystąpił	-11.178
▁wesela	-11.178
▁wyszło	-11.1781
▁przychodzą	-11.1783
▁szpieg	-11.1786
▁właściwe	-11.1786
▁jawnie	-11.1788
▁spokojna	-11.1789
▁obłoki	-11.179
▁opowiadanie	-11.179
owców	-11.18
kował	-11.1801
▁straciła	-11.1802
▁zarys	-11.1803
▁chór	-11.1804
▁stawała	-11.1805
▁gest	-11.1805
płynął	-11.1805
▁prawdziwej	-11.1808
▁symbol	-11.1809
▁wychodzą	-11.1809
▁głośniej	-11.181
▁spadła	-11.1811
nna	-11.1811
▁skierował	-11.1812
szedłszy	-11.1812
▁oczekiwał	-11.1812
▁Spraw	-11.1813
▁skrzydłami	-11.1814
▁zamknięty	-11.1815
▁robię	-11.1816
▁Cygan	-11.1817
▁twarzach	-11.1818
▁stojącego	-11.1818
▁wysokiej	-11.1819
trzyma	-11.1819
▁chwała	-11.182
Przy	-11.182
▁trzysta	-11.182
▁krople	-11.1821
ika	-11.1821
gad	-11.1824
▁gorsze	-11.1825
▁składając	-11.1825
▁tłumacz	-11.1825
lle	-11.1826
▁nieboszczyk	-11.1827
▁ożenił	-11.1827
▁pośpiechu	-11.1828
▁pisania	-11.1828
▁tłumie	-11.1829
▁przygotowania	-11.1829
bla	-11.1831
▁ilu	-11.1831
▁ściskał	-11.1832
▁padła	-11.1833
▁usłyszawszy	-11.1835
▁Pozna	-11.1838
▁któremi	-11.1838
▁świst	-11.1839
▁tęskni	-11.184
▁stwarza	-11.1841
▁Zaczął	-11.1847
▁odebrał	-11.1847
▁chodzą	-11.1849
▁względów	-11.185
▁zakończył	-11.1852
▁poddać	-11.1855
strzy	-11.1855
▁popęd	-11.1857
▁zobaczę	-11.1857
▁wiatrem	-11.186
▁poręcz	-11.186
▁budząc	-11.1863
▁wziąłem	-11.1863
▁życzenia	-11.1865
▁promień	-11.1865
▁otworzyły	-11.1866
▁sieci	-11.1866
▁zawrócił	-11.1867
▁wystaw	-11.1869
▁trzema	-11.187
czyli	-11.187
▁wuja	-11.1871
pina	-11.1871
stał	-11.1873
▁słodki	-11.1874
▁wdowa	-11.1877
▁pańskiej	-11.1877
▁kupi	-11.1878
lski	-11.1878
▁wyobrażenia	-11.188
kop	-11.1881
▁ułożył	-11.1883
▁pociechę	-11.1883
▁sądzisz	-11.1883
▁skar	-11.1886
▁ocalić	-11.1886
▁przyjmować	-11.1886
dzenie	-11.1886
puszczony	-11.1891
▁prowadząc	-11.1891
▁usiłując	-11.1892
▁gardła	-11.1896
▁Ziemia	-11.1896
▁Obie	-11.1898
▁żałośnie	-11.1898
▁Pomyśl	-11.1898
▁słyszysz	-11.19
▁zadania	-11.1901
▁trwać	-11.1901
lana	-11.1902
▁wyjściu	-11.1903
▁wypowiada	-11.1904
czony	-11.1905
knęła	-11.1905
▁przyniesie	-11.1906
▁zgubił	-11.1907
▁sło	-11.1907
▁herbaty	-11.191
▁dziedzińcu	-11.191
▁rozsądek	-11.191
▁stosunkach	-11.191
trza	-11.1912
▁Czasami	-11.1914
▁westchnieniem	-11.1915
▁Trzeci	-11.1919
masz	-11.1922
▁Juliana	-11.1922
niosła	-11.1923
▁rewolucji	-11.1926
▁zamyślony	-11.1926
▁krajobraz	-11.1926
▁cudem	-11.1927
▁szczery	-11.1929
owanego	-11.1929
▁zbliżyć	-11.1931
▁spoczywa	-11.1933
▁kal	-11.1934
▁używał	-11.1936
▁modlić	-11.1938
▁odkąd	-11.1938
▁zasłużył	-11.1941
▁staruszka	-11.1941
▁Czuję	-11.1943
▁sekretarz	-11.1943
▁położyła	-11.1946
▁nicht	-11.1949
▁wiedza	-11.1949
▁panowała	-11.195
▁ciszę	-11.1951
land	-11.1952
▁zmusza	-11.1953
▁kimś	-11.1953
▁przeszkody	-11.1956
▁umyśle	-11.1956
▁świcie	-11.1956
▁tęgi	-11.1957
▁Święty	-11.1957
▁dziele	-11.1958
ag	-11.1959
▁przystoi	-11.1961
▁znaczyć	-11.1962
▁popełnił	-11.1964
▁skry	-11.1966
noszę	-11.1967
ice	-11.1969
▁porucznik	-11.197
zną	-11.1971
▁pozycji	-11.1971
▁Polacy	-11.1973
▁zechciał	-11.1976
▁bilet	-11.1977
▁uległ	-11.1978
prost	-11.198
▁czysta	-11.1981
budowa	-11.1983
▁postanowiła	-11.1984
▁ściskając	-11.1985
lni	-11.1986
▁jasnym	-11.1987
▁Eugeniusz	-11.1987
▁Rênal	-11.1987
▁chorobę	-11.1987
▁Mąż	-11.1987
▁fałsz	-11.1987
▁pożegnanie	-11.1987
▁sąsiadów	-11.1989
▁kla	-11.1992
▁masy	-11.1993
▁lekkim	-11.1994
▁drzewem	-11.2001
▁priori	-11.2002
▁John	-11.2002
▁wyjazdu	-11.2003
▁Zupełnie	-11.2004
▁świadom	-11.2005
icy	-11.2006
▁pamiętaj	-11.2007
▁rzece	-11.2009
▁obawiał	-11.2009
▁przeciwnika	-11.201
nko	-11.201
▁pokarm	-11.2011
cik	-11.2016
źnie	-11.2016
▁rozwi	-11.2016
lić	-11.2019
▁żywą	-11.2019
▁napisane	-11.2021
▁kłamstwo	-11.2031
▁wysokiego	-11.2031
▁prośbą	-11.2033
▁męstwo	-11.2033
▁Oprócz	-11.2034
▁Idę	-11.2034
▁twardo	-11.2034
ione	-11.2035
żony	-11.2036
▁zauważyć	-11.2037
ńscy	-11.2037
jadł	-11.2038
▁zapłaci	-11.2039
▁artykuł	-11.204
▁ktokolwiek	-11.2041
siedli	-11.2043
onymi	-11.2044
▁cofa	-11.2045
stych	-11.2047
▁nieszczęść	-11.2048
▁przeciwnym	-11.2048
▁przeznaczone	-11.2049
▁wierz	-11.2049
▁bohatera	-11.2052
▁poświęcić	-11.2052
▁widmo	-11.2053
▁rozpozna	-11.2054
▁Pe	-11.2056
▁zdać	-11.2057
▁Sokratesa	-11.2057
▁podziw	-11.2058
▁położenia	-11.2059
▁wyrabia	-11.206
▁słuszne	-11.2061
▁dwunastu	-11.2064
▁przebywał	-11.2064
alną	-11.2067
▁Ojca	-11.207
▁Lis	-11.2075
▁ło	-11.2075
▁dziewic	-11.2076
▁podobało	-11.2076
▁znosi	-11.2076
czności	-11.2077
ine	-11.2078
▁korzystać	-11.2078
▁postępowanie	-11.2078
▁błędy	-11.2079
▁pięćset	-11.208
ir	-11.208
bez	-11.2084
▁Bal	-11.2088
wodzi	-11.2088
▁przeczyta	-11.2089
▁trzej	-11.209
lazł	-11.2091
”?	-11.2091
mów	-11.2091
▁mość	-11.2091
▁względy	-11.2095
▁wyobrażenie	-11.2095
▁przyjęcia	-11.2095
▁dużą	-11.2096
▁życzenie	-11.2097
▁pociąga	-11.2097
ä	-11.2097
▁pysk	-11.2098
bijał	-11.21
▁opiekun	-11.21
▁zdumienie	-11.21
▁prób	-11.2101
▁rytm	-11.2106
łóż	-11.2106
▁uspokoił	-11.211
▁stopień	-11.2111
▁zde	-11.2112
ux	-11.2112
▁Czar	-11.2113
kładać	-11.2114
▁urzędników	-11.2114
▁przykry	-11.2115
▁swemi	-11.2116
▁trakt	-11.2117
▁pożegnać	-11.2118
▁osad	-11.2119
kiewicz	-11.2119
▁smutnym	-11.212
▁odpowiadając	-11.2123
▁żałował	-11.2124
▁murem	-11.2125
▁artysta	-11.2126
▁teorii	-11.2126
▁warta	-11.2126
▁głośne	-11.2126
▁serio	-11.2126
▁nur	-11.2129
▁wysiłkiem	-11.2129
▁zatrzymała	-11.213
▁zwykły	-11.2136
▁pociągu	-11.2137
▁pośpiechem	-11.2138
▁zobaczymy	-11.2139
duch	-11.2139
▁długości	-11.2139
▁ponownie	-11.2141
▁ramieniem	-11.2141
▁żelaza	-11.2143
kowej	-11.2148
siadł	-11.2148
▁interesy	-11.2149
▁panowanie	-11.2149
▁żywym	-11.2149
▁gi	-11.2149
▁Heyst	-11.2149
▁odczuwał	-11.215
▁chorych	-11.2153
▁lato	-11.2156
yk	-11.2158
▁dziewczynki	-11.2159
rodzi	-11.216
▁zmierza	-11.2161
▁postawie	-11.2166
▁post	-11.2167
▁zrobiłem	-11.2168
▁front	-11.2169
cenia	-11.217
▁miecza	-11.217
▁strasznym	-11.2171
▁resztki	-11.2172
▁gro	-11.2174
▁jednostki	-11.2174
▁miss	-11.2175
▁skończyło	-11.2175
▁herbatę	-11.2176
▁Ziemi	-11.2176
▁lodow	-11.2177
▁sprawić	-11.2179
wca	-11.218
▁000	-11.2181
▁wskazywał	-11.2188
▁Czeka	-11.2191
▁przyrzekł	-11.2192
▁druh	-11.2194
daj	-11.2197
▁ponury	-11.2201
▁odjechał	-11.2202
prowadzili	-11.2202
▁grze	-11.2202
▁ważył	-11.2203
▁marszałek	-11.2204
nk	-11.2205
eta	-11.2205
▁ranka	-11.221
▁posłów	-11.221
▁głupstwa	-11.2212
▁wściekłości	-11.2212
twór	-11.2212
▁wyciągając	-11.2213
▁tuman	-11.2214
pl	-11.2214
▁odmiany	-11.2217
▁spoczynek	-11.2219
▁przeklęty	-11.2219
▁średni	-11.222
▁pokornie	-11.2221
iło	-11.2225
▁jedzenia	-11.2225
▁kochają	-11.2227
▁próbę	-11.2232
▁unika	-11.2234
▁miłosierdzia	-11.2235
▁rewolwer	-11.2235
lona	-11.2236
▁złożone	-11.2236
▁troska	-11.2237
▁spory	-11.2239
▁cieniem	-11.2239
oli	-11.224
▁rosły	-11.224
▁przedsię	-11.2241
rzuca	-11.2241
jechał	-11.2241
▁8	-11.2241
▁wyroku	-11.2242
▁ogniste	-11.2242
▁trupem	-11.2243
yn	-11.2244
brali	-11.2246
▁Mont	-11.2247
▁biednej	-11.2248
▁czegóż	-11.2251
▁mleko	-11.2251
▁ciszej	-11.2251
▁formuł	-11.2252
▁czwarty	-11.2255
tyn	-11.2255
▁pielgrzym	-11.2255
▁róża	-11.2258
waniu	-11.2258
szył	-11.2258
▁wyciągnąć	-11.2259
▁otwór	-11.2261
▁chy	-11.2261
wiad	-11.2262
▁chałupy	-11.2262
źni	-11.2266
▁bro	-11.2266
▁druk	-11.2266
pamięta	-11.2267
▁ryk	-11.2268
▁żywioł	-11.2268
czny	-11.2269
▁poszedłem	-11.2269
▁Wil	-11.2271
▁kąta	-11.2276
▁salę	-11.2278
▁biskupa	-11.2279
▁głęboka	-11.2282
▁rachunek	-11.2282
▁obficie	-11.2282
▁wozów	-11.2283
▁niechęć	-11.2283
▁twierdził	-11.2284
▁wpływu	-11.2284
▁wstecz	-11.2286
▁wyższe	-11.2286
▁ruszyli	-11.2286
▁Ce	-11.2287
▁podając	-11.2287
▁żyd	-11.2288
▁czapki	-11.2288
▁łaskawie	-11.229
▁własnymi	-11.2291
▁pędem	-11.2294
▁zasługi	-11.2295
acyj	-11.2296
▁dachem	-11.2296
▁umierać	-11.2297
▁oszalał	-11.2297
siu	-11.2297
▁chcieć	-11.2298
▁znużony	-11.2298
▁zakochany	-11.2299
▁książce	-11.2299
dło	-11.2303
▁tajemnice	-11.2304
▁zachowania	-11.2306
▁grę	-11.2307
▁Kara	-11.2308
▁głupia	-11.2308
▁dalekich	-11.2308
▁krytyk	-11.2308
▁nastąpi	-11.2308
▁starała	-11.2309
▁kwiatami	-11.2311
▁środkiem	-11.2311
▁wykład	-11.2312
▁ciekawy	-11.2313
▁zabrakło	-11.2314
▁ośmiu	-11.2314
▁grożąc	-11.2314
▁zaufania	-11.2314
▁uciekał	-11.2315
▁rym	-11.2316
▁przerwa	-11.2317
ywali	-11.2318
▁polskim	-11.2319
▁bogate	-11.232
▁Wiedz	-11.232
▁poprawił	-11.2321
▁poprosił	-11.2322
▁zbytnio	-11.2324
▁układa	-11.2324
▁poradzić	-11.2326
▁Prawie	-11.2326
▁silnym	-11.2328
▁zwłok	-11.2329
▁pozwoliła	-11.2332
qui	-11.2333
▁Królowa	-11.2338
▁ślubu	-11.2338
▁oglądając	-11.2339
*”	-11.234
▁bada	-11.234
▁wykrzyknęła	-11.2346
▁miałbym	-11.2348
ers	-11.2348
▁końmi	-11.2349
ęd	-11.2351
▁władz	-11.2357
▁słodko	-11.2362
▁uroczystości	-11.2362
▁czerwona	-11.2362
▁kochanie	-11.2362
▁pokoje	-11.2363
▁śledzi	-11.2366
▁cudze	-11.2369
▁Mikołaj	-11.2372
▁lin	-11.2375
▁piszę	-11.2377
lewa	-11.2377
wsze	-11.2378
▁przypuszcza	-11.238
▁Kra	-11.2383
▁pomaga	-11.2383
▁sąsiada	-11.2383
cznym	-11.2385
▁starać	-11.2386
▁nauczyciela	-11.2388
▁miasteczku	-11.2394
▁wezwał	-11.2394
▁Źle	-11.2394
▁szklankę	-11.2396
▁Las	-11.2396
▁sejm	-11.2397
ńców	-11.2398
▁uczynili	-11.24
▁konno	-11.24
▁małp	-11.2401
▁szczęśliwe	-11.2402
rab	-11.2402
▁Dał	-11.2405
▁surowy	-11.2406
▁liczbie	-11.2412
▁gorszy	-11.2413
▁domyślił	-11.2413
prasza	-11.2413
lny	-11.2414
▁posyła	-11.2414
▁okaz	-11.2415
tnie	-11.2415
▁popraw	-11.2419
▁powtarzać	-11.2422
▁zapewnić	-11.2422
▁utracił	-11.2423
▁usunąć	-11.2424
▁cnotę	-11.2425
▁koncert	-11.2425
▁umiejętności	-11.2425
▁budowy	-11.2427
▁leżało	-11.2428
▁wyskoczył	-11.2429
▁zdrady	-11.2429
▁Kal	-11.2429
▁oczekując	-11.243
rgi	-11.243
tion	-11.2431
▁piór	-11.2432
▁wahał	-11.2432
▁Żona	-11.2436
dek	-11.2436
▁najwyższego	-11.2437
▁waha	-11.244
▁Petroniusz	-11.2441
▁instrument	-11.2441
▁wieczerzę	-11.2441
▁mleka	-11.2441
▁odbył	-11.2443
gor	-11.2444
▁pozwolenie	-11.2445
▁Obaj	-11.2445
▁gazety	-11.2446
▁praktyk	-11.2447
▁odpowiadać	-11.2448
▁Słowo	-11.2452
▁potraw	-11.2454
▁opas	-11.2456
▁przedmiocie	-11.2457
▁skinął	-11.2457
▁kłótni	-11.2458
▁bliski	-11.2459
▁ca	-11.2459
▁pył	-11.2459
▁umrze	-11.2464
▁żebra	-11.2464
▁umiesz	-11.2465
▁grup	-11.2466
▁ciekawości	-11.2468
▁pla	-11.2469
▁młynarz	-11.2471
▁student	-11.2473
gnę	-11.2475
brze	-11.2476
▁wahania	-11.2481
▁dzwonek	-11.2481
▁szczęśliwą	-11.2482
▁straty	-11.2484
▁dniami	-11.2485
▁występ	-11.2486
▁największej	-11.2489
▁całował	-11.2489
▁kwit	-11.2492
stępując	-11.2498
▁świateł	-11.2499
▁żądał	-11.2499
▁wąż	-11.2501
olu	-11.2504
▁ver	-11.2505
▁żyły	-11.2506
▁latarni	-11.2506
▁zostanę	-11.2506
▁triumf	-11.2507
▁palców	-11.2507
▁ciepła	-11.2507
▁wstaje	-11.2507
▁większego	-11.2509
▁córce	-11.2509
Ż	-11.2511
▁pieniądz	-11.2511
▁zabrzmiał	-11.2511
jże	-11.2512
▁zbój	-11.2512
cąc	-11.2514
▁Usta	-11.2515
▁zwany	-11.2517
▁wysyła	-11.2517
▁tamci	-11.2518
▁słyszeli	-11.2519
▁dbał	-11.252
▁rządzi	-11.252
▁pija	-11.2521
▁tajemnicze	-11.2525
boga	-11.2527
▁zawód	-11.2528
▁cieszyć	-11.253
▁opat	-11.2532
▁ogromnym	-11.2532
▁zapomniała	-11.2534
▁aktu	-11.2534
▁zdał	-11.2534
▁oknach	-11.2536
▁interesu	-11.2537
▁świadczy	-11.2537
kur	-11.2538
▁należycie	-11.2538
▁Judym	-11.254
godnie	-11.254
rzyć	-11.2541
▁Niekiedy	-11.2542
▁piwa	-11.2543
▁własnością	-11.2544
▁zachód	-11.2544
▁hołd	-11.2546
▁Przeciw	-11.2547
▁niósł	-11.2549
▁pobiegła	-11.255
▁powodzi	-11.255
środ	-11.2553
▁siostrą	-11.2554
▁gwiazda	-11.2555
▁fabryki	-11.2557
szcz	-11.2558
▁Mur	-11.2559
▁ognie	-11.2562
▁skrzyni	-11.2562
mowa	-11.2565
▁doszła	-11.2566
▁hr	-11.2566
▁kule	-11.2568
▁szach	-11.257
niosę	-11.257
▁Hieronim	-11.2571
▁Gdym	-11.2571
▁świetnie	-11.2571
▁stado	-11.2572
▁chustkę	-11.2572
▁godność	-11.2575
▁inżynier	-11.2577
▁oręż	-11.2579
▁śpiesz	-11.258
rzucał	-11.2582
har	-11.2583
▁płod	-11.2583
▁zmarł	-11.2584
▁smutną	-11.2587
▁źródłem	-11.2587
▁wschód	-11.2587
▁inteligencji	-11.2587
▁suche	-11.2588
▁ponuro	-11.2588
czność	-11.2589
▁znaczną	-11.2589
▁chwytał	-11.259
dry	-11.2596
▁Strumieński	-11.2598
▁celów	-11.2599
▁Murzyn	-11.2599
▁staro	-11.2603
▁najgorsze	-11.2603
▁zawodu	-11.2603
▁najlepszych	-11.2605
▁szcze	-11.2607
▁przypominając	-11.2608
ręb	-11.2611
▁bólem	-11.2614
▁obawiać	-11.2616
▁try	-11.2617
▁zgodzić	-11.2617
▁pośpiesznie	-11.2618
▁Ech	-11.2619
▁prowadzą	-11.2624
wiec	-11.2625
▁piątej	-11.2628
▁rękopisie	-11.2628
▁faraon	-11.2636
▁królewska	-11.2637
▁zostałem	-11.2638
▁samotny	-11.264
▁kół	-11.2641
▁omal	-11.2643
▁świadectwo	-11.2644
▁wyjechać	-11.2645
▁niewolnik	-11.2645
▁bogactw	-11.2646
fon	-11.2649
▁próżne	-11.2652
▁zobaczyła	-11.2653
▁świadków	-11.2653
bia	-11.2654
▁Tar	-11.2654
▁pocałował	-11.2657
▁zadziwi	-11.2657
▁każę	-11.2657
▁czystości	-11.2658
▁Man	-11.2659
▁robotnik	-11.266
▁sukien	-11.266
▁lis	-11.2661
▁Byle	-11.2661
▁pozostały	-11.2662
▁Witolda	-11.2663
▁nadchodzi	-11.2663
▁Chodźmy	-11.2663
▁nożem	-11.2666
patrzył	-11.2666
▁troje	-11.267
bran	-11.2672
▁doprowadzić	-11.2673
▁mocny	-11.2673
▁twardy	-11.2674
▁tekst	-11.2675
▁Gor	-11.2676
▁potok	-11.2678
▁krainy	-11.2679
▁kier	-11.2681
▁Patrzy	-11.2681
Od	-11.2681
▁zmian	-11.2682
ad	-11.2683
▁bacznie	-11.2683
▁Jednym	-11.2685
▁chwałę	-11.2685
▁nieobecności	-11.2685
▁cudowne	-11.2685
▁Łatwo	-11.2685
▁nienawidzi	-11.2687
▁gna	-11.2688
▁ocean	-11.2689
▁jeśliby	-11.269
▁sprzedał	-11.2691
▁Stanął	-11.2694
kup	-11.2695
wala	-11.2695
▁płynął	-11.2695
▁zwykłym	-11.2696
▁śledził	-11.2698
czyna	-11.2699
▁królewskim	-11.27
00	-11.2702
▁przystęp	-11.2702
▁groszy	-11.2703
▁wyciągał	-11.2703
▁Aleksandra	-11.2706
▁chodziła	-11.2707
▁traw	-11.2709
▁sprawi	-11.271
zoną	-11.271
▁zachodni	-11.2711
▁znosił	-11.2713
▁upływie	-11.2718
▁poszły	-11.2719
▁chat	-11.272
▁znacznej	-11.2721
trwa	-11.2725
▁czystą	-11.2726
▁dzielny	-11.2727
▁żelazo	-11.2727
▁zawdzięcza	-11.2731
▁koszul	-11.2731
▁jęki	-11.2732
zar	-11.2733
pyt	-11.2734
▁uchodzi	-11.2734
raża	-11.2734
marszcz	-11.2734
▁wewnętrzne	-11.2734
▁wytrzymał	-11.2734
▁ubrana	-11.2735
▁Rosji	-11.2735
▁Not	-11.2736
▁wyzna	-11.2736
▁chorągwie	-11.2736
ole	-11.2737
▁stru	-11.2737
▁mę	-11.2738
▁modlitwę	-11.2738
▁słabo	-11.2739
▁rzucili	-11.2741
dną	-11.2743
▁lewą	-11.2743
▁Świ	-11.2745
▁odmówić	-11.2745
▁ukryty	-11.2746
▁zdrowy	-11.2749
niejszym	-11.2749
▁Słychać	-11.2751
▁niedbale	-11.2751
▁dra	-11.2751
▁daléj	-11.2753
▁gestem	-11.2754
▁starając	-11.2755
▁trupy	-11.2755
stat	-11.2759
▁baby	-11.2761
▁płyn	-11.2762
woli	-11.2764
▁boży	-11.2765
▁śpiesznie	-11.2765
▁dostrzega	-11.2766
▁chciały	-11.2767
▁złotym	-11.2768
▁ciemnościach	-11.2771
▁kochanek	-11.2771
▁wojskiem	-11.2771
▁zdolne	-11.2773
▁spostrzegłszy	-11.2773
zny	-11.2777
▁Rabi	-11.278
▁lecie	-11.2781
▁Powiedziałem	-11.2782
pomiędzy	-11.2783
▁milczy	-11.2784
wierz	-11.2785
puszcza	-11.2785
▁wielo	-11.2786
▁wieczny	-11.2788
▁okazywał	-11.2789
▁zebrać	-11.2791
▁woj	-11.2792
▁nędza	-11.2792
▁transcendentaln	-11.2795
▁oddycha	-11.2795
▁wypływa	-11.2796
▁państw	-11.2797
▁pieca	-11.2797
▁piec	-11.2799
▁wątpić	-11.2799
▁nurt	-11.28
rd	-11.28
▁wysiłku	-11.2801
arza	-11.2801
▁Trochę	-11.2801
▁całować	-11.2801
▁przyjemne	-11.2801
▁myśleli	-11.2802
▁umilkł	-11.2803
▁słoni	-11.2804
▁strasznego	-11.2806
lać	-11.2806
▁Rze	-11.2806
▁naszymi	-11.2807
▁papież	-11.2808
wego	-11.2809
▁wyrzucił	-11.2811
▁piersią	-11.2812
▁organizm	-11.2813
wój	-11.2814
▁zdradził	-11.2814
owaniem	-11.2815
▁gniazda	-11.2815
▁dozna	-11.2815
▁domku	-11.2816
▁winę	-11.2816
▁wszędy	-11.2817
▁Polak	-11.2823
▁kras	-11.2823
▁doliny	-11.2824
▁Anglik	-11.2826
▁niewolnic	-11.2828
▁biesiad	-11.283
owawszy	-11.2832
▁płynęły	-11.2832
▁godzinach	-11.2832
▁okrutny	-11.2832
▁owdzie	-11.2834
▁miewa	-11.2835
▁Dawniej	-11.2835
▁skór	-11.2838
▁chwytając	-11.2839
▁pożycz	-11.284
▁Wielkiego	-11.2841
▁dywan	-11.2842
▁poznanie	-11.2844
▁zdołała	-11.2844
▁tędy	-11.2845
▁zażądał	-11.2845
▁krzycząc	-11.2846
ctwo	-11.2846
▁przeciwne	-11.2849
▁Franz	-11.2851
▁posiadać	-11.2851
▁zmieszany	-11.2854
owską	-11.2854
▁biegiem	-11.2854
▁partii	-11.2855
▁Lucjana	-11.2858
ino	-11.2858
▁któren	-11.2858
▁Bud	-11.2859
płynąć	-11.2859
uk	-11.286
▁upadła	-11.2862
mus	-11.2862
▁problem	-11.2862
▁udała	-11.2863
▁puch	-11.2865
▁Części	-11.2867
▁Prawo	-11.2868
▁zerwała	-11.2869
▁pańskiego	-11.2869
▁wys	-11.2871
▁scena	-11.2872
▁tracił	-11.2875
▁dzie	-11.2877
▁kaplicy	-11.2877
▁drogo	-11.2878
▁gdziekolwiek	-11.2881
▁spis	-11.2882
▁dramat	-11.2882
▁czerni	-11.2883
▁równym	-11.2884
▁papierosa	-11.2884
▁Peggotty	-11.2884
▁podwórzu	-11.2884
▁szeroką	-11.2884
▁dwojga	-11.2884
▁Wielka	-11.2884
▁szlachetne	-11.2885
dyk	-11.2885
▁obrazem	-11.2887
usza	-11.2888
▁chudy	-11.289
▁wspomni	-11.2891
▁jaśniej	-11.2891
▁Kol	-11.2893
owanej	-11.2893
▁długiego	-11.2895
▁dochodził	-11.2896
▁płomienie	-11.2896
▁ceny	-11.2897
▁jakbym	-11.2897
arki	-11.2898
▁okaże	-11.2898
▁świec	-11.2899
▁Ramzes	-11.2899
▁roześmiał	-11.29
▁działalności	-11.2901
▁tworzą	-11.2902
prawi	-11.2902
▁pozbawiony	-11.2905
▁przyjaciółmi	-11.2909
▁usposobienie	-11.291
▁kurs	-11.2911
▁wprowadzić	-11.2914
▁pochodzenia	-11.2915
▁wyrzuty	-11.2915
▁pono	-11.2917
▁Franciszka	-11.2918
▁waży	-11.2918
▁Starzec	-11.2918
▁wybornie	-11.2919
▁kilkakrotnie	-11.2919
▁kuli	-11.2919
▁wisi	-11.2922
▁zadowolenia	-11.2923
▁tro	-11.2923
▁Mer	-11.2925
▁zamknęła	-11.2925
▁czub	-11.2926
▁sir	-11.2927
▁podpis	-11.293
▁charakterystycz	-11.2932
▁okolic	-11.2932
licz	-11.2934
▁potępia	-11.2934
▁zajęcie	-11.2938
▁Pła	-11.2938
pija	-11.2939
▁pytań	-11.2941
▁legł	-11.2941
berg	-11.2941
▁jasną	-11.2943
▁ur	-11.2943
cznych	-11.2944
rzucony	-11.2945
▁wyspę	-11.2946
▁płyt	-11.2947
▁wstrzymać	-11.2948
▁Naraz	-11.2948
▁pokazywał	-11.2949
▁wzgląd	-11.2951
▁przykrość	-11.2953
▁al	-11.2956
▁wychowania	-11.2956
▁ludem	-11.2958
stąpili	-11.296
▁Powoli	-11.2961
▁tęsknota	-11.2962
▁nieznany	-11.2962
▁tronie	-11.2963
▁gród	-11.2964
▁przemówić	-11.2965
▁sekund	-11.2966
▁małżonka	-11.2968
▁jeździł	-11.2969
▁pode	-11.297
▁poły	-11.2972
rosły	-11.2974
▁wyp	-11.2976
▁uciekła	-11.2979
▁okolicznościach	-11.298
▁zadał	-11.2982
▁lubiła	-11.2982
▁zarzut	-11.2982
▁stawić	-11.2983
▁chciwie	-11.2984
▁powietrzem	-11.299
▁broda	-11.2995
▁del	-11.2997
▁publicznych	-11.2998
ire	-11.2999
▁kata	-11.2999
dzieli	-11.3001
▁posłyszał	-11.3001
▁swoję	-11.3002
arka	-11.3002
▁pułk	-11.3003
▁postępowania	-11.3003
▁panienki	-11.3006
▁biega	-11.3007
vo	-11.3007
▁groźny	-11.3008
ien	-11.3009
▁Wit	-11.301
▁wyższych	-11.3011
▁dowiedziałem	-11.3012
▁pułkownika	-11.3012
▁dowie	-11.3012
▁morskie	-11.3013
▁Ali	-11.3014
▁uroku	-11.3014
chodź	-11.3015
▁korzysta	-11.3015
▁faktów	-11.3016
▁większych	-11.3016
▁szara	-11.3018
széj	-11.3018
kową	-11.3019
▁es	-11.3019
▁odeszła	-11.3019
▁gardle	-11.3019
▁zbrodnię	-11.302
▁podejrzenia	-11.302
▁brała	-11.3022
*...	-11.3024
▁minęło	-11.3024
▁obchodzić	-11.3026
▁kołnierz	-11.3027
▁step	-11.3028
▁przestaje	-11.303
rzucił	-11.3031
bój	-11.3031
▁połowa	-11.3032
▁wołanie	-11.3035
▁cnót	-11.3036
▁zębów	-11.3036
▁najwyższe	-11.3038
▁Ver	-11.3038
▁królewna	-11.3039
▁wiedzę	-11.3039
▁ubogi	-11.304
N	-11.3041
▁żądanie	-11.3041
▁mniemanie	-11.3041
▁wymówił	-11.3041
▁usłyszała	-11.3043
niosło	-11.3044
▁przesąd	-11.3045
▁boże	-11.3047
▁przypominał	-11.305
czem	-11.3052
nii	-11.3053
grz	-11.3054
▁Niebo	-11.3055
▁3.	-11.3057
ciąga	-11.3057
▁czynili	-11.3058
▁przemawiał	-11.3058
▁prof	-11.306
▁psi	-11.3061
▁grzeczny	-11.3064
▁wytwor	-11.3066
▁każą	-11.3068
▁gniazdo	-11.3069
▁uroczy	-11.307
▁Dokąd	-11.3072
▁dasz	-11.3074
▁pusta	-11.3074
niosłem	-11.3076
mel	-11.3076
▁zdrad	-11.3078
▁bry	-11.3078
sadzić	-11.3079
▁bogom	-11.3081
▁gazet	-11.3082
▁zabrania	-11.3083
▁śmiesz	-11.3083
▁złej	-11.3085
▁pożytek	-11.3087
ph	-11.3087
▁odebrać	-11.3088
▁znakiem	-11.3088
▁występuje	-11.3088
▁pamiętasz	-11.309
▁qui	-11.3091
twa	-11.3091
▁widoczne	-11.3092
▁przypominam	-11.3092
▁uczeni	-11.3094
▁nu	-11.3094
gh	-11.3095
▁wita	-11.3095
▁Rząd	-11.3096
tzw	-11.3097
▁traf	-11.3097
▁upał	-11.3098
▁brali	-11.3098
▁odmówił	-11.3099
▁sławny	-11.3101
ctwa	-11.3101
▁zbliżyła	-11.3103
▁postacią	-11.3103
▁założył	-11.3104
▁religia	-11.3104
▁Athos	-11.3104
▁obronę	-11.3104
grani	-11.3105
▁współczucia	-11.3105
▁czystej	-11.3106
▁Wierz	-11.3106
▁wrócili	-11.3107
▁sensu	-11.3107
▁oddala	-11.3107
▁kapitanie	-11.3107
▁najwyższej	-11.3108
▁pancerz	-11.3109
▁powtarzając	-11.3109
▁kochanki	-11.3109
▁Bogusław	-11.3109
▁łagodne	-11.3109
▁sfery	-11.3109
▁podejrzenie	-11.311
▁szerokich	-11.3112
▁szturm	-11.3112
▁rzek	-11.3112
▁nauce	-11.3114
wan	-11.3116
▁Pyta	-11.3116
▁weń	-11.3117
▁przybyła	-11.3121
▁powodzenie	-11.3122
▁wesoła	-11.3122
▁zgubę	-11.3122
▁Dnia	-11.3122
▁oderwać	-11.3122
▁namysłu	-11.3122
▁brodą	-11.3122
▁osiągnąć	-11.3123
▁wieczności	-11.3124
▁dłoniach	-11.3125
▁zawołałem	-11.3126
▁brzydki	-11.3127
▁przenika	-11.3128
▁rozległy	-11.3128
▁użył	-11.3129
▁Żyda	-11.3129
▁dzikim	-11.3132
▁n	-11.3132
▁leżąc	-11.3132
▁pcha	-11.3133
▁marmur	-11.3133
▁wrogiem	-11.3135
▁śliczny	-11.3137
▁gad	-11.3137
▁Katarzyna	-11.3139
▁wezmę	-11.3139
▁wspaniale	-11.3139
▁przepraszam	-11.3139
▁egzamin	-11.3139
▁spa	-11.314
▁zamieszkał	-11.3141
▁dekret	-11.3141
▁Grek	-11.3143
▁przerażeniem	-11.3143
▁zmieszał	-11.3143
▁obca	-11.3143
▁prorok	-11.3144
iczna	-11.3144
▁wniosku	-11.3144
▁ruchów	-11.3144
▁określić	-11.3147
▁powracał	-11.3148
▁naturą	-11.3149
ios	-11.315
▁szary	-11.315
▁Jaka	-11.3151
▁sposobie	-11.3151
▁waszmości	-11.3154
▁przeze	-11.3155
▁taniec	-11.3155
prowadził	-11.3156
▁bicz	-11.316
▁zmieniło	-11.3162
owanym	-11.3163
▁spędza	-11.3163
▁popadł	-11.3165
▁spodnie	-11.3166
▁piwo	-11.3167
▁żądza	-11.3167
▁kapitał	-11.3169
▁przysięgam	-11.3172
▁bóstwo	-11.3172
▁francuski	-11.3173
▁Przebacz	-11.3174
▁Podniósł	-11.3175
▁największych	-11.3176
▁wyszły	-11.3177
▁Szymon	-11.3177
▁grot	-11.3177
▁okryte	-11.3177
nięta	-11.3179
▁przyjaciółki	-11.318
▁chodząc	-11.3182
▁wąsy	-11.3182
▁Siedział	-11.3183
▁ataku	-11.3184
▁błagam	-11.3185
▁zapłacił	-11.3186
▁czytania	-11.3186
▁kładąc	-11.3187
▁wiarą	-11.3191
▁opuści	-11.3191
▁XVIII	-11.3191
▁hasło	-11.3192
▁każ	-11.3192
▁zostawiając	-11.3193
▁zwolna	-11.3194
wka	-11.3194
▁obłęd	-11.3194
▁ogromna	-11.3196
▁boskie	-11.3197
▁Ter	-11.3199
▁panicz	-11.32
▁spędził	-11.3201
▁Pozwól	-11.3201
▁rod	-11.3202
żeś	-11.3203
▁ukrył	-11.3205
▁zapomni	-11.3205
▁Bolesław	-11.3208
▁większości	-11.3208
▁publicznie	-11.3208
▁wspólnie	-11.3208
▁zostaną	-11.3208
▁nerwy	-11.3209
▁rasy	-11.321
▁adwokat	-11.321
▁męczarni	-11.3211
mach	-11.3214
▁skóra	-11.3217
▁uwolnić	-11.322
▁cho	-11.322
eniom	-11.322
▁Win	-11.322
▁figury	-11.3221
▁bukiet	-11.3222
▁twierdzi	-11.3223
radza	-11.3223
dor	-11.3224
▁słuszności	-11.3225
▁wrzasnął	-11.3225
▁Twoja	-11.3225
▁Bernard	-11.3226
▁mężu	-11.3226
bici	-11.3228
▁rozpoczyna	-11.3229
▁Dusza	-11.323
▁und	-11.3231
▁biednych	-11.3231
nił	-11.3231
▁powyżej	-11.3232
▁walczy	-11.3236
▁Jakież	-11.3237
▁przyjmował	-11.3238
▁wątpił	-11.3241
▁przypatrywał	-11.3243
nowi	-11.3243
parci	-11.3243
▁miastach	-11.3246
▁widziano	-11.3247
▁obcego	-11.3251
gla	-11.3251
▁ściga	-11.3251
▁polityki	-11.3259
▁Pomiędzy	-11.326
▁zaczęto	-11.326
▁wiosna	-11.326
▁wściekłość	-11.326
▁miłościwy	-11.3261
▁trzecia	-11.3261
▁tłumaczyć	-11.3262
▁st	-11.3263
▁mające	-11.3263
▁bydlę	-11.3265
▁Chłopak	-11.3266
▁cele	-11.3267
▁drogach	-11.3267
▁ubraniu	-11.3268
▁Janek	-11.3268
▁prostą	-11.3269
stę	-11.3269
▁cało	-11.327
▁30	-11.327
onie	-11.3272
▁człeka	-11.3272
rus	-11.3272
▁kredyt	-11.3273
▁śpiewając	-11.3275
jeżdżał	-11.3276
▁gniewnie	-11.3276
▁vo	-11.3277
padają	-11.3277
▁Anielka	-11.3277
▁nagrody	-11.3278
▁Mojżesz	-11.3279
bat	-11.3279
▁teren	-11.328
zuje	-11.3285
▁ruszy	-11.3288
▁potęgą	-11.3289
▁zasługuje	-11.3291
▁litery	-11.3293
▁błogosławi	-11.3294
▁Rzeczywiście	-11.3295
▁uczniów	-11.3295
▁Należy	-11.3295
wor	-11.3295
▁bladą	-11.3295
▁chciałabym	-11.3296
▁groźne	-11.3297
▁tchórz	-11.3299
▁samotnie	-11.33
▁słowie	-11.3302
▁łaskawy	-11.3304
▁ludy	-11.3304
liwość	-11.3307
dłem	-11.3308
▁odważył	-11.3308
▁drobiazg	-11.331
▁gospody	-11.3311
▁zalet	-11.3312
▁gdzieniegdzie	-11.3312
▁koszyk	-11.3315
len	-11.3318
▁sucho	-11.3319
▁Litwin	-11.332
▁dostarcza	-11.332
bita	-11.3321
pos	-11.3323
▁sku	-11.3323
▁bijąc	-11.3323
▁rab	-11.3325
ius	-11.3326
▁szczęk	-11.3327
▁sprzedać	-11.3329
łożywszy	-11.3329
▁Pójdę	-11.333
▁wesołą	-11.333
▁dziejów	-11.333
▁spojrzawszy	-11.333
▁władze	-11.3331
▁Cesarz	-11.3331
stki	-11.3332
▁piętro	-11.3332
▁uczonych	-11.3333
▁księży	-11.3334
▁nagły	-11.3335
▁dzwony	-11.3335
▁pasie	-11.3336
▁brzęk	-11.3337
▁Piotra	-11.3338
▁mogłyby	-11.3338
▁światów	-11.3341
▁Jur	-11.3343
▁szacunkiem	-11.3347
▁namiętnie	-11.3347
▁wstrzymał	-11.3347
▁kolacji	-11.3348
ssi	-11.3349
▁wesołości	-11.3349
▁niewieści	-11.335
▁spi	-11.335
▁wprowadza	-11.3352
cznego	-11.3355
łożyć	-11.336
▁uchodził	-11.3361
▁sukces	-11.3365
▁urzędu	-11.3365
▁dziennie	-11.3365
▁naciskiem	-11.3366
tkę	-11.3366
▁czcią	-11.3368
of	-11.3368
▁miarą	-11.3368
loną	-11.3369
▁trzecią	-11.3371
▁nędzę	-11.3371
▁Oskar	-11.3372
▁osła	-11.3374
▁czwartej	-11.3375
suwa	-11.3376
▁Niektóre	-11.3376
łoby	-11.3376
▁gąszcz	-11.3378
lem	-11.3379
Ka	-11.338
▁Marynia	-11.338
▁olbrzym	-11.3382
▁Nikodem	-11.3382
▁przodu	-11.3383
płynęła	-11.3383
▁krzyżem	-11.3385
▁podawał	-11.3388
łości	-11.3388
...”.	-11.339
▁lęka	-11.3391
▁dodaje	-11.3391
▁schodził	-11.3392
▁prostej	-11.3392
▁opanował	-11.3394
sil	-11.3395
▁naczynia	-11.3395
błąka	-11.3398
▁zmusił	-11.34
▁wnętrzności	-11.34
▁stosowne	-11.34
▁zdarzenia	-11.34
▁przystało	-11.3403
▁rankiem	-11.3405
▁śniegiem	-11.3408
▁gmach	-11.3412
skiem	-11.3414
lnym	-11.3415
▁opodal	-11.3418
▁dąb	-11.342
▁chłodno	-11.342
izmu	-11.3421
owę	-11.3422
▁całując	-11.3423
▁sumy	-11.3426
liwszy	-11.3426
▁pójdziemy	-11.3427
▁gmin	-11.3427
▁temi	-11.3427
▁poddał	-11.3431
▁rozmawiając	-11.3432
▁goni	-11.3432
tz	-11.3434
▁grzbiecie	-11.3435
▁przypadkowo	-11.3435
▁Konie	-11.3436
▁wdziękiem	-11.344
▁jedwab	-11.344
▁absolutnie	-11.3441
▁izbę	-11.3442
▁zwykłe	-11.3443
pla	-11.3446
▁Rozumie	-11.3447
▁świta	-11.3448
słu	-11.3449
chor	-11.3449
ras	-11.3451
▁stopnie	-11.3451
bież	-11.3452
▁Jagiełło	-11.3453
▁węzeł	-11.3453
▁zuchwały	-11.3453
▁lekcji	-11.3454
▁Właściwie	-11.3455
lata	-11.3456
▁rośliny	-11.3459
▁podobnej	-11.346
▁kwestia	-11.346
▁Łu	-11.3461
▁dia	-11.3462
łka	-11.3465
▁Zakonu	-11.3466
▁królewskich	-11.3467
▁Józefa	-11.3468
▁domowe	-11.3469
▁zimy	-11.3471
▁księżniczka	-11.3471
▁Biedna	-11.3472
▁zasiadł	-11.3473
gro	-11.3476
▁odzyska	-11.3478
▁kręcił	-11.3478
▁wątpi	-11.3479
▁zbladł	-11.348
lka	-11.3481
▁trwały	-11.3482
▁ideał	-11.3484
▁biło	-11.3485
▁próżności	-11.3486
▁pełny	-11.3486
▁otchłań	-11.3489
▁zajmować	-11.3489
▁Kościoła	-11.3489
nienie	-11.3489
▁dowodów	-11.3489
▁Leżał	-11.349
▁uderzenia	-11.349
lił	-11.3492
▁tygodnia	-11.3495
▁umarłych	-11.3497
▁dziwić	-11.3498
▁przyszłego	-11.35
▁politycznych	-11.3501
strasz	-11.3502
▁nocleg	-11.3503
▁budził	-11.3504
▁kapłanów	-11.3506
▁Chciała	-11.3507
▁zysku	-11.3508
▁porządny	-11.3508
puści	-11.3509
▁ustąpić	-11.351
▁Każde	-11.351
peł	-11.351
▁martwe	-11.3511
▁przysięga	-11.3512
▁przeszły	-11.3513
▁kijem	-11.3513
ica	-11.3514
▁Mówią	-11.3514
▁rosną	-11.3514
▁wiedz	-11.3515
▁nerw	-11.352
▁jenerał	-11.352
▁pożąda	-11.352
▁mówienia	-11.3523
▁stoliku	-11.3525
▁przystani	-11.3525
▁krowy	-11.3527
▁zasnął	-11.3528
▁rze	-11.3528
cin	-11.353
▁wydarł	-11.353
▁muzykę	-11.3531
▁ucieszył	-11.3531
dł	-11.3533
▁wpatrywał	-11.3535
zenie	-11.3537
▁Tatar	-11.3538
▁uczuła	-11.3538
▁szpital	-11.3541
ństwa	-11.3542
▁ustroju	-11.3542
▁Orland	-11.3543
▁Biada	-11.3545
ńce	-11.3546
▁Lip	-11.3546
▁pańska	-11.3547
łek	-11.3549
▁Tuż	-11.3552
▁mową	-11.3553
owani	-11.3553
▁słówko	-11.3554
▁piętra	-11.3555
jazd	-11.3555
▁Dziad	-11.3557
▁znalazłszy	-11.3558
▁dawną	-11.356
▁gorzko	-11.356
▁ołtarz	-11.356
▁oddam	-11.3561
▁głowach	-11.3563
▁Wstał	-11.3563
ań	-11.3563
▁fałszywe	-11.3563
▁Przeto	-11.3563
▁naturalny	-11.3565
▁Valentine	-11.3566
▁napełnia	-11.3568
▁Ania	-11.3569
▁róże	-11.3572
▁rzuci	-11.3573
▁kapłani	-11.3573
▁uzyskać	-11.3575
ady	-11.3575
▁słodyczy	-11.3575
▁sztuką	-11.3577
▁turkot	-11.3577
▁kołem	-11.3578
▁pójdziesz	-11.3578
▁Kajtuś	-11.3578
▁pokoleń	-11.3578
▁milion	-11.3579
▁wagę	-11.3582
▁Los	-11.3585
▁furman	-11.3586
▁kształcie	-11.3588
▁pobyt	-11.3595
▁gubi	-11.3596
▁Niemczech	-11.3596
▁przejścia	-11.3596
▁pogardą	-11.3596
▁poetów	-11.3597
tera	-11.3598
▁Wielu	-11.3599
▁Gniew	-11.3599
▁ogólne	-11.3599
▁zwyczajnie	-11.3599
nięciem	-11.36
▁lękał	-11.3602
▁obudzić	-11.3606
▁biorę	-11.3607
▁wydania	-11.3608
▁pło	-11.3608
kowych	-11.3609
ręczy	-11.3609
▁odnosi	-11.3609
▁stra	-11.3611
▁znad	-11.3611
▁sprawami	-11.3612
▁zostawia	-11.3612
▁stojących	-11.3612
▁bolesne	-11.3612
▁siwe	-11.3612
▁przysięgi	-11.3614
▁opowiadała	-11.3614
▁poseł	-11.3616
▁publiczne	-11.3617
▁wspólne	-11.3617
▁powinienem	-11.3619
liby	-11.3621
▁wyrzuca	-11.3621
▁Juści	-11.3622
▁setki	-11.3624
▁szlachcica	-11.3626
▁noszą	-11.3631
▁Ks	-11.3631
▁przygotowany	-11.3632
▁pośrednictwem	-11.3632
▁Kościół	-11.3632
▁trosze	-11.3633
▁anioła	-11.3634
▁kłamstwa	-11.3634
▁przybyciu	-11.3636
▁przebył	-11.3637
▁bogactwo	-11.3637
▁utrzymywał	-11.3638
tni	-11.3638
▁biedy	-11.3639
▁mszy	-11.3641
tarł	-11.3643
▁trapi	-11.3644
▁źrenice	-11.3644
▁zabierał	-11.3647
▁Dyzma	-11.365
▁koncept	-11.365
▁działanie	-11.365
▁swéj	-11.365
▁urodzenia	-11.3651
biał	-11.3651
▁bajki	-11.3656
ownik	-11.3658
▁usłyszałem	-11.3658
siada	-11.3659
▁panom	-11.3659
▁zmarłego	-11.366
▁niemieckich	-11.366
▁zbudził	-11.3661
gło	-11.3662
czce	-11.3662
▁pokazując	-11.3663
▁Stało	-11.3664
▁odzieży	-11.3665
▁zwykłą	-11.3665
bę	-11.3665
▁znajomy	-11.3666
▁waść	-11.3668
▁odnaleźć	-11.3668
▁wysoką	-11.3668
▁wyprostował	-11.3668
ville	-11.3668
▁panien	-11.3671
▁okup	-11.3671
stąp	-11.3671
iłem	-11.3674
▁kawy	-11.3676
rywa	-11.3679
chu	-11.3681
▁ekonom	-11.3683
iar	-11.3684
▁schodzi	-11.3685
▁wysłucha	-11.3685
▁najwyższy	-11.3686
▁myli	-11.3686
▁westchnęła	-11.3687
jęty	-11.3687
▁Dobra	-11.3687
▁zapomniałem	-11.3688
▁węża	-11.369
▁stanęły	-11.369
▁Przyszedł	-11.3691
dzki	-11.3692
▁mądre	-11.3693
▁zboże	-11.3693
▁mniema	-11.3697
▁tajemnicą	-11.37
nde	-11.37
▁obo	-11.37
▁krótkiej	-11.3703
▁odległość	-11.3705
▁zdrowiu	-11.3705
jach	-11.3705
▁nastrój	-11.3706
▁gromad	-11.3707
▁igra	-11.371
▁zaprosił	-11.371
▁poemat	-11.3713
anego	-11.3715
▁rozmawiali	-11.3718
▁zapala	-11.3719
▁Odys	-11.3719
▁Rugier	-11.372
▁jedzenie	-11.372
▁jo	-11.372
▁Wład	-11.3723
▁Elżbieta	-11.3723
▁chował	-11.3723
▁ciska	-11.3724
▁Min	-11.3724
ącym	-11.3726
▁nici	-11.3726
▁wywiera	-11.3727
▁moralne	-11.3727
▁zamieszka	-11.3729
▁ras	-11.3729
▁Czułem	-11.373
▁znaku	-11.373
ug	-11.3731
▁dziewczyną	-11.3732
▁sposobów	-11.3733
kładał	-11.3733
▁Dar	-11.3734
owskim	-11.3735
▁świe	-11.3739
tas	-11.3739
▁stałem	-11.374
▁pobladł	-11.3741
▁ukradkiem	-11.3741
▁przyjdą	-11.3741
▁Cie	-11.3742
nne	-11.3744
▁wyraźniej	-11.3745
▁Szy	-11.3745
▁otrzymać	-11.3746
▁gni	-11.3748
unt	-11.3749
▁kamieniem	-11.375
iński	-11.3752
yśmy	-11.3754
▁zyska	-11.3755
łożono	-11.3755
rost	-11.3755
targ	-11.3756
patruje	-11.3756
▁kardynał	-11.3756
wił	-11.3757
▁zamienił	-11.3759
▁mężczyzną	-11.3761
▁4.	-11.3762
▁intryg	-11.3764
▁znaczne	-11.3765
▁francuskiej	-11.3765
▁odwrót	-11.3768
kując	-11.3769
las	-11.377
▁sprzed	-11.3772
▁biura	-11.3773
▁obowiązkiem	-11.3775
▁sfer	-11.3775
▁pasterz	-11.3776
▁Tatarów	-11.3776
▁Szli	-11.3777
▁skarbu	-11.3777
▁Rok	-11.3777
▁Dantès	-11.3778
▁przodem	-11.3778
▁mężny	-11.3778
▁kolację	-11.3778
lt	-11.3779
▁Mr	-11.3779
czym	-11.3781
stawał	-11.3785
▁okolicach	-11.3786
▁ustawy	-11.3786
▁spyta	-11.3787
eczkę	-11.3787
▁palił	-11.3788
▁podziwia	-11.3788
wiedz	-11.3791
▁przywiózł	-11.3791
szczenia	-11.3791
▁ostrożności	-11.3792
▁udawać	-11.3792
▁nieznanych	-11.3792
▁parad	-11.3794
▁gatunek	-11.3796
▁przygotować	-11.3796
▁dostrzec	-11.3796
▁dowodem	-11.3797
▁obejmując	-11.3798
▁Wiadomo	-11.3799
▁obecny	-11.38
owskich	-11.3801
▁ocenić	-11.3802
▁rozwój	-11.3802
▁odzywał	-11.3803
▁przeczytał	-11.3804
▁żywej	-11.3805
▁rządy	-11.3805
ham	-11.3805
▁wypadł	-11.3806
▁czterdziestu	-11.3809
▁zapytałem	-11.3811
▁zaszedł	-11.3814
▁Lit	-11.3814
▁kożuch	-11.3815
▁znajdą	-11.3815
▁żagle	-11.3815
prowadzę	-11.3815
pel	-11.3815
szer	-11.3816
▁godnym	-11.3816
▁zimie	-11.3816
▁zasadzie	-11.3817
▁wizyty	-11.3817
▁wysunął	-11.3817
▁biedną	-11.3818
▁powody	-11.3818
▁budowa	-11.3818
▁przytem	-11.3818
▁Kap	-11.3819
▁łzach	-11.3821
▁zjawi	-11.3821
▁robili	-11.3821
gl	-11.3823
▁odpowiadała	-11.3823
▁Francuzów	-11.3823
*!	-11.3825
▁lamp	-11.3826
▁autorów	-11.3826
▁ros	-11.3828
▁dokończył	-11.3828
▁biedak	-11.3829
każ	-11.383
▁ży	-11.3831
▁wypowiedział	-11.3832
rób	-11.3833
▁miłosierdzie	-11.3833
▁sobotę	-11.3833
▁literaturze	-11.3833
▁przekład	-11.3834
▁opisać	-11.3834
▁ująć	-11.3835
▁Rom	-11.3838
▁odbija	-11.3839
▁Komu	-11.384
▁wszelkim	-11.3841
▁Róż	-11.3843
▁dobrem	-11.3844
▁ceremonii	-11.3844
▁zjeść	-11.3847
▁bra	-11.3848
▁oślep	-11.385
sę	-11.3851
▁źródeł	-11.3851
wód	-11.3853
dzia	-11.3856
żyje	-11.3856
▁danym	-11.3858
▁komisarz	-11.3858
niesione	-11.3858
▁spała	-11.3859
▁czekali	-11.3863
strzel	-11.3864
lan	-11.3865
▁sufit	-11.3866
▁kru	-11.3866
▁spóźni	-11.3866
▁szewc	-11.3867
▁Wszedł	-11.3868
▁witał	-11.387
▁powodem	-11.387
▁odzyskał	-11.3874
▁kosztuje	-11.3874
▁ładu	-11.3875
▁Nowy	-11.3876
▁ławki	-11.3877
▁Men	-11.3877
▁Konrad	-11.3878
▁Rusi	-11.3881
▁jakoż	-11.3881
▁wykonać	-11.3883
▁odwróciła	-11.3883
▁willi	-11.3883
rzucić	-11.3885
▁wyobraźnia	-11.3885
▁sztylet	-11.3885
▁Byłoby	-11.3886
▁pisząc	-11.3888
▁Samo	-11.389
▁dowodził	-11.3891
▁związki	-11.3892
twie	-11.3892
▁żądać	-11.3895
▁zakresie	-11.3895
▁Poszedł	-11.3897
▁wyciągnęła	-11.3897
▁lekarstwo	-11.3898
▁dopuszcza	-11.3898
▁Zosi	-11.39
▁zwie	-11.3904
▁fort	-11.3904
stym	-11.3904
ü	-11.3906
bl	-11.3906
▁zachwyt	-11.3907
▁przenieść	-11.3907
▁przejście	-11.3907
▁Ur	-11.3911
▁ulec	-11.3911
▁kość	-11.3912
▁posuwa	-11.3912
▁rzeź	-11.3913
▁racz	-11.3913
▁przybrał	-11.3915
▁sal	-11.3918
▁nagłym	-11.3918
▁ukryte	-11.392
▁warsztat	-11.3921
▁puści	-11.3922
▁dawnym	-11.3922
▁poświęcił	-11.3923
▁Hal	-11.3923
▁prezydent	-11.3924
▁krótką	-11.3926
▁ojczyznę	-11.3926
▁rumieniec	-11.3926
▁szkła	-11.3926
▁zadowoleniem	-11.3928
▁pism	-11.393
▁kawę	-11.3932
▁bydła	-11.3932
kow	-11.3934
▁warkocz	-11.3934
▁wnętrze	-11.3937
▁bydło	-11.3939
cym	-11.3939
▁ściąga	-11.394
▁tabor	-11.394
▁sądów	-11.3941
▁właściwym	-11.3942
▁Egiptu	-11.3943
▁włóczni	-11.3945
▁Ażeby	-11.3947
▁Milcz	-11.3947
Ko	-11.3947
▁Zeusa	-11.3948
▁szczęśliwi	-11.3952
▁główną	-11.3953
acz	-11.3954
▁Wilczur	-11.3955
▁ognisko	-11.3956
▁dany	-11.3957
▁dobył	-11.3957
▁ruszał	-11.3959
▁lica	-11.3959
ślad	-11.396
cej	-11.3961
▁falą	-11.3962
▁jedności	-11.3963
▁Maciusia	-11.3963
▁francusku	-11.3963
▁wskazuje	-11.3963
▁boską	-11.3964
▁umieli	-11.3965
▁żywił	-11.3968
▁ujrzeli	-11.3968
▁mawiał	-11.3969
▁Podobno	-11.3971
▁krakowski	-11.3971
▁cudów	-11.3972
▁Juan	-11.3973
▁źrenic	-11.3975
▁plamy	-11.3975
yła	-11.3975
▁prostym	-11.3976
mienia	-11.3977
wykł	-11.3978
▁uciechy	-11.3978
▁Ucz	-11.3978
▁spiesznie	-11.3979
▁wzdychał	-11.3979
▁ślepo	-11.3981
▁możliwość	-11.3982
▁zmarszczył	-11.3982
▁ciasno	-11.3982
▁Wszelako	-11.3983
▁szeptała	-11.3986
▁pomówić	-11.3988
▁skwar	-11.3989
▁zielonych	-11.399
▁otworzy	-11.3992
mierzy	-11.3992
▁zdają	-11.3992
▁potrzebna	-11.3995
▁łaj	-11.3995
▁zbadać	-11.3995
▁znajdując	-11.3995
▁radzić	-11.3996
▁dolinie	-11.3996
▁biegły	-11.3996
powiada	-11.3999
▁murach	-11.4
▁chorobie	-11.4
▁opieką	-11.4
▁czuli	-11.4003
▁granat	-11.4003
▁obywatele	-11.4003
▁grzmi	-11.4004
▁żyłach	-11.4005
▁Musisz	-11.4005
▁robocie	-11.4006
▁usuwa	-11.4006
▁proboszcza	-11.4008
▁echa	-11.4008
brawszy	-11.4008
gina	-11.4009
▁mniemania	-11.4009
▁spal	-11.4011
▁przeciąg	-11.4012
głów	-11.4016
▁gorącym	-11.4016
▁unosi	-11.4018
▁dookoła	-11.4019
▁osobliwie	-11.4019
▁przygód	-11.4019
▁delikatnie	-11.4019
▁zupełnej	-11.402
▁młodszy	-11.4021
▁Cho	-11.4021
▁wypowiedzieć	-11.4023
▁ważną	-11.4023
▁dzisiejszego	-11.4027
rski	-11.403
▁mieszkać	-11.403
puść	-11.403
Ty	-11.4031
▁Morze	-11.4032
▁wyzysk	-11.4033
▁zgodzie	-11.4034
gląda	-11.4035
▁nieszczęściu	-11.4038
▁okrągłe	-11.4038
▁starosta	-11.4039
▁chybi	-11.4041
▁zachwiał	-11.4043
lnej	-11.4044
łożyli	-11.4045
▁lutni	-11.4045
▁członki	-11.4046
▁utrzymuje	-11.4046
▁róg	-11.4047
▁mostu	-11.4049
Prze	-11.405
łom	-11.405
▁spoz	-11.405
▁kapelusza	-11.4051
nga	-11.4051
▁wypełnia	-11.4051
▁pęd	-11.4052
▁pochwycić	-11.4053
▁Moi	-11.4054
▁złamał	-11.4054
rum	-11.4055
▁wierzb	-11.4056
▁kieliszek	-11.4057
▁miejscowości	-11.4057
▁stosownie	-11.4057
kos	-11.4057
▁zbytku	-11.4058
▁Napoleon	-11.4058
maj	-11.4059
▁jasnych	-11.406
sp	-11.4063
▁wycie	-11.4066
czeni	-11.4066
▁swem	-11.4067
▁poddanych	-11.4068
mina	-11.407
▁okręty	-11.4072
▁Brak	-11.4073
rzenie	-11.4073
▁cu	-11.4074
▁diabłów	-11.4076
▁wniosek	-11.4076
▁objąć	-11.4076
▁niewinności	-11.4076
▁znaczyło	-11.4078
▁gębę	-11.4078
▁potym	-11.4079
bijać	-11.408
▁pochód	-11.4081
▁iskier	-11.4082
▁pojął	-11.4082
▁przebacz	-11.4082
▁powtórzyć	-11.4083
▁Sobieski	-11.4085
▁przegra	-11.4088
▁pojadę	-11.4089
▁wyjaśnić	-11.409
▁słabym	-11.4091
▁poniżej	-11.4094
▁jegomości	-11.4096
▁całymi	-11.4096
owaliśmy	-11.4097
▁Chcąc	-11.4098
▁drga	-11.4098
▁Pas	-11.4099
▁sygnał	-11.4099
▁pragnień	-11.4101
▁bieży	-11.4102
▁wściekłością	-11.4103
grzeb	-11.4105
niętą	-11.4105
▁babka	-11.4106
▁druku	-11.4107
▁odmian	-11.4108
▁motyl	-11.4109
Cz	-11.4111
cach	-11.4112
▁odkrywa	-11.4112
▁pamiątkę	-11.4113
▁żywcem	-11.4114
ującą	-11.4114
▁Widok	-11.4114
▁hymn	-11.4116
łki	-11.4117
▁wiatry	-11.4117
ującego	-11.4117
▁Basia	-11.4118
▁br	-11.4118
▁przymioty	-11.412
tali	-11.4121
▁służąca	-11.4121
▁wyprawę	-11.4123
▁pomnik	-11.4124
▁san	-11.4124
▁jezioro	-11.4125
▁sercach	-11.4126
▁Koło	-11.413
▁zgodzi	-11.4131
▁drgnął	-11.4132
▁męstwa	-11.4133
▁chłopcem	-11.4134
▁lepszym	-11.4135
▁zabity	-11.4135
ciągał	-11.4137
port	-11.4138
▁mężczyznę	-11.4138
▁pogodny	-11.4138
▁wysp	-11.4139
jdź	-11.4139
▁wydawały	-11.4139
stępuje	-11.4146
▁bratu	-11.4149
▁wyznanie	-11.415
▁Musimy	-11.415
▁zmarłych	-11.4151
▁Ręce	-11.4151
▁wychodzić	-11.4153
▁wielkiemu	-11.4154
▁więźnia	-11.4154
kładając	-11.4155
▁współczucie	-11.4159
▁Próżno	-11.416
▁funtów	-11.416
kier	-11.4162
▁maleńki	-11.4162
▁bicie	-11.4163
▁Ger	-11.4164
cjusz	-11.4165
▁rysów	-11.4166
▁rękopis	-11.4167
▁wzniósł	-11.4167
▁tracić	-11.4168
▁otoczył	-11.417
▁iskry	-11.417
▁płótna	-11.417
▁pensji	-11.417
▁kierunek	-11.4171
▁robiąc	-11.4171
=	-11.4172
▁Broni	-11.4172
▁talentu	-11.4173
iczne	-11.4173
▁sędziego	-11.4173
▁klasztorze	-11.4175
▁bat	-11.4177
dzenia	-11.4177
▁ben	-11.4177
▁państwu	-11.4178
▁wstać	-11.4181
pisywał	-11.4183
▁obchodził	-11.4186
▁zdziwienie	-11.4187
▁Francuzi	-11.4189
itle	-11.4189
▁poszczególnych	-11.419
▁wezmą	-11.419
▁błocie	-11.419
▁Borowicz	-11.4191
arni	-11.4191
▁łąk	-11.4191
▁chroni	-11.4193
▁społeczne	-11.4194
▁zamyślił	-11.4195
yna	-11.4196
▁stwierdził	-11.4196
▁chłopaka	-11.4197
▁wszytkie	-11.4198
▁wiąże	-11.4199
ujcie	-11.4199
▁bla	-11.4201
▁rozlega	-11.4202
▁kupy	-11.4204
▁pak	-11.4205
▁skok	-11.4208
▁Izabela	-11.4209
▁księżniczki	-11.4209
▁oparte	-11.4212
▁Adama	-11.4212
▁dziewczynie	-11.4213
▁prawił	-11.4215
▁dziesiątej	-11.4215
▁łono	-11.4216
▁biegnie	-11.4216
▁budzić	-11.4219
▁skale	-11.422
rzył	-11.4223
▁korytarzu	-11.4224
▁Kraj	-11.4225
▁dzwoni	-11.4226
▁kury	-11.4227
▁urządza	-11.4228
sąd	-11.4229
▁dalszą	-11.423
▁nieprawda	-11.423
▁duża	-11.423
▁Star	-11.4231
sce	-11.4232
▁chmura	-11.4233
▁artysty	-11.4234
▁Powiada	-11.4234
łość	-11.4235
▁pojawił	-11.4237
ung	-11.4238
▁nieboszczyka	-11.4239
▁krzaki	-11.4239
łaby	-11.4239
▁kle	-11.4241
niż	-11.4242
▁przestawał	-11.4242
▁nieprzy	-11.4242
ziem	-11.4246
▁okoliczność	-11.4247
▁publiczność	-11.4247
▁strumień	-11.4247
▁umrę	-11.4247
▁set	-11.4249
pry	-11.4249
▁25	-11.4249
▁Powie	-11.425
▁sol	-11.4251
▁miny	-11.4251
▁stawały	-11.4251
▁śmieli	-11.4252
▁szal	-11.4253
▁uważają	-11.4254
▁hełm	-11.4255
kło	-11.4255
szczepi	-11.4257
▁powszedni	-11.4257
nicę	-11.4257
usia	-11.4258
▁nadaje	-11.4259
▁onych	-11.426
▁radą	-11.4262
▁poprzedza	-11.4264
sadził	-11.4265
▁niepewności	-11.4266
▁model	-11.4267
▁radzę	-11.427
▁przedstawiciel	-11.4271
▁kanapie	-11.4272
▁Mickiewicz	-11.4272
▁następujące	-11.4274
tt	-11.4276
▁Et	-11.4279
▁ławy	-11.4281
▁zmianę	-11.4281
▁lekarzy	-11.4282
łożone	-11.4282
sunąć	-11.4282
▁wydziera	-11.4285
▁strzelił	-11.4285
▁Zwłaszcza	-11.4285
▁obiecywał	-11.4285
▁pięćdziesięciu	-11.4286
myśla	-11.4286
▁następstwa	-11.4289
▁analiz	-11.429
▁kaptur	-11.4291
▁goryczy	-11.4292
▁tamte	-11.4292
rzucając	-11.4293
▁jedność	-11.4293
▁niemiecki	-11.4293
▁Sko	-11.4293
▁przyszłe	-11.4294
▁padło	-11.4295
gał	-11.4299
rki	-11.43
▁koszulę	-11.43
▁zaprasza	-11.4303
▁zapasy	-11.4305
▁Marysia	-11.4305
wikła	-11.4306
▁częstokroć	-11.4307
łow	-11.4307
▁jęczał	-11.4307
wil	-11.4307
▁różowe	-11.4308
▁nowiny	-11.4309
▁popełnia	-11.4309
▁postępował	-11.4309
jechaliśmy	-11.4309
▁Świętego	-11.4309
▁Kozak	-11.4311
▁rozumiejąc	-11.4312
▁Jakim	-11.4313
▁uczty	-11.4314
▁głod	-11.4315
▁drab	-11.4319
▁myślałam	-11.4319
▁trafia	-11.4321
▁delikatne	-11.4323
▁bogatych	-11.4324
grze	-11.4324
▁danej	-11.4326
▁typu	-11.4326
▁potrafią	-11.4327
▁dowiedziawszy	-11.4327
▁Syna	-11.4327
▁Rzucił	-11.4328
bije	-11.4329
▁ucznia	-11.4337
▁zmroku	-11.4337
erii	-11.4338
▁norm	-11.4339
▁Robi	-11.434
▁pochodził	-11.434
▁modlił	-11.4342
▁fartuch	-11.4344
▁tudzież	-11.4344
▁odkryć	-11.4344
▁opuszczony	-11.4345
▁kota	-11.4346
▁Litwa	-11.4346
▁zobaczywszy	-11.4347
▁utrzyma	-11.4348
▁Ostatnie	-11.4348
żona	-11.4352
▁kre	-11.4353
▁pewni	-11.4355
▁fortuny	-11.4356
unek	-11.4356
▁trzymają	-11.4356
kl	-11.4359
spa	-11.436
libyśmy	-11.4362
▁zwycięski	-11.4363
▁krzeseł	-11.4363
▁modli	-11.4364
▁silną	-11.4365
▁drżały	-11.4365
raź	-11.4366
▁policjant	-11.4367
▁tłuszcz	-11.4368
▁osobiste	-11.4369
iczną	-11.4369
▁Bry	-11.4369
▁margrabia	-11.4373
▁przypada	-11.4374
▁garści	-11.4374
▁miar	-11.4375
▁pokłon	-11.4377
▁ach	-11.4378
rował	-11.4378
▁posłać	-11.4379
▁umieścił	-11.4379
▁społecznych	-11.438
▁wagonu	-11.4382
eb	-11.4382
▁otwierając	-11.4384
▁zagadnął	-11.4384
▁ochrony	-11.4386
▁wnętrzu	-11.4388
▁uważali	-11.4389
▁un	-11.439
tyzm	-11.439
▁Tre	-11.4391
▁załatwi	-11.4392
▁opar	-11.4393
▁namiot	-11.4394
▁uderzyć	-11.4395
▁trzask	-11.4396
▁doznawał	-11.4399
▁Bieg	-11.44
▁użytku	-11.4402
▁obejść	-11.4402
▁życzę	-11.4402
head	-11.4403
▁kółko	-11.4405
▁zachodzie	-11.4407
▁zdumienia	-11.4407
▁poznaje	-11.4407
▁Inny	-11.4407
▁chęcią	-11.4408
▁zapewni	-11.4413
▁kobietom	-11.4414
mur	-11.4414
▁Salomon	-11.4414
▁bawiąc	-11.4416
▁ogarnęła	-11.4417
▁spor	-11.4417
row	-11.4419
▁piechoty	-11.4421
▁trójkąt	-11.4421
▁miodu	-11.4422
▁pilnować	-11.4422
▁swojem	-11.4422
▁wyjeżdża	-11.4423
▁bożej	-11.4427
owość	-11.4429
▁słodycz	-11.4429
▁biednym	-11.4429
▁owoców	-11.443
▁Sąd	-11.443
▁Tristan	-11.4431
ciera	-11.4431
▁przywilej	-11.4434
▁myśmy	-11.4434
bert	-11.4436
▁zdumiał	-11.4441
▁grubą	-11.4441
▁młodu	-11.4441
▁brakuje	-11.4443
cent	-11.4443
▁zatrzymuje	-11.4443
▁Stefci	-11.4445
▁idee	-11.4446
▁zupełne	-11.4447
▁polityczne	-11.4447
przed	-11.4452
▁utrzymanie	-11.4453
gre	-11.4454
▁marynarz	-11.4455
krzy	-11.4455
lności	-11.4456
▁tajemniczy	-11.4456
▁poglądy	-11.4458
▁przyjęty	-11.4458
▁morskich	-11.4458
▁sługą	-11.4458
▁Gdyż	-11.4459
▁ustąpił	-11.4459
▁przeszli	-11.4459
▁pięknością	-11.4459
▁granicą	-11.4459
▁obejrzeć	-11.4461
▁Włoszech	-11.4461
wart	-11.4461
▁uchodzić	-11.4461
▁liter	-11.4461
▁jadalni	-11.4461
▁domek	-11.4461
▁składał	-11.4462
▁dużym	-11.4463
gł	-11.4465
▁łoskot	-11.4467
▁kazać	-11.447
▁przeleciał	-11.4472
▁życzył	-11.4472
▁doskonały	-11.4473
▁bała	-11.4475
▁tygrys	-11.4476
▁wzbudza	-11.4479
doskonal	-11.4479
▁marszałka	-11.448
▁skłonność	-11.4481
▁strona	-11.4481
▁powstały	-11.4481
▁zimę	-11.4482
▁gwoździ	-11.4482
wini	-11.4483
dio	-11.4484
▁Kiedyś	-11.4484
▁zapadła	-11.4488
▁służą	-11.4488
▁pańskim	-11.4488
▁białymi	-11.449
▁objaw	-11.449
▁Stefana	-11.4491
lały	-11.4492
▁powodzenia	-11.4496
▁spytać	-11.4497
▁opłat	-11.4499
▁przyjemny	-11.4501
▁brudne	-11.4501
▁miłosierny	-11.4502
H	-11.4502
▁wieczność	-11.4503
▁dowcipu	-11.4505
▁zbierać	-11.4506
▁Zostaw	-11.4507
▁uznać	-11.4507
▁dawali	-11.4508
▁ztąd	-11.451
▁trzcin	-11.451
stka	-11.4511
▁protest	-11.4511
▁złotego	-11.4511
lli	-11.4513
▁plusk	-11.4514
▁godna	-11.4514
▁wyprawił	-11.4514
▁nagła	-11.4515
▁zdziwienia	-11.4518
▁zdarzy	-11.4518
▁niebezpieczne	-11.4518
▁postępuje	-11.4519
▁pospołu	-11.452
▁postanowienia	-11.4521
▁barzo	-11.4521
▁poduszki	-11.4526
▁żab	-11.4527
▁lecą	-11.4529
▁uwięzi	-11.4529
▁biegła	-11.453
lud	-11.453
▁zamienia	-11.453
▁systemu	-11.4531
zb	-11.4534
▁tłumem	-11.4534
▁stawił	-11.4536
▁wyruszył	-11.4536
▁zato	-11.4538
ruch	-11.4539
▁cierpliwość	-11.4539
▁przybycia	-11.4539
▁Dawno	-11.4539
▁raport	-11.454
▁widziałeś	-11.454
▁kłopotu	-11.4541
▁obawia	-11.4542
▁chrześcijańskie	-11.4542
▁odbyć	-11.4542
▁Bor	-11.4542
▁błoto	-11.4543
▁danego	-11.4545
▁moimi	-11.4546
▁właściciela	-11.4547
▁blaski	-11.4548
▁Wychodzi	-11.4551
ioną	-11.4551
▁kamieniami	-11.4552
▁Św	-11.4553
jęła	-11.4556
nienia	-11.4557
▁zwyczajem	-11.4557
▁zmierzch	-11.4558
trę	-11.4558
▁najwyższą	-11.4559
▁Zerwał	-11.456
▁echem	-11.456
darł	-11.4561
ański	-11.4561
▁Głowa	-11.4562
▁zajęła	-11.4563
▁wyrażenia	-11.4565
pisał	-11.4565
▁jeńców	-11.4568
pet	-11.4568
▁mieszkają	-11.4569
▁gęby	-11.457
▁snadnie	-11.4571
▁obraził	-11.4571
▁domowych	-11.4571
▁ranem	-11.4571
▁stawiał	-11.4572
▁zrozumiałem	-11.4575
▁posągi	-11.4576
▁pozwalał	-11.4577
▁Jednocześnie	-11.4579
▁mróz	-11.4579
▁pokrzepi	-11.458
▁hula	-11.4581
▁wejdzie	-11.4581
▁rotmistrz	-11.4583
▁jedli	-11.4583
▁spotykał	-11.4584
żby	-11.4585
▁ciągną	-11.4588
▁wiekiem	-11.459
▁korzystając	-11.4592
▁grają	-11.4592
niejszego	-11.4592
letni	-11.4594
▁zadrżał	-11.4596
▁grzeczności	-11.4596
▁en	-11.4597
▁Kocham	-11.4597
▁uzyska	-11.4599
▁Radziwiłł	-11.4599
▁komnacie	-11.4599
▁niemowlę	-11.4599
▁organizacji	-11.4599
▁wielcy	-11.4599
▁staruszek	-11.4599
▁powstanie	-11.46
▁towarzyszów	-11.46
▁wzrasta	-11.46
▁kominku	-11.4601
▁zasnąć	-11.4602
▁drżąc	-11.4605
▁Dajcie	-11.4606
▁boska	-11.4606
▁usłyszy	-11.4606
▁sprzęt	-11.4607
▁pochylony	-11.4608
▁Chmielnicki	-11.461
▁cierpię	-11.461
▁winni	-11.4612
pić	-11.4613
▁szklan	-11.4615
▁Fra	-11.4615
▁gryzł	-11.4616
▁gorzkie	-11.4617
▁głośnym	-11.4617
▁zupełności	-11.4619
▁upadek	-11.4619
▁milady	-11.462
▁tonu	-11.4622
▁Kret	-11.4622
▁szukają	-11.4624
▁Przypomniał	-11.4626
▁domyśla	-11.4627
▁wyraźne	-11.4627
▁boskiej	-11.4627
▁wyobrażał	-11.463
▁przybyły	-11.4631
chen	-11.4632
▁pełnych	-11.4634
for	-11.4638
▁Gre	-11.4639
▁siodła	-11.4639
▁XIV	-11.4639
▁Zali	-11.4639
▁Grandet	-11.464
mas	-11.4642
tul	-11.4642
▁zakaz	-11.4643
▁wariat	-11.4644
▁królewicz	-11.4646
▁tygodniu	-11.4648
▁miej	-11.4649
▁cór	-11.465
▁wyższy	-11.4653
▁zostawał	-11.4656
▁nieszczęściem	-11.4656
▁podstawę	-11.4657
▁gorący	-11.4658
▁Stalky	-11.4659
▁rozpocząć	-11.4659
▁Anny	-11.4659
▁pozostali	-11.4659
▁PAN	-11.466
▁Ruch	-11.4661
rzu	-11.4663
san	-11.4665
▁przebaczenie	-11.4665
▁powiedziano	-11.4665
▁szybkim	-11.4665
▁kędyś	-11.4666
▁godną	-11.4666
▁przemocą	-11.4669
▁niedobrze	-11.467
▁Jakkolwiek	-11.467
▁usiąść	-11.467
No	-11.467
▁cale	-11.4671
chodzi	-11.4673
▁śmieją	-11.4673
psu	-11.4674
cony	-11.4675
▁lekarstwa	-11.4675
lenie	-11.4676
pisz	-11.4677
▁gust	-11.4678
kazywał	-11.4678
▁Księżyc	-11.4679
▁Wojciech	-11.4679
▁lepszą	-11.468
▁chłopcu	-11.4681
▁dalszy	-11.4682
▁olbrzymich	-11.4682
▁cisnął	-11.4688
▁różnice	-11.4688
kul	-11.4688
▁poświęca	-11.4689
▁dziewka	-11.469
▁Dwaj	-11.469
▁stopami	-11.469
▁poruszał	-11.4694
▁kas	-11.4694
▁Jurand	-11.4694
▁nastąpiło	-11.4694
żną	-11.4695
▁rzeczami	-11.4696
▁piękno	-11.4697
sadza	-11.4697
404	-11.4698
▁zwane	-11.4699
▁pieniędzmi	-11.4699
▁prefekt	-11.4699
▁Greków	-11.4699
▁okazała	-11.4699
▁chłodny	-11.4701
▁namiotu	-11.4703
▁nieprawdaż	-11.4703
stawszy	-11.4704
▁kartkę	-11.4705
▁pis	-11.4705
▁piwnic	-11.4706
▁kupca	-11.4706
▁Wer	-11.4707
liczył	-11.4708
chan	-11.471
▁ukazując	-11.471
rog	-11.4711
▁właściwy	-11.4712
▁ocalił	-11.4715
▁wyrasta	-11.4716
▁interesie	-11.4717
▁zakłada	-11.4717
lnie	-11.4718
▁jadę	-11.4718
▁rani	-11.4719
▁policzkach	-11.472
▁dawały	-11.472
▁posiadanie	-11.472
▁karczmy	-11.4721
▁bel	-11.4721
▁lampa	-11.4722
▁uszedł	-11.4723
▁Nasze	-11.4723
▁wojną	-11.4724
rzec	-11.4725
▁zastaw	-11.4725
▁mon	-11.4725
▁spędzić	-11.4726
▁zabrała	-11.4728
▁ein	-11.4728
▁zdradzić	-11.4729
▁cyfr	-11.4729
fo	-11.4729
▁powiedzą	-11.4731
▁lękam	-11.4731
jesz	-11.4731
▁zdradza	-11.4732
rąb	-11.4732
▁dobie	-11.4735
▁sub	-11.4735
▁następujący	-11.4736
▁obracał	-11.4736
▁cierpliwości	-11.4737
▁czytając	-11.4738
▁życzliwości	-11.4739
▁równowagi	-11.4739
▁Teresa	-11.474
deł	-11.4741
▁zwierzęcia	-11.4741
pier	-11.4744
▁trzymali	-11.4744
rodzona	-11.4746
▁popycha	-11.4749
bą	-11.475
▁najlepszego	-11.475
▁szkoła	-11.475
▁Wolę	-11.4751
▁Gal	-11.4755
▁cudzych	-11.4755
▁padnie	-11.4757
▁Bona	-11.4758
Że	-11.4759
▁obojga	-11.4759
▁Aten	-11.476
▁ustanku	-11.4761
▁szczelnie	-11.4762
▁poczynał	-11.4762
▁rozśmiał	-11.4762
▁czule	-11.4763
▁młodzian	-11.4763
up	-11.4764
▁ukochanej	-11.4767
▁Dziwne	-11.4774
▁dajcie	-11.4775
▁niejaki	-11.4775
▁wyższego	-11.4775
Ba	-11.4778
▁przypadł	-11.4778
▁Port	-11.478
▁butelkę	-11.478
▁Zrazu	-11.478
▁wachlarz	-11.478
▁Oby	-11.478
▁Owo	-11.4781
▁afekt	-11.4782
▁Praw	-11.4782
▁ścieżki	-11.4783
▁bezwiednie	-11.4783
▁kryształ	-11.4784
▁doświadcza	-11.4784
Pan	-11.4785
▁ucałował	-11.4786
▁doskonałe	-11.4787
▁nakazał	-11.479
▁pułki	-11.479
▁One	-11.479
▁parkan	-11.4792
▁minie	-11.4792
▁skurcz	-11.4792
▁powtarzała	-11.4792
▁przeżyć	-11.4793
▁zielony	-11.4794
▁łącząc	-11.4797
▁uczciwy	-11.4799
▁Hiszpan	-11.4799
▁cudownie	-11.48
▁Pierwsza	-11.48
▁pogoda	-11.48
▁katolicki	-11.4801
▁westchnienia	-11.4801
▁jedynego	-11.4802
▁główne	-11.4803
▁dłuż	-11.4804
zek	-11.4806
▁biły	-11.4806
▁uniósł	-11.4807
▁opuszczał	-11.4807
▁kolega	-11.4807
Ha	-11.4809
▁kropli	-11.481
▁zależało	-11.4811
▁strzeże	-11.4814
▁Ran	-11.4814
▁główny	-11.4815
rani	-11.4816
smak	-11.4817
▁lęku	-11.4819
▁najnie	-11.482
▁siostro	-11.482
▁więźniów	-11.482
▁obejmował	-11.482
▁zajrzał	-11.4821
▁milczeć	-11.4821
pędził	-11.4821
bud	-11.4821
Ł	-11.4821
▁nagi	-11.4822
▁rozbił	-11.4822
▁Ostatecznie	-11.4823
olog	-11.4823
▁poczt	-11.4824
▁Szczęściem	-11.4824
▁rządów	-11.4825
▁ojcowie	-11.4825
▁bruk	-11.4828
▁gwałtowne	-11.4828
▁Strach	-11.4829
▁koszt	-11.483
▁sprawiedliwy	-11.4833
▁puchar	-11.4833
▁poprzedniego	-11.4833
▁starania	-11.4834
wiał	-11.4837
kr	-11.4838
▁francuskiego	-11.4841
▁spór	-11.4844
▁ul	-11.4845
owna	-11.4846
nicki	-11.4846
party	-11.4846
▁węże	-11.4847
stek	-11.4847
▁powszechne	-11.4848
▁wyjaśnił	-11.4852
▁Wiedziałem	-11.4854
jona	-11.4854
▁orszaku	-11.4857
▁rabiego	-11.4857
▁opowieść	-11.4862
▁lek	-11.4864
wane	-11.4865
▁humorze	-11.4866
▁gmachu	-11.4867
▁kona	-11.4868
▁spuszczał	-11.4868
ograf	-11.4869
▁błyska	-11.487
▁olbrzymią	-11.487
istów	-11.487
▁układał	-11.487
▁pustym	-11.4872
▁ciągnąć	-11.4874
▁Wstyd	-11.4875
▁deski	-11.4875
▁kształtu	-11.4875
▁przecię	-11.4877
▁podły	-11.4878
▁marzył	-11.4878
▁linie	-11.4878
żenie	-11.4879
▁scen	-11.488
▁Wiecie	-11.4881
▁pomieścić	-11.4882
▁oddany	-11.4882
▁letni	-11.4882
▁królewską	-11.4882
▁zabawa	-11.4883
▁zbawienia	-11.4884
▁Pół	-11.4884
▁upada	-11.4884
▁abyście	-11.4886
▁Szczur	-11.4888
są	-11.4889
▁zapewnia	-11.489
ciela	-11.4891
▁suchy	-11.4892
znie	-11.4892
▁świeży	-11.4894
▁wchodzić	-11.4897
▁jechali	-11.4899
siad	-11.4901
▁rób	-11.4901
czku	-11.4901
▁perły	-11.4902
▁Verdurin	-11.4902
▁Szolem	-11.4902
▁mgłą	-11.4902
▁poczęło	-11.4902
▁dzisiejszy	-11.4902
▁pereł	-11.4902
▁Umarł	-11.4902
płynęły	-11.4904
▁równą	-11.4905
▁fajkę	-11.4905
wiązać	-11.4908
▁Dzie	-11.4908
nos	-11.4909
ella	-11.4911
▁kaftan	-11.4911
▁byście	-11.4911
▁puls	-11.4911
▁objawił	-11.4912
nowa	-11.4914
▁surowe	-11.4915
▁hałasu	-11.4915
▁powitanie	-11.4915
▁tytułu	-11.4919
▁wsiadł	-11.4919
▁mojemu	-11.4921
▁wybucha	-11.4922
pak	-11.4922
▁fantazji	-11.4923
▁robót	-11.4923
gły	-11.4923
▁więzień	-11.4923
▁czap	-11.4923
pre	-11.4924
▁dziedzinie	-11.4924
▁przyszedłem	-11.4925
▁zadość	-11.4925
▁silna	-11.4926
▁straci	-11.4927
▁przywiązania	-11.4927
▁zbrodnia	-11.4928
▁wieczną	-11.493
▁kanonik	-11.493
▁klejnoty	-11.4932
▁Wchodzą	-11.4932
▁powierzchnię	-11.4934
▁któregoś	-11.4935
chleb	-11.4939
▁Har	-11.4939
cięte	-11.494
▁wdzięczne	-11.4943
▁Found	-11.4943
▁dumna	-11.4943
▁przyczynił	-11.4944
▁Przyszła	-11.4944
▁zaglądał	-11.4945
▁faktu	-11.4947
▁sok	-11.4948
▁Panny	-11.4949
żeni	-11.495
▁otoczeniu	-11.4951
▁gwałtowny	-11.4954
alna	-11.4955
▁ranek	-11.4957
▁czują	-11.4957
▁miłym	-11.4958
▁poczucia	-11.4959
▁wstrzyma	-11.4962
"	-11.4964
▁redaktor	-11.4964
▁wschodu	-11.4964
▁znajduję	-11.4964
▁Wciąż	-11.4964
▁Chłopiec	-11.4964
▁spowiedzi	-11.4964
▁mamo	-11.4964
▁wierności	-11.4964
▁żenić	-11.4965
▁władcy	-11.4965
gie	-11.4966
rażony	-11.4966
▁wozie	-11.4968
▁pomagał	-11.4968
▁wyglądały	-11.4969
▁chi	-11.497
▁umysły	-11.497
▁działał	-11.4971
▁płynąć	-11.4972
▁szat	-11.4973
▁zmusić	-11.4973
▁maszyny	-11.4974
bezpieczeństwie	-11.4975
▁publicznego	-11.4978
owości	-11.4978
▁pisała	-11.4978
▁drżące	-11.498
▁Edmund	-11.498
▁umieć	-11.4982
▁leciał	-11.4982
▁dodałem	-11.4982
▁zmieniał	-11.4982
▁Żyw	-11.4983
▁Pad	-11.4983
▁wyspa	-11.4983
▁Mindows	-11.4984
▁pogardy	-11.4985
▁uparcie	-11.4985
▁biurku	-11.4985
rzucać	-11.4986
pal	-11.4987
▁głównym	-11.4987
ts	-11.4988
▁Gdzieś	-11.4988
▁Zeus	-11.4989
ery	-11.499
▁skwapliwie	-11.499
▁pochwały	-11.4991
▁zadowolenie	-11.4994
▁tuzin	-11.4994
▁Oba	-11.4994
▁uczynię	-11.4995
rce	-11.4995
ecki	-11.4997
▁Mówiłem	-11.4998
▁Osob	-11.4999
▁chałup	-11.5
▁wewnętrznego	-11.5
▁brud	-11.5
▁zachowywał	-11.5
▁kochałem	-11.5001
▁żyjąc	-11.5001
▁kątach	-11.5001
myśli	-11.5002
▁mysz	-11.5002
▁nakaz	-11.5004
▁gorąca	-11.5005
▁chciano	-11.5005
▁miłosne	-11.5005
▁płynęła	-11.5005
▁brody	-11.5007
chodzących	-11.5007
▁przezeń	-11.5008
▁hetmana	-11.501
▁rzucać	-11.5012
▁Miłości	-11.5012
▁Wid	-11.5013
▁giną	-11.5013
▁poryw	-11.5014
wski	-11.5017
bicie	-11.5017
▁Małe	-11.5017
lecz	-11.5019
▁podda	-11.5019
▁kła	-11.502
▁dorzucił	-11.502
pędza	-11.502
▁faj	-11.5021
▁Czekaj	-11.5023
▁for	-11.5023
▁Piękna	-11.5026
▁pójdą	-11.5026
▁podeszła	-11.5026
▁Dużo	-11.5026
▁pilnował	-11.5026
▁zgiełk	-11.5026
czej	-11.5027
stawiono	-11.5028
▁nastał	-11.5029
▁komnat	-11.5031
▁splot	-11.5032
▁przynosił	-11.5033
▁próżność	-11.5033
▁bezpieczeństwa	-11.5034
▁akcent	-11.5034
▁mylę	-11.5035
▁babki	-11.5036
▁kanał	-11.5038
▁zajęta	-11.504
▁mogliśmy	-11.5041
Da	-11.5041
▁okolicę	-11.5042
▁wesołym	-11.5043
tko	-11.5043
grom	-11.5045
▁śmiertelny	-11.5045
▁pokrywa	-11.5045
▁najważniejsze	-11.5047
▁cywilizacji	-11.5047
got	-11.5047
▁Wzrok	-11.5047
▁ulgę	-11.5047
▁póty	-11.5048
ill	-11.5048
Jeśli	-11.505
▁oficerowie	-11.5051
▁Para	-11.5052
▁tamto	-11.5053
▁dotknąć	-11.5054
▁dalekiej	-11.5054
ero	-11.5054
▁zapomnę	-11.5055
▁nawyk	-11.5056
niał	-11.5057
▁walcząc	-11.506
▁wtrąciła	-11.506
▁lampę	-11.5061
▁szpitala	-11.5064
▁KUBUŚ	-11.5067
▁Ropuch	-11.5067
▁samotność	-11.5067
▁błędów	-11.5067
▁pogardza	-11.5068
▁dostojny	-11.5069
▁zima	-11.5069
▁głośny	-11.5069
▁Zaprawdę	-11.507
▁zapału	-11.5071
▁przejmował	-11.5071
ucha	-11.5071
▁unosząc	-11.5071
suwając	-11.5072
▁czytelnika	-11.5073
▁Wenecji	-11.5073
▁zastąpić	-11.5074
▁wysokość	-11.5075
▁Taką	-11.5076
▁czułości	-11.5076
▁Idąc	-11.5076
kowskiego	-11.5077
anej	-11.5081
▁Franc	-11.5081
rne	-11.5082
dłuż	-11.5084
▁fakty	-11.5088
▁obojętność	-11.5088
▁trwogę	-11.5088
▁właściwą	-11.5088
▁ósmej	-11.5088
▁Warszawa	-11.5088
owskie	-11.509
▁stojące	-11.509
▁mści	-11.509
▁Pewno	-11.5092
▁Sar	-11.5093
▁znanych	-11.5094
▁sędziów	-11.5094
stru	-11.5096
▁wymyśla	-11.5097
piął	-11.5098
▁skrzydłach	-11.5099
słuchał	-11.51
▁badania	-11.51
▁tamtą	-11.5101
▁kazano	-11.5102
rzyna	-11.5102
▁wchodzą	-11.5103
rodził	-11.5109
▁Fernand	-11.5109
▁Tem	-11.511
▁pańską	-11.5112
▁szóstej	-11.5113
▁znajdowały	-11.5114
▁mających	-11.5114
anu	-11.5114
czesny	-11.5114
▁qua	-11.5115
czono	-11.5115
▁przeraża	-11.5116
▁żeście	-11.5116
fra	-11.5117
mawiać	-11.5117
”)	-11.5118
▁mądrze	-11.512
▁dowiedziała	-11.512
▁wierzą	-11.5121
▁zobaczyłem	-11.5123
▁przeraził	-11.5125
▁Koń	-11.5125
▁westchnienie	-11.5126
▁wynosi	-11.5126
▁straże	-11.5126
▁czynię	-11.5127
▁skarbów	-11.5127
▁sklepie	-11.5129
▁arcykapłan	-11.513
▁spokojną	-11.513
▁wielmożny	-11.513
▁publicznej	-11.5133
▁pocznie	-11.5134
dna	-11.5135
▁niebieskich	-11.5136
dmuch	-11.5137
▁prochu	-11.5137
▁koł	-11.5141
▁podstęp	-11.5141
▁zielonym	-11.5142
▁strzeż	-11.5142
dziej	-11.5146
▁rodzaje	-11.5146
▁Char	-11.5148
▁Poczekaj	-11.5149
▁wyrywa	-11.515
▁Kiejstut	-11.5151
▁Protarchos	-11.5151
▁zbrodnie	-11.5152
▁szczerą	-11.5152
▁ochota	-11.5152
▁Jakiż	-11.5153
▁ubóstwia	-11.5154
ające	-11.5154
▁świecą	-11.5154
▁zrywał	-11.5156
▁zada	-11.5156
▁Usiadł	-11.5158
▁zdań	-11.5159
▁stworzony	-11.516
▁twoi	-11.516
▁Artur	-11.5161
▁zatrzymywał	-11.5161
ille	-11.5162
▁słomy	-11.5162
▁mieni	-11.5162
ior	-11.5164
▁łys	-11.5165
▁słuchali	-11.5165
▁Kazimierza	-11.5166
▁pokoiku	-11.5168
▁zgrzyt	-11.5169
▁wracam	-11.5169
rok	-11.5169
▁Hektor	-11.5171
▁krzyku	-11.5172
▁Dopóki	-11.5172
▁Polskę	-11.5172
▁Według	-11.5172
▁powtórnie	-11.5172
▁Pokój	-11.5172
▁Spójrz	-11.5172
▁gorliwie	-11.5172
▁Szwarc	-11.5172
uz	-11.5173
▁śniadaniu	-11.5173
▁koniach	-11.5174
▁kamieniu	-11.5177
▁rywal	-11.5177
▁mężnie	-11.5179
▁odwiedziny	-11.518
▁uczułem	-11.518
▁stanowisku	-11.5182
▁Którego	-11.5183
▁stoję	-11.5183
▁Michała	-11.5185
▁zapewnił	-11.5185
inie	-11.5185
▁not	-11.519
▁Przybył	-11.519
▁laur	-11.5191
▁pragną	-11.5192
▁Niepodobna	-11.5193
▁cnotą	-11.5193
▁Ignacy	-11.5193
▁aczkolwiek	-11.5194
▁machnął	-11.5194
może	-11.5194
▁Mazur	-11.5194
▁należałoby	-11.5195
łbym	-11.5195
▁trybunał	-11.5197
ewicz	-11.5197
▁Alboż	-11.5198
▁Bodaj	-11.5201
▁zniszczyć	-11.5201
▁czarodziej	-11.5201
▁czerwonej	-11.5202
gr	-11.5202
wiózł	-11.5202
lów	-11.5205
▁dziewki	-11.5205
prowadza	-11.5206
▁mogiły	-11.5207
kręca	-11.5207
▁przysiadł	-11.5208
▁tańczyć	-11.5211
▁Kaźmirz	-11.5214
▁produkcji	-11.5214
▁Ciotka	-11.5215
▁wzięty	-11.5215
▁siedzący	-11.5216
▁Andrzeja	-11.5216
▁twórcy	-11.5216
▁osiadł	-11.5216
▁dumę	-11.5217
▁listem	-11.5217
▁sądem	-11.5218
▁pomyśli	-11.5219
▁zwalił	-11.5222
▁Zaczem	-11.5222
▁ludowi	-11.5224
▁Sp	-11.5224
▁domaga	-11.5225
▁upłynęło	-11.5226
▁zawierał	-11.5226
tury	-11.5226
▁pop	-11.5227
▁zamykał	-11.5227
▁znalazło	-11.5227
▁Koniec	-11.5228
▁Szwejka	-11.5229
▁kontrast	-11.5229
rzony	-11.5229
hn	-11.523
▁ranę	-11.5233
▁gli	-11.5233
▁osobno	-11.5235
▁rachunki	-11.5236
▁wyjątkowo	-11.5236
▁polska	-11.5236
▁wynik	-11.5236
▁chrap	-11.5237
nosił	-11.5237
▁Miasto	-11.5237
▁zajęte	-11.5237
▁łagodnym	-11.5238
padną	-11.5238
▁skórze	-11.5238
▁bystro	-11.524
klę	-11.524
▁gospodarstwo	-11.524
▁dzielnic	-11.5241
▁rozmiarów	-11.5242
ktor	-11.5244
lany	-11.5245
▁okrutne	-11.5245
▁łatwe	-11.5245
▁kęs	-11.5246
▁płomieniem	-11.5246
▁oszczep	-11.5248
▁dys	-11.5248
▁dzika	-11.5251
▁podlega	-11.5252
rosłe	-11.5256
▁poznali	-11.5257
▁wał	-11.5257
▁zawarte	-11.5257
▁Pewien	-11.5257
▁istnieniu	-11.5257
▁hańby	-11.5257
▁Litwę	-11.5257
▁rozpoznać	-11.5257
▁miecze	-11.5258
▁wyjazd	-11.5258
noszono	-11.5258
▁hrabiny	-11.5259
▁poleciał	-11.526
▁postępować	-11.5261
▁równy	-11.5265
▁grubych	-11.5265
▁rodziną	-11.5265
sunęły	-11.5269
▁Uśmiech	-11.5272
▁uro	-11.5274
głow	-11.5277
▁okryty	-11.5278
▁Wisły	-11.5278
▁otuchy	-11.5279
▁strof	-11.5279
▁mojem	-11.5279
▁man	-11.5281
▁czymże	-11.5282
jedzie	-11.5282
▁zastąpił	-11.5283
▁spryt	-11.5283
▁Cał	-11.5284
▁jasność	-11.5285
▁przejęty	-11.5286
▁odpowiedni	-11.5286
wiezie	-11.5287
pir	-11.5288
▁miłego	-11.5288
▁szafir	-11.5288
ącego	-11.5288
▁stałe	-11.529
▁Mógł	-11.529
▁spędzał	-11.5291
▁Eli	-11.5291
▁Będziemy	-11.5292
▁sprzęty	-11.5295
wana	-11.5296
▁godzinami	-11.5297
▁Jadwiga	-11.53
▁potworne	-11.53
lała	-11.53
▁Mają	-11.53
▁powinieneś	-11.5301
▁przychodziło	-11.5301
dum	-11.5301
▁Basi	-11.5301
▁doszli	-11.5302
▁byliby	-11.5302
▁lipca	-11.5302
żał	-11.5302
▁Zatrzymał	-11.5303
szyć	-11.5304
▁ław	-11.5305
▁świece	-11.5305
▁wieniec	-11.5308
▁zachwyca	-11.5308
▁pojmuje	-11.5309
znę	-11.5309
▁kobiece	-11.5309
zem	-11.5311
▁paląc	-11.5312
▁błagał	-11.5312
▁tyleż	-11.5315
▁rodzinne	-11.5315
▁Chi	-11.5315
▁ulicą	-11.5316
▁bieli	-11.5317
▁świecę	-11.5317
kończy	-11.5317
▁namyśle	-11.5318
▁wspaniałą	-11.5321
▁udzielił	-11.5321
▁radosne	-11.5321
▁kochanków	-11.5321
▁miłą	-11.5322
▁przestraszył	-11.5325
▁rączki	-11.5325
▁zważając	-11.5326
▁skrzy	-11.5327
▁strasz	-11.5328
▁oceanu	-11.5329
▁naprzeciwko	-11.533
▁Jaś	-11.5331
▁morskiej	-11.5331
▁auto	-11.5335
▁zadać	-11.5337
ownicy	-11.534
ntu	-11.5341
▁Którą	-11.5342
▁osobna	-11.5342
▁niewielu	-11.5342
▁Albertyna	-11.5343
▁sroż	-11.5343
▁zguby	-11.5343
▁zgoda	-11.5344
and	-11.5344
nci	-11.5345
▁Obecnie	-11.5346
▁gniewie	-11.5346
▁odmienne	-11.5347
▁kobietami	-11.5348
▁utrzymania	-11.5348
▁nowi	-11.5349
▁ciepłe	-11.5349
▁grad	-11.535
rasta	-11.535
▁Szczęśliw	-11.535
▁mniemał	-11.5351
moral	-11.5351
▁oświadcza	-11.5354
życie	-11.5355
▁sądzie	-11.5355
padnie	-11.5356
▁pełnego	-11.5358
▁pozostawił	-11.5362
▁przytacza	-11.5364
▁Mateusz	-11.5364
▁potężnym	-11.5364
▁szabli	-11.5364
▁Dziew	-11.5365
▁Marysi	-11.5365
czeniu	-11.5367
▁odparłem	-11.5368
mieści	-11.537
▁wywoła	-11.537
▁kucharz	-11.537
▁trosk	-11.537
▁odruch	-11.5371
▁drąg	-11.5371
▁martwy	-11.5371
wu	-11.5374
▁Spa	-11.5374
▁Oho	-11.5375
wałem	-11.5376
łup	-11.5376
ide	-11.5376
▁innemu	-11.5377
▁Czyliż	-11.5377
▁chiński	-11.5378
▁żyjących	-11.5378
▁obszar	-11.538
▁przeznaczenie	-11.538
▁zjada	-11.5382
▁podstawy	-11.5383
lat	-11.5384
▁balu	-11.5385
▁Franciszek	-11.5385
▁zdolna	-11.5385
▁zaleca	-11.5387
▁ist	-11.5387
▁otwierał	-11.5388
▁marne	-11.5388
▁drżący	-11.5389
▁pisane	-11.539
▁sine	-11.5391
▁odwiedza	-11.5392
▁rwał	-11.5395
rzucone	-11.5395
▁ucztę	-11.5397
ben	-11.5398
▁niskie	-11.54
▁dworzan	-11.5401
tuli	-11.5401
▁wznosił	-11.5403
gat	-11.5405
cone	-11.5406
▁poszukiwania	-11.5407
▁talarów	-11.5407
▁mokre	-11.5407
▁Ew	-11.5407
zji	-11.5407
▁barwę	-11.5409
▁wdowy	-11.5409
żenia	-11.5409
▁pośpieszył	-11.5411
▁gołąb	-11.5411
▁Grecy	-11.5412
hy	-11.5412
▁śliczna	-11.5412
▁dzikiego	-11.5413
zia	-11.5413
ktyw	-11.5415
▁otrzymałem	-11.5416
wita	-11.5417
▁Temu	-11.5418
▁szczyty	-11.5419
▁istniał	-11.5419
zono	-11.5421
▁dostaje	-11.5422
▁zabije	-11.5422
▁szczere	-11.5424
▁więzienie	-11.5425
▁nastąpić	-11.5425
▁piszą	-11.5425
Mo	-11.5425
cher	-11.5426
▁badał	-11.5427
▁Danton	-11.5429
▁włożyć	-11.543
▁wstrętu	-11.543
▁nadejdzie	-11.543
▁loży	-11.5431
▁suknia	-11.5431
▁uczeń	-11.5432
▁wdzięcznie	-11.5433
▁kolumny	-11.5434
▁zadzwonił	-11.5435
▁dokonywa	-11.5436
▁guzik	-11.5436
▁przebieg	-11.5438
▁czyniły	-11.544
▁odgadł	-11.5441
▁lord	-11.5441
szko	-11.5443
▁wywołać	-11.5444
▁olej	-11.5445
▁pańskich	-11.5445
nemi	-11.5445
▁jadąc	-11.5447
▁różnymi	-11.5447
▁kąpiel	-11.5448
szedł	-11.5449
▁krawędzi	-11.545
▁pocałunek	-11.545
▁szanowny	-11.545
▁trumny	-11.545
▁pieszczot	-11.5451
▁dopuścił	-11.5453
▁Łzy	-11.5454
▁trudniej	-11.5456
▁wyższej	-11.5457
▁otarł	-11.5457
kroć	-11.5458
▁przestanie	-11.5458
▁zamach	-11.5459
▁hen	-11.546
▁wspominał	-11.5462
▁wypuścił	-11.5463
▁wstrząs	-11.5464
▁czekam	-11.5464
▁czytelnik	-11.5464
ling	-11.5464
▁wzrusza	-11.5464
▁drżącym	-11.5465
▁Mieszka	-11.5466
è	-11.5467
▁Kogo	-11.5467
▁efekt	-11.547
▁wieczory	-11.5472
▁Zjednoczonych	-11.5472
▁wodzów	-11.5472
▁słodka	-11.5472
▁komp	-11.5472
▁wycieczki	-11.5472
niku	-11.5473
▁zejść	-11.5474
▁rodzą	-11.5475
▁zasłonę	-11.5475
▁zszedł	-11.5475
▁posłuszny	-11.5476
▁Słyszał	-11.5476
▁sąsiedzi	-11.5477
▁zbywa	-11.5477
▁widzieliśmy	-11.5477
▁ciocia	-11.5481
▁stoły	-11.5485
▁Bożego	-11.5486
▁żu	-11.5487
▁grusz	-11.5487
▁żelazem	-11.5488
kradł	-11.549
▁ostrym	-11.5491
łby	-11.5491
▁pożytku	-11.5493
▁ufność	-11.5493
▁kolonii	-11.5494
▁kontent	-11.5494
▁pojedzie	-11.5494
▁Pański	-11.5494
jusz	-11.5494
niejsi	-11.5495
▁Dotąd	-11.5495
▁stanowiły	-11.5496
▁utwór	-11.5496
▁ożeni	-11.5497
latuje	-11.5498
jęte	-11.5499
równa	-11.5499
▁zimnym	-11.55
▁przyjedzie	-11.5501
pisana	-11.5501
▁takt	-11.5502
▁Myślał	-11.5502
▁błędne	-11.5503
▁srogie	-11.5504
▁narzeka	-11.5504
▁En	-11.5505
▁spuszcza	-11.5506
▁francuskich	-11.5509
▁ubiera	-11.551
▁dusi	-11.551
▁wylot	-11.5511
▁drzewie	-11.5512
▁odgrywa	-11.5513
▁skorup	-11.5513
▁uważała	-11.5515
▁drażliw	-11.5515
▁rocznie	-11.5516
▁runął	-11.5518
▁opierając	-11.5519
▁Ada	-11.552
▁szar	-11.5521
▁ram	-11.5521
▁nosiła	-11.5522
▁zgubi	-11.5522
▁humoru	-11.5525
▁szczególne	-11.5526
prawa	-11.5526
▁góra	-11.5526
▁wolną	-11.5528
▁nędzne	-11.5529
szczenie	-11.5531
▁rodzajem	-11.5532
▁Napoleona	-11.5535
▁Mówiła	-11.5536
▁chciwy	-11.5537
▁paszport	-11.5537
▁pozwolę	-11.5537
▁wybrzeżu	-11.5537
▁opinię	-11.5537
▁powagę	-11.5537
▁uwaga	-11.5539
▁dat	-11.554
▁papierów	-11.5541
▁formą	-11.5542
▁tętni	-11.5543
▁gniazd	-11.5544
▁świeciły	-11.5544
▁ujrzy	-11.5545
▁skłania	-11.5548
▁przepis	-11.5549
▁szafy	-11.555
▁Porzycki	-11.555
▁ziarna	-11.555
▁kształtów	-11.5554
pięt	-11.5556
sper	-11.5556
rodzone	-11.5558
▁niespełna	-11.5559
▁nastroju	-11.5559
▁warunek	-11.5559
prowadzony	-11.556
▁gościńca	-11.556
▁(„	-11.5561
▁grozy	-11.5562
▁mężowie	-11.5562
▁trawi	-11.5562
▁płonie	-11.5563
▁cieszę	-11.5563
jna	-11.5564
lnych	-11.5564
▁acz	-11.5565
▁świętości	-11.5567
▁powitał	-11.5568
▁zwykłych	-11.5569
▁stroje	-11.5569
▁wojen	-11.5572
▁pokażę	-11.5573
▁skazany	-11.5574
burg	-11.5574
▁powziął	-11.5575
▁czarnymi	-11.5575
▁awantur	-11.5575
▁wyglądało	-11.5575
▁żebrak	-11.5576
▁starań	-11.5576
▁haft	-11.5581
▁młodzieńcze	-11.5581
▁błędu	-11.5581
▁wierność	-11.5581
jako	-11.5585
▁szkodę	-11.5585
▁świtu	-11.5587
▁brz	-11.5587
▁kurzu	-11.5587
▁książęta	-11.5587
▁wtór	-11.5589
jęci	-11.5591
▁siwy	-11.5593
▁nauką	-11.5594
▁ostrzega	-11.5595
stron	-11.5596
▁widma	-11.5597
▁Sal	-11.5597
▁grała	-11.5598
▁zaprzecza	-11.5599
▁robak	-11.5599
▁doda	-11.5603
▁artystów	-11.5603
▁osobistości	-11.5603
▁Fabrycego	-11.5603
▁okręcie	-11.5603
▁niespodziewanie	-11.5605
▁spodziewam	-11.5605
▁złotej	-11.5606
▁cyrku	-11.5608
▁Dziadek	-11.5609
▁baj	-11.5609
▁murami	-11.561
▁nocnej	-11.5611
▁przyjeżdża	-11.5612
karz	-11.5614
▁pozbawione	-11.5614
▁przestrzega	-11.5614
▁uprawia	-11.5614
▁Maryni	-11.5615
los	-11.5615
▁butów	-11.5615
▁głębokiego	-11.5615
ici	-11.5616
▁przypływ	-11.5616
▁rozciąga	-11.5617
▁ruszyła	-11.5619
▁zdawać	-11.562
▁Ola	-11.5622
▁pochodzą	-11.5623
▁złością	-11.5624
▁Czegóż	-11.5625
▁Micawber	-11.5625
▁znaleziono	-11.5625
▁możliwie	-11.5625
▁Druga	-11.5626
kła	-11.5626
▁śle	-11.5627
▁wysłuchał	-11.5628
▁przyszłych	-11.5628
▁milczała	-11.563
▁Skądże	-11.563
▁planet	-11.5633
▁olbrzymiego	-11.5633
▁procesu	-11.5634
▁spalił	-11.5635
mysł	-11.5637
▁obrócić	-11.5638
▁żądzy	-11.564
▁stanów	-11.564
▁zatrzymując	-11.5641
▁zewnętrznych	-11.5641
nty	-11.5642
▁wyszedłem	-11.5643
▁dawało	-11.5643
▁przypomni	-11.5644
▁Rzymianie	-11.5645
▁zaproponował	-11.5647
▁okulary	-11.5647
▁cofnąć	-11.5647
▁mieszkała	-11.5648
▁Stoi	-11.5648
▁piecu	-11.5649
▁myślicie	-11.565
▁wezwanie	-11.5651
▁chłodne	-11.5653
▁pomarańcz	-11.5653
▁Śmiał	-11.5654
▁oszczędności	-11.5654
gier	-11.5656
▁posłucha	-11.5657
▁zmieniając	-11.5657
▁złapał	-11.5657
▁marnie	-11.5658
▁obyczajem	-11.5658
▁liść	-11.5659
▁nocach	-11.566
▁przyjdę	-11.5661
▁występował	-11.5662
▁gen	-11.5662
▁Takim	-11.5663
▁gospodarstwa	-11.5663
▁rosy	-11.5665
▁wzgórzu	-11.5665
▁Szczęście	-11.5665
gne	-11.5666
▁ryn	-11.5666
▁naturalnego	-11.5668
▁folwark	-11.5669
▁Stała	-11.5669
▁gałąź	-11.5669
▁wszystek	-11.5669
▁zainteresowanie	-11.5669
▁spojrzy	-11.5669
eście	-11.5669
▁posuwał	-11.567
▁zbada	-11.5671
rzone	-11.5671
nkami	-11.5672
▁rokiem	-11.5672
▁największego	-11.5673
▁społecznej	-11.5673
▁bogata	-11.5674
▁zapomnieli	-11.5676
▁pokona	-11.5676
gryzł	-11.5677
▁powinniśmy	-11.5677
▁Wol	-11.5679
▁Pójdź	-11.568
▁powita	-11.568
Pa	-11.568
cią	-11.5681
▁tańczył	-11.5682
▁ukrywać	-11.5682
▁okropny	-11.5682
▁Mickiewicza	-11.5685
chodząc	-11.5685
dadzą	-11.5687
▁Zaczęła	-11.5688
nina	-11.5688
▁potu	-11.5688
ującym	-11.569
▁Krzyk	-11.569
bezpieczeństwem	-11.569
▁domyślał	-11.5691
▁komentarz	-11.5691
▁rozrywki	-11.5691
▁niezwłocznie	-11.5692
▁pierwsi	-11.5692
▁postawy	-11.5693
▁niechęci	-11.5694
▁nauczy	-11.5695
▁rozkosze	-11.5698
▁teatraln	-11.5699
▁łza	-11.5699
▁snów	-11.57
▁skłonić	-11.5702
▁rzęs	-11.5703
▁zmniejsza	-11.5705
▁skończone	-11.5706
▁dobywa	-11.5706
▁głodem	-11.5707
▁śpiewają	-11.5709
sja	-11.571
▁wiernym	-11.5711
▁Roch	-11.5711
▁takiemu	-11.5711
▁utopi	-11.5712
▁elegancki	-11.5714
▁gorączkowo	-11.5714
▁pry	-11.5714
▁miękkie	-11.5715
tne	-11.5715
▁spoczywał	-11.5715
▁Bla	-11.5715
▁posłuszeństwa	-11.5715
▁Rozmowa	-11.5715
▁począwszy	-11.5716
▁znajdować	-11.5716
stanę	-11.5716
▁wzruszając	-11.5718
▁zapamiętał	-11.5719
▁wyglądają	-11.572
▁sięgał	-11.572
jskich	-11.5721
▁zysk	-11.5722
▁przywykł	-11.5722
▁zastanawia	-11.5723
▁zdarzył	-11.5723
▁podobni	-11.5726
cierał	-11.5726
▁kierował	-11.5726
▁szumi	-11.5727
sion	-11.5727
▁byleby	-11.5727
▁wisiał	-11.5728
icznie	-11.573
▁sk	-11.573
▁Natan	-11.5733
▁utkwił	-11.5733
▁sar	-11.5735
liwości	-11.5735
▁wyprawia	-11.5735
▁zbroję	-11.5736
▁dosłownie	-11.5739
▁obojętny	-11.5739
▁porównania	-11.5741
▁Rozum	-11.5741
ros	-11.5742
▁pozwalają	-11.5743
▁leżeć	-11.5743
▁bród	-11.5744
▁kochając	-11.5746
Kto	-11.5748
▁powtórz	-11.5748
▁prace	-11.5751
▁uważając	-11.5751
cyj	-11.5752
▁komina	-11.5754
▁ząb	-11.5755
tery	-11.5755
dać	-11.5756
▁robotnicy	-11.5756
▁błyszczały	-11.5756
▁rola	-11.5757
▁wejście	-11.5757
▁Jakuba	-11.5757
▁wstydził	-11.5757
▁otoczone	-11.5757
▁Harvey	-11.5758
▁sztuczne	-11.5758
▁dotrzeć	-11.5759
szku	-11.5759
▁zemstę	-11.5759
▁martwi	-11.5759
▁worek	-11.5759
▁grubym	-11.5759
▁przeczucie	-11.576
▁dukatów	-11.5761
▁poradzi	-11.5762
▁wyjaśni	-11.5763
▁Herod	-11.5763
rzuciwszy	-11.5763
▁panować	-11.5765
▁opuścili	-11.5766
▁Kazał	-11.5767
▁ogonem	-11.5768
▁bystre	-11.577
▁brzydkie	-11.5771
ces	-11.5771
▁piwnicy	-11.5775
zował	-11.5777
▁hej	-11.5778
niebezpieczeństw	-11.5779
▁Carmaux	-11.578
▁niezmierną	-11.578
▁tenże	-11.5781
▁Ode	-11.5781
▁Kup	-11.5782
▁Pokaż	-11.5783
▁czytała	-11.5783
▁ciągłe	-11.5783
▁zbudowany	-11.5783
obo	-11.5785
owań	-11.5786
▁zarząd	-11.5787
▁przyłożył	-11.5787
▁żegna	-11.5788
▁boru	-11.5791
▁zastanowił	-11.5791
▁oficera	-11.5792
ęci	-11.5793
▁podróżny	-11.5794
▁dzielnicy	-11.5795
▁przekonaniu	-11.5796
▁juści	-11.5797
▁zapadał	-11.5797
▁planu	-11.5798
▁gwizd	-11.5799
▁uderz	-11.5799
▁Krzyżak	-11.5799
▁wilki	-11.5801
▁szczególny	-11.5803
▁ziół	-11.5803
▁wąskie	-11.5805
▁nagłe	-11.5806
▁łowy	-11.5806
▁tajemne	-11.5806
▁mówiłam	-11.5806
▁Chłopcy	-11.5807
▁kasztan	-11.5809
▁rosła	-11.5811
▁Ham	-11.5812
▁pokus	-11.5814
▁miłuje	-11.5815
pół	-11.5818
▁Czyli	-11.5819
▁komendant	-11.5819
▁podróżnych	-11.5821
▁pasem	-11.5822
▁nienawiścią	-11.5824
▁Azji	-11.5825
▁uczciwości	-11.5825
sad	-11.5826
▁łasce	-11.5828
tami	-11.583
▁rynek	-11.583
▁władca	-11.583
▁trupów	-11.5831
▁spotkało	-11.5831
▁obraża	-11.5831
wraca	-11.5831
pala	-11.5833
▁dziecinne	-11.5833
stają	-11.5833
▁tyran	-11.5834
▁ocenia	-11.5836
▁trudna	-11.5838
▁przeczuwa	-11.5839
▁stolika	-11.584
▁zazna	-11.584
▁bierz	-11.5841
▁wiódł	-11.5841
▁dymem	-11.5842
▁Pies	-11.5844
▁nerwowo	-11.5844
▁Razem	-11.5844
▁kazali	-11.5845
staliśmy	-11.5846
▁uznaje	-11.5846
godni	-11.5846
▁zyskać	-11.5847
▁goryczą	-11.5847
sypał	-11.5847
▁Głupi	-11.5848
▁Ledwo	-11.5848
▁stwierdza	-11.5848
rzędn	-11.5849
nar	-11.5849
pada	-11.5849
▁fr	-11.585
▁szumiał	-11.585
▁bohaterów	-11.5853
▁spiesz	-11.5853
▁bogatym	-11.5853
wiązane	-11.5856
▁mir	-11.5857
▁por	-11.5858
anta	-11.5858
▁ukłonił	-11.5858
▁miód	-11.5858
▁oddając	-11.586
▁niezupełnie	-11.586
▁Chwilami	-11.586
▁dyrektora	-11.5861
▁czemś	-11.5861
pór	-11.5862
▁tytułem	-11.5863
▁niemoc	-11.5865
▁pogrążył	-11.5866
▁strasznej	-11.5867
dol	-11.5868
chodzą	-11.5869
▁dostałem	-11.5869
▁dzielności	-11.587
▁Agnieszka	-11.587
▁odbił	-11.587
▁szybciej	-11.587
▁program	-11.5871
▁usposobieniu	-11.5871
▁odpowiednie	-11.5872
ula	-11.5872
▁pokojach	-11.5873
▁jakież	-11.5873
▁odczuł	-11.5873
▁mówimy	-11.5875
mana	-11.5875
▁zemsta	-11.5876
▁czytałem	-11.5876
▁rozszerza	-11.5876
▁silniejszy	-11.5877
▁ulgi	-11.5879
▁rękaw	-11.588
rskiego	-11.588
▁mówiło	-11.588
▁śladów	-11.588
▁pogoni	-11.5881
stawiał	-11.5882
▁Postanowił	-11.5883
▁świetne	-11.5883
▁obliczem	-11.5883
▁dziennik	-11.5883
▁tortur	-11.5884
▁pędząc	-11.5886
▁komi	-11.5886
▁czynem	-11.5887
▁widowisko	-11.5888
▁rat	-11.589
▁wsiach	-11.589
▁Mir	-11.589
▁powiedziawszy	-11.589
▁stolik	-11.5891
▁horyzont	-11.5893
▁żałować	-11.5893
▁zagad	-11.5893
▁zamyśleniu	-11.5893
dał	-11.5893
▁kilkoma	-11.5894
▁tracąc	-11.5896
leni	-11.5896
▁Czuła	-11.5897
▁rur	-11.5898
▁gorzał	-11.5899
▁Podróż	-11.5899
▁przeżył	-11.5901
▁krom	-11.5902
▁Szar	-11.5904
▁przewodnik	-11.5904
▁handlarz	-11.5904
▁przypomniała	-11.5907
▁spe	-11.5909
▁Cisza	-11.5912
▁przebiega	-11.5913
▁dzierżaw	-11.5914
▁oblega	-11.5914
▁Gotfryd	-11.5915
▁sprzedaż	-11.5915
▁siódmej	-11.5916
▁nieruchome	-11.5916
▁ksiąg	-11.5916
▁Prawdę	-11.5916
▁pogody	-11.5916
▁sumieniu	-11.5917
▁szczyp	-11.5917
▁pływa	-11.5918
▁niepotrzebne	-11.5918
▁podziwem	-11.592
lik	-11.592
▁zalety	-11.5921
▁przeżywa	-11.5921
▁Ferdynand	-11.5921
▁Tadeusz	-11.5921
▁Edward	-11.5921
walił	-11.5922
▁sprawdzić	-11.5922
▁główkę	-11.5924
▁strzegł	-11.5924
▁doktorze	-11.5925
▁klejnot	-11.5925
▁wstając	-11.5926
▁demon	-11.5926
▁Pietr	-11.5929
▁Cezary	-11.5929
rosła	-11.5929
▁Sułkowski	-11.593
▁zapis	-11.593
▁bitwa	-11.5932
▁pośpiesz	-11.5933
▁Nowego	-11.5934
martwi	-11.5934
▁korona	-11.5935
▁hy	-11.5935
▁szukali	-11.5937
▁podniosły	-11.5938
▁wątpliwość	-11.5939
▁ostatek	-11.5939
▁traktat	-11.5939
▁marzy	-11.594
▁szczera	-11.594
▁machin	-11.5941
▁niewielki	-11.5941
▁filozofia	-11.5943
▁cieni	-11.5944
ang	-11.5944
▁ukochany	-11.5944
▁baczności	-11.5946
▁władzą	-11.5948
val	-11.5949
▁dzieląc	-11.595
▁potoczył	-11.595
▁pustych	-11.595
▁gruba	-11.5951
▁drewniane	-11.5951
▁dziada	-11.5954
▁wybiegła	-11.5957
▁Boży	-11.5957
▁uchem	-11.5958
▁napad	-11.5958
▁żegnał	-11.596
głębi	-11.596
▁cudowny	-11.5961
α	-11.5961
▁płótno	-11.5961
▁szkielet	-11.5961
▁szorstki	-11.5961
▁pojęciu	-11.5961
▁poezja	-11.5962
▁szczątki	-11.5962
▁mgle	-11.5962
▁spół	-11.5962
▁przysłowie	-11.5964
▁zapada	-11.5966
▁stanęło	-11.5966
▁oddechu	-11.5967
▁Proust	-11.5967
▁Kraków	-11.5967
▁wychowa	-11.5968
▁rządzić	-11.5968
▁dzieciak	-11.5969
▁przypuszczenie	-11.5969
▁czucia	-11.597
nąc	-11.597
Sz	-11.5971
▁Dobre	-11.5971
▁biegał	-11.5971
▁krewni	-11.5971
▁wyczerp	-11.5971
▁element	-11.5971
▁ufa	-11.5972
▁naturalnym	-11.5975
fle	-11.5975
gon	-11.5978
▁żądam	-11.5978
▁oszuka	-11.5979
▁podobał	-11.598
▁Wydaje	-11.5982
▁wstydzi	-11.5983
tną	-11.5983
▁zdarzeń	-11.5984
rac	-11.5984
▁języki	-11.5985
stąpił	-11.5985
▁posępny	-11.5985
▁padając	-11.5986
ciąć	-11.5987
▁Stój	-11.5988
▁zmierzchu	-11.5988
▁odkrycie	-11.5988
kot	-11.599
▁mienie	-11.599
▁Zygfryd	-11.599
▁furt	-11.599
▁poglądów	-11.5993
▁atłas	-11.5995
jmuję	-11.5995
▁boski	-11.5996
lezie	-11.5997
▁minuty	-11.5999
▁ubogich	-11.6001
▁ziarno	-11.6002
▁skroni	-11.6003
▁zasłania	-11.6005
▁obyczaju	-11.6006
łożony	-11.6006
▁Patrząc	-11.6006
▁bank	-11.6007
▁Beetle	-11.6007
▁Conseil	-11.6007
▁nieskończoność	-11.6007
▁odchodził	-11.601
▁milczeniem	-11.6011
padł	-11.6012
▁nudzi	-11.6012
lepi	-11.6014
atu	-11.6014
▁schronienie	-11.6014
▁cioci	-11.6014
▁Zaczyna	-11.6015
Pod	-11.6015
niéj	-11.6016
▁kazałem	-11.6017
▁pociesz	-11.6018
▁Dora	-11.6019
gry	-11.6019
▁powinności	-11.6021
▁stając	-11.6021
▁księgarz	-11.6022
▁istniała	-11.6023
▁gonił	-11.6024
▁podobać	-11.6025
maga	-11.6025
▁domowi	-11.6025
▁Bał	-11.6027
dzeniu	-11.6028
▁wschodzie	-11.6028
▁struny	-11.6029
patrzywszy	-11.6029
▁Pieśń	-11.603
▁dziedzińca	-11.603
▁wielbłąd	-11.603
▁polowanie	-11.603
▁szybki	-11.6031
▁Posłuchaj	-11.6032
▁Krzyżacy	-11.6032
▁użytek	-11.6032
▁okrył	-11.6034
kupi	-11.6034
▁Słusznie	-11.6034
▁tajemniczo	-11.6036
▁Wilhelm	-11.6037
▁ślicznie	-11.6037
▁niemieckie	-11.6038
▁potrzebują	-11.6038
▁zamki	-11.6039
▁wykwint	-11.604
▁wstydem	-11.6042
▁rabin	-11.6042
▁wal	-11.6044
▁wierzysz	-11.6045
▁niewinne	-11.6045
potrzeb	-11.6046
▁wyprowadził	-11.6048
▁garb	-11.6048
▁wspiera	-11.6049
bul	-11.605
▁bliższe	-11.6053
▁spocząć	-11.6053
▁sympatii	-11.6053
▁spojrzeli	-11.6053
▁złośliwy	-11.6053
▁pościeli	-11.6054
niach	-11.6055
▁Cu	-11.6056
▁znakomicie	-11.6056
▁oliw	-11.6061
▁potrawy	-11.6064
▁ciepły	-11.6064
▁zaszła	-11.6066
▁ożenić	-11.607
dż	-11.607
▁dopuścić	-11.607
▁brzegach	-11.607
▁sierot	-11.6071
▁objawy	-11.6072
▁licz	-11.6073
▁5.	-11.6073
▁wyrażał	-11.6073
▁wagon	-11.6074
▁zbawienie	-11.6074
▁powierzył	-11.6075
kręcił	-11.6075
▁komin	-11.6076
▁skromny	-11.6076
▁Ciągle	-11.6076
▁bitwę	-11.6076
▁wzruszeń	-11.6076
sunęli	-11.6076
wel	-11.6077
▁Kat	-11.6078
▁aniołów	-11.6078
▁napaści	-11.6078
ceni	-11.6079
▁bezustannie	-11.6079
▁zgon	-11.608
▁śpieszy	-11.608
▁Nastał	-11.6081
leg	-11.6081
▁plon	-11.6083
▁the	-11.6083
jdę	-11.6084
▁kilometrów	-11.6084
lit	-11.6087
rowi	-11.6087
▁utworzył	-11.6087
▁Fred	-11.6089
▁ponure	-11.609
klas	-11.6092
▁pobożny	-11.6092
jechać	-11.6092
▁reb	-11.6095
był	-11.6095
▁poruszając	-11.6095
▁modlitwa	-11.6095
▁zaczynała	-11.6096
▁opada	-11.6096
stwu	-11.6096
▁jęła	-11.6097
▁niski	-11.6097
▁hal	-11.6098
▁lice	-11.6099
▁zmęczona	-11.6099
▁najprzód	-11.61
▁pozoru	-11.61
prawy	-11.6101
plu	-11.6101
kali	-11.6102
▁kr	-11.6102
▁młyna	-11.6102
▁moralność	-11.6103
▁sierpnia	-11.6103
▁gnębi	-11.6105
▁Land	-11.6105
utki	-11.6106
▁śpią	-11.6106
▁pożera	-11.6108
zym	-11.6108
▁wieże	-11.6108
pani	-11.6109
raj	-11.6109
▁chwilkę	-11.611
ślę	-11.611
▁grając	-11.611
▁róży	-11.6111
▁zyski	-11.6112
fir	-11.6112
▁wzrost	-11.6113
szczo	-11.6114
iał	-11.6115
▁kie	-11.6115
▁bliz	-11.6116
▁uczą	-11.6118
▁przedzie	-11.6119
▁skraju	-11.6121
▁przybycie	-11.6121
▁jednę	-11.6122
▁rybak	-11.6122
▁osi	-11.6123
▁skutecznie	-11.6123
▁ściągnął	-11.6123
▁bajeczn	-11.6123
▁szczep	-11.6123
▁poszczególne	-11.6123
▁chwyciła	-11.6124
▁żelazną	-11.6124
▁zeszła	-11.6125
▁światy	-11.6126
▁odwiedził	-11.6127
▁wesel	-11.6127
Pi	-11.6127
robić	-11.6128
▁koniem	-11.6128
▁materia	-11.6129
▁doznaje	-11.613
▁błyskawica	-11.613
▁cap	-11.6131
▁mogliby	-11.6131
▁zamarł	-11.6133
tworzy	-11.6134
▁Obraz	-11.6135
lf	-11.6136
tkami	-11.6136
▁biec	-11.6137
▁opadł	-11.6139
▁wsunął	-11.6139
▁zabój	-11.6139
▁wyrzekła	-11.614
jczyk	-11.614
ere	-11.6142
▁jednem	-11.6143
▁bać	-11.6144
▁chlebem	-11.6145
▁dziewiątej	-11.6145
▁podwórza	-11.6145
▁Przyjdzie	-11.6145
▁słynny	-11.6145
▁węgiel	-11.6146
▁nieźle	-11.6146
▁pomagać	-11.6146
▁lekcje	-11.6146
▁Gordon	-11.6146
ab	-11.6146
sprawiedliw	-11.6146
ufa	-11.6147
▁wołają	-11.6147
▁Wraz	-11.6147
▁starsi	-11.6148
tku	-11.615
▁tańcu	-11.615
▁Otworzył	-11.6151
ér	-11.6151
▁Władek	-11.6151
▁wewnętrznej	-11.6151
▁spotkali	-11.6152
▁otwartymi	-11.6154
▁powiadasz	-11.6155
▁zbawi	-11.6156
hor	-11.6158
▁czujesz	-11.6159
▁cienkie	-11.616
▁zdecydował	-11.616
▁szedłem	-11.616
kuty	-11.6161
▁muchy	-11.6162
▁Dub	-11.6163
▁pisarzy	-11.6163
▁Lucyan	-11.6166
▁gardzi	-11.6167
▁Profesor	-11.6169
▁najlepszą	-11.6169
▁burmistrz	-11.6169
eczku	-11.6169
▁oburzenia	-11.6169
kiej	-11.6171
rósł	-11.6172
▁cierpiąc	-11.6173
tyl	-11.6174
▁lekarze	-11.6175
▁łamał	-11.6179
biorą	-11.618
tura	-11.6182
▁wady	-11.6182
polski	-11.6183
▁osobistych	-11.6184
pnął	-11.6184
▁starożytnych	-11.6186
▁wypadnie	-11.6188
▁postąpić	-11.6188
▁Filipa	-11.6189
▁przysiągł	-11.6189
bitą	-11.6191
▁Dlaczegóż	-11.6192
▁otrzymała	-11.6192
▁odnalazł	-11.6192
▁Kandyd	-11.6192
▁wzięto	-11.6192
tos	-11.6192
▁grozą	-11.6193
▁ścisnął	-11.6193
▁pastuch	-11.6193
▁znana	-11.6193
▁Spojrzała	-11.6195
kreślił	-11.6195
▁należała	-11.6195
▁żale	-11.6195
rodzeni	-11.6197
kazali	-11.6198
▁sięgnął	-11.6198
▁uścisku	-11.6199
▁dolinę	-11.62
▁Łukasz	-11.62
▁Koron	-11.6201
▁cham	-11.6202
▁uzyskał	-11.6202
▁zwycięża	-11.6202
▁ślubie	-11.6204
bon	-11.6204
dziesiąt	-11.6205
▁weseli	-11.6206
▁wzruszeniem	-11.6206
▁ogromnych	-11.6207
▁przypuścić	-11.6207
▁gorsza	-11.6207
▁namiestnik	-11.6209
▁wlazł	-11.6209
▁wykona	-11.621
▁dźwięku	-11.621
▁ukrywał	-11.6211
wskiego	-11.6212
▁wracają	-11.6212
▁przeniósł	-11.6212
▁gotuje	-11.6214
▁zabawę	-11.6215
▁monarchy	-11.6215
▁niezliczone	-11.6215
▁oczekiwaniu	-11.6215
▁otwartą	-11.6215
▁naśladować	-11.6215
▁gorączki	-11.6215
▁poważną	-11.6215
▁stwierdzić	-11.6216
tyki	-11.6218
▁drwi	-11.6218
▁godnie	-11.6219
▁psu	-11.622
▁srebro	-11.6221
cego	-11.6222
▁graj	-11.6222
▁siedzącego	-11.6222
rk	-11.6222
mawiał	-11.6226
▁zajmują	-11.6226
▁dumne	-11.6227
▁rozkazów	-11.623
▁wróciwszy	-11.6231
▁żyjący	-11.6234
▁złudzenie	-11.6238
▁ambicji	-11.6239
▁ogólnie	-11.6239
złoc	-11.6239
▁Cy	-11.6239
▁pozornie	-11.624
▁drażni	-11.624
▁zwykła	-11.6241
▁wybierać	-11.6241
▁darem	-11.6241
▁Tatarzy	-11.6241
pisać	-11.6242
▁odrzekłem	-11.6244
▁ostateczności	-11.6246
▁przypuszczał	-11.6246
▁szałas	-11.6246
▁reform	-11.6247
▁osady	-11.6248
▁sprawiło	-11.6249
tach	-11.6249
▁dzisiejszych	-11.6249
▁Szybko	-11.625
fr	-11.625
▁starszego	-11.625
▁wyrzeka	-11.6252
liwym	-11.6252
▁przywiązany	-11.6253
▁pt	-11.6254
puścić	-11.6257
▁metal	-11.6257
stry	-11.6258
▁ber	-11.6258
▁Wielkiej	-11.6261
▁bagnet	-11.6262
▁paradoks	-11.6262
▁powszechnej	-11.6263
cznej	-11.6263
▁ofiara	-11.6263
▁Wedle	-11.6263
▁usposobienia	-11.6263
▁Całą	-11.6264
▁Księgi	-11.6265
▁nienawidził	-11.6265
1>	-11.6265
▁rozważa	-11.6268
▁zawahał	-11.627
▁wymawia	-11.6272
▁dziennikarz	-11.6275
▁Wokulskiego	-11.6275
▁Czarne	-11.6276
▁otworem	-11.6277
▁przemysłu	-11.6277
▁grupa	-11.6277
▁Siedzi	-11.6277
żyte	-11.6277
▁of	-11.6278
▁słówka	-11.6281
▁określenie	-11.6281
▁popełni	-11.6282
▁oblał	-11.6283
▁Rafael	-11.6286
▁szczerość	-11.6286
▁niedołę	-11.6286
▁lodu	-11.6287
▁piórem	-11.6287
▁que	-11.6288
▁oświadczyła	-11.6289
▁skręcił	-11.6291
▁głębokich	-11.6293
rob	-11.6293
tyczne	-11.6295
▁sko	-11.6298
▁trafić	-11.6298
▁Rycerz	-11.6299
num	-11.6301
▁ogółu	-11.6301
▁ogólnego	-11.6302
▁trudność	-11.6302
▁kapelan	-11.6304
▁tańczy	-11.6304
▁zapisał	-11.6305
▁ogłasza	-11.6307
pyta	-11.6307
▁przyprowadził	-11.6308
▁poucza	-11.6309
▁rzędzie	-11.6309
▁jedenastej	-11.6309
▁Oboje	-11.6309
▁przewrócił	-11.631
▁pozory	-11.6311
▁chustką	-11.6311
▁wietrze	-11.6311
rna	-11.6311
▁zakończenie	-11.6311
▁stanąwszy	-11.6312
1	-11.6313
jest	-11.6313
▁ważnych	-11.6314
▁przykłady	-11.6315
▁strzelać	-11.6316
▁ruszać	-11.6317
▁kierownik	-11.6318
▁Neapolu	-11.6318
▁silnych	-11.6319
▁płacił	-11.6321
▁grubo	-11.6321
▁strop	-11.6322
▁zewnętrzne	-11.6324
▁pięściami	-11.6327
▁uczciwie	-11.6327
▁wstawał	-11.6329
▁odziany	-11.633
▁oskarża	-11.6331
▁aksamit	-11.6331
▁bezwzględnie	-11.6333
▁machinalnie	-11.6333
▁kąpieli	-11.6334
▁jakiejkolwiek	-11.6335
▁zniszczył	-11.6335
▁chórem	-11.6338
▁pręt	-11.6338
▁Stanisława	-11.6338
▁senne	-11.6338
▁pochwał	-11.6339
▁wzgórze	-11.6339
▁jakikolwiek	-11.6339
▁znajdujemy	-11.634
▁cywil	-11.634
▁zadawał	-11.634
gru	-11.634
▁lepsza	-11.6341
▁krzywd	-11.6342
▁fo	-11.6343
▁znalazły	-11.6345
▁Woła	-11.6348
▁stąpa	-11.6349
▁stawiać	-11.6349
▁żądzą	-11.6349
ńcy	-11.635
▁kn	-11.635
pierał	-11.6353
▁grzechem	-11.6353
cierając	-11.6353
▁progi	-11.6354
▁towarzyszyć	-11.6355
▁chorobą	-11.6357
▁przepowiedni	-11.6357
▁Ludmiła	-11.6357
▁Usłyszawszy	-11.6357
▁zdarzenie	-11.6357
▁świetny	-11.6357
▁wyjaśnia	-11.6359
▁Die	-11.636
▁kierować	-11.636
▁Skończył	-11.6361
śpiew	-11.6361
lenia	-11.6361
▁cośmy	-11.6361
▁kwiecie	-11.6362
jedno	-11.6364
▁rozważ	-11.6365
▁czer	-11.6366
▁uznania	-11.6368
▁Lew	-11.6368
rak	-11.6368
▁kopyt	-11.6369
ela	-11.637
▁Ludka	-11.6372
▁klep	-11.6372
cenie	-11.6373
▁upior	-11.6374
czyła	-11.6374
▁gorycz	-11.6375
▁wstąpić	-11.6375
▁uwolni	-11.6376
▁zdarzyć	-11.6377
▁Myli	-11.6378
▁wolnego	-11.6379
▁Chętnie	-11.638
▁spojrzeń	-11.638
▁cnocie	-11.638
▁chłopię	-11.638
▁obejmuje	-11.638
▁pożyteczne	-11.638
▁leżący	-11.6381
▁powstania	-11.6381
▁kostium	-11.6381
▁niełatwo	-11.6381
▁bogaci	-11.6381
▁wszechświat	-11.6381
owny	-11.6381
▁ciemnego	-11.6381
▁natchnienia	-11.6381
▁zdrowi	-11.6382
▁ścina	-11.6383
▁kubek	-11.6383
alnej	-11.6386
▁Kamil	-11.6386
▁dziwnych	-11.6386
▁Stro	-11.6387
▁Tysiąc	-11.6387
▁podobała	-11.6388
her	-11.6389
sso	-11.639
▁bied	-11.6391
▁mit	-11.6392
▁ogarniał	-11.6393
onu	-11.6394
▁dzid	-11.6394
▁stanem	-11.6396
▁wyżyn	-11.6397
kazywali	-11.6399
▁wielbi	-11.6399
▁uroczysty	-11.64
▁mister	-11.6401
ciągnąć	-11.6403
▁uważasz	-11.6403
▁unikał	-11.6403
▁rzemiosła	-11.6404
▁przymiot	-11.6404
▁słuszny	-11.6404
▁Przybyszewski	-11.6405
▁warstw	-11.6405
▁zamiarów	-11.6405
▁Cyrano	-11.6405
▁testament	-11.6405
▁przybyć	-11.6406
czych	-11.6406
▁zaludni	-11.6407
▁naraża	-11.6408
▁zagląda	-11.6408
▁uczt	-11.6408
▁osioł	-11.6409
▁cyn	-11.6409
▁zachwytu	-11.6409
▁gładko	-11.6411
nku	-11.6411
▁burzliw	-11.6412
▁dostawał	-11.6412
▁słucham	-11.6412
▁Roland	-11.6415
▁zostawiła	-11.6417
▁tryb	-11.6419
▁chłodu	-11.642
▁poważnym	-11.642
▁pnie	-11.6424
▁pasy	-11.6425
▁klasie	-11.6425
▁ćwicz	-11.6425
▁jezior	-11.6425
▁bankier	-11.6426
▁kawałka	-11.6426
▁łowi	-11.6426
▁uciekając	-11.6427
▁niespokojne	-11.6428
▁utworu	-11.6428
▁szczególną	-11.6428
▁wysiłek	-11.6428
▁dysput	-11.6428
▁załogi	-11.6428
▁przytomny	-11.6429
▁poetą	-11.643
▁wojennych	-11.643
▁wykonywa	-11.643
▁parą	-11.643
▁firm	-11.6431
krę	-11.6431
ciąg	-11.6432
▁zawarł	-11.6433
▁padały	-11.6433
▁kantor	-11.6435
▁margrabiego	-11.6436
▁skraj	-11.6438
▁wewnętrzny	-11.6438
▁barki	-11.6439
krzyk	-11.644
▁połączyć	-11.644
▁marzyć	-11.644
▁pnia	-11.6442
▁słodkim	-11.6443
▁komedia	-11.6447
▁trawę	-11.6448
fil	-11.6448
▁blado	-11.6448
▁Prędzej	-11.6452
▁Ariaman	-11.6452
▁Dobranoc	-11.6452
▁przystojny	-11.6452
▁koledzy	-11.6452
▁szczerym	-11.6452
▁wyjście	-11.6453
▁pustą	-11.6453
▁zamęt	-11.6454
▁zdołam	-11.6454
▁wpaść	-11.6454
▁szalona	-11.6455
patrywać	-11.6455
▁okrętów	-11.6456
ącą	-11.6456
▁motyw	-11.6456
▁kupę	-11.6456
▁powieda	-11.6458
przątn	-11.6461
▁Został	-11.6461
▁nocne	-11.6461
▁miedzi	-11.6462
▁krzywda	-11.6465
ień	-11.6466
▁obrał	-11.6468
▁znacie	-11.6469
▁zdradę	-11.647
▁podchodzi	-11.647
▁prostych	-11.6471
▁bogatego	-11.6471
▁pokazywać	-11.6472
▁kłamie	-11.6472
▁wąsa	-11.6473
▁zmęczenia	-11.6474
▁klacz	-11.6475
▁przypuszczam	-11.6475
▁Jima	-11.6475
▁kobiecej	-11.6475
▁niechybnie	-11.6476
▁wyniosły	-11.6476
▁sprzeczne	-11.6476
▁straszliwą	-11.6476
▁rozpaczliwie	-11.6477
▁lecąc	-11.6477
▁Ol	-11.6477
▁gospodarzy	-11.6479
▁przystosowa	-11.6479
▁olbrzymiej	-11.648
▁Ned	-11.6481
▁córek	-11.6481
stawione	-11.6482
czkami	-11.6482
▁domysł	-11.6483
zel	-11.6483
▁obłok	-11.6483
płaci	-11.6484
▁wykazać	-11.6484
▁zasada	-11.6488
▁spływa	-11.6489
▁Chr	-11.6489
▁Maj	-11.6491
▁ścianami	-11.6491
▁czuwał	-11.6492
biegał	-11.6494
▁lepszej	-11.6495
▁dziwaczne	-11.6495
▁wrogi	-11.6497
▁kufer	-11.6497
▁śmiem	-11.6497
▁trudy	-11.6499
▁trąby	-11.6499
▁gościem	-11.65
▁urzędnika	-11.65
▁komplement	-11.65
▁rzekomo	-11.65
▁pokolenie	-11.65
▁naokół	-11.65
▁leżącego	-11.65
▁złapać	-11.65
▁wydając	-11.6501
▁wyszuka	-11.6501
▁zgodę	-11.6501
▁długimi	-11.6502
gania	-11.6503
kus	-11.6503
▁przewagę	-11.6504
▁składać	-11.6505
▁chodzili	-11.6505
tam	-11.6505
▁strażnik	-11.6506
bądź	-11.6506
▁drabin	-11.6507
▁dzwonka	-11.6509
▁posłowie	-11.6509
walony	-11.6509
▁zasadę	-11.651
▁Platona	-11.651
jszej	-11.6512
▁wypełni	-11.6516
▁dzisiejszej	-11.6517
▁zabrali	-11.6519
▁domyślać	-11.652
▁Anty	-11.652
▁ano	-11.652
▁lokal	-11.6522
▁najs	-11.6522
▁guz	-11.6524
▁przeraźliwie	-11.6524
▁przewidzieć	-11.6524
▁cichutko	-11.6525
▁rozbudz	-11.6525
▁polecenie	-11.6525
▁regul	-11.6525
▁Również	-11.6527
▁powstrzymał	-11.6527
▁palić	-11.6528
▁Słyszysz	-11.6529
▁Julia	-11.6529
tuję	-11.6531
▁nadać	-11.6532
▁Oli	-11.6534
dos	-11.6534
▁zbiegł	-11.6536
▁straciłem	-11.6536
▁wykonał	-11.6538
▁kołysząc	-11.6539
lnego	-11.654
▁materiału	-11.654
▁skarżył	-11.6541
czko	-11.6541
▁pojechać	-11.6542
trącić	-11.6542
▁odmówi	-11.6543
piąc	-11.6544
▁murze	-11.6547
▁gwiazdami	-11.6547
▁oddychać	-11.6548
▁faraona	-11.6548
▁nieprzytomny	-11.6548
▁życzliwy	-11.6548
▁opanować	-11.6548
▁niejednokrotnie	-11.6548
▁podłogi	-11.6548
▁woły	-11.6548
▁stracone	-11.6549
▁Wybacz	-11.6549
życz	-11.655
▁walk	-11.6551
lus	-11.6551
▁wiecznego	-11.6553
▁pracując	-11.6555
▁zapewniał	-11.6555
▁zręczny	-11.6556
szarp	-11.6557
▁strzelał	-11.6557
▁porzucić	-11.6558
▁markiz	-11.6558
▁Robert	-11.656
▁bacz	-11.656
padłszy	-11.656
▁znaczny	-11.656
▁bomb	-11.6562
▁okrzykiem	-11.6563
▁wargami	-11.6565
▁zimnej	-11.6567
▁próżny	-11.6567
dan	-11.6568
▁cierni	-11.6569
▁zgryzoty	-11.657
▁Patrzał	-11.657
▁samymi	-11.6571
▁nosie	-11.6572
▁zakrzyknął	-11.6573
▁mechanizm	-11.6573
▁utwory	-11.6573
▁skrzydło	-11.6573
▁kwietnia	-11.6573
▁ogrody	-11.6573
▁ustał	-11.6573
▁Fredry	-11.6574
▁żeglarz	-11.6574
▁wymienia	-11.6574
▁order	-11.6574
▁wydatki	-11.6574
▁rubin	-11.6576
▁profil	-11.6576
zyd	-11.6576
▁szerokości	-11.6578
gami	-11.6579
▁ładną	-11.6581
▁Pij	-11.6581
▁wybierał	-11.6582
▁wypraw	-11.6584
▁źli	-11.6585
▁zabawne	-11.6585
prowadzenie	-11.6589
▁jaskraw	-11.659
▁posiadania	-11.659
▁urody	-11.659
▁postrzegł	-11.6591
▁rozstrzyga	-11.6591
▁cezar	-11.6591
▁ukłonem	-11.6592
▁mieszczan	-11.6592
▁wyście	-11.6593
▁potrząsnął	-11.6593
▁powiedziałam	-11.6594
▁wykrzywi	-11.6595
▁ciekaw	-11.6596
▁głosi	-11.6597
▁bezpieczne	-11.6597
▁bluz	-11.6597
▁Jedną	-11.6597
▁6.	-11.6598
▁starsza	-11.66
▁słowik	-11.66
▁czyś	-11.6601
pewni	-11.6601
▁filozofa	-11.6603
▁ogromnej	-11.6603
▁wyższym	-11.6603
▁opowiedziała	-11.6603
▁śmieci	-11.6606
▁Alan	-11.6606
▁nić	-11.6609
▁tony	-11.6615
▁marzenie	-11.6616
▁wypadało	-11.6616
ngi	-11.6617
▁stroi	-11.6617
▁kult	-11.6618
▁czerwieni	-11.6618
▁Gru	-11.6619
▁koza	-11.662
szony	-11.6621
▁Lousteau	-11.6621
▁częste	-11.6621
[...]
